{
  "version": "1.0",
  "truncation": null,
  "padding": null,
  "added_tokens": [
    {
      "id": 0,
      "content": "<pad>",
      "single_word": false,
      "lstrip": false,
      "rstrip": false,
      "normalized": false,
      "special": true
    },
    {
      "id": 1,
      "content": "</s>",
      "single_word": false,
      "lstrip": false,
      "rstrip": false,
      "normalized": false,
      "special": true
    },
    {
      "id": 2,
      "content": "<unk>",
      "single_word": false,
      "lstrip": false,
      "rstrip": false,
      "normalized": false,
      "special": true
    }
  ],
  "normalizer": {
    "type": "Sequence",
    "normalizers": [
      {
        "type": "Nmt"
      },
      {
        "type": "NFKC"
      },
      {
        "type": "Replace",
        "pattern": {
          "Regex": " {2,}"
        },
        "content": " "
      },
      {
        "type": "Lowercase"
      }
    ]
  },
  "pre_tokenizer": {
    "type": "Sequence",
    "pretokenizers": [
      {
        "type": "Metaspace",
        "replacement": "▁",
        "add_prefix_space": true
      },
      {
        "type": "Digits",
        "individual_digits": true
      },
      {
        "type": "Punctuation",
        "behavior": "Isolated"
      }
    ]
  },
  "post_processor": {
    "type": "TemplateProcessing",
    "single": [
      {
        "Sequence": {
          "id": "A",
          "type_id": 0
        }
      },
      {
        "SpecialToken": {
          "id": "</s>",
          "type_id": 0
        }
      }
    ],
    "pair": [
      {
        "Sequence": {
          "id": "A",
          "type_id": 0
        }
      },
      {
        "Sequence": {
          "id": "B",
          "type_id": 1
        }
      }
    ],
    "special_tokens": {
      "</s>": {
        "id": "</s>",
        "ids": [
          1
        ],
        "tokens": [
          "</s>"
        ]
      }
    }
  },
  "decoder": {
    "type": "Metaspace",
    "replacement": "▁",
    "add_prefix_space": true
  },
  "model": {
    "type": "Unigram",
    "unk_id": 2,
    "vocab": [
      [
        "<pad>",
        0.0
      ],
      [
        "</s>",
        0.0
      ],
      [
        "<unk>",
        0.0
      ],
      [
        "▁",
        -2.3728078050776453
      ],
      [
        ".",
        -3.004375554280779
      ],
      [
        "s",
        -3.272172815608295
      ],
      [
        ",",
        -3.41951214573297
      ],
      [
        "▁the",
        -3.602211642115602
      ],
      [
        "a",
        -3.626926764893067
      ],
      [
        "i",
        -3.7513428427983246
      ],
      [
        "'",
        -3.9669308574822737
      ],
      [
        "t",
        -3.973767247172366
      ],
      [
        "e",
        -4.19111567521812
      ],
      [
        "▁to",
        -4.3355639729294815
      ],
      [
        "▁and",
        -4.350657201643667
      ],
      [
        "▁of",
        -4.432606343115792
      ],
      [
        "▁you",
        -4.446213078206357
      ],
      [
        "d",
        -4.487781439371782
      ],
      [
        "▁in",
        -4.585126638020206
      ],
      [
        "?",
        -4.727102914903673
      ],
      [
        "-",
        -4.732834543932629
      ],
      [
        "▁it",
        -4.733955326266127
      ],
      [
        "o",
        -4.910560904566312
      ],
      [
        "▁that",
        -4.9163683190544525
      ],
      [
        "▁is",
        -5.044024696427243
      ],
      [
        "n",
        -5.056280521624204
      ],
      [
        "\"",
        -5.149864524177769
      ],
      [
        "m",
        -5.152829487784684
      ],
      [
        "▁was",
        -5.254736463446735
      ],
      [
        "l",
        -5.29151116370217
      ],
      [
        "h",
        -5.298015377181057
      ],
      [
        "▁he",
        -5.305082022997841
      ],
      [
        "1",
        -5.312317274598611
      ],
      [
        "y",
        -5.317548816873861
      ],
      [
        "ing",
        -5.354166908793212
      ],
      [
        "r",
        -5.387639466457582
      ],
      [
        "0",
        -5.443299749255107
      ],
      [
        "▁for",
        -5.461580200545482
      ],
      [
        "re",
        -5.515154101810182
      ],
      [
        "!",
        -5.552805642918564
      ],
      [
        "▁on",
        -5.567663119892517
      ],
      [
        "▁we",
        -5.594659654946479
      ],
      [
        "er",
        -5.616976797571882
      ],
      [
        "▁this",
        -5.715797450559702
      ],
      [
        "▁be",
        -5.721201328324774
      ],
      [
        "2",
        -5.734799604292654
      ],
      [
        "▁with",
        -5.747556399286813
      ],
      [
        "▁what",
        -5.7526844314577925
      ],
      [
        "▁as",
        -5.847817098858368
      ],
      [
        "▁have",
        -5.872765584700861
      ],
      [
        "▁me",
        -5.883561800204719
      ],
      [
        "▁are",
        -5.88897861676061
      ],
      [
        "c",
        -5.8924904930693245
      ],
      [
        "9",
        -5.93940835089248
      ],
      [
        "▁not",
        -5.967481199130955
      ],
      [
        "▁do",
        -5.977095848073478
      ],
      [
        "▁so",
        -5.980744631240862
      ],
      [
        "f",
        -5.987860428082822
      ],
      [
        "▁they",
        -6.011836230150669
      ],
      [
        "▁but",
        -6.0152853422166785
      ],
      [
        "u",
        -6.028918837271547
      ],
      [
        "g",
        -6.041922553653624
      ],
      [
        "p",
        -6.064424319721066
      ],
      [
        "▁no",
        -6.100805232403786
      ],
      [
        "▁she",
        -6.1221356578561394
      ],
      [
        "▁his",
        -6.126994338574496
      ],
      [
        "b",
        -6.141685861045673
      ],
      [
        "▁can",
        -6.148504830859967
      ],
      [
        "ly",
        -6.149462294191084
      ],
      [
        "▁all",
        -6.163011973013056
      ],
      [
        "in",
        -6.183517203615967
      ],
      [
        "▁there",
        -6.184390475780253
      ],
      [
        "k",
        -6.205833554889924
      ],
      [
        "▁my",
        -6.216736528281842
      ],
      [
        "ll",
        -6.241058086775839
      ],
      [
        "ve",
        -6.251050863808109
      ],
      [
        "▁one",
        -6.276916772170635
      ],
      [
        "▁your",
        -6.281876041455689
      ],
      [
        "▁by",
        -6.28747084867509
      ],
      [
        "▁from",
        -6.287601332962231
      ],
      [
        "▁know",
        -6.288579191499339
      ],
      [
        ")",
        -6.291754149211711
      ],
      [
        "(",
        -6.298772913001606
      ],
      [
        "▁her",
        -6.328395976658555
      ],
      [
        "on",
        -6.351384842185482
      ],
      [
        "▁don",
        -6.3857515730938506
      ],
      [
        "▁like",
        -6.4015161981245345
      ],
      [
        "▁an",
        -6.417108292009363
      ],
      [
        "▁had",
        -6.417381611343298
      ],
      [
        "▁if",
        -6.4704021541969166
      ],
      [
        "▁just",
        -6.503346632650592
      ],
      [
        "▁go",
        -6.503888232093642
      ],
      [
        "▁out",
        -6.5077469540887485
      ],
      [
        "▁up",
        -6.521185199695861
      ],
      [
        "▁or",
        -6.547742255676278
      ],
      [
        "8",
        -6.550187309384624
      ],
      [
        "▁about",
        -6.553987343875894
      ],
      [
        "▁him",
        -6.576125282652232
      ],
      [
        "3",
        -6.5774212648413855
      ],
      [
        "5",
        -6.588357042167129
      ],
      [
        "▁were",
        -6.5893748785711335
      ],
      [
        "▁get",
        -6.5923673737410855
      ],
      [
        "an",
        -6.598082898649999
      ],
      [
        "▁here",
        -6.626283881776022
      ],
      [
        "w",
        -6.675839428696733
      ],
      [
        "▁who",
        -6.676777032461704
      ],
      [
        "4",
        -6.679204466058417
      ],
      [
        "▁when",
        -6.69091718711903
      ],
      [
        "▁right",
        -6.696398935646654
      ],
      [
        ":",
        -6.708715790309963
      ],
      [
        "▁now",
        -6.712284181094562
      ],
      [
        ";",
        -6.719347709676697
      ],
      [
        "▁well",
        -6.720815387738874
      ],
      [
        "7",
        -6.721537373750497
      ],
      [
        "6",
        -6.731327645281832
      ],
      [
        "v",
        -6.748103575996025
      ],
      [
        "▁will",
        -6.755662583879557
      ],
      [
        "▁yeah",
        -6.793358549913327
      ],
      [
        "▁see",
        -6.804672161755223
      ],
      [
        "▁would",
        -6.855132340805897
      ],
      [
        "▁has",
        -6.856916483522166
      ],
      [
        "▁think",
        -6.878771805276909
      ],
      [
        "▁which",
        -6.884642602951553
      ],
      [
        "▁how",
        -6.888189001052963
      ],
      [
        "▁come",
        -6.928148759781882
      ],
      [
        "▁some",
        -6.938519902627274
      ],
      [
        "▁time",
        -6.943621017556428
      ],
      [
        "=",
        -6.951268813767232
      ],
      [
        "▁did",
        -6.951803297207086
      ],
      [
        "▁got",
        -6.984610079676745
      ],
      [
        "or",
        -6.98741376400878
      ],
      [
        "▁been",
        -6.994699551016144
      ],
      [
        "▁said",
        -6.999134812908887
      ],
      [
        "▁want",
        -7.00379334514108
      ],
      [
        "▁them",
        -7.008517407231773
      ],
      [
        "▁good",
        -7.026070855012161
      ],
      [
        "▁where",
        -7.043006955455597
      ],
      [
        "▁then",
        -7.054656322728443
      ],
      [
        "▁more",
        -7.071521590638135
      ],
      [
        "▁their",
        -7.075601463118733
      ],
      [
        "`",
        -7.0919887723626065
      ],
      [
        "▁people",
        -7.111851556264673
      ],
      [
        "▁over",
        -7.11896646699668
      ],
      [
        "▁going",
        -7.124785180724922
      ],
      [
        "▁two",
        -7.137406770966882
      ],
      [
        "▁very",
        -7.151910795746565
      ],
      [
        "▁back",
        -7.164623730614393
      ],
      [
        "▁let",
        -7.178696059778218
      ],
      [
        "▁first",
        -7.209343253771307
      ],
      [
        "▁could",
        -7.211794329143443
      ],
      [
        "▁other",
        -7.237264130911937
      ],
      [
        "▁man",
        -7.266402181688488
      ],
      [
        "ation",
        -7.270511832112032
      ],
      [
        "▁yes",
        -7.291615656810213
      ],
      [
        "▁look",
        -7.293696071742383
      ],
      [
        "▁because",
        -7.29506798537634
      ],
      [
        "▁say",
        -7.295734628735301
      ],
      [
        "▁down",
        -7.302135733535872
      ],
      [
        "▁into",
        -7.310299162825201
      ],
      [
        "▁little",
        -7.320944575705616
      ],
      [
        "▁us",
        -7.325181539037663
      ],
      [
        "▁okay",
        -7.333977330491962
      ],
      [
        "▁take",
        -7.338791357150386
      ],
      [
        "▁why",
        -7.34492369966711
      ],
      [
        "▁way",
        -7.347789091368602
      ],
      [
        "▁only",
        -7.354324669740494
      ],
      [
        "▁our",
        -7.357825151616115
      ],
      [
        "▁after",
        -7.380566316275106
      ],
      [
        "x",
        -7.38449339597482
      ],
      [
        "▁also",
        -7.38585767683233
      ],
      [
        "▁new",
        -7.390073284262316
      ],
      [
        "]",
        -7.406634977405931
      ],
      [
        "[",
        -7.407378668845453
      ],
      [
        "ch",
        -7.409455738471413
      ],
      [
        "▁make",
        -7.424408326323245
      ],
      [
        "▁these",
        -7.442902468609994
      ],
      [
        "|",
        -7.459871106761353
      ],
      [
        "▁really",
        -7.475540192351765
      ],
      [
        "z",
        -7.4894251734076995
      ],
      [
        "▁any",
        -7.5287753180519505
      ],
      [
        "the",
        -7.546621775896497
      ],
      [
        "▁than",
        -7.5505967376082435
      ],
      [
        "us",
        -7.561762719521219
      ],
      [
        "▁tell",
        -7.56450460776367
      ],
      [
        "▁am",
        -7.568546240872978
      ],
      [
        "to",
        -7.576331833914084
      ],
      [
        "▁something",
        -7.59173416827848
      ],
      [
        "▁much",
        -7.625805563176513
      ],
      [
        "▁put",
        -7.642220118642424
      ],
      [
        "ted",
        -7.651507687209794
      ],
      [
        "able",
        -7.6540755325396255
      ],
      [
        "▁need",
        -7.663870498656658
      ],
      [
        "▁made",
        -7.666017617629357
      ],
      [
        "▁before",
        -7.668175368920879
      ],
      [
        "▁gonna",
        -7.66865954260987
      ],
      [
        "▁never",
        -7.672073849145573
      ],
      [
        "▁should",
        -7.67825288399823
      ],
      [
        "▁mean",
        -7.689325508020826
      ],
      [
        "▁too",
        -7.703810809375762
      ],
      [
        "▁off",
        -7.704572333215056
      ],
      [
        "▁work",
        -7.709876031960096
      ],
      [
        "▁give",
        -7.719548519853337
      ],
      [
        "▁day",
        -7.722398991437764
      ],
      [
        "▁may",
        -7.723173657585614
      ],
      [
        "▁even",
        -7.735642181644257
      ],
      [
        "▁many",
        -7.7520580824295156
      ],
      [
        "▁didn",
        -7.75585022830589
      ],
      [
        "man",
        -7.775400118297679
      ],
      [
        "ur",
        -7.775632141955485
      ],
      [
        "▁three",
        -7.779552933509839
      ],
      [
        "▁car",
        -7.781724702226077
      ],
      [
        "▁uh",
        -7.788876210365393
      ],
      [
        "▁life",
        -7.789487334122299
      ],
      [
        "▁again",
        -7.7947579156892655
      ],
      [
        "ent",
        -7.795481177643943
      ],
      [
        "▁long",
        -7.805271075199432
      ],
      [
        "ment",
        -7.819824745953149
      ],
      [
        "▁those",
        -7.821435905896608
      ],
      [
        "“",
        -7.829315771753553
      ],
      [
        "j",
        -7.830213026032354
      ],
      [
        "▁home",
        -7.83420353800482
      ],
      [
        "▁years",
        -7.836578947055585
      ],
      [
        "▁old",
        -7.844497629495706
      ],
      [
        "▁world",
        -7.846819069255801
      ],
      [
        "”",
        -7.85199121193406
      ],
      [
        "▁love",
        -7.853968760516146
      ],
      [
        "▁thing",
        -7.855328177342976
      ],
      [
        "▁great",
        -7.856977407405035
      ],
      [
        "▁co",
        -7.858548335195998
      ],
      [
        "▁most",
        -7.863662088350079
      ],
      [
        "▁still",
        -7.873406525384391
      ],
      [
        "ate",
        -7.880520176019889
      ],
      [
        "um",
        -7.885723233165049
      ],
      [
        "▁name",
        -7.885835898252793
      ],
      [
        "▁through",
        -7.90468795671014
      ],
      [
        "▁thought",
        -7.911083896324362
      ],
      [
        "▁last",
        -7.914064625996376
      ],
      [
        "▁must",
        -7.918418401290159
      ],
      [
        "▁find",
        -7.920407424545811
      ],
      [
        "▁part",
        -7.920954644703498
      ],
      [
        "age",
        -7.922044287864031
      ],
      [
        "▁un",
        -7.927994637650613
      ],
      [
        "▁things",
        -7.932042586797468
      ],
      [
        "▁away",
        -7.936852392722191
      ],
      [
        "▁help",
        -7.938012732130838
      ],
      [
        "_",
        -7.958907530527188
      ],
      [
        "▁came",
        -7.964313516594844
      ],
      [
        "▁used",
        -7.966537979211516
      ],
      [
        "ity",
        -7.976370628169613
      ],
      [
        "▁ma",
        -7.9763756798651535
      ],
      [
        "▁place",
        -7.983000734794997
      ],
      [
        "▁house",
        -7.984385895011018
      ],
      [
        "▁won",
        -7.998161659553599
      ],
      [
        "▁doing",
        -8.008237411116104
      ],
      [
        "me",
        -8.009345000993312
      ],
      [
        "ies",
        -8.011572253360958
      ],
      [
        "▁went",
        -8.011768594704781
      ],
      [
        "▁being",
        -8.013292793150887
      ],
      [
        "’",
        -8.02113110455399
      ],
      [
        "▁con",
        -8.029379734729106
      ],
      [
        "▁does",
        -8.03395780761441
      ],
      [
        "▁such",
        -8.03728359701763
      ],
      [
        "▁ha",
        -8.04456194589422
      ],
      [
        "▁mr",
        -8.053853487313472
      ],
      [
        "▁same",
        -8.056299688492945
      ],
      [
        "▁called",
        -8.0589108172646
      ],
      [
        "▁under",
        -8.062399832121013
      ],
      [
        "▁night",
        -8.07181900037917
      ],
      [
        "and",
        -8.073880781228933
      ],
      [
        "▁kind",
        -8.076262520748738
      ],
      [
        "▁found",
        -8.077207883944235
      ],
      [
        "▁lot",
        -8.082870182412979
      ],
      [
        "▁sure",
        -8.084767080828586
      ],
      [
        "▁another",
        -8.08824656916992
      ],
      [
        "▁please",
        -8.088348645979133
      ],
      [
        "▁la",
        -8.094421031820177
      ],
      [
        "▁school",
        -8.09479761834484
      ],
      [
        "▁ba",
        -8.102686658263789
      ],
      [
        "▁♪",
        -8.114004980361251
      ],
      [
        "–",
        -8.114917754106555
      ],
      [
        "he",
        -8.116938163923471
      ],
      [
        "▁use",
        -8.123649809587558
      ],
      [
        "▁erm",
        -8.12526677102711
      ],
      [
        "▁hey",
        -8.127827200416595
      ],
      [
        "amp",
        -8.131140523104467
      ],
      [
        "▁end",
        -8.133750089748549
      ],
      [
        "▁thank",
        -8.140048283396242
      ],
      [
        "▁show",
        -8.145240488281768
      ],
      [
        "tic",
        -8.145948063277082
      ],
      [
        "tion",
        -8.146049277448828
      ],
      [
        "▁around",
        -8.150614736065688
      ],
      [
        "▁di",
        -8.155118389069921
      ],
      [
        "▁god",
        -8.160381225782995
      ],
      [
        "▁call",
        -8.165308676941715
      ],
      [
        "▁head",
        -8.167791496877275
      ],
      [
        "▁own",
        -8.170557863268787
      ],
      [
        "▁al",
        -8.17095782283446
      ],
      [
        "▁big",
        -8.171897520440018
      ],
      [
        "▁pro",
        -8.174517381094324
      ],
      [
        "▁every",
        -8.17478535205564
      ],
      [
        "son",
        -8.175461877137856
      ],
      [
        "▁might",
        -8.176157459641729
      ],
      [
        "che",
        -8.177074419871891
      ],
      [
        "▁mar",
        -8.185825853000928
      ],
      [
        "▁city",
        -8.190941099244968
      ],
      [
        "▁anything",
        -8.194961853586463
      ],
      [
        "ous",
        -8.195412700820011
      ],
      [
        "▁always",
        -8.19583046445307
      ],
      [
        "▁nothing",
        -8.209797393237997
      ],
      [
        "▁while",
        -8.21114058092868
      ],
      [
        "▁dis",
        -8.211711184944837
      ],
      [
        "▁year",
        -8.213140079051577
      ],
      [
        "▁better",
        -8.216797111110056
      ],
      [
        "▁keep",
        -8.22053415125973
      ],
      [
        "▁war",
        -8.221037494681735
      ],
      [
        "▁second",
        -8.22708041806205
      ],
      [
        "▁left",
        -8.231455437307979
      ],
      [
        "▁number",
        -8.232010965122189
      ],
      [
        "we",
        -8.238461439059394
      ],
      [
        "be",
        -8.24038888397413
      ],
      [
        "ary",
        -8.252808878941103
      ],
      [
        "▁bar",
        -8.258903609309348
      ],
      [
        "▁between",
        -8.264739568616251
      ],
      [
        "▁sorry",
        -8.267622692447262
      ],
      [
        "▁talk",
        -8.27022002905821
      ],
      [
        "▁pre",
        -8.282277707051447
      ],
      [
        "land",
        -8.303190418673205
      ],
      [
        "▁father",
        -8.304042909378678
      ],
      [
        "▁state",
        -8.308147002669704
      ],
      [
        "up",
        -8.309589012894715
      ],
      [
        "▁ever",
        -8.311846731836779
      ],
      [
        "ance",
        -8.313356139528922
      ],
      [
        "▁water",
        -8.313473288894865
      ],
      [
        "▁told",
        -8.316686721548281
      ],
      [
        "▁money",
        -8.317814004571877
      ],
      [
        "ated",
        -8.32003301737161
      ],
      [
        "▁four",
        -8.323722311051602
      ],
      [
        "▁next",
        -8.32558533073215
      ],
      [
        "▁ca",
        -8.327036682184877
      ],
      [
        "▁leave",
        -8.330910596096649
      ],
      [
        "ness",
        -8.333852084856163
      ],
      [
        "▁both",
        -8.33401549636123
      ],
      [
        "▁po",
        -8.339181749045625
      ],
      [
        "&",
        -8.344105764053873
      ],
      [
        "▁hand",
        -8.344402594491132
      ],
      [
        "▁different",
        -8.345580842933458
      ],
      [
        "▁best",
        -8.345960492208752
      ],
      [
        "▁mother",
        -8.346620744549709
      ],
      [
        "▁course",
        -8.353739086309055
      ],
      [
        "▁vi",
        -8.35520080575448
      ],
      [
        "▁each",
        -8.356063766028424
      ],
      [
        "▁until",
        -8.356624144735417
      ],
      [
        "▁done",
        -8.358347970417839
      ],
      [
        "▁sir",
        -8.374301479131816
      ],
      [
        "▁since",
        -8.37485842340334
      ],
      [
        "▁known",
        -8.3807948624532
      ],
      [
        "▁bit",
        -8.38287484535785
      ],
      [
        "▁american",
        -8.383307185908784
      ],
      [
        "▁play",
        -8.386814726222292
      ],
      [
        "▁later",
        -8.388166461925834
      ],
      [
        "▁high",
        -8.389405410026706
      ],
      [
        "led",
        -8.390033229954431
      ],
      [
        "▁stop",
        -8.391359087954925
      ],
      [
        "▁mm",
        -8.392137880297335
      ],
      [
        "▁during",
        -8.394094636813914
      ],
      [
        "▁united",
        -8.394721031218756
      ],
      [
        "▁feel",
        -8.402438726502037
      ],
      [
        "go",
        -8.404971376209211
      ],
      [
        "▁men",
        -8.418931368878363
      ],
      [
        "▁hi",
        -8.42837537816482
      ],
      [
        "▁ar",
        -8.429901986120168
      ],
      [
        "▁actually",
        -8.431441922860719
      ],
      [
        "▁le",
        -8.433036283772188
      ],
      [
        "▁everything",
        -8.434399039871007
      ],
      [
        "▁maybe",
        -8.436605490786935
      ],
      [
        "▁once",
        -8.44007011944787
      ],
      [
        "▁took",
        -8.442993014459484
      ],
      [
        "▁team",
        -8.448977068226606
      ],
      [
        "▁doesn",
        -8.452793842682388
      ],
      [
        "▁family",
        -8.457161611441029
      ],
      [
        "▁saw",
        -8.463173662285906
      ],
      [
        "▁states",
        -8.464240641125256
      ],
      [
        "▁girl",
        -8.466208188202009
      ],
      [
        "▁five",
        -8.469032397490215
      ],
      [
        "ling",
        -8.47591632644314
      ],
      [
        "▁far",
        -8.477364151228803
      ],
      [
        "▁wait",
        -8.477950270365465
      ],
      [
        "▁live",
        -8.479895100255971
      ],
      [
        "▁face",
        -8.480159569819705
      ],
      [
        "▁enough",
        -8.486661291522662
      ],
      [
        "▁young",
        -8.495072427402262
      ],
      [
        "▁without",
        -8.498309133378955
      ],
      [
        "▁ja",
        -8.509490639868503
      ],
      [
        "▁set",
        -8.511335051422419
      ],
      [
        "per",
        -8.511814895909662
      ],
      [
        "▁hear",
        -8.512878193176597
      ],
      [
        "ble",
        -8.515735757742611
      ],
      [
        "ric",
        -8.518804954887296
      ],
      [
        "▁nice",
        -8.523034104920573
      ],
      [
        "▁today",
        -8.525193137701645
      ],
      [
        "ster",
        -8.525234639175403
      ],
      [
        "▁point",
        -8.525747007507773
      ],
      [
        "▁against",
        -8.5298839785105
      ],
      [
        "ca",
        -8.53064027198956
      ],
      [
        "lin",
        -8.530892628622555
      ],
      [
        "▁ex",
        -8.531616179166246
      ],
      [
        "▁light",
        -8.531707711793342
      ],
      [
        "▁boy",
        -8.5325167448182
      ],
      [
        "▁bad",
        -8.533603826948333
      ],
      [
        "▁pa",
        -8.533729621063662
      ],
      [
        "▁side",
        -8.533802874937084
      ],
      [
        "▁idea",
        -8.53445855152973
      ],
      [
        "▁together",
        -8.539389109302752
      ],
      [
        "ng",
        -8.541884847190703
      ],
      [
        "▁mind",
        -8.542948602085838
      ],
      [
        "▁pe",
        -8.543840844661222
      ],
      [
        "ck",
        -8.547362002839392
      ],
      [
        "▁else",
        -8.548980807981481
      ],
      [
        "▁believe",
        -8.549516614438653
      ],
      [
        "▁start",
        -8.554131546466134
      ],
      [
        "▁run",
        -8.557267591412094
      ],
      [
        "▁hard",
        -8.559278608272374
      ],
      [
        "by",
        -8.560950507573967
      ],
      [
        "▁coming",
        -8.567340643500517
      ],
      [
        "▁pi",
        -8.568158567555304
      ],
      [
        "▁national",
        -8.574942784614253
      ],
      [
        "é",
        -8.575155554192849
      ],
      [
        "ber",
        -8.577872670993626
      ],
      [
        "▁remember",
        -8.577980557524784
      ],
      [
        "▁died",
        -8.582767321778507
      ],
      [
        "que",
        -8.58310346225186
      ],
      [
        "you",
        -8.583230228473878
      ],
      [
        "▁bo",
        -8.586329190770607
      ],
      [
        "▁few",
        -8.58707567691736
      ],
      [
        "▁care",
        -8.588665301604498
      ],
      [
        "▁case",
        -8.589171977341195
      ],
      [
        "▁th",
        -8.591353793568894
      ],
      [
        "▁wanted",
        -8.591389070228429
      ],
      [
        "▁group",
        -8.593755579325967
      ],
      [
        "▁room",
        -8.594315303861292
      ],
      [
        "▁seen",
        -8.598143641099172
      ],
      [
        "▁children",
        -8.602265794163182
      ],
      [
        "/",
        -8.603999333410169
      ],
      [
        "one",
        -8.605074512389228
      ],
      [
        "▁became",
        -8.605941904133493
      ],
      [
        "less",
        -8.608119324610676
      ],
      [
        "▁understand",
        -8.608194949017994
      ],
      [
        "▁open",
        -8.609759753974542
      ],
      [
        "▁per",
        -8.610360870537741
      ],
      [
        "ran",
        -8.61949513627898
      ],
      [
        "▁turn",
        -8.619746692732816
      ],
      [
        "▁king",
        -8.619910395872827
      ],
      [
        "▁friend",
        -8.621190893583025
      ],
      [
        "▁line",
        -8.62211553752039
      ],
      [
        "▁heart",
        -8.623242586806967
      ],
      [
        "▁though",
        -8.626316251094547
      ],
      [
        "▁person",
        -8.628218884542035
      ],
      [
        "▁try",
        -8.628878897107365
      ],
      [
        "▁quite",
        -8.631030650876493
      ],
      [
        "mp",
        -8.635303407949541
      ],
      [
        "▁looking",
        -8.63678088407783
      ],
      [
        "▁stay",
        -8.638801281566783
      ],
      [
        "▁lo",
        -8.641828930759148
      ],
      [
        "▁real",
        -8.6422672993172
      ],
      [
        "▁ten",
        -8.64689308053263
      ],
      [
        "han",
        -8.652071174154017
      ],
      [
        "▁close",
        -8.65398448683933
      ],
      [
        "▁son",
        -8.657984819220198
      ],
      [
        "com",
        -8.659565073637182
      ],
      [
        "▁town",
        -8.66044524997694
      ],
      [
        "▁change",
        -8.661690568295874
      ],
      [
        "▁woman",
        -8.663827069809713
      ],
      [
        "nic",
        -8.664371750538297
      ],
      [
        "▁county",
        -8.668629174906323
      ],
      [
        "▁ask",
        -8.671683495220101
      ],
      [
        "ating",
        -8.675475553229436
      ],
      [
        "▁yet",
        -8.675667835762765
      ],
      [
        "ful",
        -8.675868754121316
      ],
      [
        "▁book",
        -8.676131422726149
      ],
      [
        "▁air",
        -8.678120488259367
      ],
      [
        "ence",
        -8.679312669301224
      ],
      [
        "▁north",
        -8.679760336686273
      ],
      [
        "▁movie",
        -8.68328207858768
      ],
      [
        "ang",
        -8.683391275908786
      ],
      [
        "▁fire",
        -8.683916520119327
      ],
      [
        "▁brother",
        -8.684792557027386
      ],
      [
        "▁mu",
        -8.686265447515918
      ],
      [
        "▁getting",
        -8.687474222952828
      ],
      [
        "▁born",
        -8.687825210647157
      ],
      [
        "▁morning",
        -8.693511186996707
      ],
      [
        "▁sea",
        -8.694009038288936
      ],
      [
        "▁bring",
        -8.697501659644692
      ],
      [
        "her",
        -8.698204325672993
      ],
      [
        "▁door",
        -8.700519639505464
      ],
      [
        "▁happened",
        -8.700681614027472
      ],
      [
        "▁death",
        -8.705410412418162
      ],
      [
        "▁music",
        -8.705615778936341
      ],
      [
        "les",
        -8.70577583841694
      ],
      [
        "▁listen",
        -8.70626494506996
      ],
      [
        "▁whole",
        -8.707009197111162
      ],
      [
        "▁half",
        -8.708574297378444
      ],
      [
        "▁eyes",
        -8.708595115533438
      ],
      [
        "ure",
        -8.709047274630487
      ],
      [
        "▁dr",
        -8.709950197909176
      ],
      [
        "lan",
        -8.711198306502592
      ],
      [
        "▁jo",
        -8.711919742898631
      ],
      [
        "▁fine",
        -8.718644039057372
      ],
      [
        "▁red",
        -8.718651177008294
      ],
      [
        "▁sort",
        -8.728172399493081
      ],
      [
        "▁black",
        -8.728524825152615
      ],
      [
        "king",
        -8.728926950369146
      ],
      [
        "▁south",
        -8.729741851618737
      ],
      [
        "▁matter",
        -8.73146855405066
      ],
      [
        "▁system",
        -8.731563574955118
      ],
      [
        "▁small",
        -8.732683048095334
      ],
      [
        "ver",
        -8.735177045887177
      ],
      [
        "▁white",
        -8.738427766053787
      ],
      [
        "▁having",
        -8.73869662178663
      ],
      [
        "▁game",
        -8.744219034026141
      ],
      [
        "gra",
        -8.74483845259802
      ],
      [
        "▁pay",
        -8.744938351248754
      ],
      [
        "▁win",
        -8.751145140013673
      ],
      [
        "▁kill",
        -8.752553108412783
      ],
      [
        "▁move",
        -8.753300194908988
      ],
      [
        "▁order",
        -8.754319523711393
      ],
      [
        "▁job",
        -8.756527749520664
      ],
      [
        "▁sh",
        -8.75895919842803
      ],
      [
        "lic",
        -8.759682206722927
      ],
      [
        "▁soon",
        -8.760588162923076
      ],
      [
        "▁himself",
        -8.762629669704262
      ],
      [
        "▁heard",
        -8.769072732185776
      ],
      [
        "tal",
        -8.769935532536255
      ],
      [
        "▁john",
        -8.775421582229022
      ],
      [
        "▁days",
        -8.77797043862301
      ],
      [
        "▁hope",
        -8.780526355557651
      ],
      [
        "▁dead",
        -8.782329130011812
      ],
      [
        "▁says",
        -8.784053502980102
      ],
      [
        "▁shall",
        -8.785861643654501
      ],
      [
        "▁power",
        -8.786087081963432
      ],
      [
        "▁played",
        -8.786233752627263
      ],
      [
        "▁knew",
        -8.788563905391934
      ],
      [
        "our",
        -8.788711851411868
      ],
      [
        "▁started",
        -8.789558319164515
      ],
      [
        "▁baby",
        -8.790784980345613
      ],
      [
        "▁isn",
        -8.791172601655143
      ],
      [
        "line",
        -8.793318431176937
      ],
      [
        "▁talking",
        -8.795875963637199
      ],
      [
        "▁already",
        -8.797003578821679
      ],
      [
        "▁country",
        -8.797391946542886
      ],
      [
        "▁along",
        -8.798069533428022
      ],
      [
        "▁women",
        -8.801276897248687
      ],
      [
        "▁times",
        -8.801693586391208
      ],
      [
        "▁wrong",
        -8.802204845683884
      ],
      [
        "▁hold",
        -8.804314327727845
      ],
      [
        "▁upon",
        -8.805763767514302
      ],
      [
        "▁six",
        -8.807338082179642
      ],
      [
        "▁rest",
        -8.808041273812837
      ],
      [
        "ped",
        -8.809426305568202
      ],
      [
        "▁asked",
        -8.80982146908697
      ],
      [
        "ring",
        -8.817644978090305
      ],
      [
        "▁land",
        -8.819548119617956
      ],
      [
        "ze",
        -8.820817669281762
      ],
      [
        "gen",
        -8.820906260839475
      ],
      [
        "▁important",
        -8.821064771616783
      ],
      [
        "side",
        -8.821312055137904
      ],
      [
        "ley",
        -8.824835774656025
      ],
      [
        "ical",
        -8.827730771157311
      ],
      [
        "▁someone",
        -8.828570292670907
      ],
      [
        "▁become",
        -8.828918413292891
      ],
      [
        "▁je",
        -8.829131797709545
      ],
      [
        "▁read",
        -8.830294276801228
      ],
      [
        "▁near",
        -8.830970385708877
      ],
      [
        "▁pretty",
        -8.832680831399662
      ],
      [
        "▁bi",
        -8.834993580604987
      ],
      [
        "▁business",
        -8.837410814833673
      ],
      [
        "▁guy",
        -8.837517187114512
      ],
      [
        "val",
        -8.841171262424103
      ],
      [
        "▁round",
        -8.842225093008322
      ],
      [
        "▁du",
        -8.843666856316394
      ],
      [
        "▁gave",
        -8.844965919724403
      ],
      [
        "▁cl",
        -8.845322155115678
      ],
      [
        "▁party",
        -8.846088276470875
      ],
      [
        "▁however",
        -8.846578050017412
      ],
      [
        "▁saying",
        -8.850688219074021
      ],
      [
        "▁story",
        -8.852414138617588
      ],
      [
        "▁trying",
        -8.854816102601468
      ],
      [
        "▁fact",
        -8.85580849615525
      ],
      [
        "▁miss",
        -8.856879304004199
      ],
      [
        "ham",
        -8.85803797365912
      ],
      [
        "▁word",
        -8.858081692469783
      ],
      [
        "born",
        -8.858908337826321
      ],
      [
        "▁eat",
        -8.860357419352232
      ],
      [
        "▁sal",
        -8.860918778364685
      ],
      [
        "▁cha",
        -8.863024995858057
      ],
      [
        "ten",
        -8.86345966904582
      ],
      [
        "▁ka",
        -8.863678608043609
      ],
      [
        "ard",
        -8.864488190417092
      ],
      [
        "▁university",
        -8.867267154913316
      ],
      [
        "▁wa",
        -8.867345261221455
      ],
      [
        "▁government",
        -8.867540334417248
      ],
      [
        "#",
        -8.867547466282046
      ],
      [
        "▁gone",
        -8.872348065977445
      ],
      [
        "▁cor",
        -8.875456889261706
      ],
      [
        "▁wife",
        -8.876115560222022
      ],
      [
        "▁free",
        -8.876141935722998
      ],
      [
        "▁moment",
        -8.877302790367354
      ],
      [
        "▁wanna",
        -8.879074134763615
      ],
      [
        "▁star",
        -8.88235586920986
      ],
      [
        "▁human",
        -8.882421089546611
      ],
      [
        "qui",
        -8.884352158543926
      ],
      [
        "▁short",
        -8.88784018730834
      ],
      [
        "way",
        -8.898582627211063
      ],
      [
        "▁sit",
        -8.899049828931552
      ],
      [
        "▁reason",
        -8.899889947315122
      ],
      [
        "*",
        -8.90405084623058
      ],
      [
        "▁present",
        -8.905071268241267
      ],
      [
        "▁film",
        -8.905449077240338
      ],
      [
        "▁early",
        -8.905963664543087
      ],
      [
        "let",
        -8.907479706670747
      ],
      [
        "▁wo",
        -8.909216080751547
      ],
      [
        "▁probably",
        -8.910928643463711
      ],
      [
        "▁lost",
        -8.916426849865275
      ],
      [
        "▁began",
        -8.917590518338082
      ],
      [
        "▁child",
        -8.917663829824631
      ],
      [
        "▁late",
        -8.92029213370205
      ],
      [
        "▁cut",
        -8.922749089977057
      ],
      [
        "▁law",
        -8.923385757722324
      ],
      [
        "▁va",
        -8.924867513398425
      ],
      [
        "▁form",
        -8.925342949802564
      ],
      [
        "und",
        -8.926704866988684
      ],
      [
        "▁problem",
        -8.92679746985581
      ],
      [
        "ral",
        -8.931144507506204
      ],
      [
        "▁san",
        -8.93194377853001
      ],
      [
        "▁general",
        -8.931998242978251
      ],
      [
        "ger",
        -8.932852481942186
      ],
      [
        "ship",
        -8.933073400938596
      ],
      [
        "▁sta",
        -8.933983193678577
      ],
      [
        "▁company",
        -8.936993793019091
      ],
      [
        "▁making",
        -8.938315237120225
      ],
      [
        "for",
        -8.940481299318103
      ],
      [
        "men",
        -8.940742804308805
      ],
      [
        "▁week",
        -8.941016621196061
      ],
      [
        "▁often",
        -8.950155622264015
      ],
      [
        "den",
        -8.950294683172652
      ],
      [
        "▁large",
        -8.951008807303037
      ],
      [
        "▁full",
        -8.952430531121768
      ],
      [
        "▁river",
        -8.952479595539494
      ],
      [
        "ally",
        -8.95392701484447
      ],
      [
        "▁hello",
        -8.954277299524524
      ],
      [
        "▁ga",
        -8.95829709383568
      ],
      [
        "rate",
        -8.959298601802846
      ],
      [
        "▁hit",
        -8.959604804261526
      ],
      [
        "row",
        -8.963515529818167
      ],
      [
        "ction",
        -8.963872087486978
      ],
      [
        "▁president",
        -8.964904937638028
      ],
      [
        "▁service",
        -8.965952382619323
      ],
      [
        "▁goes",
        -8.970621857492894
      ],
      [
        "▁true",
        -8.971565213275339
      ],
      [
        "my",
        -8.972745190560039
      ],
      [
        "▁looked",
        -8.976591246811935
      ],
      [
        "▁body",
        -8.978664511503629
      ],
      [
        "▁class",
        -8.980393865118948
      ],
      [
        "▁rock",
        -8.980541518947545
      ],
      [
        "▁guys",
        -8.983507207409
      ],
      [
        "▁dad",
        -8.98478295145948
      ],
      [
        "all",
        -8.985136699693529
      ],
      [
        "▁ready",
        -8.98672597547649
      ],
      [
        "▁deal",
        -8.986853159100711
      ],
      [
        "▁public",
        -8.987438151155194
      ],
      [
        "▁die",
        -8.987782441594614
      ],
      [
        "ide",
        -8.987934754558475
      ],
      [
        "cu",
        -8.989662030835781
      ],
      [
        "ok",
        -8.997770469054222
      ],
      [
        "▁almost",
        -8.99788233522202
      ],
      [
        "▁means",
        -8.997970161080062
      ],
      [
        "▁road",
        -9.00071759384607
      ],
      [
        "▁yourself",
        -9.002954517709828
      ],
      [
        "ward",
        -9.003099262412588
      ],
      [
        "▁happy",
        -9.004516447045507
      ],
      [
        "ator",
        -9.004558991066279
      ],
      [
        "▁su",
        -9.005515698597797
      ],
      [
        "pp",
        -9.0086904053923
      ],
      [
        "▁club",
        -9.008926154133446
      ],
      [
        "▁york",
        -9.010789063749131
      ],
      [
        "▁season",
        -9.011307790733772
      ],
      [
        "▁har",
        -9.013327858731492
      ],
      [
        "▁inter",
        -9.017993747120364
      ],
      [
        "▁sun",
        -9.018740183359876
      ],
      [
        "▁march",
        -9.018980838564724
      ],
      [
        "▁ago",
        -9.019218398871288
      ],
      [
        "▁hundred",
        -9.019554442566715
      ],
      [
        "▁history",
        -9.019976059630848
      ],
      [
        "▁art",
        -9.022931733111369
      ],
      [
        "qua",
        -9.023318791450514
      ],
      [
        "▁working",
        -9.024063527071288
      ],
      [
        "len",
        -9.024623117391426
      ],
      [
        "dic",
        -9.025596541644976
      ],
      [
        "▁dog",
        -9.026093396775678
      ],
      [
        "▁pass",
        -9.026457665215858
      ],
      [
        "ler",
        -9.026465609330456
      ],
      [
        "con",
        -9.028546608172858
      ],
      [
        "▁question",
        -9.03041043640838
      ],
      [
        "▁age",
        -9.033893727368794
      ],
      [
        "▁sometimes",
        -9.036280408344089
      ],
      [
        "▁given",
        -9.036442591989433
      ],
      [
        "▁plan",
        -9.03873963683417
      ],
      [
        "▁seven",
        -9.041150719397123
      ],
      [
        "▁wish",
        -9.04396251780959
      ],
      [
        "what",
        -9.04872612754886
      ],
      [
        "▁speak",
        -9.049556674403997
      ],
      [
        "ake",
        -9.050894478178124
      ],
      [
        "▁wouldn",
        -9.051145077475594
      ],
      [
        "▁example",
        -9.051244154549972
      ],
      [
        "▁west",
        -9.05157992437997
      ],
      [
        "▁guess",
        -9.057090461568167
      ],
      [
        "▁watch",
        -9.057402562068049
      ],
      [
        "▁song",
        -9.060567410890728
      ],
      [
        "▁dec",
        -9.062847288455288
      ],
      [
        "▁voice",
        -9.063348818536111
      ],
      [
        "end",
        -9.063621217140373
      ],
      [
        "ja",
        -9.064319150465248
      ],
      [
        "▁sha",
        -9.06542892841538
      ],
      [
        "rac",
        -9.067988434190216
      ],
      [
        "▁huh",
        -9.068187476394492
      ],
      [
        "▁main",
        -9.06908203437164
      ],
      [
        "▁ok",
        -9.07029013545092
      ],
      [
        "▁eight",
        -9.071082244771093
      ],
      [
        "▁green",
        -9.079282455118223
      ],
      [
        "time",
        -9.07986742640216
      ],
      [
        "▁france",
        -9.080148662536809
      ],
      [
        "▁imp",
        -9.080694174529729
      ],
      [
        "$",
        -9.081784526067535
      ],
      [
        "▁fall",
        -9.081839318835314
      ],
      [
        "▁least",
        -9.08396078338359
      ],
      [
        "▁meet",
        -9.086123955761222
      ],
      [
        "▁series",
        -9.088293230550418
      ],
      [
        "▁sub",
        -9.08911997067672
      ],
      [
        "▁break",
        -9.089579423228544
      ],
      [
        "▁player",
        -9.089951866269391
      ],
      [
        "lar",
        -9.09039027506555
      ],
      [
        "out",
        -9.090427524425548
      ],
      [
        "▁drink",
        -9.090506676564472
      ],
      [
        "▁building",
        -9.091077161233066
      ],
      [
        "mar",
        -9.09164120933839
      ],
      [
        "▁myself",
        -9.091908418237786
      ],
      [
        "▁several",
        -9.093162818854012
      ],
      [
        "▁million",
        -9.093808333801398
      ],
      [
        "▁ball",
        -9.09449164197494
      ],
      [
        "▁cat",
        -9.095432129756563
      ],
      [
        "▁court",
        -9.09584006701553
      ],
      [
        "▁hands",
        -9.096736217946184
      ],
      [
        "▁daughter",
        -9.09693330251552
      ],
      [
        "▁friends",
        -9.097704123160696
      ],
      [
        "▁alone",
        -9.102851182727798
      ],
      [
        "ear",
        -9.105777438256432
      ],
      [
        "▁dear",
        -9.10699386677078
      ],
      [
        "▁street",
        -9.10807871413848
      ],
      [
        "▁special",
        -9.10864118785144
      ],
      [
        "▁behind",
        -9.108999056465644
      ],
      [
        "▁police",
        -9.110435102445532
      ],
      [
        "▁band",
        -9.110574351006273
      ],
      [
        "▁married",
        -9.111401333768429
      ],
      [
        "cla",
        -9.111423551075408
      ],
      [
        "▁district",
        -9.112264120326378
      ],
      [
        "▁park",
        -9.112607545717031
      ],
      [
        "▁bu",
        -9.11458080076195
      ],
      [
        "▁album",
        -9.115752754904213
      ],
      [
        "ged",
        -9.117010688461194
      ],
      [
        "▁front",
        -9.117902751965502
      ],
      [
        "bu",
        -9.121919099393658
      ],
      [
        "▁member",
        -9.122061996847693
      ],
      [
        "▁single",
        -9.12417435136448
      ],
      [
        "▁mrs",
        -9.12468409791042
      ],
      [
        "▁trans",
        -9.126497222166307
      ],
      [
        "▁award",
        -9.126690238586876
      ],
      [
        "▁stand",
        -9.12845313292924
      ],
      [
        "▁church",
        -9.129519853373814
      ],
      [
        "▁food",
        -9.129717014989696
      ],
      [
        "▁killed",
        -9.133709134360528
      ],
      [
        "▁brought",
        -9.133775363417517
      ],
      [
        "hal",
        -9.133953405343195
      ],
      [
        "▁doctor",
        -9.134128932867728
      ],
      [
        "▁english",
        -9.13445374004405
      ],
      [
        "▁top",
        -9.134726493629632
      ],
      [
        "▁station",
        -9.135757608793671
      ],
      [
        "▁island",
        -9.138634593307318
      ],
      [
        "▁beautiful",
        -9.140276250538069
      ],
      [
        "▁thanks",
        -9.140909940979078
      ],
      [
        "▁ju",
        -9.144774046580755
      ],
      [
        "well",
        -9.146772570425874
      ],
      [
        "▁january",
        -9.151332231089045
      ],
      [
        "▁gu",
        -9.152142818538096
      ],
      [
        "▁either",
        -9.154157248201996
      ],
      [
        "▁haven",
        -9.154345621979106
      ],
      [
        "▁tra",
        -9.156252294800073
      ],
      [
        "▁past",
        -9.156936337001644
      ],
      [
        "▁taking",
        -9.157919355599065
      ],
      [
        "▁ge",
        -9.160546847362806
      ],
      [
        "ski",
        -9.160760453314849
      ],
      [
        "ked",
        -9.161592201844089
      ],
      [
        "▁support",
        -9.162111863016325
      ],
      [
        "▁sent",
        -9.16213564866118
      ],
      [
        "col",
        -9.162209370825371
      ],
      [
        "▁type",
        -9.165399653648926
      ],
      [
        "▁office",
        -9.16627217476733
      ],
      [
        "▁released",
        -9.166345119558686
      ],
      [
        "▁sister",
        -9.167091194304216
      ],
      [
        "▁east",
        -9.168916431610548
      ],
      [
        "za",
        -9.169775559733605
      ],
      [
        "▁football",
        -9.171716506693
      ],
      [
        "▁count",
        -9.174804891902198
      ],
      [
        "ray",
        -9.175604156012236
      ],
      [
        "▁test",
        -9.176939459578591
      ],
      [
        "▁answer",
        -9.177249852223389
      ],
      [
        "ex",
        -9.177293106463315
      ],
      [
        "van",
        -9.18088355494864
      ],
      [
        "▁pl",
        -9.182911288022751
      ],
      [
        "▁words",
        -9.185476471480507
      ],
      [
        "▁pain",
        -9.186588553431232
      ],
      [
        "%",
        -9.187401440294927
      ],
      [
        "vol",
        -9.187442991276823
      ],
      [
        "▁rather",
        -9.188835512008485
      ],
      [
        "▁sleep",
        -9.189157742942152
      ],
      [
        "ping",
        -9.189160762381748
      ],
      [
        "low",
        -9.19039591255299
      ],
      [
        "▁fair",
        -9.190590445761543
      ],
      [
        "nder",
        -9.192692294779912
      ],
      [
        "▁walk",
        -9.193559991954483
      ],
      [
        "ack",
        -9.194336492302416
      ],
      [
        "▁poor",
        -9.194353156698355
      ],
      [
        "lie",
        -9.195685282362952
      ],
      [
        "▁stuff",
        -9.195983619484668
      ],
      [
        "▁blue",
        -9.200241605859876
      ],
      [
        "▁clear",
        -9.200936470443573
      ],
      [
        "▁living",
        -9.201284593015108
      ],
      [
        "ung",
        -9.202356777047155
      ],
      [
        "▁august",
        -9.202738910270249
      ],
      [
        "ries",
        -9.203101637713466
      ],
      [
        "▁alright",
        -9.206179446475312
      ],
      [
        "▁pu",
        -9.206745074949543
      ],
      [
        "chi",
        -9.210375490267426
      ],
      [
        "▁taken",
        -9.210514806647428
      ],
      [
        "▁check",
        -9.213495499428324
      ],
      [
        "gan",
        -9.213582986426154
      ],
      [
        "▁ran",
        -9.21385143545606
      ],
      [
        "▁june",
        -9.214732527370687
      ],
      [
        "kin",
        -9.215459730146272
      ],
      [
        "▁mine",
        -9.216711219269609
      ],
      [
        "par",
        -9.217840660441343
      ],
      [
        "▁wh",
        -9.21876095155777
      ],
      [
        "rry",
        -9.22152145532891
      ],
      [
        "▁paper",
        -9.221536214738752
      ],
      [
        "▁sound",
        -9.221851909563243
      ],
      [
        "▁ru",
        -9.22186369102743
      ],
      [
        "▁department",
        -9.22192043939297
      ],
      [
        "▁piece",
        -9.22247914517706
      ],
      [
        "▁buy",
        -9.223217249987425
      ],
      [
        "▁lord",
        -9.223723984306243
      ],
      [
        "▁hu",
        -9.2245629764983
      ],
      [
        "▁mom",
        -9.225212054383016
      ],
      [
        "▁common",
        -9.226437644393224
      ],
      [
        "—",
        -9.226539437031043
      ],
      [
        "▁comp",
        -9.22778726293004
      ],
      [
        "▁region",
        -9.22860172651066
      ],
      [
        "▁british",
        -9.22906598917602
      ],
      [
        "▁minute",
        -9.231049572279012
      ],
      [
        "▁pick",
        -9.23106692135078
      ],
      [
        "cent",
        -9.232111095704438
      ],
      [
        "uk",
        -9.232517570502289
      ],
      [
        "▁everyone",
        -9.232961033019349
      ],
      [
        "▁letter",
        -9.232993973775097
      ],
      [
        "▁wall",
        -9.233047333500958
      ],
      [
        "▁inside",
        -9.233079772741084
      ],
      [
        "▁nor",
        -9.235957189292357
      ],
      [
        "▁rule",
        -9.236928190183372
      ],
      [
        "▁fight",
        -9.240112695326886
      ],
      [
        "▁strong",
        -9.240473393858023
      ],
      [
        "▁language",
        -9.241096493205058
      ],
      [
        "▁chance",
        -9.243125669136004
      ],
      [
        "▁couldn",
        -9.24384424417994
      ],
      [
        "▁career",
        -9.244705610251328
      ],
      [
        "▁third",
        -9.246174172152378
      ],
      [
        "▁among",
        -9.246708272773276
      ],
      [
        "▁lady",
        -9.247463084285496
      ],
      [
        "▁wood",
        -9.247752190305713
      ],
      [
        "▁horse",
        -9.247810780206244
      ],
      [
        "ker",
        -9.253832891863995
      ],
      [
        "rid",
        -9.254328854908607
      ],
      [
        "▁earth",
        -9.25444720618683
      ],
      [
        "▁following",
        -9.254455483650098
      ],
      [
        "tru",
        -9.257618197344216
      ],
      [
        "▁result",
        -9.25858927996353
      ],
      [
        "log",
        -9.260120767147676
      ],
      [
        "▁perhaps",
        -9.262742510665658
      ],
      [
        "▁sign",
        -9.2628541771583
      ],
      [
        "▁within",
        -9.26389847849318
      ],
      [
        "▁peter",
        -9.266123007012062
      ],
      [
        "▁gun",
        -9.266535309025228
      ],
      [
        "▁happen",
        -9.267884740835592
      ],
      [
        "ach",
        -9.267956111497485
      ],
      [
        "▁step",
        -9.268209244119069
      ],
      [
        "▁held",
        -9.26880661869694
      ],
      [
        "ture",
        -9.269401955282031
      ],
      [
        "▁figure",
        -9.270262937403672
      ],
      [
        "▁thinking",
        -9.27104040016486
      ],
      [
        "igh",
        -9.27162652832592
      ],
      [
        "▁outside",
        -9.272194829404455
      ],
      [
        "▁arm",
        -9.272885792813224
      ],
      [
        "▁fish",
        -9.272892412410055
      ],
      [
        "▁minutes",
        -9.273535658053076
      ],
      [
        "▁local",
        -9.276117913322276
      ],
      [
        "but",
        -9.276525816321508
      ],
      [
        "▁playing",
        -9.27686723172196
      ],
      [
        "▁hell",
        -9.276936281824533
      ],
      [
        "▁return",
        -9.277552748402638
      ],
      [
        "▁september",
        -9.280828203874435
      ],
      [
        "▁october",
        -9.28438119883696
      ],
      [
        "huh",
        -9.284960902100432
      ],
      [
        "▁former",
        -9.28550533376607
      ],
      [
        "▁super",
        -9.285896753173072
      ],
      [
        "▁april",
        -9.286339320845416
      ],
      [
        "▁app",
        -9.28645113594234
      ],
      [
        "▁include",
        -9.28662690149329
      ],
      [
        "▁turned",
        -9.287753836967097
      ],
      [
        "▁fuck",
        -9.288067272361728
      ],
      [
        "▁cre",
        -9.288901580505742
      ],
      [
        "▁less",
        -9.289700394107417
      ],
      [
        "ugh",
        -9.290673701989617
      ],
      [
        "▁train",
        -9.291734138595125
      ],
      [
        "▁mon",
        -9.293311316826784
      ],
      [
        "▁cap",
        -9.295482801452136
      ],
      [
        "▁blood",
        -9.296395875879169
      ],
      [
        "▁french",
        -9.29642712245715
      ],
      [
        "▁hair",
        -9.296737243837876
      ],
      [
        "▁dream",
        -9.29711810247125
      ],
      [
        "▁cur",
        -9.29958933286836
      ],
      [
        "▁twenty",
        -9.30036737813463
      ],
      [
        "▁july",
        -9.300607982664626
      ],
      [
        "▁ship",
        -9.30144912831063
      ],
      [
        "▁table",
        -9.302894617856484
      ],
      [
        "▁send",
        -9.30300414688573
      ],
      [
        "▁control",
        -9.306578321140064
      ],
      [
        "▁including",
        -9.307306774567454
      ],
      [
        "▁looks",
        -9.308620219819778
      ],
      [
        "qu",
        -9.31057324726084
      ],
      [
        "ign",
        -9.310984051116654
      ],
      [
        "▁everybody",
        -9.312917586169783
      ],
      [
        "▁major",
        -9.313388130538858
      ],
      [
        "▁exactly",
        -9.314305384700765
      ],
      [
        "▁wonder",
        -9.31536071608822
      ],
      [
        "▁bear",
        -9.315377606389175
      ],
      [
        "rus",
        -9.315622936085962
      ],
      [
        "har",
        -9.316398693432614
      ],
      [
        "ple",
        -9.31701953888079
      ],
      [
        "ram",
        -9.31786558589047
      ],
      [
        "▁named",
        -9.318089645052194
      ],
      [
        "▁pat",
        -9.318735864931911
      ],
      [
        "▁felt",
        -9.319811504434202
      ],
      [
        "▁across",
        -9.319821890028123
      ],
      [
        "▁kid",
        -9.321655939152487
      ],
      [
        "▁cos",
        -9.322039144557127
      ],
      [
        "▁cup",
        -9.322645998595018
      ],
      [
        "▁fun",
        -9.32386357342024
      ],
      [
        "▁till",
        -9.32415644715429
      ],
      [
        "▁college",
        -9.324488288751642
      ],
      [
        "▁thousand",
        -9.325569013361063
      ],
      [
        "▁list",
        -9.328468532389612
      ],
      [
        "▁trouble",
        -9.329434047388787
      ],
      [
        "▁act",
        -9.32981722949131
      ],
      [
        "▁phone",
        -9.329895818925754
      ],
      [
        "▁mark",
        -9.330239430455563
      ],
      [
        "▁jack",
        -9.332002602108307
      ],
      [
        "▁des",
        -9.332177418888335
      ],
      [
        "▁visit",
        -9.33217848222725
      ],
      [
        "▁original",
        -9.33281792370081
      ],
      [
        "▁whatever",
        -9.334416923711368
      ],
      [
        "▁hurt",
        -9.334431487665888
      ],
      [
        "pol",
        -9.334843139952138
      ],
      [
        "▁lived",
        -9.338572368200872
      ],
      [
        "▁bra",
        -9.338916380623242
      ],
      [
        "▁usually",
        -9.339475681231749
      ],
      [
        "of",
        -9.339814039169363
      ],
      [
        "▁master",
        -9.34022358231114
      ],
      [
        "▁hot",
        -9.340827005083838
      ],
      [
        "▁international",
        -9.341069766305557
      ],
      [
        "car",
        -9.34216297492531
      ],
      [
        "▁league",
        -9.342426051167385
      ],
      [
        "▁december",
        -9.342743097886864
      ],
      [
        "▁feeling",
        -9.342754154962876
      ],
      [
        "▁character",
        -9.342830277772226
      ],
      [
        "▁possible",
        -9.34448413848233
      ],
      [
        "▁bank",
        -9.344802702259436
      ],
      [
        "▁gr",
        -9.345812718174756
      ],
      [
        "▁cross",
        -9.348816703076302
      ],
      [
        "pri",
        -9.349130351177068
      ],
      [
        "▁somebody",
        -9.349724141901664
      ],
      [
        "▁using",
        -9.34981173529894
      ],
      [
        "▁bl",
        -9.350422265189506
      ],
      [
        "ace",
        -9.351566420179177
      ],
      [
        "▁ground",
        -9.351810510947612
      ],
      [
        "▁box",
        -9.351818619494162
      ],
      [
        "▁tri",
        -9.352353830157956
      ],
      [
        "mal",
        -9.352498473979695
      ],
      [
        "▁um",
        -9.353818852780352
      ],
      [
        "cul",
        -9.353845067378684
      ],
      [
        "▁comes",
        -9.35396835001916
      ],
      [
        "▁write",
        -9.355300004395566
      ],
      [
        "▁gotta",
        -9.355823899164342
      ],
      [
        "▁village",
        -9.356168703505306
      ],
      [
        "▁anyone",
        -9.356526182182506
      ],
      [
        "day",
        -9.360466540256004
      ],
      [
        "▁november",
        -9.360550265516096
      ],
      [
        "▁easy",
        -9.361286725008156
      ],
      [
        "▁population",
        -9.36300844309998
      ],
      [
        "▁worked",
        -9.363148907799594
      ],
      [
        "▁whether",
        -9.363505397377132
      ],
      [
        "ong",
        -9.365339874884487
      ],
      [
        "don",
        -9.36629081683026
      ],
      [
        "▁level",
        -9.366700831947702
      ],
      [
        "▁anyway",
        -9.367347233222672
      ],
      [
        "▁husband",
        -9.36739304754553
      ],
      [
        "▁makes",
        -9.367752263742611
      ],
      [
        "mic",
        -9.36895086840364
      ],
      [
        "shed",
        -9.372933025493827
      ],
      [
        "▁tomorrow",
        -9.37295559057874
      ],
      [
        "▁space",
        -9.373494953275271
      ],
      [
        "▁months",
        -9.37499432595119
      ],
      [
        "▁sat",
        -9.37504613809059
      ],
      [
        "use",
        -9.37541898807729
      ],
      [
        "▁chi",
        -9.376775176410703
      ],
      [
        "▁report",
        -9.376887927648486
      ],
      [
        "▁hours",
        -9.377162256362787
      ],
      [
        "▁shit",
        -9.37744051566693
      ],
      [
        "▁pan",
        -9.378322384842384
      ],
      [
        "▁cho",
        -9.37842558345074
      ],
      [
        "▁german",
        -9.380474847289056
      ],
      [
        "▁bird",
        -9.38612860224835
      ],
      [
        "ken",
        -9.387091057730364
      ],
      [
        "▁tried",
        -9.387502745697232
      ],
      [
        "▁post",
        -9.388621638735197
      ],
      [
        "oop",
        -9.389109584042222
      ],
      [
        "▁couple",
        -9.392806181185083
      ],
      [
        "▁feet",
        -9.393355220922782
      ],
      [
        "off",
        -9.394015260710107
      ],
      [
        "ized",
        -9.394155542047429
      ],
      [
        "▁mor",
        -9.39553407299511
      ],
      [
        "▁certain",
        -9.397505768170536
      ],
      [
        "cal",
        -9.398951171543796
      ],
      [
        "ended",
        -9.399080833689466
      ],
      [
        "▁forget",
        -9.399407926642471
      ],
      [
        "▁built",
        -9.401442370066484
      ],
      [
        "▁februar",
        -9.40294318318496
      ],
      [
        "light",
        -9.403180473620846
      ],
      [
        "can",
        -9.40435729583966
      ],
      [
        "▁field",
        -9.405997233613824
      ],
      [
        "q",
        -9.407426091440056
      ],
      [
        "ever",
        -9.408849767265018
      ],
      [
        "▁sense",
        -9.409499241994114
      ],
      [
        "▁attack",
        -9.41246785968758
      ],
      [
        "▁boo",
        -9.413323882976218
      ],
      [
        "▁follow",
        -9.414849063341112
      ],
      [
        "avi",
        -9.415203755938483
      ],
      [
        "tur",
        -9.41849657937263
      ],
      [
        "▁throw",
        -9.420757928248287
      ],
      [
        "▁lay",
        -9.42501224519959
      ],
      [
        "▁fell",
        -9.425468072408652
      ],
      [
        "▁rec",
        -9.425935235836269
      ],
      [
        "▁army",
        -9.426765271026184
      ],
      [
        "▁cold",
        -9.426838067784368
      ],
      [
        "▁window",
        -9.427667074187973
      ],
      [
        "▁deep",
        -9.428587251152583
      ],
      [
        "▁hill",
        -9.429380105446567
      ],
      [
        "▁century",
        -9.429423907841787
      ],
      [
        "▁gar",
        -9.430140683383003
      ],
      [
        "▁moved",
        -9.430607909327852
      ],
      [
        "▁shut",
        -9.431702120960544
      ],
      [
        "▁camp",
        -9.432695042419567
      ],
      [
        "duc",
        -9.432705097362769
      ],
      [
        "mate",
        -9.43310301564976
      ],
      [
        "lor",
        -9.433109081155564
      ],
      [
        "▁shot",
        -9.433677612220366
      ],
      [
        "▁middle",
        -9.433868085056082
      ],
      [
        "gar",
        -9.434268980560876
      ],
      [
        "▁den",
        -9.4375602682267
      ],
      [
        "▁social",
        -9.437850888484268
      ],
      [
        "how",
        -9.438663590673238
      ],
      [
        "ole",
        -9.440597346652876
      ],
      [
        "▁program",
        -9.441001021679888
      ],
      [
        "▁position",
        -9.444322000911496
      ],
      [
        "▁match",
        -9.446105284730878
      ],
      [
        "▁worry",
        -9.44659495285651
      ],
      [
        "▁captain",
        -9.44664259467852
      ],
      [
        "▁ke",
        -9.447253532110471
      ],
      [
        "cro",
        -9.448800331744238
      ],
      [
        "▁hour",
        -9.449802705437635
      ],
      [
        "▁although",
        -9.450866501532456
      ],
      [
        "▁gold",
        -9.45094899894788
      ],
      [
        "▁video",
        -9.451668129827477
      ],
      [
        "▁dark",
        -9.451932745906204
      ],
      [
        "ink",
        -9.452934757011338
      ],
      [
        "▁view",
        -9.45630022883615
      ],
      [
        "▁seems",
        -9.45779936972001
      ],
      [
        "▁written",
        -9.457997024608602
      ],
      [
        "vent",
        -9.460752995283856
      ],
      [
        "nce",
        -9.460792501529248
      ],
      [
        "▁fast",
        -9.460887991687311
      ],
      [
        "▁strange",
        -9.46161651590229
      ],
      [
        "▁based",
        -9.461862142794743
      ],
      [
        "ions",
        -9.462565496715795
      ],
      [
        "▁promise",
        -9.462665104068472
      ],
      [
        "▁mis",
        -9.463443659645376
      ],
      [
        "▁lie",
        -9.463787030746396
      ],
      [
        "▁instead",
        -9.464527409589069
      ],
      [
        "▁hall",
        -9.46520463273656
      ],
      [
        "▁tonight",
        -9.466310154474304
      ],
      [
        "uff",
        -9.467043194214757
      ],
      [
        "lip",
        -9.4675480256437
      ],
      [
        "▁mad",
        -9.469044690546744
      ],
      [
        "that",
        -9.469887038955523
      ],
      [
        "▁tree",
        -9.47071684884933
      ],
      [
        "▁record",
        -9.471162273122305
      ],
      [
        "▁cannot",
        -9.471717922437902
      ],
      [
        "ium",
        -9.47346228412134
      ],
      [
        "▁council",
        -9.474100616050425
      ],
      [
        "vers",
        -9.476679284601332
      ],
      [
        "▁cover",
        -9.476761409007564
      ],
      [
        "▁cost",
        -9.47694899530749
      ],
      [
        "stan",
        -9.47822689384106
      ],
      [
        "cru",
        -9.479100614578917
      ],
      [
        "▁london",
        -9.483624335932598
      ],
      [
        "lect",
        -9.484025867836996
      ],
      [
        "▁television",
        -9.485997944994088
      ],
      [
        "▁information",
        -9.488086865086467
      ],
      [
        "▁area",
        -9.489210708268477
      ],
      [
        "▁paul",
        -9.48946924911844
      ],
      [
        "▁clean",
        -9.490113047425597
      ],
      [
        "▁role",
        -9.49110309726389
      ],
      [
        "▁truth",
        -9.491140763733876
      ],
      [
        "▁afraid",
        -9.491663085251783
      ],
      [
        "▁pen",
        -9.492489360488012
      ],
      [
        "▁force",
        -9.492785436922484
      ],
      [
        "▁trust",
        -9.493977620044491
      ],
      [
        "▁dance",
        -9.49667153554628
      ],
      [
        "▁touch",
        -9.49747259336751
      ],
      [
        "▁wind",
        -9.497649624300015
      ],
      [
        "gri",
        -9.49773074735196
      ],
      [
        "▁seemed",
        -9.501487465363274
      ],
      [
        "cel",
        -9.503396094162976
      ],
      [
        "▁fra",
        -9.503539534885688
      ],
      [
        "▁others",
        -9.503685622611682
      ],
      [
        "▁members",
        -9.503693899924704
      ],
      [
        "▁girls",
        -9.504126444990405
      ],
      [
        "▁ver",
        -9.504296857540854
      ],
      [
        "▁boys",
        -9.5057679862494
      ],
      [
        "▁difficult",
        -9.506499906480324
      ],
      [
        "▁equal",
        -9.5072199721753
      ],
      [
        "cri",
        -9.509146182814666
      ],
      [
        "▁eye",
        -9.50967135187394
      ],
      [
        "▁key",
        -9.50968930926867
      ],
      [
        "▁pop",
        -9.510445701437336
      ],
      [
        "▁final",
        -9.510845599619882
      ],
      [
        "▁roman",
        -9.511037357114954
      ],
      [
        "ock",
        -9.51128421114027
      ],
      [
        "▁america",
        -9.511522334460844
      ],
      [
        "▁cause",
        -9.512213226531838
      ],
      [
        "air",
        -9.51255321527399
      ],
      [
        "▁travel",
        -9.51376192821932
      ],
      [
        "▁prince",
        -9.514295710113036
      ],
      [
        "▁health",
        -9.514423140163697
      ],
      [
        "▁rob",
        -9.516630598012664
      ],
      [
        "▁race",
        -9.516852806965751
      ],
      [
        "char",
        -9.517382144017317
      ],
      [
        "old",
        -9.5177674502743
      ],
      [
        "▁draw",
        -9.518296901641625
      ],
      [
        "▁william",
        -9.518850849919051
      ],
      [
        "▁bri",
        -9.519248640119963
      ],
      [
        "pose",
        -9.51934797719641
      ],
      [
        "▁wrote",
        -9.520713279270256
      ],
      [
        "▁kids",
        -9.520884183777977
      ],
      [
        "▁summer",
        -9.521268884089604
      ],
      [
        "▁england",
        -9.521330171755574
      ],
      [
        "▁bon",
        -9.521510488721647
      ],
      [
        "▁lives",
        -9.522330025922276
      ],
      [
        "▁games",
        -9.522750579422704
      ],
      [
        "rop",
        -9.523268833972974
      ],
      [
        "los",
        -9.523273108197063
      ],
      [
        "ified",
        -9.524048182302426
      ],
      [
        "▁running",
        -9.524803420161058
      ],
      [
        "▁daddy",
        -9.525359049364424
      ],
      [
        "▁issue",
        -9.525862200229993
      ],
      [
        "▁lead",
        -9.526597984368284
      ],
      [
        "▁experience",
        -9.526811788702814
      ],
      [
        "gue",
        -9.52712963643124
      ],
      [
        "▁hang",
        -9.527495545744545
      ],
      [
        "▁leader",
        -9.528047744232278
      ],
      [
        "▁seat",
        -9.528265783104882
      ],
      [
        "▁fat",
        -9.53077193656555
      ],
      [
        "▁due",
        -9.532035764056872
      ],
      [
        "▁hospital",
        -9.532168941056389
      ],
      [
        "▁works",
        -9.532751571040574
      ],
      [
        "▁fucking",
        -9.534293833938968
      ],
      [
        "acc",
        -9.53585325308673
      ],
      [
        "▁secret",
        -9.53591032431903
      ],
      [
        "rian",
        -9.536821579403824
      ],
      [
        "pu",
        -9.537059590875902
      ],
      [
        "▁drive",
        -9.538343738716923
      ],
      [
        "▁dress",
        -9.539337173170122
      ],
      [
        "▁excuse",
        -9.53943607200169
      ],
      [
        "▁bill",
        -9.540885639005715
      ],
      [
        "fle",
        -9.54127935500936
      ],
      [
        "war",
        -9.541835459758254
      ],
      [
        "zz",
        -9.54284697219896
      ],
      [
        "gro",
        -9.54311597913568
      ],
      [
        "▁process",
        -9.543974365780072
      ],
      [
        "▁mountain",
        -9.544648907725437
      ],
      [
        "▁center",
        -9.54564481607121
      ],
      [
        "▁dan",
        -9.548763683264376
      ],
      [
        "▁tea",
        -9.548890011083325
      ],
      [
        "▁minister",
        -9.548907505844324
      ],
      [
        "▁longer",
        -9.54915920024657
      ],
      [
        "▁period",
        -9.54963485660955
      ],
      [
        "▁picture",
        -9.551909314243543
      ],
      [
        "▁gene",
        -9.5523099962567
      ],
      [
        "▁indian",
        -9.553493234837866
      ],
      [
        "▁queen",
        -9.554163820744336
      ],
      [
        "▁fre",
        -9.55446637020648
      ],
      [
        "▁bed",
        -9.557084470328826
      ],
      [
        "▁learn",
        -9.558037202401565
      ],
      [
        "▁supposed",
        -9.558311103825902
      ],
      [
        "▁charge",
        -9.559579379333838
      ],
      [
        "▁mc",
        -9.559882039337989
      ],
      [
        "▁officer",
        -9.56102415658642
      ],
      [
        "▁fear",
        -9.56149572084782
      ],
      [
        "▁education",
        -9.564930054730985
      ],
      [
        "▁plant",
        -9.566358022383014
      ],
      [
        "▁bur",
        -9.566903652277247
      ],
      [
        "▁del",
        -9.567928961626835
      ],
      [
        "fully",
        -9.569006968634689
      ],
      [
        "▁shoot",
        -9.569937044394235
      ],
      [
        "▁natural",
        -9.570084458679633
      ],
      [
        "▁mhm",
        -9.571926431960726
      ],
      [
        "▁remain",
        -9.57193046410034
      ],
      [
        "▁save",
        -9.572739220341138
      ],
      [
        "▁changed",
        -9.573374870514554
      ],
      [
        "late",
        -9.574166678084987
      ],
      [
        "▁sell",
        -9.57582639832416
      ],
      [
        "▁nine",
        -9.576526260162186
      ],
      [
        "▁meeting",
        -9.577252172324703
      ],
      [
        "▁fla",
        -9.577724169037031
      ],
      [
        "▁project",
        -9.578211841595918
      ],
      [
        "▁safe",
        -9.579425497185484
      ],
      [
        "ative",
        -9.580613056250908
      ],
      [
        "▁honey",
        -9.58140020201584
      ],
      [
        "▁straight",
        -9.581810438491832
      ],
      [
        "▁mid",
        -9.583672522608278
      ],
      [
        "▁nobody",
        -9.583849531438409
      ],
      [
        "▁ring",
        -9.58415569937517
      ],
      [
        "burg",
        -9.584506334937988
      ],
      [
        "▁rose",
        -9.58493201837662
      ],
      [
        "▁foot",
        -9.585478613823629
      ],
      [
        "bra",
        -9.589449277306842
      ],
      [
        "▁cell",
        -9.59088076002178
      ],
      [
        "spect",
        -9.591128323285655
      ],
      [
        "▁color",
        -9.59195474213008
      ],
      [
        "bar",
        -9.592037452337134
      ],
      [
        "▁frank",
        -9.59337926902323
      ],
      [
        "▁object",
        -9.595558607236848
      ],
      [
        "▁george",
        -9.596139478421088
      ],
      [
        "bel",
        -9.59645360441381
      ],
      [
        "▁received",
        -9.596919595714468
      ],
      [
        "over",
        -9.597058448116783
      ],
      [
        "▁value",
        -9.597060233718514
      ],
      [
        "▁grand",
        -9.597962898250636
      ],
      [
        "▁future",
        -9.598876743927663
      ],
      [
        "ice",
        -9.599449372503187
      ],
      [
        "▁waiting",
        -9.599566225076645
      ],
      [
        "rap",
        -9.599616708231514
      ],
      [
        "▁study",
        -9.59999838376625
      ],
      [
        "▁above",
        -9.600965558817506
      ],
      [
        "▁themselves",
        -9.601214642817544
      ],
      [
        "▁sam",
        -9.603202060740822
      ],
      [
        "▁prison",
        -9.60351172116891
      ],
      [
        "▁kept",
        -9.604778799628807
      ],
      [
        "▁interest",
        -9.608004791875675
      ],
      [
        "▁fit",
        -9.608128394605169
      ],
      [
        "▁personal",
        -9.609479706075152
      ],
      [
        "▁para",
        -9.60991385827452
      ],
      [
        "▁cool",
        -9.610382177543872
      ],
      [
        "▁aren",
        -9.612285972237112
      ],
      [
        "▁battle",
        -9.612701366538474
      ],
      [
        "▁action",
        -9.614776821293596
      ],
      [
        "▁continue",
        -9.615577666928536
      ],
      [
        "▁sweet",
        -9.61592054407855
      ],
      [
        "▁ye",
        -9.616069048636923
      ],
      [
        "▁beat",
        -9.616973408053171
      ],
      [
        "▁wide",
        -9.618824555267237
      ],
      [
        "▁stage",
        -9.620488929666568
      ],
      [
        "▁term",
        -9.621246211623236
      ],
      [
        "▁share",
        -9.622169184400065
      ],
      [
        "field",
        -9.623695857775363
      ],
      [
        "bla",
        -9.62564043271474
      ],
      [
        "▁created",
        -9.626030940972406
      ],
      [
        "wal",
        -9.626101240603663
      ],
      [
        "▁according",
        -9.627669872656613
      ],
      [
        "▁port",
        -9.62872175946583
      ],
      [
        "▁allow",
        -9.629337371576373
      ],
      [
        "▁carry",
        -9.629405723557213
      ],
      [
        "now",
        -9.631033020719356
      ],
      [
        "pur",
        -9.631934131566938
      ],
      [
        "▁brown",
        -9.633590744858052
      ],
      [
        "▁paris",
        -9.634429308967755
      ],
      [
        "nam",
        -9.636109027670322
      ],
      [
        "▁catch",
        -9.636844205566174
      ],
      [
        "bor",
        -9.639501017765037
      ],
      [
        "ched",
        -9.641124492447965
      ],
      [
        "▁date",
        -9.641323710784087
      ],
      [
        "▁species",
        -9.641555940246466
      ],
      [
        "▁design",
        -9.64181533481042
      ],
      [
        "▁director",
        -9.643468796639524
      ],
      [
        "ears",
        -9.644367614862064
      ],
      [
        "▁track",
        -9.644951804659735
      ],
      [
        "▁further",
        -9.64530497064858
      ],
      [
        "▁respect",
        -9.646223535874205
      ],
      [
        "unc",
        -9.64807771794646
      ],
      [
        "jo",
        -9.648252770559536
      ],
      [
        "▁effect",
        -9.64883285668815
      ],
      [
        "bed",
        -9.649079014882558
      ],
      [
        "cle",
        -9.65069570812322
      ],
      [
        "▁crie",
        -9.65144586263298
      ],
      [
        "ology",
        -9.652734661769223
      ],
      [
        "▁represent",
        -9.652934351614231
      ],
      [
        "▁careful",
        -9.652979111594613
      ],
      [
        "▁parents",
        -9.653109704377004
      ],
      [
        "▁chief",
        -9.654019061968604
      ],
      [
        "▁pull",
        -9.65429925581796
      ],
      [
        "▁stra",
        -9.65501154115479
      ],
      [
        "▁lose",
        -9.65512265924914
      ],
      [
        "right",
        -9.655283623440054
      ],
      [
        "▁official",
        -9.657046933864622
      ],
      [
        "sco",
        -9.657219348910786
      ],
      [
        "▁add",
        -9.657534726300668
      ],
      [
        "▁market",
        -9.658000547279752
      ],
      [
        "▁feature",
        -9.660050230298664
      ],
      [
        "▁glad",
        -9.660819904762873
      ],
      [
        "▁popular",
        -9.66091339271112
      ],
      [
        "▁square",
        -9.661228513304948
      ],
      [
        "▁worth",
        -9.661881770916631
      ],
      [
        "▁join",
        -9.66281128096706
      ],
      [
        "▁quiet",
        -9.663725868600542
      ],
      [
        "cia",
        -9.664005916986302
      ],
      [
        "▁title",
        -9.664345077097115
      ],
      [
        "▁stone",
        -9.665219026635508
      ],
      [
        "▁hunt",
        -9.667489409225126
      ],
      [
        "▁news",
        -9.667520221486797
      ],
      [
        "▁low",
        -9.667547337458751
      ],
      [
        "rab",
        -9.668070020424278
      ],
      [
        "▁david",
        -9.669762150692758
      ],
      [
        "▁board",
        -9.66984302196438
      ],
      [
        "▁civil",
        -9.670904078987894
      ],
      [
        "▁itself",
        -9.671618591369777
      ],
      [
        "▁flow",
        -9.672085904748156
      ],
      [
        "▁union",
        -9.672790347632386
      ],
      [
        "▁unit",
        -9.672959478026684
      ],
      [
        "▁finished",
        -9.674540856990726
      ],
      [
        "▁books",
        -9.674546035704816
      ],
      [
        "cause",
        -9.674744265591103
      ],
      [
        "▁herself",
        -9.674934701383316
      ],
      [
        "▁science",
        -9.677902793285863
      ],
      [
        "▁mouth",
        -9.681796687377558
      ],
      [
        "▁capital",
        -9.682753819466487
      ],
      [
        "▁finally",
        -9.683039828327734
      ],
      [
        "▁bag",
        -9.683186916785838
      ],
      [
        "cip",
        -9.68343400991828
      ],
      [
        "▁decided",
        -9.684376934088869
      ],
      [
        "▁hate",
        -9.684499290426931
      ],
      [
        "▁rain",
        -9.685027346091744
      ],
      [
        "mont",
        -9.686324516350693
      ],
      [
        "▁political",
        -9.690408592130735
      ],
      [
        "▁rich",
        -9.690669486047051
      ],
      [
        "dal",
        -9.693403228533631
      ],
      [
        "▁complete",
        -9.694660707955022
      ],
      [
        "▁expect",
        -9.69535971527879
      ],
      [
        "á",
        -9.696537331312433
      ],
      [
        "▁evening",
        -9.696598822892884
      ],
      [
        "▁fer",
        -9.696829356424852
      ],
      [
        "rick",
        -9.697690299193528
      ],
      [
        "▁protect",
        -9.69777289623736
      ],
      [
        "▁seem",
        -9.69781064315316
      ],
      [
        "aid",
        -9.698021266249617
      ],
      [
        "▁roll",
        -9.699876307006402
      ],
      [
        "▁notice",
        -9.7007056702787
      ],
      [
        "stro",
        -9.70162591725166
      ],
      [
        "▁funny",
        -9.701642103643476
      ],
      [
        "yes",
        -9.702838527484412
      ],
      [
        "lam",
        -9.70411839925125
      ],
      [
        "mission",
        -9.704239324919106
      ],
      [
        "cor",
        -9.704471049705456
      ],
      [
        "▁model",
        -9.705026083389487
      ],
      [
        "▁cal",
        -9.706274630784703
      ],
      [
        "▁store",
        -9.7064832207773
      ],
      [
        "▁simple",
        -9.706832289644591
      ],
      [
        "▁peace",
        -9.707063101884655
      ],
      [
        "▁self",
        -9.707733016782168
      ],
      [
        "▁push",
        -9.707900828488247
      ],
      [
        "pro",
        -9.707930088103923
      ],
      [
        "not",
        -9.708309084782954
      ],
      [
        "▁floor",
        -9.709083987449429
      ],
      [
        "▁month",
        -9.710927212858898
      ],
      [
        "▁burn",
        -9.713266163542665
      ],
      [
        "▁mommy",
        -9.713721457958137
      ],
      [
        "▁welcome",
        -9.714032155446048
      ],
      [
        "ize",
        -9.715259526612831
      ],
      [
        "▁breath",
        -9.715643681194456
      ],
      [
        "▁condition",
        -9.715994560571804
      ],
      [
        "▁served",
        -9.716344892271794
      ],
      [
        "▁wants",
        -9.71670789299476
      ],
      [
        "formed",
        -9.71929320343412
      ],
      [
        "▁james",
        -9.71952181479426
      ],
      [
        "▁community",
        -9.722282270677866
      ],
      [
        "▁mary",
        -9.722738328135756
      ],
      [
        "▁central",
        -9.722964375041457
      ],
      [
        "▁beginning",
        -9.72429002978806
      ],
      [
        "uck",
        -9.724611064097642
      ],
      [
        "▁crazy",
        -9.724922260331596
      ],
      [
        "▁bre",
        -9.72580766622782
      ],
      [
        "▁dinner",
        -9.726116310566171
      ],
      [
        "▁computer",
        -9.726265946497564
      ],
      [
        "▁blow",
        -9.72679556859748
      ],
      [
        "▁card",
        -9.727538501206825
      ],
      [
        "▁publishe",
        -9.728954328691302
      ],
      [
        "ford",
        -9.729426946706022
      ],
      [
        "▁glo",
        -9.729648993208626
      ],
      [
        "▁japan",
        -9.730488628932152
      ],
      [
        "house",
        -9.732472846749578
      ],
      [
        "▁hum",
        -9.73264269368486
      ],
      [
        "▁wild",
        -9.73376349597863
      ],
      [
        "▁mum",
        -9.734193936023098
      ],
      [
        "▁jump",
        -9.735548521791353
      ],
      [
        "▁machine",
        -9.73556875763592
      ],
      [
        "▁passed",
        -9.735799656511658
      ],
      [
        "comm",
        -9.735975000602808
      ],
      [
        "tation",
        -9.73750868010903
      ],
      [
        "▁damn",
        -9.737618093294632
      ],
      [
        "▁def",
        -9.73785328938956
      ],
      [
        "▁rat",
        -9.738056071162555
      ],
      [
        "▁famous",
        -9.738991402018325
      ],
      [
        "▁radio",
        -9.739031575674211
      ],
      [
        "▁similar",
        -9.74081347393936
      ],
      [
        "▁championship",
        -9.742134884260636
      ],
      [
        "▁sick",
        -9.742720062374712
      ],
      [
        "▁boat",
        -9.743241268745026
      ],
      [
        "▁murder",
        -9.743335706921766
      ],
      [
        "▁whose",
        -9.743403649863891
      ],
      [
        "ez",
        -9.743665452057588
      ],
      [
        "▁kiss",
        -9.743888971244177
      ],
      [
        "▁flo",
        -9.744319591872804
      ],
      [
        "clu",
        -9.744762772562476
      ],
      [
        "▁grow",
        -9.746751246079066
      ],
      [
        "▁problems",
        -9.749004041844216
      ],
      [
        "dge",
        -9.749779520544823
      ],
      [
        "▁leaving",
        -9.749868862018918
      ],
      [
        "▁society",
        -9.75044909353506
      ],
      [
        "pal",
        -9.750784343061598
      ],
      [
        "▁stick",
        -9.750808131450732
      ],
      [
        "form",
        -9.751888251640173
      ],
      [
        "▁germany",
        -9.752214789475808
      ],
      [
        "▁studie",
        -9.753147968018183
      ],
      [
        "▁drop",
        -9.753259386256088
      ],
      [
        "▁research",
        -9.753803186128325
      ],
      [
        "art",
        -9.754160725871724
      ],
      [
        "ants",
        -9.754673009625137
      ],
      [
        "▁scot",
        -9.75563340816298
      ],
      [
        "▁pet",
        -9.7565066708829
      ],
      [
        "▁telling",
        -9.75680023988248
      ],
      [
        "▁commune",
        -9.756861946433723
      ],
      [
        "▁forward",
        -9.757109592427948
      ],
      [
        "▁bus",
        -9.757661039975805
      ],
      [
        "▁ahead",
        -9.759763850990604
      ],
      [
        "▁certainly",
        -9.76044435159834
      ],
      [
        "pic",
        -9.760554412807474
      ],
      [
        "▁election",
        -9.760572639247066
      ],
      [
        "▁spa",
        -9.76159340521129
      ],
      [
        "▁page",
        -9.761681551573798
      ],
      [
        "▁offer",
        -9.76170369193424
      ],
      [
        "pos",
        -9.763003125741582
      ],
      [
        "▁begin",
        -9.763299955521148
      ],
      [
        "cycl",
        -9.763435976192149
      ],
      [
        "▁situation",
        -9.764888912955106
      ],
      [
        "bit",
        -9.765365019070892
      ],
      [
        "luc",
        -9.765408684159468
      ],
      [
        "▁sur",
        -9.76579794737763
      ],
      [
        "▁development",
        -9.76583922126343
      ],
      [
        "▁contain",
        -9.766071024384416
      ],
      [
        "▁gas",
        -9.768417446384692
      ],
      [
        "▁reg",
        -9.769753950984814
      ],
      [
        "▁garden",
        -9.76991883891615
      ],
      [
        "▁account",
        -9.770107561322057
      ],
      [
        "▁happens",
        -9.771221093379935
      ],
      [
        "▁suppose",
        -9.77134647238316
      ],
      [
        "▁function",
        -9.772583220936186
      ],
      [
        "▁consider",
        -9.7726279721409
      ],
      [
        "▁aha",
        -9.77284277606108
      ],
      [
        "▁especially",
        -9.772973667204496
      ],
      [
        "▁subject",
        -9.774064220948242
      ],
      [
        "▁ros",
        -9.774627254042612
      ],
      [
        "▁rep",
        -9.774678731719312
      ],
      [
        "▁wow",
        -9.775740699699544
      ],
      [
        "▁appear",
        -9.776978023473358
      ],
      [
        "gui",
        -9.777048971120731
      ],
      [
        "▁michael",
        -9.778336411714667
      ],
      [
        "▁uncle",
        -9.779711917686486
      ],
      [
        "▁describe",
        -9.779831618386474
      ],
      [
        "▁anti",
        -9.780532331516262
      ],
      [
        "▁vote",
        -9.781851509539068
      ],
      [
        "▁provide",
        -9.782450298863148
      ],
      [
        "▁professional",
        -9.784502173719396
      ],
      [
        "▁interesting",
        -9.784739081196964
      ],
      [
        "▁opened",
        -9.78527892923875
      ],
      [
        "▁chair",
        -9.78598070667738
      ],
      [
        "bru",
        -9.786068818605427
      ],
      [
        "ville",
        -9.786604596163563
      ],
      [
        "▁returned",
        -9.788123026154851
      ],
      [
        "▁nation",
        -9.788805734051492
      ],
      [
        "▁anybody",
        -9.78965238049065
      ],
      [
        "▁province",
        -9.789652384195652
      ],
      [
        "▁robert",
        -9.790195131405666
      ],
      [
        "▁brain",
        -9.790667220737104
      ],
      [
        "▁stood",
        -9.79086508659402
      ],
      [
        "▁exist",
        -9.79206140919526
      ],
      [
        "por",
        -9.792991957529138
      ],
      [
        "ular",
        -9.793036790633494
      ],
      [
        "▁quickly",
        -9.793179155053997
      ],
      [
        "ju",
        -9.793724463846436
      ],
      [
        "▁sitting",
        -9.793806866841589
      ],
      [
        "▁sch",
        -9.794459367735202
      ],
      [
        "▁fellow",
        -9.79512505708206
      ],
      [
        "unt",
        -9.797146493706752
      ],
      [
        "▁energy",
        -9.798046441122008
      ],
      [
        "▁writing",
        -9.798655993565765
      ],
      [
        "▁total",
        -9.7989311344818
      ],
      [
        "▁ice",
        -9.79916286727386
      ],
      [
        "▁require",
        -9.799269861540257
      ],
      [
        "▁goal",
        -9.79999340751684
      ],
      [
        "ppe",
        -9.800387493498802
      ],
      [
        "▁cook",
        -9.801517067116784
      ],
      [
        "place",
        -9.80245235468338
      ],
      [
        "▁forest",
        -9.802787926232709
      ],
      [
        "▁success",
        -9.803907499756855
      ],
      [
        "▁suit",
        -9.804950322560517
      ],
      [
        "▁lake",
        -9.805179044773228
      ],
      [
        "ö",
        -9.80538554264551
      ],
      [
        "▁finger",
        -9.805387176258728
      ],
      [
        "▁division",
        -9.805459846299838
      ],
      [
        "load",
        -9.806104676081972
      ],
      [
        "▁giving",
        -9.806512073436936
      ],
      [
        "▁guard",
        -9.80769011325449
      ],
      [
        "room",
        -9.809200489718632
      ],
      [
        "▁students",
        -9.809504028767115
      ],
      [
        "▁pin",
        -9.809632367043418
      ],
      [
        "▁spend",
        -9.810500513858797
      ],
      [
        "riv",
        -9.810576770852666
      ],
      [
        "▁quick",
        -9.811499813186124
      ],
      [
        "▁individual",
        -9.811645825880126
      ],
      [
        "var",
        -9.812191312209286
      ],
      [
        "yard",
        -9.814556754160458
      ],
      [
        "berg",
        -9.81655672968909
      ],
      [
        "rib",
        -9.817571693508247
      ],
      [
        "▁weeks",
        -9.817868538170416
      ],
      [
        "phi",
        -9.818133742059302
      ],
      [
        "▁modern",
        -9.81838638711649
      ],
      [
        "▁wear",
        -9.820815837833212
      ],
      [
        "▁nature",
        -9.822542950155968
      ],
      [
        "▁cop",
        -9.823170931355357
      ],
      [
        "▁search",
        -9.82486011955311
      ],
      [
        "▁increase",
        -9.825015319158297
      ],
      [
        "gle",
        -9.826259520925884
      ],
      [
        "▁artist",
        -9.82727488722945
      ],
      [
        "▁california",
        -9.827731685323853
      ],
      [
        "▁prove",
        -9.828206892194483
      ],
      [
        "elle",
        -9.8295242363215
      ],
      [
        "▁bridge",
        -9.830998379650856
      ],
      [
        "circ",
        -9.831244698985918
      ],
      [
        "▁ku",
        -9.831458346518524
      ],
      [
        "▁royal",
        -9.834555857209637
      ],
      [
        "pil",
        -9.834622288201723
      ],
      [
        "ible",
        -9.83479108192992
      ],
      [
        "▁host",
        -9.83488485975984
      ],
      [
        "▁block",
        -9.835655575463525
      ],
      [
        "▁sad",
        -9.835809674225509
      ],
      [
        "cher",
        -9.836354035311825
      ],
      [
        "▁teacher",
        -9.83708169955579
      ],
      [
        "▁countries",
        -9.837918818236751
      ],
      [
        "▁mod",
        -9.837919602186734
      ],
      [
        "▁site",
        -9.839621378885864
      ],
      [
        "▁finish",
        -9.839786299064622
      ],
      [
        "▁towards",
        -9.839819593469572
      ],
      [
        "▁honor",
        -9.83996347497745
      ],
      [
        "▁christ",
        -9.840416448679012
      ],
      [
        "▁moving",
        -9.840577757070273
      ],
      [
        "▁particular",
        -9.842240330790956
      ],
      [
        "▁bell",
        -9.842529211271737
      ],
      [
        "▁military",
        -9.84280522897282
      ],
      [
        "▁difference",
        -9.842911466094469
      ],
      [
        "▁reached",
        -9.843720900570682
      ],
      [
        "▁miles",
        -9.844738821908328
      ],
      [
        "▁indeed",
        -9.848135448639422
      ],
      [
        "▁fu",
        -9.84822971655067
      ],
      [
        "▁bro",
        -9.848608525481463
      ],
      [
        "▁india",
        -9.848956413228642
      ],
      [
        "▁christian",
        -9.84915818985218
      ],
      [
        "▁trade",
        -9.850279188137955
      ],
      [
        "▁ride",
        -9.851534995531772
      ],
      [
        "nor",
        -9.852528569025402
      ],
      [
        "▁base",
        -9.8530072762429
      ],
      [
        "▁sex",
        -9.8532542831598
      ],
      [
        "▁movement",
        -9.853522778185429
      ],
      [
        "like",
        -9.85375706582666
      ],
      [
        "▁alive",
        -9.85384809116475
      ],
      [
        "ened",
        -9.856424491184384
      ],
      [
        "ability",
        -9.856957234335647
      ],
      [
        "▁pack",
        -9.857420510956468
      ],
      [
        "▁japanese",
        -9.861576303706649
      ],
      [
        "▁spring",
        -9.862035728190904
      ],
      [
        "▁actor",
        -9.863190459303052
      ],
      [
        "fil",
        -9.86393737528848
      ],
      [
        "▁build",
        -9.864559556545906
      ],
      [
        "gil",
        -9.865578615509328
      ],
      [
        "▁perfect",
        -9.865720061067984
      ],
      [
        "▁kingdom",
        -9.866232670333783
      ],
      [
        "▁soul",
        -9.866507708051085
      ],
      [
        "▁mac",
        -9.866697435459068
      ],
      [
        "win",
        -9.867747976344386
      ],
      [
        "▁version",
        -9.867853368875
      ],
      [
        "▁amount",
        -9.869561899510964
      ],
      [
        "▁appeared",
        -9.87066598120958
      ],
      [
        "top",
        -9.87075241905354
      ],
      [
        "▁sum",
        -9.872566568854
      ],
      [
        "▁size",
        -9.873188117341776
      ],
      [
        "ttle",
        -9.876464828065393
      ],
      [
        "▁needs",
        -9.8766603026188
      ],
      [
        "▁caught",
        -9.877062006754514
      ],
      [
        "▁ooh",
        -9.87710523386959
      ],
      [
        "▁path",
        -9.877535503093302
      ],
      [
        "▁private",
        -9.87793274558328
      ],
      [
        "▁located",
        -9.877946353682592
      ],
      [
        "▁mill",
        -9.879315476854986
      ],
      [
        "act",
        -9.88011599483049
      ],
      [
        "▁lower",
        -9.881159965338536
      ],
      [
        "▁followed",
        -9.88172866445201
      ],
      [
        "rom",
        -9.883191907591032
      ],
      [
        "ities",
        -9.883193939567434
      ],
      [
        "▁except",
        -9.883459582368465
      ],
      [
        "▁fin",
        -9.88475659405778
      ],
      [
        "▁explain",
        -9.88559120095628
      ],
      [
        "vision",
        -9.88847075104306
      ],
      [
        "▁deb",
        -9.889015767486828
      ],
      [
        "▁score",
        -9.889170996031453
      ],
      [
        "exp",
        -9.889824652299009
      ],
      [
        "▁decision",
        -9.889996762645648
      ],
      [
        "▁extra",
        -9.89019173719782
      ],
      [
        "▁none",
        -9.890844888223244
      ],
      [
        "sigh",
        -9.890963884425773
      ],
      [
        "▁command",
        -9.891460878342542
      ],
      [
        "▁arch",
        -9.891824822787806
      ],
      [
        "board",
        -9.892333189362096
      ],
      [
        "▁spirit",
        -9.893735741860707
      ],
      [
        "bol",
        -9.893829465099444
      ],
      [
        "▁saint",
        -9.895342877444982
      ],
      [
        "work",
        -9.896393602286905
      ],
      [
        "▁operation",
        -9.89678106549444
      ],
      [
        "▁drug",
        -9.897329070108274
      ],
      [
        "▁politician",
        -9.898605729336666
      ],
      [
        "▁mass",
        -9.898679564828887
      ],
      [
        "▁anymore",
        -9.898934058987267
      ],
      [
        "▁fan",
        -9.89936098926141
      ],
      [
        "▁flu",
        -9.899361687281688
      ],
      [
        "▁aunt",
        -9.900329217651928
      ],
      [
        "▁spot",
        -9.900385699477784
      ],
      [
        "▁scar",
        -9.9006354696465
      ],
      [
        "port",
        -9.901293574892716
      ],
      [
        "▁product",
        -9.901588208854069
      ],
      [
        "ale",
        -9.902045167843898
      ],
      [
        "▁reach",
        -9.903400538789793
      ],
      [
        "ü",
        -9.903672166602824
      ],
      [
        "▁limit",
        -9.904976196976078
      ],
      [
        "▁belong",
        -9.905277663164242
      ],
      [
        "▁price",
        -9.9059537387427
      ],
      [
        "rum",
        -9.910110374432191
      ],
      [
        "▁egg",
        -9.910132266959002
      ],
      [
        "▁professor",
        -9.910240335050275
      ],
      [
        "ency",
        -9.91182090225197
      ],
      [
        "uch",
        -9.912281050301685
      ],
      [
        "pie",
        -9.91303268152731
      ],
      [
        "▁depend",
        -9.913150893266623
      ],
      [
        "▁message",
        -9.913641837167038
      ],
      [
        "▁employ",
        -9.913768679866058
      ],
      [
        "▁questions",
        -9.915418624645614
      ],
      [
        "▁needed",
        -9.915715484962538
      ],
      [
        "▁various",
        -9.915938148787369
      ],
      [
        "mini",
        -9.916042848085214
      ],
      [
        "▁warm",
        -9.917389750039789
      ],
      [
        "▁suddenly",
        -9.917822160232747
      ],
      [
        "ough",
        -9.918356786044471
      ],
      [
        "ctor",
        -9.918841972754755
      ],
      [
        "▁current",
        -9.918935068339527
      ],
      [
        "▁doubt",
        -9.919064105595009
      ],
      [
        "▁whom",
        -9.91925414149011
      ],
      [
        "▁snow",
        -9.9206154291878
      ],
      [
        "▁jesus",
        -9.921966991696584
      ],
      [
        "ston",
        -9.92212241817687
      ],
      [
        "▁opera",
        -9.922953041643398
      ],
      [
        "▁material",
        -9.923053549108438
      ],
      [
        "▁crime",
        -9.92414523830514
      ],
      [
        "radi",
        -9.92486749705215
      ],
      [
        "▁degree",
        -9.927083126579417
      ],
      [
        "▁audi",
        -9.927720687507438
      ],
      [
        "▁min",
        -9.92829031428258
      ],
      [
        "▁sounds",
        -9.92988256958108
      ],
      [
        "▁coast",
        -9.929942579194837
      ],
      [
        "hop",
        -9.930151987987724
      ],
      [
        "▁stopped",
        -9.93091876723606
      ],
      [
        "▁moon",
        -9.931498012646385
      ],
      [
        "▁bob",
        -9.93205540324402
      ],
      [
        "tern",
        -9.932426278009908
      ],
      [
        "í",
        -9.932528579956733
      ],
      [
        "▁hurry",
        -9.934006012640332
      ],
      [
        "▁somewhere",
        -9.93403329342524
      ],
      [
        "▁scene",
        -9.934195159709253
      ],
      [
        "▁wonderful",
        -9.934779105156023
      ],
      [
        "▁serious",
        -9.934912224720028
      ],
      [
        "▁western",
        -9.935505009797646
      ],
      [
        "ised",
        -9.935562536067216
      ],
      [
        "ette",
        -9.935996334993138
      ],
      [
        "▁kat",
        -9.938144347249288
      ],
      [
        "▁european",
        -9.938614959373345
      ],
      [
        "▁data",
        -9.94019194852228
      ],
      [
        "anna",
        -9.940368535060404
      ],
      [
        "▁allowed",
        -9.941141700400648
      ],
      [
        "▁stupid",
        -9.942805677954446
      ],
      [
        "▁enjoy",
        -9.94299487435275
      ],
      [
        "▁broke",
        -9.943279083671008
      ],
      [
        "▁sold",
        -9.943716185788196
      ],
      [
        "▁standing",
        -9.944177375188303
      ],
      [
        "▁judge",
        -9.945078300200349
      ],
      [
        "▁choice",
        -9.945750955228291
      ],
      [
        "▁animals",
        -9.947147230819253
      ],
      [
        "pen",
        -9.948438997066832
      ],
      [
        "pel",
        -9.9488873618141
      ],
      [
        "▁realize",
        -9.949180785566268
      ],
      [
        "▁europe",
        -9.95127950361348
      ],
      [
        "▁soft",
        -9.952047483865949
      ],
      [
        "clock",
        -9.954227655540477
      ],
      [
        "▁factor",
        -9.954746916623671
      ],
      [
        "▁fly",
        -9.957572739316488
      ],
      [
        "▁heavy",
        -9.95879384152667
      ],
      [
        "▁mistake",
        -9.95914096754549
      ],
      [
        "stor",
        -9.960722976846844
      ],
      [
        "▁thirty",
        -9.961405111188864
      ],
      [
        "meter",
        -9.962925075723245
      ],
      [
        "pha",
        -9.964102955134704
      ],
      [
        "▁paid",
        -9.965458929599816
      ],
      [
        "▁patient",
        -9.96669958179737
      ],
      [
        "▁organ",
        -9.967184722252505
      ],
      [
        "horn",
        -9.967211257482608
      ],
      [
        "▁female",
        -9.968365089416348
      ],
      [
        "▁therefore",
        -9.968460231805375
      ],
      [
        "▁shop",
        -9.969859287536735
      ],
      [
        "▁spent",
        -9.970892558990496
      ],
      [
        "▁imagine",
        -9.971742323164156
      ],
      [
        "▁refer",
        -9.9720083010862
      ],
      [
        "▁answered",
        -9.97284225728695
      ],
      [
        "▁serve",
        -9.974226644779796
      ],
      [
        "▁coach",
        -9.974631395935075
      ],
      [
        "▁bought",
        -9.975020997693948
      ],
      [
        "▁accept",
        -9.975689839130292
      ],
      [
        "pot",
        -9.976917950834608
      ],
      [
        "▁attempt",
        -9.977339628520475
      ],
      [
        "▁involved",
        -9.977973948028156
      ],
      [
        "▁escape",
        -9.978654869542131
      ],
      [
        "sens",
        -9.980522692406836
      ],
      [
        "▁terms",
        -9.982066434127566
      ],
      [
        "oul",
        -9.982146296806487
      ],
      [
        "▁clar",
        -9.982357950647788
      ],
      [
        "▁formula",
        -9.98238550579921
      ],
      [
        "▁entire",
        -9.982796785985188
      ],
      [
        "uni",
        -9.982885201708685
      ],
      [
        "▁attention",
        -9.983164811833356
      ],
      [
        "covered",
        -9.983448545791203
      ],
      [
        "▁production",
        -9.983914473376233
      ],
      [
        "pet",
        -9.984220326815413
      ],
      [
        "▁relationship",
        -9.985689413786622
      ],
      [
        "▁pray",
        -9.985979292659817
      ],
      [
        "▁regard",
        -9.987026346072524
      ],
      [
        "els",
        -9.987273995026088
      ],
      [
        "lov",
        -9.987588845745137
      ],
      [
        "produced",
        -9.989059849808788
      ],
      [
        "where",
        -9.989287637371984
      ],
      [
        "▁ki",
        -9.9902718077206
      ],
      [
        "▁northern",
        -9.991487604689482
      ],
      [
        "‘",
        -9.992002977608204
      ],
      [
        "rou",
        -9.99216509520285
      ],
      [
        "night",
        -9.994779230365268
      ],
      [
        "▁china",
        -9.99513245543328
      ],
      [
        "▁joined",
        -9.995203059128468
      ],
      [
        "▁plus",
        -9.995220957201017
      ],
      [
        "under",
        -9.996509557957756
      ],
      [
        "▁nearly",
        -9.997180060289246
      ],
      [
        "▁considered",
        -9.998150720805288
      ],
      [
        "bert",
        -9.99890571422964
      ],
      [
        "▁double",
        -10.000201129161637
      ],
      [
        "▁practice",
        -10.000671228984473
      ],
      [
        "▁largest",
        -10.002201009969298
      ],
      [
        "▁mag",
        -10.00266095036173
      ],
      [
        "▁dev",
        -10.003795295937223
      ],
      [
        "▁joe",
        -10.005427464876243
      ],
      [
        "▁corner",
        -10.005487041306408
      ],
      [
        "▁br",
        -10.005799032713393
      ],
      [
        "ification",
        -10.006293671281982
      ],
      [
        "▁marriage",
        -10.008286986251948
      ],
      [
        "tune",
        -10.008750604064332
      ],
      [
        "▁winter",
        -10.00940840665756
      ],
      [
        "tered",
        -10.010290972309235
      ],
      [
        "▁asking",
        -10.010864244853144
      ],
      [
        "▁tired",
        -10.0122213721997
      ],
      [
        "▁sing",
        -10.012884188996804
      ],
      [
        "▁evidence",
        -10.013438267818712
      ],
      [
        "tory",
        -10.013500352524243
      ],
      [
        "▁purpose",
        -10.013701323457235
      ],
      [
        "▁milk",
        -10.014586660837656
      ],
      [
        "▁speed",
        -10.015093044891442
      ],
      [
        "ization",
        -10.015271664333424
      ],
      [
        "▁governor",
        -10.01548357769497
      ],
      [
        "aka",
        -10.015546668685966
      ],
      [
        "mun",
        -10.01612968226165
      ],
      [
        "▁attend",
        -10.01637748627471
      ],
      [
        "shire",
        -10.016475134893948
      ],
      [
        "▁sar",
        -10.016909553573472
      ],
      [
        "script",
        -10.016989075805112
      ],
      [
        "▁trip",
        -10.017981667421854
      ],
      [
        "▁separate",
        -10.018110695095665
      ],
      [
        "▁bright",
        -10.018276622373705
      ],
      [
        "rain",
        -10.018493681555125
      ],
      [
        "▁grew",
        -10.018682973642475
      ],
      [
        "▁measure",
        -10.019894891088416
      ],
      [
        "▁richard",
        -10.021109730549238
      ],
      [
        "▁pig",
        -10.022529568162636
      ],
      [
        "▁clothes",
        -10.022582882415731
      ],
      [
        "directed",
        -10.022803932086005
      ],
      [
        "▁wil",
        -10.0236072755229
      ],
      [
        "▁southern",
        -10.024288815953453
      ],
      [
        "▁agree",
        -10.025207431162029
      ],
      [
        "́",
        -10.02560483498951
      ],
      [
        "▁moo",
        -10.02623958988422
      ],
      [
        "▁source",
        -10.027137652905616
      ],
      [
        "▁yellow",
        -10.027904475487672
      ],
      [
        "▁bomb",
        -10.028626965941124
      ],
      [
        "▁charles",
        -10.029467629166902
      ],
      [
        "▁meaning",
        -10.02967610298828
      ],
      [
        "▁completely",
        -10.03027660111544
      ],
      [
        "▁faith",
        -10.030462378499733
      ],
      [
        "▁fifty",
        -10.031359355139967
      ],
      [
        "▁crow",
        -10.032961685035817
      ],
      [
        "▁simply",
        -10.033418162394083
      ],
      [
        "▁christmas",
        -10.036122844693486
      ],
      [
        "▁lee",
        -10.03669766780046
      ],
      [
        "▁tim",
        -10.036784410614809
      ],
      [
        "wood",
        -10.03695170187564
      ],
      [
        "▁approach",
        -10.037921529012438
      ],
      [
        "hmm",
        -10.038778132944245
      ],
      [
        "▁accident",
        -10.038954724202428
      ],
      [
        "▁frog",
        -10.039191400013344
      ],
      [
        "▁census",
        -10.039602760816557
      ],
      [
        "year",
        -10.040495093337478
      ],
      [
        "▁dig",
        -10.040551176168726
      ],
      [
        "▁wave",
        -10.040686986519752
      ],
      [
        "▁treat",
        -10.041144475439452
      ],
      [
        "▁organization",
        -10.041331737124132
      ],
      [
        "▁cheer",
        -10.042078034619609
      ],
      [
        "lop",
        -10.0425019266153
      ],
      [
        "▁create",
        -10.042549940802068
      ],
      [
        "▁luck",
        -10.042792833848123
      ],
      [
        "▁auto",
        -10.0429690547067
      ],
      [
        "▁sight",
        -10.043082319984933
      ],
      [
        "▁method",
        -10.043618108633298
      ],
      [
        "▁added",
        -10.04399787398932
      ],
      [
        "▁farm",
        -10.044182417940934
      ],
      [
        "▁dollar",
        -10.044836443186115
      ],
      [
        "nov",
        -10.047839981593183
      ],
      [
        "▁absolutely",
        -10.048646545843903
      ],
      [
        "▁partner",
        -10.0502036322028
      ],
      [
        "▁coffee",
        -10.050391616284651
      ],
      [
        "▁code",
        -10.050808525207112
      ],
      [
        "gram",
        -10.051161114632452
      ],
      [
        "▁centre",
        -10.051270759424131
      ],
      [
        "stories",
        -10.051312402145603
      ],
      [
        "back",
        -10.051670851247724
      ],
      [
        "▁author",
        -10.052741995139154
      ],
      [
        "▁male",
        -10.05330692814544
      ],
      [
        "▁contract",
        -10.054203336883567
      ],
      [
        "▁broken",
        -10.054413269311295
      ],
      [
        "onal",
        -10.055807463064392
      ],
      [
        "▁thus",
        -10.056050602827762
      ],
      [
        "▁regular",
        -10.061111703705407
      ],
      [
        "▁spoke",
        -10.061986345785122
      ],
      [
        "▁flat",
        -10.062431761726929
      ],
      [
        "stra",
        -10.063383267585994
      ],
      [
        "ense",
        -10.064010391570749
      ],
      [
        "ried",
        -10.06496740388291
      ],
      [
        "▁honest",
        -10.06514121742363
      ],
      [
        "head",
        -10.065310161965964
      ],
      [
        "▁sav",
        -10.065313557890171
      ],
      [
        "occ",
        -10.06799858495456
      ],
      [
        "▁boss",
        -10.069084408546182
      ],
      [
        "▁afternoon",
        -10.070727470267204
      ],
      [
        "▁storm",
        -10.071027423508674
      ],
      [
        "▁direction",
        -10.071397249532575
      ],
      [
        "▁mol",
        -10.073310252799764
      ],
      [
        "▁watching",
        -10.07355900185964
      ],
      [
        "lev",
        -10.074726665193989
      ],
      [
        "▁bottom",
        -10.07567444671141
      ],
      [
        "▁writer",
        -10.076321574679344
      ],
      [
        "▁training",
        -10.076481369346162
      ],
      [
        "▁singer",
        -10.076828984380612
      ],
      [
        "▁included",
        -10.076895015530324
      ],
      [
        "▁yesterday",
        -10.077015710547595
      ],
      [
        "▁cow",
        -10.078121775116422
      ],
      [
        "▁element",
        -10.078494311079776
      ],
      [
        "▁marry",
        -10.079072632193752
      ],
      [
        "▁standard",
        -10.07954087067821
      ],
      [
        "▁australia",
        -10.07997839493429
      ],
      [
        "contin",
        -10.080930658594172
      ],
      [
        "▁starting",
        -10.081458444934452
      ],
      [
        "▁prime",
        -10.08266912658193
      ],
      [
        "▁address",
        -10.08362399136342
      ],
      [
        "▁lovely",
        -10.08448378845563
      ],
      [
        "tub",
        -10.085209047983046
      ],
      [
        "bound",
        -10.08562778836819
      ],
      [
        "▁below",
        -10.086252625735703
      ],
      [
        "graph",
        -10.087907668838133
      ],
      [
        "▁municipality",
        -10.087948338311396
      ],
      [
        "▁normal",
        -10.088334233460571
      ],
      [
        "▁mess",
        -10.088544046997624
      ],
      [
        "▁length",
        -10.08918197527968
      ],
      [
        "point",
        -10.08931425705364
      ],
      [
        "▁talked",
        -10.089434728820196
      ],
      [
        "ological",
        -10.089671006558522
      ],
      [
        "▁successful",
        -10.089776406508264
      ],
      [
        "▁network",
        -10.090394554716427
      ],
      [
        "lig",
        -10.09063334808604
      ],
      [
        "▁engine",
        -10.090882107866214
      ],
      [
        "▁committee",
        -10.092575284493511
      ],
      [
        "▁association",
        -10.093255196521728
      ],
      [
        "ably",
        -10.094056792753747
      ],
      [
        "▁security",
        -10.094893849950656
      ],
      [
        "this",
        -10.094968844568522
      ],
      [
        "determin",
        -10.095035218747157
      ],
      [
        "▁drama",
        -10.095697088414276
      ],
      [
        "▁hole",
        -10.096363251867553
      ],
      [
        "▁heaven",
        -10.096574778020644
      ],
      [
        "bling",
        -10.097576383081522
      ],
      [
        "▁birthday",
        -10.097842709715684
      ],
      [
        "▁unless",
        -10.098065840276146
      ],
      [
        "▁file",
        -10.098358556942497
      ],
      [
        "▁fox",
        -10.098616207838448
      ],
      [
        "istic",
        -10.100702730346782
      ],
      [
        "▁caused",
        -10.100736798488365
      ],
      [
        "▁text",
        -10.100984149011142
      ],
      [
        "▁princess",
        -10.101031187560492
      ],
      [
        "▁higher",
        -10.102004254946918
      ],
      [
        "▁studio",
        -10.102579497471016
      ],
      [
        "▁disease",
        -10.102990885482138
      ],
      [
        "▁stu",
        -10.104744911286502
      ],
      [
        "▁image",
        -10.10476731234968
      ],
      [
        "del",
        -10.105296994276854
      ],
      [
        "▁hotel",
        -10.10559074287097
      ],
      [
        "▁angel",
        -10.10621337070152
      ],
      [
        "▁distance",
        -10.10785517063315
      ],
      [
        "▁structure",
        -10.107961344786933
      ],
      [
        "▁episode",
        -10.108099834595771
      ],
      [
        "ically",
        -10.108293161770378
      ],
      [
        "▁weapon",
        -10.108386881949306
      ],
      [
        "▁collect",
        -10.108445848697247
      ],
      [
        "▁wake",
        -10.109183461638448
      ],
      [
        "▁henry",
        -10.109225576761022
      ],
      [
        "▁smile",
        -10.110132480290654
      ],
      [
        "▁detail",
        -10.11102160826626
      ],
      [
        "▁percent",
        -10.111668697921283
      ],
      [
        "read",
        -10.111710943849683
      ],
      [
        "▁tel",
        -10.111771981286283
      ],
      [
        "▁italian",
        -10.112012652905014
      ],
      [
        "▁ji",
        -10.11256199263298
      ],
      [
        "▁silver",
        -10.113795510703849
      ],
      [
        "town",
        -10.114830139624198
      ],
      [
        "▁tax",
        -10.115184896890645
      ],
      [
        "▁russian",
        -10.115276349601784
      ],
      [
        "▁worse",
        -10.115764220916889
      ],
      [
        "▁influence",
        -10.116443041012596
      ],
      [
        "▁founded",
        -10.118311846261673
      ],
      [
        "▁skin",
        -10.118632420008772
      ],
      [
        "▁average",
        -10.118823534028715
      ],
      [
        "▁release",
        -10.119361932298824
      ],
      [
        "▁interested",
        -10.119662513163986
      ],
      [
        "▁feed",
        -10.11995476726778
      ],
      [
        "helped",
        -10.12014193457509
      ],
      [
        "▁critic",
        -10.121398793610895
      ],
      [
        "▁ancient",
        -10.121643625325335
      ],
      [
        "▁washington",
        -10.12164719965693
      ],
      [
        "▁media",
        -10.12209839744999
      ],
      [
        "▁heat",
        -10.122714502496269
      ],
      [
        "nish",
        -10.122819906367477
      ],
      [
        "awa",
        -10.122943392527626
      ],
      [
        "▁consist",
        -10.123321888850832
      ],
      [
        "ó",
        -10.124152637727686
      ],
      [
        "▁showed",
        -10.124481303747562
      ],
      [
        "▁novel",
        -10.125801141596131
      ],
      [
        "▁custom",
        -10.127959677597069
      ],
      [
        "zar",
        -10.12903364341097
      ],
      [
        "▁strength",
        -10.129797258918138
      ],
      [
        "▁calling",
        -10.129920844498727
      ],
      [
        "▁martin",
        -10.130305687554705
      ],
      [
        "▁happening",
        -10.131597218866052
      ],
      [
        "▁wing",
        -10.131840513272614
      ],
      [
        "jun",
        -10.132164175937575
      ],
      [
        "▁settle",
        -10.132959194969228
      ],
      [
        "▁opportunit",
        -10.133057290199648
      ],
      [
        "▁pounds",
        -10.13323193976886
      ],
      [
        "▁agent",
        -10.134652994399085
      ],
      [
        "▁risk",
        -10.136453527420672
      ],
      [
        "▁claim",
        -10.1367572437226
      ],
      [
        "▁quarter",
        -10.13733030727608
      ],
      [
        "▁nose",
        -10.137445014441754
      ],
      [
        "anne",
        -10.137633727730778
      ],
      [
        "+",
        -10.138038797780409
      ],
      [
        "kel",
        -10.14088198403856
      ],
      [
        "▁performance",
        -10.141235789931498
      ],
      [
        "▁defeat",
        -10.141995211474502
      ],
      [
        "▁neck",
        -10.14208810276982
      ],
      [
        "▁fix",
        -10.142675487751204
      ],
      [
        "▁animal",
        -10.142737891098154
      ],
      [
        "▁correct",
        -10.14286541607923
      ],
      [
        "▁relat",
        -10.143261239532189
      ],
      [
        "arc",
        -10.143263479789312
      ],
      [
        "▁spi",
        -10.144244576723072
      ],
      [
        "▁tape",
        -10.145021415551131
      ],
      [
        "▁hung",
        -10.14514510819304
      ],
      [
        "▁economic",
        -10.14534229570206
      ],
      [
        "▁enter",
        -10.14585122084496
      ],
      [
        "▁tail",
        -10.145888683410773
      ],
      [
        "▁museum",
        -10.147790113884083
      ],
      [
        "▁section",
        -10.147992676610768
      ],
      [
        "▁access",
        -10.148368837695452
      ],
      [
        "▁slow",
        -10.14895586614232
      ],
      [
        "▁announced",
        -10.150069730304711
      ],
      [
        "▁putting",
        -10.150322756008444
      ],
      [
        "▁culture",
        -10.151274404887166
      ],
      [
        "▁bay",
        -10.151464499833692
      ],
      [
        "law",
        -10.152606654998314
      ],
      [
        "▁gain",
        -10.153432311774193
      ],
      [
        "mail",
        -10.153666039713784
      ],
      [
        "▁earlier",
        -10.154293711930505
      ],
      [
        "bal",
        -10.1545191083207
      ],
      [
        "▁divide",
        -10.154885213416312
      ],
      [
        "▁planet",
        -10.155047026845304
      ],
      [
        "▁phil",
        -10.155435023686223
      ],
      [
        "▁hide",
        -10.1561856263925
      ],
      [
        "▁canada",
        -10.156775517944354
      ],
      [
        "temp",
        -10.157462155254905
      ],
      [
        "▁print",
        -10.157512853234104
      ],
      [
        "▁wheel",
        -10.15768381882703
      ],
      [
        "wan",
        -10.15880537565042
      ],
      [
        "▁micro",
        -10.159283179623294
      ],
      [
        "▁fool",
        -10.160453436169906
      ],
      [
        "▁oil",
        -10.16145267739637
      ],
      [
        "▁carried",
        -10.1616288242563
      ],
      [
        "▁iron",
        -10.16187506225012
      ],
      [
        "hom",
        -10.16237708894086
      ],
      [
        "▁spread",
        -10.16304586230958
      ],
      [
        "▁tall",
        -10.163049177864425
      ],
      [
        "▁student",
        -10.165065470460467
      ],
      [
        "pul",
        -10.165209912440488
      ],
      [
        "press",
        -10.166141223452671
      ],
      [
        "▁medical",
        -10.166509220445882
      ],
      [
        "unk",
        -10.16966223385854
      ],
      [
        "bul",
        -10.169808648403537
      ],
      [
        "▁cry",
        -10.169892325204842
      ],
      [
        "▁speaking",
        -10.170036061231814
      ],
      [
        "hol",
        -10.170242461693872
      ],
      [
        "▁developed",
        -10.170391617533095
      ],
      [
        "▁gate",
        -10.171456395159453
      ],
      [
        "▁huge",
        -10.17388428712804
      ],
      [
        "▁demand",
        -10.175266518103175
      ],
      [
        "▁merc",
        -10.176190457920285
      ],
      [
        "▁fresh",
        -10.176380822811286
      ],
      [
        "rig",
        -10.17641439459046
      ],
      [
        "▁smell",
        -10.176479385501452
      ],
      [
        "▁busy",
        -10.1768357159309
      ],
      [
        "nnie",
        -10.17688356484074
      ],
      [
        "▁calm",
        -10.176996447455162
      ],
      [
        "▁africa",
        -10.17741465077118
      ],
      [
        "▁channel",
        -10.177474763176136
      ],
      [
        "gam",
        -10.177605288898596
      ],
      [
        "▁thomas",
        -10.177624155277242
      ],
      [
        "▁reading",
        -10.178101425802156
      ],
      [
        "aul",
        -10.178334925265784
      ],
      [
        "▁review",
        -10.17866256817202
      ],
      [
        "dian",
        -10.178880752543233
      ],
      [
        "▁fur",
        -10.18028611401216
      ],
      [
        "▁specific",
        -10.181500927058035
      ],
      [
        "▁flowers",
        -10.182618118043754
      ],
      [
        "▁document",
        -10.182686804357196
      ],
      [
        "continued",
        -10.18313934529636
      ],
      [
        "enny",
        -10.184046817179407
      ],
      [
        "▁edge",
        -10.184585475191556
      ],
      [
        "▁terrible",
        -10.184786889469038
      ],
      [
        "cep",
        -10.18485167780286
      ],
      [
        "▁youth",
        -10.185269225809767
      ],
      [
        "wise",
        -10.185629133177525
      ],
      [
        "▁bow",
        -10.18586894612567
      ],
      [
        "chan",
        -10.185903271837972
      ],
      [
        "▁available",
        -10.185969665104848
      ],
      [
        "elected",
        -10.18603771568225
      ],
      [
        "laughter",
        -10.18771424205352
      ],
      [
        "▁plain",
        -10.18842336793552
      ],
      [
        "▁dry",
        -10.18932367033594
      ],
      [
        "▁shape",
        -10.189432669829328
      ],
      [
        "rol",
        -10.19047680327842
      ],
      [
        "kir",
        -10.190934727831031
      ],
      [
        "▁damage",
        -10.192839740198876
      ],
      [
        "▁learned",
        -10.195691134576792
      ],
      [
        "▁beyond",
        -10.196663137641387
      ],
      [
        "▁apple",
        -10.196714290723651
      ],
      [
        "kle",
        -10.196950375135774
      ],
      [
        "▁joy",
        -10.197586257486208
      ],
      [
        "▁develop",
        -10.198347423226732
      ],
      [
        "necessary",
        -10.198347451542856
      ],
      [
        "▁jane",
        -10.198586244296935
      ],
      [
        "▁fourth",
        -10.19924146293534
      ],
      [
        "▁effort",
        -10.199533509459004
      ],
      [
        "laugh",
        -10.200392373037452
      ],
      [
        "▁ladies",
        -10.200516279814474
      ],
      [
        "▁fault",
        -10.200601990696564
      ],
      [
        "▁spe",
        -10.20097083734764
      ],
      [
        "gotten",
        -10.201770637160273
      ],
      [
        "▁magic",
        -10.202329676426505
      ],
      [
        "▁jim",
        -10.202621817910105
      ],
      [
        "ington",
        -10.202862329261738
      ],
      [
        "owned",
        -10.20389766222113
      ],
      [
        "▁harm",
        -10.204910171322302
      ],
      [
        "▁statistic",
        -10.20516619272558
      ],
      [
        "▁occasion",
        -10.20623210027117
      ],
      [
        "▁alex",
        -10.2072361802346
      ],
      [
        "▁chinese",
        -10.207303473258314
      ],
      [
        "▁established",
        -10.208536341221553
      ],
      [
        "▁advance",
        -10.209751675311969
      ],
      [
        "▁brand",
        -10.209757551791006
      ],
      [
        "▁weak",
        -10.210006557468724
      ],
      [
        "▁contact",
        -10.210304151054292
      ],
      [
        "gun",
        -10.21045433207395
      ],
      [
        "sexual",
        -10.21140928072065
      ],
      [
        "▁rev",
        -10.211868829491715
      ],
      [
        "▁steve",
        -10.2122991111771
      ],
      [
        "▁electro",
        -10.212981752268382
      ],
      [
        "▁scared",
        -10.213055990463529
      ],
      [
        "pressed",
        -10.213552942128755
      ],
      [
        "▁ocean",
        -10.214056753259726
      ],
      [
        "bri",
        -10.214233605028118
      ],
      [
        "▁commission",
        -10.215735861659091
      ],
      [
        "▁staff",
        -10.216937471937584
      ],
      [
        "▁multi",
        -10.217181468578278
      ],
      [
        "▁theory",
        -10.217678660343196
      ],
      [
        "▁manager",
        -10.218282622171904
      ],
      [
        "▁dep",
        -10.218342529789608
      ],
      [
        "▁dick",
        -10.21922608300198
      ],
      [
        "▁chapter",
        -10.219611200532125
      ],
      [
        "▁taste",
        -10.219722247077405
      ],
      [
        "▁wedding",
        -10.220762026917429
      ],
      [
        "▁valley",
        -10.220907577872566
      ],
      [
        "▁camera",
        -10.221609709744069
      ],
      [
        "▁twelve",
        -10.222245985566124
      ],
      [
        "▁wound",
        -10.22259761351886
      ],
      [
        "▁ought",
        -10.222932263759246
      ],
      [
        "ridge",
        -10.22374362601038
      ],
      [
        "who",
        -10.22452628985656
      ],
      [
        "▁adam",
        -10.225925978061555
      ],
      [
        "▁pair",
        -10.22622051132257
      ],
      [
        "▁bull",
        -10.226598241458651
      ],
      [
        "▁flight",
        -10.226658094855878
      ],
      [
        "▁obviously",
        -10.227883585288794
      ],
      [
        "▁border",
        -10.228170726292506
      ],
      [
        "cious",
        -10.228726201391668
      ],
      [
        "▁holding",
        -10.229146405756898
      ],
      [
        "▁surface",
        -10.229255576313706
      ],
      [
        "▁congress",
        -10.230037214962604
      ],
      [
        "▁dam",
        -10.230679163472118
      ],
      [
        "▁motor",
        -10.232703705639953
      ],
      [
        "key",
        -10.232717214610666
      ],
      [
        "hood",
        -10.234563143524417
      ],
      [
        "▁foreign",
        -10.23458862599112
      ],
      [
        "▁neither",
        -10.23521277175962
      ],
      [
        "▁screen",
        -10.236484428037942
      ],
      [
        "▁pressure",
        -10.236862047707085
      ],
      [
        "▁produce",
        -10.237864956939342
      ],
      [
        "▁golden",
        -10.238013442440144
      ],
      [
        "▁stock",
        -10.238042921914918
      ],
      [
        "rial",
        -10.238078291760775
      ],
      [
        "phy",
        -10.239251324081463
      ],
      [
        "▁recognize",
        -10.240257283179824
      ],
      [
        "▁competition",
        -10.240731521727827
      ],
      [
        "▁truck",
        -10.240953022606202
      ],
      [
        "▁parliament",
        -10.241205976353996
      ],
      [
        "fel",
        -10.241831523942752
      ],
      [
        "lou",
        -10.243593604530489
      ],
      [
        "▁appearance",
        -10.243658052809476
      ],
      [
        "eventually",
        -10.244062045078316
      ],
      [
        "▁magazine",
        -10.244216120238606
      ],
      [
        "▁eating",
        -10.244221627498574
      ],
      [
        "▁max",
        -10.244385341702388
      ],
      [
        "pac",
        -10.245604471689504
      ],
      [
        "▁dem",
        -10.24615325147686
      ],
      [
        "▁rub",
        -10.2468131864702
      ],
      [
        "claimed",
        -10.246996628652465
      ],
      [
        "▁firm",
        -10.247239767119996
      ],
      [
        "▁forgive",
        -10.247407751762667
      ],
      [
        "▁palace",
        -10.247733370345326
      ],
      [
        "▁mostly",
        -10.247800755777996
      ],
      [
        "▁olympic",
        -10.248350010099871
      ],
      [
        "▁eli",
        -10.248548502735863
      ],
      [
        "▁fighting",
        -10.250262123938787
      ],
      [
        "▁surprise",
        -10.250705302240323
      ],
      [
        "▁teach",
        -10.250877025963064
      ],
      [
        "▁castle",
        -10.251306554757235
      ],
      [
        "mark",
        -10.252247762598245
      ],
      [
        "▁native",
        -10.253657722506963
      ],
      [
        "▁birth",
        -10.2540388039102
      ],
      [
        "▁republic",
        -10.255794624334952
      ],
      [
        "bil",
        -10.256490286871175
      ],
      [
        "▁buck",
        -10.256866355559564
      ],
      [
        "▁handle",
        -10.2568909514087
      ],
      [
        "▁choose",
        -10.257324321766005
      ],
      [
        "▁smart",
        -10.25797959386672
      ],
      [
        "▁discover",
        -10.258771628567713
      ],
      [
        "▁lunch",
        -10.259572119031482
      ],
      [
        "▁korea",
        -10.259595673317552
      ],
      [
        "▁hor",
        -10.259739481458803
      ],
      [
        "▁louis",
        -10.261920303578238
      ],
      [
        "▁chart",
        -10.2623571792745
      ],
      [
        "▁gift",
        -10.262391790742312
      ],
      [
        "▁spr",
        -10.263554381413575
      ],
      [
        "bell",
        -10.263859621797582
      ],
      [
        "range",
        -10.263953247533257
      ],
      [
        "▁lucky",
        -10.26421519215413
      ],
      [
        "¶",
        -10.26522057545384
      ],
      [
        "▁suffer",
        -10.265546408293044
      ],
      [
        "▁swa",
        -10.265698018801046
      ],
      [
        "ulation",
        -10.26636725289632
      ],
      [
        "bro",
        -10.26650834940809
      ],
      [
        "▁spanish",
        -10.266581720371112
      ],
      [
        "▁prize",
        -10.266723871189354
      ],
      [
        "▁transport",
        -10.267054899977346
      ],
      [
        "conscious",
        -10.267415320082057
      ],
      [
        "▁texas",
        -10.26798485087318
      ],
      [
        "ula",
        -10.269481814042551
      ],
      [
        "stream",
        -10.271087172196072
      ],
      [
        "▁walking",
        -10.27136193639679
      ],
      [
        "spir",
        -10.271457733432133
      ],
      [
        "▁lying",
        -10.271759252687444
      ],
      [
        "▁replie",
        -10.271898860718045
      ],
      [
        "▁signed",
        -10.272841483807294
      ],
      [
        "▁twice",
        -10.273359818137438
      ],
      [
        "▁railway",
        -10.273592092069144
      ],
      [
        "▁fri",
        -10.273916030258874
      ],
      [
        "▁eastern",
        -10.274084809527391
      ],
      [
        "ddle",
        -10.274246995226704
      ],
      [
        "shore",
        -10.274477284560014
      ],
      [
        "down",
        -10.274588933095588
      ],
      [
        "▁constant",
        -10.275823146482868
      ],
      [
        "▁federal",
        -10.277334584896554
      ],
      [
        "▁revolution",
        -10.277611702424265
      ],
      [
        "▁discovered",
        -10.278494455213924
      ],
      [
        "▁admit",
        -10.278927176382616
      ],
      [
        "▁plate",
        -10.279614334104204
      ],
      [
        "▁arrived",
        -10.279911196571955
      ],
      [
        "▁raised",
        -10.28045159247495
      ],
      [
        "▁knowledge",
        -10.280734365075284
      ],
      [
        "▁zo",
        -10.281363692114514
      ],
      [
        "▁route",
        -10.28183561984875
      ],
      [
        "▁throughout",
        -10.282450993904389
      ],
      [
        "▁affair",
        -10.282545551676677
      ],
      [
        "▁fill",
        -10.283869433967968
      ],
      [
        "▁champion",
        -10.28456236672079
      ],
      [
        "▁fro",
        -10.284745233652927
      ],
      [
        "▁weight",
        -10.285140523552212
      ],
      [
        "▁dangerous",
        -10.285272730822864
      ],
      [
        "▁beach",
        -10.285589804923074
      ],
      [
        "▁broad",
        -10.285983089352138
      ],
      [
        "▁enemy",
        -10.288499010912838
      ],
      [
        "walked",
        -10.28947995040044
      ],
      [
        "lac",
        -10.29106137403969
      ],
      [
        "▁sharp",
        -10.292910571398329
      ],
      [
        "▁positive",
        -10.294987623011762
      ],
      [
        "greg",
        -10.295254575423906
      ],
      [
        "▁suggest",
        -10.295747491797671
      ],
      [
        "▁apart",
        -10.29594541566635
      ],
      [
        "▁physical",
        -10.296504758983016
      ],
      [
        "▁trick",
        -10.296627652862052
      ],
      [
        "▁thou",
        -10.296868490834823
      ],
      [
        "▁chris",
        -10.297308060740828
      ],
      [
        "▁kitchen",
        -10.297329678571234
      ],
      [
        "cen",
        -10.2978235176904
      ],
      [
        "▁desire",
        -10.298083446448972
      ],
      [
        "▁pennsylvania",
        -10.298164343454834
      ],
      [
        "▁guest",
        -10.299069256801394
      ],
      [
        "itch",
        -10.300229316643009
      ],
      [
        "▁content",
        -10.300528070008726
      ],
      [
        "rov",
        -10.301019115061283
      ],
      [
        "▁campaign",
        -10.301861067649574
      ],
      [
        "▁rise",
        -10.302532911698984
      ],
      [
        "▁angry",
        -10.303046344016735
      ],
      [
        "▁decide",
        -10.303897364296317
      ],
      [
        "▁grave",
        -10.30610667360772
      ],
      [
        "▁bless",
        -10.307374562170525
      ],
      [
        "▁shout",
        -10.307439136266863
      ],
      [
        "ude",
        -10.307900050739262
      ],
      [
        "▁independent",
        -10.308770503483558
      ],
      [
        "▁secretary",
        -10.30882916298056
      ],
      [
        "▁metal",
        -10.30895225034121
      ],
      [
        "}",
        -10.309617100189078
      ],
      [
        "▁forty",
        -10.310532060071171
      ],
      [
        "▁article",
        -10.31081355783662
      ],
      [
        "▁loss",
        -10.310886567363925
      ],
      [
        "▁empire",
        -10.310973902832544
      ],
      [
        "▁sail",
        -10.311195347522183
      ],
      [
        "▁colon",
        -10.312685202643832
      ],
      [
        "▁challenge",
        -10.314031006852025
      ],
      [
        "▁photo",
        -10.31450747726379
      ],
      [
        "mination",
        -10.314527576726366
      ],
      [
        "ä",
        -10.31505235771804
      ],
      [
        "▁policy",
        -10.316421353300344
      ],
      [
        "look",
        -10.316541619907976
      ],
      [
        "agon",
        -10.316582696279768
      ],
      [
        "▁memory",
        -10.317296886069643
      ],
      [
        "▁defend",
        -10.318506229454922
      ],
      [
        "▁temple",
        -10.319939389630855
      ],
      [
        "▁greek",
        -10.322576458012175
      ],
      [
        "▁gather",
        -10.324052988516485
      ],
      [
        "rav",
        -10.324099089674464
      ],
      [
        "▁giant",
        -10.32468752452401
      ],
      [
        "▁pleasure",
        -10.325495926438302
      ],
      [
        "▁weather",
        -10.325807896377173
      ],
      [
        "▁proud",
        -10.326536401129204
      ],
      [
        "▁labor",
        -10.328645841191184
      ],
      [
        "▁property",
        -10.32888032038606
      ],
      [
        "▁duck",
        -10.329563503850313
      ],
      [
        "▁newspaper",
        -10.329634912017752
      ],
      [
        "▁nut",
        -10.33056884071102
      ],
      [
        "▁lawyer",
        -10.3309220826261
      ],
      [
        "▁speech",
        -10.332452933705127
      ],
      [
        "▁credit",
        -10.33340258482016
      ],
      [
        "▁refuse",
        -10.335704508454622
      ],
      [
        "▁loud",
        -10.33703995918801
      ],
      [
        "▁noise",
        -10.337205221929253
      ],
      [
        "▁amazing",
        -10.337443146162162
      ],
      [
        "mond",
        -10.337598256751091
      ],
      [
        "vic",
        -10.33815617491463
      ],
      [
        "matic",
        -10.338236894740623
      ],
      [
        "▁tower",
        -10.338620302966284
      ],
      [
        "why",
        -10.338994324678428
      ],
      [
        "▁holy",
        -10.33935475607614
      ],
      [
        "▁chicago",
        -10.339534421049905
      ],
      [
        "▁impossibl",
        -10.339550374214635
      ],
      [
        "▁legal",
        -10.341648914162132
      ],
      [
        "▁bottle",
        -10.341934444950434
      ],
      [
        "▁medal",
        -10.34222296756053
      ],
      [
        "▁anywhere",
        -10.342234944135315
      ],
      [
        "▁gentlemen",
        -10.3430326744927
      ],
      [
        "▁definitely",
        -10.343206203392851
      ],
      [
        "▁slave",
        -10.34366870292892
      ],
      [
        "list",
        -10.344490889748869
      ],
      [
        "▁slowly",
        -10.345156164318968
      ],
      [
        "▁evil",
        -10.346228229311397
      ],
      [
        "▁colour",
        -10.34697029171366
      ],
      [
        "▁easily",
        -10.34865373761171
      ],
      [
        "▁spin",
        -10.348859579758232
      ],
      [
        "▁forgot",
        -10.351040873086054
      ],
      [
        "▁concern",
        -10.35115130211292
      ],
      [
        "▁dee",
        -10.35116479367952
      ],
      [
        "▁climb",
        -10.351719501609033
      ],
      [
        "▁copy",
        -10.351822050790092
      ],
      [
        "▁festival",
        -10.353418458891758
      ],
      [
        "door",
        -10.354813873180635
      ],
      [
        "▁sunday",
        -10.356771746280264
      ],
      [
        "▁soviet",
        -10.357675567099005
      ],
      [
        "▁laughing",
        -10.357686471893176
      ],
      [
        "▁discuss",
        -10.35838748916789
      ],
      [
        "leg",
        -10.35848674606468
      ],
      [
        "▁shoes",
        -10.358737980820642
      ],
      [
        "families",
        -10.360522654889376
      ],
      [
        "▁tar",
        -10.36142553252763
      ],
      [
        "viv",
        -10.361837265668145
      ],
      [
        "book",
        -10.363957877642756
      ],
      [
        "▁recorded",
        -10.363970390921452
      ],
      [
        "▁location",
        -10.365943331292527
      ],
      [
        "▁grass",
        -10.366488091682491
      ],
      [
        "mina",
        -10.36762180284144
      ],
      [
        "\\",
        -10.36821637525606
      ],
      [
        "izing",
        -10.368377573428592
      ],
      [
        "▁philosoph",
        -10.368575678158962
      ],
      [
        "▁technology",
        -10.369114848121152
      ],
      [
        "▁debut",
        -10.36923222115536
      ],
      [
        "▁perform",
        -10.370332001883083
      ],
      [
        "▁fruit",
        -10.370914487830971
      ],
      [
        "▁smoke",
        -10.37200945419367
      ],
      [
        "▁rough",
        -10.37356988198516
      ],
      [
        "▁victim",
        -10.37361966350962
      ],
      [
        "▁painting",
        -10.373730412197622
      ],
      [
        "▁prevent",
        -10.3738300632609
      ],
      [
        "currently",
        -10.374313735762763
      ],
      [
        "with",
        -10.374971301765822
      ],
      [
        "▁bigger",
        -10.375455389057466
      ],
      [
        "▁opinion",
        -10.37560784309853
      ],
      [
        "▁dropped",
        -10.375711401108507
      ],
      [
        "▁entered",
        -10.376016244307458
      ],
      [
        "▁cancer",
        -10.376322644085844
      ],
      [
        "▁strike",
        -10.377061697907308
      ],
      [
        "▁italy",
        -10.377436908814714
      ],
      [
        "▁signal",
        -10.377589321352849
      ],
      [
        "▁knock",
        -10.378272955206604
      ],
      [
        "▁adult",
        -10.379051900876274
      ],
      [
        "cub",
        -10.380132634221797
      ],
      [
        "▁circle",
        -10.38042017298754
      ],
      [
        "▁citie",
        -10.381134200222215
      ],
      [
        "▁justice",
        -10.381180181876593
      ],
      [
        "mine",
        -10.381870466906811
      ],
      [
        "▁joke",
        -10.38259638024706
      ],
      [
        "▁focus",
        -10.38388039567718
      ],
      [
        "urge",
        -10.384747845278117
      ],
      [
        "▁trial",
        -10.385075178925266
      ],
      [
        "▁actress",
        -10.38507942526665
      ],
      [
        "▁kick",
        -10.385628601452147
      ],
      [
        "▁achieve",
        -10.386160654687798
      ],
      [
        "▁industry",
        -10.386706978403804
      ],
      [
        "▁beauty",
        -10.388355567012685
      ],
      [
        "bir",
        -10.388466543036174
      ],
      [
        "▁manner",
        -10.388913025412016
      ],
      [
        "▁bitch",
        -10.38905481834846
      ],
      [
        "▁academy",
        -10.389455353404848
      ],
      [
        "utter",
        -10.39027768480966
      ],
      [
        "▁danger",
        -10.391183411639624
      ],
      [
        "▁citizen",
        -10.392394987518726
      ],
      [
        "blo",
        -10.39289238370649
      ],
      [
        "▁pocket",
        -10.394422446766656
      ],
      [
        "▁mike",
        -10.395305575536982
      ],
      [
        "▁religion",
        -10.396266869029043
      ],
      [
        "gal",
        -10.396797161235458
      ],
      [
        "▁destroy",
        -10.39961357740164
      ],
      [
        "edit",
        -10.400835403759704
      ],
      [
        "▁experiment",
        -10.402009567195728
      ],
      [
        "▁blind",
        -10.40210694559098
      ],
      [
        ">",
        -10.402381188652075
      ],
      [
        "▁driving",
        -10.402390828499684
      ],
      [
        "▁weird",
        -10.40252979501102
      ],
      [
        "▁string",
        -10.40257162494541
      ],
      [
        "▁collection",
        -10.405896491262222
      ],
      [
        "▁interview",
        -10.405918714529138
      ],
      [
        "▁taught",
        -10.405921537878251
      ],
      [
        "▁shadow",
        -10.406377966331997
      ],
      [
        "▁crew",
        -10.408645770356443
      ],
      [
        "just",
        -10.40870870575131
      ],
      [
        "▁conversation",
        -10.408908062175565
      ],
      [
        "▁lion",
        -10.409790646035685
      ],
      [
        "▁comment",
        -10.409893743679357
      ],
      [
        "▁mount",
        -10.4102722862794
      ],
      [
        "▁zero",
        -10.41248749421494
      ],
      [
        "▁joseph",
        -10.413031650688124
      ],
      [
        "▁steal",
        -10.4160584282563
      ],
      [
        "▁greatest",
        -10.416180108675237
      ],
      [
        "▁darling",
        -10.416384136998944
      ],
      [
        "▁conference",
        -10.416418494933884
      ],
      [
        "▁nurse",
        -10.416657456210103
      ],
      [
        "▁lil",
        -10.416963567128072
      ],
      [
        "disc",
        -10.41738083026933
      ],
      [
        "▁scientist",
        -10.418116271104024
      ],
      [
        "▁breakfast",
        -10.418872187555348
      ],
      [
        "▁particularly",
        -10.41893238282152
      ],
      [
        "gel",
        -10.419050565895878
      ],
      [
        "▁bread",
        -10.419194361113258
      ],
      [
        "▁basically",
        -10.41936803242046
      ],
      [
        "other",
        -10.419438785486983
      ],
      [
        "▁lit",
        -10.419557406938388
      ],
      [
        "<",
        -10.421141705050966
      ],
      [
        "hydr",
        -10.4218770256244
      ],
      [
        "▁catholic",
        -10.42189952919985
      ],
      [
        "▁stole",
        -10.42220372997324
      ],
      [
        "▁sword",
        -10.42228020192745
      ],
      [
        "▁compete",
        -10.424167359578629
      ],
      [
        "▁bang",
        -10.426555526372772
      ],
      [
        "▁benefit",
        -10.426648821232169
      ],
      [
        "è",
        -10.4270296612648
      ],
      [
        "▁edward",
        -10.427476348626744
      ],
      [
        "▁awful",
        -10.42804593238897
      ],
      [
        "itude",
        -10.429685339403218
      ],
      [
        "▁express",
        -10.429703298324782
      ],
      [
        "▁crack",
        -10.430191141896088
      ],
      [
        "▁negative",
        -10.43122939236724
      ],
      [
        "companies",
        -10.43124816179396
      ],
      [
        "▁progress",
        -10.431420794336422
      ],
      [
        "▁immediatel",
        -10.431706405810068
      ],
      [
        "▁witness",
        -10.43237820135598
      ],
      [
        "▁cloud",
        -10.432767749247496
      ],
      [
        "▁laid",
        -10.433472505926504
      ],
      [
        "grunt",
        -10.433482756224713
      ],
      [
        "▁colonel",
        -10.4347858640334
      ],
      [
        "▁minus",
        -10.435028437732605
      ],
      [
        "▁hungry",
        -10.436245381228632
      ],
      [
        "▁pretend",
        -10.436674517670475
      ],
      [
        "▁addition",
        -10.437586870100832
      ],
      [
        "▁otherwise",
        -10.437914011154904
      ],
      [
        "remained",
        -10.438588379826646
      ],
      [
        "▁chicken",
        -10.438912377149045
      ],
      [
        "boy",
        -10.439545232889913
      ],
      [
        "whisper",
        -10.439880665016805
      ],
      [
        "library",
        -10.440260935395331
      ],
      [
        "position",
        -10.444132239226969
      ],
      [
        "▁concept",
        -10.444297757095963
      ],
      [
        "▁medicine",
        -10.44432457797931
      ],
      [
        "▁picked",
        -10.445301752487683
      ],
      [
        "▁active",
        -10.44567582622353
      ],
      [
        "▁aye",
        -10.445986844450582
      ],
      [
        "▁protest",
        -10.446146571900565
      ],
      [
        "▁remark",
        -10.44675320137688
      ],
      [
        "▁highest",
        -10.447707083894366
      ],
      [
        "▁virginia",
        -10.447955717939518
      ],
      [
        "▁mentioned",
        -10.451680743808517
      ],
      [
        "▁expected",
        -10.453443785650656
      ],
      [
        "▁associate",
        -10.45366966882151
      ],
      [
        "▁survive",
        -10.45386635757155
      ],
      [
        "bury",
        -10.45420277715376
      ],
      [
        "▁sentence",
        -10.45449302520362
      ],
      [
        "▁transfer",
        -10.455075145571069
      ],
      [
        "▁initial",
        -10.455184105650074
      ],
      [
        "▁statement",
        -10.456756273621869
      ],
      [
        "gul",
        -10.457327203245388
      ],
      [
        "▁representative",
        -10.457941183570156
      ],
      [
        "▁fol",
        -10.45805413168341
      ],
      [
        "▁instrument",
        -10.458179976356668
      ],
      [
        "▁stuck",
        -10.459008631240932
      ],
      [
        "lite",
        -10.460660493993013
      ],
      [
        "▁empty",
        -10.46093533675247
      ],
      [
        "rog",
        -10.463046795295686
      ],
      [
        "▁airport",
        -10.463424784326351
      ],
      [
        "▁madam",
        -10.463526326019368
      ],
      [
        "duty",
        -10.464300351212362
      ],
      [
        "▁photograph",
        -10.464725638296906
      ],
      [
        "domin",
        -10.465993906514765
      ],
      [
        "▁cake",
        -10.466364523430824
      ],
      [
        "▁freedom",
        -10.468254998433984
      ],
      [
        "▁rome",
        -10.47069502456888
      ],
      [
        "▁resist",
        -10.470814816073243
      ],
      [
        "▁complex",
        -10.470838703793085
      ],
      [
        "▁powerful",
        -10.47237167177469
      ],
      [
        "▁creature",
        -10.47243863479586
      ],
      [
        "lian",
        -10.47309664172018
      ],
      [
        "▁expression",
        -10.475003263707215
      ],
      [
        "▁declare",
        -10.476634629142936
      ],
      [
        "▁switch",
        -10.476636650398582
      ],
      [
        "ension",
        -10.476891102529391
      ],
      [
        "▁traditional",
        -10.479024155802009
      ],
      [
        "▁totally",
        -10.480184127138024
      ],
      [
        "star",
        -10.480228709331312
      ],
      [
        "▁tight",
        -10.48076540745267
      ],
      [
        "▁designed",
        -10.480827006203214
      ],
      [
        "▁mix",
        -10.480947422444622
      ],
      [
        "▁target",
        -10.481902120099768
      ],
      [
        "▁thick",
        -10.483095095179332
      ],
      [
        "ctive",
        -10.485435016701285
      ],
      [
        "▁lack",
        -10.485721606958707
      ],
      [
        "▁spell",
        -10.485885820325052
      ],
      [
        "▁canadian",
        -10.486157605161123
      ],
      [
        "▁delight",
        -10.48738651429636
      ],
      [
        "▁knee",
        -10.487504197123478
      ],
      [
        "▁priest",
        -10.487916392890613
      ],
      [
        "generally",
        -10.487949595878032
      ],
      [
        "bloody",
        -10.488004919959558
      ],
      [
        "▁reported",
        -10.489629790684411
      ],
      [
        "▁drew",
        -10.490041322786489
      ],
      [
        "▁resource",
        -10.491142838657998
      ],
      [
        "▁chairman",
        -10.491200919280733
      ],
      [
        "▁avoid",
        -10.492159985380551
      ],
      [
        "▁honour",
        -10.493587928026878
      ],
      [
        "cloth",
        -10.495878318688725
      ],
      [
        "ugg",
        -10.496089744022814
      ],
      [
        "▁sarah",
        -10.496342237039928
      ],
      [
        "▁twin",
        -10.497138909082365
      ],
      [
        "▁origin",
        -10.497641974342349
      ],
      [
        "▁broadcast",
        -10.497698905027466
      ],
      [
        "▁silly",
        -10.498542864257058
      ],
      [
        "▁generation",
        -10.498695720484134
      ],
      [
        "▁filled",
        -10.498734631880662
      ],
      [
        "▁teeth",
        -10.49950733320686
      ],
      [
        "▁aware",
        -10.50058239615665
      ],
      [
        "rud",
        -10.500765562892587
      ],
      [
        "▁crash",
        -10.50086334586268
      ],
      [
        "▁minor",
        -10.500910081729565
      ],
      [
        "▁mexico",
        -10.5013501615404
      ],
      [
        "▁relation",
        -10.502314446977373
      ],
      [
        "▁deliver",
        -10.502459656545367
      ],
      [
        "▁orange",
        -10.502817607752538
      ],
      [
        "▁scale",
        -10.503104386732756
      ],
      [
        "▁charlie",
        -10.503432688730484
      ],
      [
        "▁psych",
        -10.503789896443816
      ],
      [
        "▁journey",
        -10.505050413260555
      ],
      [
        "▁temperature",
        -10.505257787803124
      ],
      [
        "▁mention",
        -10.505437824628848
      ],
      [
        "▁remind",
        -10.505468967184257
      ],
      [
        "▁hug",
        -10.506028882821033
      ],
      [
        "▁environment",
        -10.506032366455518
      ],
      [
        "▁ticket",
        -10.506287768836216
      ],
      [
        "▁construction",
        -10.509248539121703
      ],
      [
        "far",
        -10.509417576937992
      ],
      [
        "▁improve",
        -10.509890098710782
      ],
      [
        "▁retired",
        -10.511248422645366
      ],
      [
        "▁capture",
        -10.511797533710691
      ],
      [
        "lton",
        -10.513536085699847
      ],
      [
        "▁odd",
        -10.514101546671853
      ],
      [
        "▁roof",
        -10.516038363859243
      ],
      [
        "jury",
        -10.516550651794088
      ],
      [
        "▁tip",
        -10.516709952914413
      ],
      [
        "▁emperor",
        -10.516859217313105
      ],
      [
        "▁fifteen",
        -10.518110312107892
      ],
      [
        "▁rare",
        -10.518379255754056
      ],
      [
        "▁grace",
        -10.519494936472656
      ],
      [
        "▁suspect",
        -10.520308529295496
      ],
      [
        "♫",
        -10.521245097791846
      ],
      [
        "▁religious",
        -10.522292222147026
      ],
      [
        "▁solution",
        -10.522292557547829
      ],
      [
        "▁missed",
        -10.522592009854815
      ],
      [
        "offered",
        -10.522822113525686
      ],
      [
        "raj",
        -10.525503901255805
      ],
      [
        "▁ourselves",
        -10.526912624361742
      ],
      [
        "possibly",
        -10.527103868935876
      ],
      [
        "▁wire",
        -10.528598284963136
      ],
      [
        "▁treatment",
        -10.528627491167212
      ],
      [
        "▁raise",
        -10.528988000755916
      ],
      [
        "▁silence",
        -10.529022528132034
      ],
      [
        "▁becoming",
        -10.53017731956388
      ],
      [
        "▁institute",
        -10.5304976089342
      ],
      [
        "▁democratic",
        -10.53258211731492
      ],
      [
        "▁criminal",
        -10.534307588814174
      ],
      [
        "▁observe",
        -10.534307778165005
      ],
      [
        "▁gla",
        -10.534732499314009
      ],
      [
        "▁request",
        -10.535010309965717
      ],
      [
        "▁select",
        -10.535064623874897
      ],
      [
        "▁compare",
        -10.537472588263345
      ],
      [
        "▁prior",
        -10.538004829363317
      ],
      [
        "▁recently",
        -10.539734574988747
      ],
      [
        "▁biggest",
        -10.540476732002135
      ],
      [
        "▁russia",
        -10.54056472153365
      ],
      [
        "▁habit",
        -10.543127526741571
      ],
      [
        "▁ordered",
        -10.543839324311424
      ],
      [
        "▁strip",
        -10.543925708773113
      ],
      [
        "▁desert",
        -10.546736890604684
      ],
      [
        "▁responsible",
        -10.54775778529548
      ],
      [
        "▁previous",
        -10.547965405363511
      ],
      [
        "▁motion",
        -10.54801681823377
      ],
      [
        "▁symbol",
        -10.548072844837826
      ],
      [
        "omb",
        -10.54851023220237
      ],
      [
        "▁mama",
        -10.548821253542627
      ],
      [
        "▁authority",
        -10.549401204099768
      ],
      [
        "rite",
        -10.55003667192418
      ],
      [
        "▁majest",
        -10.551203664043724
      ],
      [
        "▁favor",
        -10.551409701916688
      ],
      [
        "▁planning",
        -10.553281392474844
      ],
      [
        "▁reduce",
        -10.554248493666416
      ],
      [
        "▁cousin",
        -10.554260602919488
      ],
      [
        "enne",
        -10.555000839160472
      ],
      [
        "▁shock",
        -10.556599675021635
      ],
      [
        "▁split",
        -10.556827106108294
      ],
      [
        "▁management",
        -10.557316173819077
      ],
      [
        "stead",
        -10.557392655542612
      ],
      [
        "▁austria",
        -10.558785931231167
      ],
      [
        "▁connection",
        -10.559266894042542
      ],
      [
        "stein",
        -10.559723843470143
      ],
      [
        "▁financial",
        -10.560737958719844
      ],
      [
        "▁afterward",
        -10.560866127941289
      ],
      [
        "connect",
        -10.56096424263825
      ],
      [
        "▁israel",
        -10.561501057068384
      ],
      [
        "▁constitution",
        -10.56182728139236
      ],
      [
        "▁branch",
        -10.563297220681145
      ],
      [
        "poo",
        -10.563465838068998
      ],
      [
        "▁sugar",
        -10.5635440201955
      ],
      [
        "▁drunk",
        -10.564388207482168
      ],
      [
        "▁swear",
        -10.56492522094046
      ],
      [
        "▁concert",
        -10.565868796955842
      ],
      [
        "▁conduct",
        -10.565934087974911
      ],
      [
        "▁attract",
        -10.566595500033818
      ],
      [
        "▁occur",
        -10.56882631651685
      ],
      [
        "franc",
        -10.569613983523256
      ],
      [
        "▁nineteen",
        -10.570436005266531
      ],
      [
        "▁semi",
        -10.57089688374538
      ],
      [
        "▁cash",
        -10.57103444325921
      ],
      [
        "▁pool",
        -10.571333720546582
      ],
      [
        "produc",
        -10.572295484379213
      ],
      [
        "▁pitch",
        -10.572300854650456
      ],
      [
        "music",
        -10.572310944578346
      ],
      [
        "▁significant",
        -10.572345623047294
      ],
      [
        "▁replaced",
        -10.572795642267426
      ],
      [
        "▁task",
        -10.57331234973056
      ],
      [
        "{",
        -10.574550936591557
      ],
      [
        "▁despite",
        -10.57455099022737
      ],
      [
        "▁application",
        -10.574772135627205
      ],
      [
        "▁graduate",
        -10.575213705352262
      ],
      [
        "ancy",
        -10.577629358822827
      ],
      [
        "▁vice",
        -10.578907591639537
      ],
      [
        "▁complain",
        -10.580975783635854
      ],
      [
        "▁screw",
        -10.582094996825887
      ],
      [
        "chro",
        -10.58245727079002
      ],
      [
        "ologist",
        -10.582553650033844
      ],
      [
        "▁reflect",
        -10.58260671244842
      ],
      [
        "▁safety",
        -10.582781509162592
      ],
      [
        "▁harry",
        -10.584354569932474
      ],
      [
        "▁everywhere",
        -10.585719225181586
      ],
      [
        "thro",
        -10.586616767177906
      ],
      [
        "▁gang",
        -10.586868053165324
      ],
      [
        "▁musical",
        -10.588416111856995
      ],
      [
        "▁gentl",
        -10.589185621663548
      ],
      [
        "teen",
        -10.589623165900464
      ],
      [
        "▁tournament",
        -10.58967763410825
      ],
      [
        "▁universe",
        -10.590799707166532
      ],
      [
        "▁worst",
        -10.591581027543004
      ],
      [
        "▁concerned",
        -10.592361325245976
      ],
      [
        "▁introduced",
        -10.5934951179443
      ],
      [
        "▁ghost",
        -10.593720539292088
      ],
      [
        "▁operate",
        -10.59440567793972
      ],
      [
        "▁relax",
        -10.59462199225487
      ],
      [
        "▁guitar",
        -10.59484673952667
      ],
      [
        "▁pulled",
        -10.595769445633676
      ],
      [
        "▁pattern",
        -10.59593528482814
      ],
      [
        "▁rip",
        -10.596334627768991
      ],
      [
        "▁appointed",
        -10.599362252804918
      ],
      [
        "workers",
        -10.59967126544501
      ],
      [
        "▁florida",
        -10.599821014471129
      ],
      [
        "▁client",
        -10.600550847292636
      ],
      [
        "▁succeed",
        -10.602762815435195
      ],
      [
        "asleep",
        -10.602993305319206
      ],
      [
        "▁vehicle",
        -10.604808796586958
      ],
      [
        "chester",
        -10.604861892968882
      ],
      [
        "▁sudden",
        -10.60493487248359
      ],
      [
        "▁roger",
        -10.606595081326512
      ],
      [
        "foot",
        -10.608045607220657
      ],
      [
        "kay",
        -10.610766932203273
      ],
      [
        "▁typical",
        -10.61097974684516
      ],
      [
        "▁prefer",
        -10.61115538584459
      ],
      [
        "▁easier",
        -10.61120571905138
      ],
      [
        "▁button",
        -10.61141980692453
      ],
      [
        "▁destroyed",
        -10.611638848021334
      ],
      [
        "▁fixed",
        -10.61170013557368
      ],
      [
        "▁actual",
        -10.611794888481336
      ],
      [
        "▁blame",
        -10.611811633560947
      ],
      [
        "▁brook",
        -10.612013167230804
      ],
      [
        "▁mob",
        -10.613822674037388
      ],
      [
        "threw",
        -10.614840153003078
      ],
      [
        "▁response",
        -10.614871714905783
      ],
      [
        "▁dutch",
        -10.61496689034149
      ],
      [
        "▁dying",
        -10.615396048247757
      ],
      [
        "▁daniel",
        -10.615850739067533
      ],
      [
        "water",
        -10.616953069228412
      ],
      [
        "establish",
        -10.617387599969655
      ],
      [
        "▁maintain",
        -10.61879332205391
      ],
      [
        "▁chamber",
        -10.61902461757628
      ],
      [
        "▁grab",
        -10.620276439218856
      ],
      [
        "▁moral",
        -10.621477248172688
      ],
      [
        "▁rapid",
        -10.62163417590272
      ],
      [
        "▁dude",
        -10.623168599393074
      ],
      [
        "▁mir",
        -10.623398073579873
      ],
      [
        "▁billion",
        -10.623555912280318
      ],
      [
        "▁commercial",
        -10.623644713398486
      ],
      [
        "▁instant",
        -10.624040428864152
      ],
      [
        "▁rabbit",
        -10.625748129833465
      ],
      [
        "▁devil",
        -10.626079201630985
      ],
      [
        "▁facilit",
        -10.626896377836356
      ],
      [
        "▁favorite",
        -10.626906105794705
      ],
      [
        "▁height",
        -10.627130177220778
      ],
      [
        "▁advantage",
        -10.628060244162434
      ],
      [
        "▁potential",
        -10.628068052219442
      ],
      [
        "▁mental",
        -10.628629065822263
      ],
      [
        "▁saturday",
        -10.629458843362432
      ],
      [
        "watched",
        -10.634439230758602
      ],
      [
        "▁eleven",
        -10.634848205226792
      ],
      [
        "▁drag",
        -10.634953088278538
      ],
      [
        "▁winner",
        -10.6349990488213
      ],
      [
        "▁theatre",
        -10.635282286921411
      ],
      [
        "wick",
        -10.635527765603689
      ],
      [
        "▁hook",
        -10.635895243765765
      ],
      [
        "▁fashion",
        -10.63592831858679
      ],
      [
        "▁rush",
        -10.636345834326638
      ],
      [
        "▁britain",
        -10.636484209728565
      ],
      [
        "▁silent",
        -10.6369659673147
      ],
      [
        "▁device",
        -10.637788801377289
      ],
      [
        "▁label",
        -10.638180501821962
      ],
      [
        "▁confirm",
        -10.638831985656532
      ],
      [
        "▁jeff",
        -10.638984905121086
      ],
      [
        "▁usual",
        -10.639984041403284
      ],
      [
        "▁chemical",
        -10.64048566495898
      ],
      [
        "▁bastard",
        -10.64190261560485
      ],
      [
        "▁frame",
        -10.642203451943248
      ],
      [
        "▁trail",
        -10.64315227921867
      ],
      [
        "▁stretch",
        -10.643583579304916
      ],
      [
        "angeles",
        -10.643644478312137
      ],
      [
        "fect",
        -10.643925315994291
      ],
      [
        "vine",
        -10.645735927386156
      ],
      [
        "good",
        -10.647285888090298
      ],
      [
        "▁effective",
        -10.647467744593763
      ],
      [
        "▁monster",
        -10.64836439211978
      ],
      [
        "rish",
        -10.64852714891346
      ],
      [
        "round",
        -10.64956316106893
      ],
      [
        "▁strateg",
        -10.65043801313615
      ],
      [
        "▁guide",
        -10.650845169659696
      ],
      [
        "agne",
        -10.651704271691983
      ],
      [
        "craft",
        -10.6517479153679
      ],
      [
        "▁shri",
        -10.652764802399236
      ],
      [
        "▁cheap",
        -10.65361862447222
      ],
      [
        "▁illinois",
        -10.655210167167157
      ],
      [
        "▁holiday",
        -10.655215269669604
      ],
      [
        "▁hockey",
        -10.655689044465326
      ],
      [
        "▁exchange",
        -10.655928934132014
      ],
      [
        "▁idiot",
        -10.65692426775198
      ],
      [
        "profit",
        -10.657341992509156
      ],
      [
        "▁terror",
        -10.657367636898888
      ],
      [
        "▁reserve",
        -10.657371082426856
      ],
      [
        "▁opposite",
        -10.657846158740584
      ],
      [
        "▁upset",
        -10.659495421112275
      ],
      [
        "▁lieutenant",
        -10.65952723506626
      ],
      [
        "▁instance",
        -10.659846933793286
      ],
      [
        "ented",
        -10.659876023200034
      ],
      [
        "▁apartment",
        -10.66059340271121
      ],
      [
        "▁fifth",
        -10.660729791054996
      ],
      [
        "▁basic",
        -10.660873689969645
      ],
      [
        "▁buried",
        -10.66143503400077
      ],
      [
        "▁responsibilit",
        -10.665312474674169
      ],
      [
        "▁losing",
        -10.667818545130205
      ],
      [
        "▁distinct",
        -10.669186109331791
      ],
      [
        "▁tiny",
        -10.669513019034808
      ],
      [
        "▁restaurant",
        -10.670888279133743
      ],
      [
        "▁fail",
        -10.671127584301878
      ],
      [
        "▁argument",
        -10.67113152826257
      ],
      [
        "▁assist",
        -10.67232713667055
      ],
      [
        "tile",
        -10.672447160176151
      ],
      [
        "▁bullet",
        -10.672864124945274
      ],
      [
        "▁goodbye",
        -10.674904143746517
      ],
      [
        "▁hind",
        -10.67508053241094
      ],
      [
        "▁pipe",
        -10.678135518295486
      ],
      [
        "▁display",
        -10.678517971583894
      ],
      [
        "▁editor",
        -10.679600859437665
      ],
      [
        "▁telephone",
        -10.679924662861916
      ],
      [
        "▁friday",
        -10.680304631210292
      ],
      [
        "▁stayed",
        -10.680495637108589
      ],
      [
        "▁senior",
        -10.682872092126848
      ],
      [
        "rising",
        -10.683161778046172
      ],
      [
        "▁tongue",
        -10.684382056681118
      ],
      [
        "▁shake",
        -10.684831557579797
      ],
      [
        "▁historical",
        -10.685459070519444
      ],
      [
        "▁principle",
        -10.685581789102391
      ],
      [
        "▁soldier",
        -10.687728060154427
      ],
      [
        "▁excellent",
        -10.688299185042853
      ],
      [
        "▁shift",
        -10.688527189612902
      ],
      [
        "▁institution",
        -10.689041572369488
      ],
      [
        "▁etc",
        -10.691023331717371
      ],
      [
        "▁deserve",
        -10.693038760061835
      ],
      [
        "▁weekend",
        -10.693431731205868
      ],
      [
        "helm",
        -10.693814191954292
      ],
      [
        "referred",
        -10.69442873076661
      ],
      [
        "▁background",
        -10.694504946420096
      ],
      [
        "▁comfort",
        -10.694907336792893
      ],
      [
        "▁candidate",
        -10.69549892595142
      ],
      [
        "chuckles",
        -10.695516409613589
      ],
      [
        "▁chuck",
        -10.69563770700988
      ],
      [
        "▁communication",
        -10.695748005813703
      ],
      [
        "▁ireland",
        -10.695847637517552
      ],
      [
        "▁ninety",
        -10.696528609451445
      ],
      [
        "▁traffic",
        -10.696994914500973
      ],
      [
        "primary",
        -10.69750214561999
      ],
      [
        "▁geograph",
        -10.698573612392366
      ],
      [
        "larger",
        -10.699195690460746
      ],
      [
        "▁programme",
        -10.70135020762185
      ],
      [
        "beth",
        -10.702433408475674
      ],
      [
        "▁flash",
        -10.702503404929889
      ],
      [
        "▁variet",
        -10.702503927206914
      ],
      [
        "▁gentleman",
        -10.702506974759103
      ],
      [
        "cien",
        -10.702602741936618
      ],
      [
        "▁throat",
        -10.702627828794537
      ],
      [
        "american",
        -10.702978005057885
      ],
      [
        "▁reference",
        -10.703103280157997
      ],
      [
        "▁jimmy",
        -10.703256574532448
      ],
      [
        "▁plot",
        -10.704407166853027
      ],
      [
        "▁shirt",
        -10.704525283565692
      ],
      [
        "▁advice",
        -10.705012686511994
      ],
      [
        "▁failure",
        -10.70570280037512
      ],
      [
        "mul",
        -10.705730740894516
      ],
      [
        "▁essential",
        -10.707028236800882
      ],
      [
        "worth",
        -10.70704328251654
      ],
      [
        "▁loose",
        -10.707143281302416
      ],
      [
        "▁elder",
        -10.707543576580932
      ],
      [
        "▁sixty",
        -10.707641665233616
      ],
      [
        "▁poet",
        -10.708500858687202
      ],
      [
        "▁jail",
        -10.709131717407452
      ],
      [
        "▁cream",
        -10.70913398446024
      ],
      [
        "▁promote",
        -10.709562468001716
      ],
      [
        "▁arrest",
        -10.709919887254127
      ],
      [
        "yeah",
        -10.710908784476093
      ],
      [
        "▁nervous",
        -10.712333415924828
      ],
      [
        "kov",
        -10.714487343758387
      ],
      [
        "ā",
        -10.715632879269537
      ],
      [
        "▁steel",
        -10.716923709072333
      ],
      [
        "▁struck",
        -10.717163143111636
      ],
      [
        "▁climate",
        -10.720743269262382
      ],
      [
        "▁daily",
        -10.723865451478838
      ],
      [
        "▁practical",
        -10.7245708057265
      ],
      [
        "▁fought",
        -10.725350279264266
      ],
      [
        "hawk",
        -10.72571057818702
      ],
      [
        "▁afford",
        -10.726642124711288
      ],
      [
        "▁appeal",
        -10.726704542917016
      ],
      [
        "▁presence",
        -10.726956180683068
      ],
      [
        "▁pardon",
        -10.73161974653418
      ],
      [
        "▁bishop",
        -10.732566896890178
      ],
      [
        "▁grey",
        -10.73460864430408
      ],
      [
        "▁internet",
        -10.735160250605896
      ],
      [
        "▁knight",
        -10.736045303925003
      ],
      [
        "atter",
        -10.737345379535313
      ],
      [
        "▁bodies",
        -10.737792180671528
      ],
      [
        "▁laura",
        -10.737990972195322
      ],
      [
        "▁tradition",
        -10.738008045798278
      ],
      [
        "▁territory",
        -10.739299580003742
      ],
      [
        "▁basis",
        -10.739776310440275
      ],
      [
        "▁assembly",
        -10.74008083074136
      ],
      [
        "▁protection",
        -10.740103428068302
      ],
      [
        "▁grade",
        -10.741330179959991
      ],
      [
        "▁settlement",
        -10.743436500197342
      ],
      [
        "▁consul",
        -10.744207859776692
      ],
      [
        "▁confess",
        -10.744782042110804
      ],
      [
        "▁carbon",
        -10.746027764941427
      ],
      [
        "▁lecture",
        -10.746957134453902
      ],
      [
        "▁passenger",
        -10.747139819431323
      ],
      [
        "▁multiple",
        -10.747297239052836
      ],
      [
        "▁plenty",
        -10.747674396196484
      ],
      [
        "▁cheese",
        -10.748200789334396
      ],
      [
        "▁tommy",
        -10.749257999718353
      ],
      [
        "▁passion",
        -10.749829017841654
      ],
      [
        "▁scholar",
        -10.751348618072193
      ],
      [
        "▁steam",
        -10.751631816643645
      ],
      [
        "▁piano",
        -10.7517178614051
      ],
      [
        "▁convince",
        -10.754248753169822
      ],
      [
        "diff",
        -10.754797530254756
      ],
      [
        "▁appreciate",
        -10.755041749920542
      ],
      [
        "▁snake",
        -10.75569538169252
      ],
      [
        "▁accepted",
        -10.756204527329666
      ],
      [
        "▁grandfather",
        -10.756364841652127
      ],
      [
        "▁musician",
        -10.756380913170773
      ],
      [
        "▁johnny",
        -10.756854491163976
      ],
      [
        "▁proceed",
        -10.756894664659477
      ],
      [
        "▁excited",
        -10.75689486394572
      ],
      [
        "▁dancing",
        -10.758529073209475
      ],
      [
        "▁reaction",
        -10.758979161602506
      ],
      [
        "▁papa",
        -10.7589842398938
      ],
      [
        "▁pleasant",
        -10.76087654642492
      ],
      [
        "▁scientific",
        -10.762473757345209
      ],
      [
        "▁bunch",
        -10.762935354602378
      ],
      [
        "▁trace",
        -10.762992355600458
      ],
      [
        "▁volume",
        -10.76434340375502
      ],
      [
        "▁labour",
        -10.764879414080928
      ],
      [
        "▁poison",
        -10.76739340702851
      ],
      [
        "▁cooper",
        -10.768653354181012
      ],
      [
        "▁additional",
        -10.770484834788409
      ],
      [
        "▁narrow",
        -10.77049893016137
      ],
      [
        "▁exercise",
        -10.771304464087883
      ],
      [
        "▁activity",
        -10.77192427881473
      ],
      [
        "▁assistant",
        -10.772285497923676
      ],
      [
        "▁divorce",
        -10.77238013367403
      ],
      [
        "ential",
        -10.774142176177174
      ],
      [
        "▁option",
        -10.776448397751436
      ],
      [
        "▁website",
        -10.77723526259592
      ],
      [
        "▁executive",
        -10.780213772035166
      ],
      [
        "▁adapt",
        -10.782755677412752
      ],
      [
        "▁secure",
        -10.782858257367511
      ],
      [
        "journal",
        -10.784154566384045
      ],
      [
        "▁witch",
        -10.78503843666046
      ],
      [
        "▁knife",
        -10.785379685083171
      ],
      [
        "▁supply",
        -10.785381513361903
      ],
      [
        "▁connected",
        -10.78621748797354
      ],
      [
        "found",
        -10.786219809778972
      ],
      [
        "▁recommend",
        -10.79263717412051
      ],
      [
        "▁manufactur",
        -10.794140813084123
      ],
      [
        "▁buddy",
        -10.794419408301131
      ],
      [
        "▁chest",
        -10.79474028776252
      ],
      [
        "slightly",
        -10.79474065724136
      ],
      [
        "▁mixed",
        -10.795473102601273
      ],
      [
        "▁register",
        -10.79633473703229
      ],
      [
        "▁upstair",
        -10.79662282235437
      ],
      [
        "▁affect",
        -10.796994195163965
      ],
      [
        "▁poem",
        -10.79734267199876
      ],
      [
        "▁status",
        -10.797522178535342
      ],
      [
        "▁obtain",
        -10.79882667806313
      ],
      [
        "cliff",
        -10.799026008163866
      ],
      [
        "▁changing",
        -10.799390530788129
      ],
      [
        "▁solid",
        -10.799759699903827
      ],
      [
        "▁pilot",
        -10.802603745808325
      ],
      [
        "▁kidding",
        -10.80407322832685
      ],
      [
        "▁defense",
        -10.80532306775254
      ],
      [
        "▁economy",
        -10.805757603957174
      ],
      [
        "▁politics",
        -10.806871145366111
      ],
      [
        "▁planned",
        -10.806879497186722
      ],
      [
        "▁relative",
        -10.808345563779284
      ],
      [
        "▁convention",
        -10.808546081736129
      ],
      [
        "▁contest",
        -10.80946805147576
      ],
      [
        "▁activities",
        -10.810777831605185
      ],
      [
        "▁growth",
        -10.81191540323106
      ],
      [
        "▁expert",
        -10.812233527062313
      ],
      [
        "▁wealth",
        -10.813021679839864
      ],
      [
        "▁mile",
        -10.813197230963365
      ],
      [
        "listed",
        -10.813616212922335
      ],
      [
        "▁neighbor",
        -10.814944767464684
      ],
      [
        "▁mouse",
        -10.815719499258655
      ],
      [
        "▁hiding",
        -10.816146801382166
      ],
      [
        "headed",
        -10.816627560716428
      ],
      [
        "▁annual",
        -10.81724502496546
      ],
      [
        "▁investigation",
        -10.817315201643614
      ],
      [
        "▁premier",
        -10.818646811420624
      ],
      [
        "▁applie",
        -10.818872820910002
      ],
      [
        "▁elizabeth",
        -10.820047559020892
      ],
      [
        "▁navy",
        -10.820899030601815
      ],
      [
        "▁schedule",
        -10.823157232474722
      ],
      [
        "▁suggested",
        -10.82514378456885
      ],
      [
        "▁platform",
        -10.826281036845858
      ],
      [
        "▁tank",
        -10.826348474610928
      ],
      [
        "▁aircraft",
        -10.827338889147564
      ],
      [
        "▁southwest",
        -10.829133523118337
      ],
      [
        "▁guilty",
        -10.82968909718982
      ],
      [
        "▁jewish",
        -10.831114678296842
      ],
      [
        "▁arrested",
        -10.83159190498868
      ],
      [
        "▁belief",
        -10.832299916081444
      ],
      [
        "▁commit",
        -10.833481374000703
      ],
      [
        "▁innocent",
        -10.833688513955924
      ],
      [
        "♪",
        -10.833799593304011
      ],
      [
        "▁sweden",
        -10.835124288861351
      ],
      [
        "▁monkey",
        -10.835575656501751
      ],
      [
        "▁brief",
        -10.835873589948603
      ],
      [
        "▁squad",
        -10.836222969595786
      ],
      [
        "▁girlfriend",
        -10.839249451899668
      ],
      [
        "▁pakistan",
        -10.839424202106237
      ],
      [
        "▁fancy",
        -10.840049772011792
      ],
      [
        "▁swim",
        -10.84202065961248
      ],
      [
        "▁global",
        -10.842481832382592
      ],
      [
        "▁frequent",
        -10.84288486054067
      ],
      [
        "▁georgia",
        -10.844616746577444
      ],
      [
        "▁hidden",
        -10.845212873522902
      ],
      [
        "▁arthur",
        -10.846369639975398
      ],
      [
        "▁muslim",
        -10.846933448875618
      ],
      [
        "▁click",
        -10.847948145119206
      ],
      [
        "▁treasure",
        -10.85100010376022
      ],
      [
        "▁duke",
        -10.85180271609123
      ],
      [
        "lash",
        -10.852539359570711
      ],
      [
        "when",
        -10.85342880055938
      ],
      [
        "▁baseball",
        -10.854279346305647
      ],
      [
        "▁awake",
        -10.854527802056968
      ],
      [
        "▁basketball",
        -10.855083441789072
      ],
      [
        "▁expand",
        -10.855473826088636
      ],
      [
        "▁polish",
        -10.855963204381023
      ],
      [
        "▁severe",
        -10.856535050342988
      ],
      [
        "▁slippe",
        -10.857520878495269
      ],
      [
        "plat",
        -10.859963749389776
      ],
      [
        "▁familiar",
        -10.86035817924789
      ],
      [
        "▁tropical",
        -10.86153514027133
      ],
      [
        "▁combine",
        -10.862123929340315
      ],
      [
        "▁happiness",
        -10.862711483058522
      ],
      [
        "▁carolina",
        -10.863053885121095
      ],
      [
        "▁behavior",
        -10.863595488032296
      ],
      [
        "▁folks",
        -10.864011139870907
      ],
      [
        "▁incident",
        -10.865957607940278
      ],
      [
        "ndra",
        -10.866228484523006
      ],
      [
        "screaming",
        -10.868473685091788
      ],
      [
        "keeping",
        -10.868625926590058
      ],
      [
        "▁respond",
        -10.86950822648503
      ],
      [
        "▁technical",
        -10.871288892689211
      ],
      [
        "▁orchestra",
        -10.871290002973032
      ],
      [
        "▁celebrate",
        -10.87188313799395
      ],
      [
        "▁expensive",
        -10.87366804830321
      ],
      [
        "▁column",
        -10.873967352657118
      ],
      [
        "▁investigat",
        -10.87509747390532
      ],
      [
        "▁administration",
        -10.87605290460801
      ],
      [
        "▁bubble",
        -10.876056134872622
      ],
      [
        "▁brazil",
        -10.876316037695211
      ],
      [
        "▁rescue",
        -10.87665427526551
      ],
      [
        "▁iowa",
        -10.877627204318674
      ],
      [
        "▁switzerland",
        -10.877845287454498
      ],
      [
        "▁acid",
        -10.877847682729142
      ],
      [
        "▁suicide",
        -10.879940527024395
      ],
      [
        "▁encourage",
        -10.880240139761264
      ],
      [
        "▁senate",
        -10.880846655056848
      ],
      [
        "▁industrial",
        -10.882640743616204
      ],
      [
        "graphic",
        -10.882811199647458
      ],
      [
        "▁curious",
        -10.886586840164744
      ],
      [
        "▁neighbour",
        -10.887157460488943
      ],
      [
        "▁jones",
        -10.887222845930818
      ],
      [
        "▁talent",
        -10.888084835197745
      ],
      [
        "▁turkey",
        -10.888986369433532
      ],
      [
        "▁senator",
        -10.889274578092408
      ],
      [
        "▁vessel",
        -10.88988607863203
      ],
      [
        "▁budget",
        -10.891421084362412
      ],
      [
        "▁literature",
        -10.892301210767744
      ],
      [
        "▁zealand",
        -10.892306439904448
      ],
      [
        "▁junior",
        -10.89443237148553
      ],
      [
        "▁cultural",
        -10.89808174952318
      ],
      [
        "▁headquarter",
        -10.899303033284424
      ],
      [
        "▁rail",
        -10.900675915367067
      ],
      [
        "▁immediate",
        -10.901292425894445
      ],
      [
        "▁hurricane",
        -10.901749602644577
      ],
      [
        "▁threat",
        -10.902400998218509
      ],
      [
        "▁ceremon",
        -10.90328219890488
      ],
      [
        "▁courage",
        -10.905435282252364
      ],
      [
        "▁critical",
        -10.905743190957004
      ],
      [
        "visible",
        -10.905904230453745
      ],
      [
        "▁susan",
        -10.905981165969456
      ],
      [
        "earned",
        -10.906540117145
      ],
      [
        "▁companion",
        -10.9072832118641
      ],
      [
        "▁resign",
        -10.907656429661047
      ],
      [
        "▁flood",
        -10.907846481352289
      ],
      [
        "▁unknown",
        -10.909126405355488
      ],
      [
        "▁brilliant",
        -10.910052250671844
      ],
      [
        "▁edition",
        -10.910433816541124
      ],
      [
        "▁possibilit",
        -10.911290209048456
      ],
      [
        "▁insist",
        -10.911678313133068
      ],
      [
        "▁wrap",
        -10.911707528053595
      ],
      [
        "▁disappeared",
        -10.911757502663352
      ],
      [
        "▁stadium",
        -10.912222996205967
      ],
      [
        "removed",
        -10.913151309501684
      ],
      [
        "▁assume",
        -10.913672367605953
      ],
      [
        "▁nuclear",
        -10.9137645351094
      ],
      [
        "▁jersey",
        -10.91407463916536
      ],
      [
        "▁conflict",
        -10.914385140906786
      ],
      [
        "ñ",
        -10.91562586572748
      ],
      [
        "▁mirror",
        -10.916564172722588
      ],
      [
        "▁repeat",
        -10.924225872459534
      ],
      [
        "which",
        -10.926640724574222
      ],
      [
        "▁julia",
        -10.928519714787852
      ],
      [
        "▁egypt",
        -10.92871752663629
      ],
      [
        "▁disturb",
        -10.92925731679344
      ],
      [
        "▁elephant",
        -10.930012353102915
      ],
      [
        "▁purchase",
        -10.93001236354092
      ],
      [
        "applause",
        -10.930643241568577
      ],
      [
        "ο",
        -10.930957830515377
      ],
      [
        "▁supreme",
        -10.930957942981442
      ],
      [
        "kansas",
        -10.93415768502094
      ],
      [
        "▁slide",
        -10.935208289662691
      ],
      [
        "▁nerve",
        -10.935306783585125
      ],
      [
        "▁involve",
        -10.936000222362017
      ],
      [
        "▁detective",
        -10.93665318520663
      ],
      [
        "ç",
        -10.938871768556252
      ],
      [
        "▁software",
        -10.939192824811997
      ],
      [
        "▁violence",
        -10.942055133279586
      ],
      [
        "▁cricket",
        -10.942693093932462
      ],
      [
        "▁unusual",
        -10.943331389185238
      ],
      [
        "▁emergency",
        -10.943650428347238
      ],
      [
        "▁ordinary",
        -10.94365092785788
      ],
      [
        "▁interpret",
        -10.943687095958303
      ],
      [
        "scope",
        -10.946143351844189
      ],
      [
        "▁scheme",
        -10.947219025751824
      ],
      [
        "▁nest",
        -10.947313924427538
      ],
      [
        "▁contribut",
        -10.947443835018433
      ],
      [
        "▁stress",
        -10.94751189892077
      ],
      [
        "▁walter",
        -10.94786850854244
      ],
      [
        "▁pride",
        -10.94855583359324
      ],
      [
        "▁depart",
        -10.948855404550706
      ],
      [
        "â",
        -10.950057567418751
      ],
      [
        "▁independence",
        -10.95070055089269
      ],
      [
        "provided",
        -10.950819886195646
      ],
      [
        "▁twist",
        -10.954675714559286
      ],
      [
        "▁philip",
        -10.958425372004944
      ],
      [
        "▁technique",
        -10.958772922728802
      ],
      [
        "▁increasing",
        -10.958772954777729
      ],
      [
        "▁diamond",
        -10.96041037391655
      ],
      [
        "illustration",
        -10.961369905346409
      ],
      [
        "▁survey",
        -10.961727950558608
      ],
      [
        "▁principal",
        -10.962345515772158
      ],
      [
        "▁smooth",
        -10.962348010990072
      ],
      [
        "▁session",
        -10.963325509653696
      ],
      [
        "▁remove",
        -10.963340138275791
      ],
      [
        "carrie",
        -10.964011974007338
      ],
      [
        "▁construct",
        -10.965171161187888
      ],
[...]
