{
  "version": "1.0",
  "truncation": null,
  "padding": null,
  "added_tokens": [
    {
      "id": 0,
      "content": "<pad>",
      "single_word": false,
      "lstrip": false,
      "rstrip": false,
      "normalized": false,
      "special": true
    },
    {
      "id": 1,
      "content": "</s>",
      "single_word": false,
      "lstrip": false,
      "rstrip": false,
      "normalized": false,
      "special": true
    },
    {
      "id": 2,
      "content": "<unk>",
      "single_word": false,
      "lstrip": false,
      "rstrip": false,
      "normalized": false,
      "special": true
    },
    {
      "id": 3,
      "content": "<mask>",
      "single_word": false,
      "lstrip": false,
      "rstrip": false,
      "normalized": false,
      "special": true
    }
  ],
  "normalizer": {
    "type": "Sequence",
    "normalizers": [
      {
        "type": "Nmt"
      },
      {
        "type": "NFKC"
      },
      {
        "type": "Replace",
        "pattern": {
          "Regex": " {2,}"
        },
        "content": " "
      },
      {
        "type": "Lowercase"
      }
    ]
  },
  "pre_tokenizer": {
    "type": "Sequence",
    "pretokenizers": [
      {
        "type": "Metaspace",
        "replacement": "▁",
        "add_prefix_space": true
      },
      {
        "type": "Digits",
        "individual_digits": true
      },
      {
        "type": "Punctuation",
        "behavior": "Isolated"
      }
    ]
  },
  "post_processor": {
    "type": "TemplateProcessing",
    "single": [
      {
        "Sequence": {
          "id": "A",
          "type_id": 0
        }
      },
      {
        "SpecialToken": {
          "id": "</s>",
          "type_id": 0
        }
      }
    ],
    "pair": [
      {
        "Sequence": {
          "id": "A",
          "type_id": 0
        }
      },
      {
        "Sequence": {
          "id": "B",
          "type_id": 1
        }
      }
    ],
    "special_tokens": {
      "</s>": {
        "id": "</s>",
        "ids": [
          1
        ],
        "tokens": [
          "</s>"
        ]
      }
    }
  },
  "decoder": {
    "type": "Metaspace",
    "replacement": "▁",
    "add_prefix_space": true
  },
  "model": {
    "type": "Unigram",
    "unk_id": 2,
    "vocab": [
      [
        "<pad>",
        0.0
      ],
      [
        "</s>",
        0.0
      ],
      [
        "<unk>",
        0.0
      ],
      [
        "<mask>",
        0.0
      ],
      [
        "▁",
        -2.409235568255463
      ],
      [
        ".",
        -2.973466324063299
      ],
      [
        "s",
        -3.248874684879518
      ],
      [
        ",",
        -3.3721324875188863
      ],
      [
        "▁the",
        -3.5588834667491973
      ],
      [
        "a",
        -3.820461860628608
      ],
      [
        "i",
        -3.8809727856492504
      ],
      [
        "'",
        -3.947231412174032
      ],
      [
        "▁and",
        -4.298454660015441
      ],
      [
        "▁to",
        -4.3118843470760435
      ],
      [
        "t",
        -4.37175881577714
      ],
      [
        "▁of",
        -4.392326075343062
      ],
      [
        "▁you",
        -4.440249176128013
      ],
      [
        "▁in",
        -4.554496085494735
      ],
      [
        "-",
        -4.677497281916958
      ],
      [
        "▁it",
        -4.701887721274311
      ],
      [
        "?",
        -4.7156760618964775
      ],
      [
        "e",
        -4.729604204809302
      ],
      [
        "▁that",
        -4.871832797871452
      ],
      [
        "d",
        -4.872041162192108
      ],
      [
        "y",
        -4.946621700844677
      ],
      [
        "ed",
        -4.989102794110977
      ],
      [
        "▁is",
        -4.999627844320248
      ],
      [
        "\"",
        -5.116078232989205
      ],
      [
        "▁was",
        -5.240391514944671
      ],
      [
        "ing",
        -5.258177956135585
      ],
      [
        "▁he",
        -5.261626351642299
      ],
      [
        "m",
        -5.328958909781415
      ],
      [
        "1",
        -5.344410379136399
      ],
      [
        "n",
        -5.4342936534621185
      ],
      [
        "▁for",
        -5.448203952053387
      ],
      [
        "0",
        -5.4878040429832335
      ],
      [
        "!",
        -5.544766625173841
      ],
      [
        "▁on",
        -5.555774478109823
      ],
      [
        "▁we",
        -5.590081240142066
      ],
      [
        "o",
        -5.59266976542116
      ],
      [
        "re",
        -5.637409831853706
      ],
      [
        "r",
        -5.673342681493597
      ],
      [
        "▁this",
        -5.673556154680732
      ],
      [
        "▁with",
        -5.680752877298877
      ],
      [
        "▁be",
        -5.708975880936453
      ],
      [
        "▁what",
        -5.73433123753788
      ],
      [
        "er",
        -5.759288419263818
      ],
      [
        "2",
        -5.773183398711064
      ],
      [
        "▁as",
        -5.799597786498589
      ],
      [
        "ly",
        -5.801449009163003
      ],
      [
        "▁are",
        -5.832502167820943
      ],
      [
        "▁have",
        -5.833220488177702
      ],
      [
        "▁me",
        -5.880582742298429
      ],
      [
        "▁not",
        -5.9057978223769165
      ],
      [
        "l",
        -5.925137572962685
      ],
      [
        "h",
        -5.943938675243819
      ],
      [
        "▁but",
        -5.944305933936127
      ],
      [
        "▁so",
        -5.948831034223591
      ],
      [
        "▁do",
        -5.965557017885283
      ],
      [
        "▁at",
        -5.966382262739209
      ],
      [
        "▁they",
        -5.970129876481364
      ],
      [
        "9",
        -6.00814184159537
      ],
      [
        "▁his",
        -6.089860045070823
      ],
      [
        "▁no",
        -6.105685163250149
      ],
      [
        "▁there",
        -6.124304129395107
      ],
      [
        "▁can",
        -6.130762871125166
      ],
      [
        "▁all",
        -6.143977830814395
      ],
      [
        "g",
        -6.1473203640104295
      ],
      [
        "▁she",
        -6.154543582423283
      ],
      [
        "▁my",
        -6.18672358384725
      ],
      [
        "c",
        -6.19092314227222
      ],
      [
        "▁one",
        -6.219535146892403
      ],
      [
        "on",
        -6.25134119613319
      ],
      [
        "▁by",
        -6.253130712660806
      ],
      [
        "▁from",
        -6.2545915300120125
      ],
      [
        "in",
        -6.266820706782946
      ],
      [
        "▁know",
        -6.272169600033161
      ],
      [
        "p",
        -6.275327895386964
      ],
      [
        "▁your",
        -6.281399946583644
      ],
      [
        ")",
        -6.284230963138967
      ],
      [
        "(",
        -6.286113273072187
      ],
      [
        "▁her",
        -6.29869398777427
      ],
      [
        "ll",
        -6.317723223111495
      ],
      [
        "▁like",
        -6.353533332657422
      ],
      [
        "▁don",
        -6.3718180158510584
      ],
      [
        "▁had",
        -6.37681492962129
      ],
      [
        "▁an",
        -6.385619475812577
      ],
      [
        "u",
        -6.4149984243870755
      ],
      [
        "ve",
        -6.432503771921795
      ],
      [
        "▁if",
        -6.452491561391634
      ],
      [
        "▁out",
        -6.47475474447184
      ],
      [
        "▁or",
        -6.475104862324621
      ],
      [
        "▁up",
        -6.477254525630407
      ],
      [
        "▁go",
        -6.499539464026439
      ],
      [
        "▁just",
        -6.500558168938381
      ],
      [
        "▁him",
        -6.502798557986974
      ],
      [
        "▁about",
        -6.506145093769076
      ],
      [
        "f",
        -6.525656467306597
      ],
      [
        "▁were",
        -6.532376242472413
      ],
      [
        "▁get",
        -6.55160015688306
      ],
      [
        "▁here",
        -6.577620076203855
      ],
      [
        "b",
        -6.586761618825555
      ],
      [
        "3",
        -6.599950477990191
      ],
      [
        "8",
        -6.615629388100135
      ],
      [
        "5",
        -6.618209202494116
      ],
      [
        ";",
        -6.620838854394883
      ],
      [
        "▁who",
        -6.624011113770441
      ],
      [
        "▁when",
        -6.637196689264574
      ],
      [
        "▁well",
        -6.65383917704078
      ],
      [
        "k",
        -6.660278809044769
      ],
      [
        ":",
        -6.670664453966106
      ],
      [
        "▁right",
        -6.677649328505872
      ],
      [
        "▁now",
        -6.678553878512524
      ],
      [
        "4",
        -6.695283908456052
      ],
      [
        "▁will",
        -6.714310271517183
      ],
      [
        "an",
        -6.729062539263893
      ],
      [
        "▁how",
        -6.729258626827859
      ],
      [
        "▁yeah",
        -6.7305467110501365
      ],
      [
        "▁oh",
        -6.734048135513966
      ],
      [
        "6",
        -6.770492434651716
      ],
      [
        "▁see",
        -6.775991670010308
      ],
      [
        "7",
        -6.781329780497185
      ],
      [
        "▁which",
        -6.800033927369013
      ],
      [
        "▁would",
        -6.805571752687369
      ],
      [
        "al",
        -6.813870734804587
      ],
      [
        "▁think",
        -6.844809364749134
      ],
      [
        "▁has",
        -6.8449092733429
      ],
      [
        "▁some",
        -6.880308033835021
      ],
      [
        "▁come",
        -6.884285190968182
      ],
      [
        "▁time",
        -6.894391667092101
      ],
      [
        "▁said",
        -6.896813223871032
      ],
      [
        "=",
        -6.9009167634212005
      ],
      [
        "▁want",
        -6.904827497468775
      ],
      [
        "`",
        -6.908024643506371
      ],
      [
        "▁them",
        -6.910540131047366
      ],
      [
        "▁got",
        -6.9154270390651025
      ],
      [
        "▁then",
        -6.9207796730340725
      ],
      [
        "▁did",
        -6.921082926906195
      ],
      [
        "th",
        -6.927384267914116
      ],
      [
        "▁been",
        -6.974960004427633
      ],
      [
        "▁good",
        -6.98829401444074
      ],
      [
        "▁their",
        -6.991037784128899
      ],
      [
        "▁where",
        -6.99732078607795
      ],
      [
        "▁people",
        -7.026358427348027
      ],
      [
        "▁more",
        -7.035658659237617
      ],
      [
        "w",
        -7.045768772546371
      ],
      [
        "v",
        -7.057638628823652
      ],
      [
        "▁other",
        -7.077496498121846
      ],
      [
        "▁going",
        -7.082702303258433
      ],
      [
        "▁very",
        -7.110272646113891
      ],
      [
        "▁two",
        -7.119736802452422
      ],
      [
        "▁over",
        -7.121744065343261
      ],
      [
        "▁back",
        -7.147050242078739
      ],
      [
        "▁let",
        -7.163273124387258
      ],
      [
        "▁look",
        -7.166566762182567
      ],
      [
        "or",
        -7.168214362605269
      ],
      [
        "le",
        -7.175013019458186
      ],
      [
        "▁first",
        -7.185968489416997
      ],
      [
        "▁could",
        -7.194611181313114
      ],
      [
        "▁down",
        -7.24457192570409
      ],
      [
        "▁because",
        -7.245789198590877
      ],
      [
        "▁man",
        -7.252027958708416
      ],
      [
        "ies",
        -7.252687492048537
      ],
      [
        "▁us",
        -7.263132033155875
      ],
      [
        "▁say",
        -7.2669491000295
      ],
      [
        "▁into",
        -7.268270745069124
      ],
      [
        "▁also",
        -7.2818238515908575
      ],
      [
        "▁okay",
        -7.307460769438421
      ],
      [
        "▁way",
        -7.309694966254064
      ],
      [
        "▁yes",
        -7.314597579472768
      ],
      [
        "▁take",
        -7.323720176439217
      ],
      [
        "▁only",
        -7.327213742421659
      ],
      [
        "▁why",
        -7.3392113019379135
      ],
      [
        "▁little",
        -7.3458993555611425
      ],
      [
        "▁our",
        -7.351484619808117
      ],
      [
        "ation",
        -7.35299727612313
      ],
      [
        "▁after",
        -7.3561080349544845
      ],
      [
        "it",
        -7.367051024688459
      ],
      [
        "▁new",
        -7.3702604647677905
      ],
      [
        "▁these",
        -7.378240113608628
      ],
      [
        "▁any",
        -7.382442468888092
      ],
      [
        "▁make",
        -7.4049956156642835
      ],
      [
        "▁really",
        -7.432505723114655
      ],
      [
        "▁need",
        -7.469588314926053
      ],
      [
        "]",
        -7.48101068848262
      ],
      [
        "[",
        -7.481929337112314
      ],
      [
        "ar",
        -7.4858294352684815
      ],
      [
        "▁put",
        -7.500622018015804
      ],
      [
        "▁than",
        -7.520613814424022
      ],
      [
        "ic",
        -7.537666228632853
      ],
      [
        "▁something",
        -7.565055067334255
      ],
      [
        "▁tell",
        -7.567228416150028
      ],
      [
        "the",
        -7.5831278042464465
      ],
      [
        "▁much",
        -7.590235491401304
      ],
      [
        "▁off",
        -7.592315144185077
      ],
      [
        "ch",
        -7.615393107980536
      ],
      [
        "x",
        -7.615534196919247
      ],
      [
        "▁am",
        -7.616037565288368
      ],
      [
        "_",
        -7.619780927547042
      ],
      [
        "▁should",
        -7.623880135066038
      ],
      [
        "▁too",
        -7.625764399104439
      ],
      [
        "▁mean",
        -7.6274621295064
      ],
      [
        "gonna",
        -7.633496306874864
      ],
      [
        "▁work",
        -7.6340117665124865
      ],
      [
        "▁name",
        -7.651353428219231
      ],
      [
        "▁before",
        -7.653762868939737
      ],
      [
        "▁de",
        -7.65598766434328
      ],
      [
        "▁made",
        -7.656266660358829
      ],
      [
        "▁day",
        -7.670042966840048
      ],
      [
        "▁never",
        -7.679646015277616
      ],
      [
        "us",
        -7.692506501232476
      ],
      [
        "▁many",
        -7.694190762955348
      ],
      [
        "▁even",
        -7.697500520641684
      ],
      [
        "▁may",
        -7.7021126719479405
      ],
      [
        "▁life",
        -7.710601422716499
      ],
      [
        "▁most",
        -7.71122317684646
      ],
      [
        "▁didn",
        -7.71299917263017
      ],
      [
        "▁again",
        -7.714542147591109
      ],
      [
        "▁love",
        -7.719584319476198
      ],
      [
        "▁great",
        -7.7296174940164
      ],
      [
        "est",
        -7.748736382114611
      ],
      [
        "to",
        -7.753425888628177
      ],
      [
        "▁part",
        -7.764820319731665
      ],
      [
        "able",
        -7.765614212700278
      ],
      [
        "man",
        -7.776626893201623
      ],
      [
        "▁those",
        -7.776742352933896
      ],
      [
        "|",
        -7.781097426325603
      ],
      [
        "▁uh",
        -7.781333420278459
      ],
      [
        "▁three",
        -7.7827540203005885
      ],
      [
        "▁give",
        -7.784003096862531
      ],
      [
        "▁play",
        -7.7864457677898145
      ],
      [
        "▁still",
        -7.801135554257298
      ],
      [
        "▁through",
        -7.801644316944426
      ],
      [
        "▁long",
        -7.805544158284466
      ],
      [
        "▁help",
        -7.815883467281518
      ],
      [
        "▁car",
        -7.821338965539564
      ],
      [
        "▁world",
        -7.827023895253863
      ],
      [
        "▁thing",
        -7.83071178952004
      ],
      [
        "“",
        -7.83922448090579
      ],
      [
        "▁years",
        -7.840364090873388
      ],
      [
        "▁home",
        -7.841290723420824
      ],
      [
        "”",
        -7.849642770277894
      ],
      [
        "▁thought",
        -7.850360182558592
      ],
      [
        "▁came",
        -7.876694852170605
      ],
      [
        "▁last",
        -7.877025848627309
      ],
      [
        "▁must",
        -7.880078270400979
      ],
      [
        "▁things",
        -7.887010495713538
      ],
      [
        "▁place",
        -7.899510776531137
      ],
      [
        "▁went",
        -7.899842855387025
      ],
      [
        "▁away",
        -7.89985550365129
      ],
      [
        "z",
        -7.904595732689449
      ],
      [
        "▁old",
        -7.912669590507782
      ],
      [
        "ment",
        -7.92411262530776
      ],
      [
        "ter",
        -7.924431969271049
      ],
      [
        "▁called",
        -7.940720778886416
      ],
      [
        "▁used",
        -7.942173577235138
      ],
      [
        "▁un",
        -7.943410415309112
      ],
      [
        "ity",
        -7.947171940182878
      ],
      [
        "▁house",
        -7.966805039306376
      ],
      [
        "▁such",
        -7.967694406223403
      ],
      [
        "▁being",
        -7.974676877062391
      ],
      [
        "▁show",
        -7.974722983493262
      ],
      [
        "▁doing",
        -7.980698774118633
      ],
      [
        "un",
        -7.989587359254511
      ],
      [
        "▁find",
        -7.991759835780584
      ],
      [
        "um",
        -7.993978174786776
      ],
      [
        "▁does",
        -7.996366560901867
      ],
      [
        "▁found",
        -7.997934864557264
      ],
      [
        "ur",
        -8.002273668368595
      ],
      [
        "▁same",
        -8.012783998773596
      ],
      [
        "▁con",
        -8.020602817273485
      ],
      [
        "▁won",
        -8.026743796595396
      ],
      [
        "▁call",
        -8.029098672899256
      ],
      [
        "▁city",
        -8.032948945019838
      ],
      [
        "▁kind",
        -8.03758571392944
      ],
      [
        "▁sure",
        -8.038927924857623
      ],
      [
        "ul",
        -8.039721730081368
      ],
      [
        "▁night",
        -8.040885948180556
      ],
      [
        "▁end",
        -8.041822763003005
      ],
      [
        "▁lot",
        -8.044282040526486
      ],
      [
        "▁use",
        -8.05469903442871
      ],
      [
        "▁another",
        -8.061075177157655
      ],
      [
        "▁mr",
        -8.064480112690442
      ],
      [
        "he",
        -8.06516675095038
      ],
      [
        "▁please",
        -8.073711961510062
      ],
      [
        "ce",
        -8.076797292335895
      ],
      [
        "▁under",
        -8.077351123114582
      ],
      [
        "▁war",
        -8.083113922791355
      ],
      [
        "▁erm",
        -8.084533367062765
      ],
      [
        "ke",
        -8.0876510707398
      ],
      [
        "▁talk",
        -8.08770790628951
      ],
      [
        "▁own",
        -8.092558913057596
      ],
      [
        "ent",
        -8.096785373651375
      ],
      [
        "▁might",
        -8.097511676273786
      ],
      [
        "▁live",
        -8.103208809144045
      ],
      [
        "no",
        -8.103212142538439
      ],
      [
        "▁thank",
        -8.103523796681174
      ],
      [
        "▁school",
        -8.106941860244342
      ],
      [
        "▁every",
        -8.119150769088757
      ],
      [
        "▁god",
        -8.124733049333525
      ],
      [
        "amp",
        -8.129388196267248
      ],
      [
        "▁keep",
        -8.135318214445089
      ],
      [
        "▁head",
        -8.138409343971915
      ],
      [
        "▁guy",
        -8.13868862712434
      ],
      [
        "▁around",
        -8.143006275837596
      ],
      [
        "and",
        -8.153030597375736
      ],
      [
        "do",
        -8.153084891538176
      ],
      [
        "land",
        -8.158253360175175
      ],
      [
        "ary",
        -8.158756500705438
      ],
      [
        "▁always",
        -8.161238759563282
      ],
      [
        "▁while",
        -8.16578787393107
      ],
      [
        "▁big",
        -8.169140980542293
      ],
      [
        "▁anything",
        -8.173200955897236
      ],
      [
        "▁number",
        -8.17502553326689
      ],
      [
        "up",
        -8.17844954953786
      ],
      [
        "▁better",
        -8.189278878368475
      ],
      [
        "▁hey",
        -8.189721163949141
      ],
      [
        "▁left",
        -8.191302702031026
      ],
      [
        "▁nothing",
        -8.192299477635885
      ],
      [
        "▁di",
        -8.19511988571681
      ],
      [
        "▁year",
        -8.19866004200213
      ],
      [
        "▁money",
        -8.203262716809611
      ],
      [
        "&",
        -8.209515217080334
      ],
      [
        "▁high",
        -8.211335463678381
      ],
      [
        "be",
        -8.216662630417785
      ],
      [
        "▁second",
        -8.21779455852673
      ],
      [
        "co",
        -8.220818037282699
      ],
      [
        "▁united",
        -8.220981030441957
      ],
      [
        "ness",
        -8.22274532203991
      ],
      [
        "▁sir",
        -8.225809963460065
      ],
      [
        "▁water",
        -8.236223978064178
      ],
      [
        "–",
        -8.240865073614394
      ],
      [
        "▁between",
        -8.240865082408831
      ],
      [
        "▁states",
        -8.241351763226396
      ],
      [
        "▁mar",
        -8.245578795340375
      ],
      [
        "▁ma",
        -8.249927747622825
      ],
      [
        "ever",
        -8.251370510642033
      ],
      [
        "▁different",
        -8.252493111565931
      ],
      [
        "▁change",
        -8.252968498018914
      ],
      [
        "tion",
        -8.257030767517927
      ],
      [
        "▁told",
        -8.266599924225432
      ],
      [
        "▁point",
        -8.267570716044373
      ],
      [
        "▁next",
        -8.271206642347419
      ],
      [
        "if",
        -8.272230060223288
      ],
      [
        "me",
        -8.286805378762713
      ],
      [
        "▁both",
        -8.288323493601633
      ],
      [
        "▁sorry",
        -8.288441030610644
      ],
      [
        "♪",
        -8.288897535836858
      ],
      [
        "▁state",
        -8.293328526179542
      ],
      [
        "▁father",
        -8.298099149426024
      ],
      [
        "▁ha",
        -8.299204467790691
      ],
      [
        "▁open",
        -8.299434773827679
      ],
      [
        "▁hand",
        -8.306604213764018
      ],
      [
        "▁done",
        -8.323489496034151
      ],
      [
        "▁co",
        -8.325188203542183
      ],
      [
        "▁men",
        -8.327098453790084
      ],
      [
        "▁each",
        -8.32920976127559
      ],
      [
        "▁best",
        -8.329358508542299
      ],
      [
        "▁stop",
        -8.329703035811301
      ],
      [
        "▁four",
        -8.334938207319736
      ],
      [
        "▁ever",
        -8.340320542928197
      ],
      [
        "▁course",
        -8.341972105599027
      ],
      [
        "ge",
        -8.342655927935235
      ],
      [
        "▁took",
        -8.347122403767202
      ],
      [
        "▁leave",
        -8.347850764981521
      ],
      [
        "▁later",
        -8.349648065630902
      ],
      [
        "▁during",
        -8.351037961552674
      ],
      [
        "▁start",
        -8.351623558240496
      ],
      [
        "▁since",
        -8.35319839232253
      ],
      [
        "▁actually",
        -8.35424406081379
      ],
      [
        "▁once",
        -8.355334185851968
      ],
      [
        "▁known",
        -8.360472558010523
      ],
      [
        "▁la",
        -8.361680353852206
      ],
      [
        "▁ca",
        -8.362914320405043
      ],
      [
        "▁bit",
        -8.365969574602053
      ],
      [
        "▁until",
        -8.369018217963376
      ],
      [
        "’",
        -8.370896994775498
      ],
      [
        "age",
        -8.371316931934004
      ],
      [
        "▁mother",
        -8.381334271286741
      ],
      [
        "▁mm",
        -8.384480534953006
      ],
      [
        "go",
        -8.387933846468904
      ],
      [
        "▁king",
        -8.390671597262335
      ],
      [
        "▁everything",
        -8.40527255656558
      ],
      [
        "▁far",
        -8.406720969280007
      ],
      [
        "▁saw",
        -8.408251744300738
      ],
      [
        "▁american",
        -8.412952897083656
      ],
      [
        "▁wait",
        -8.41404956003361
      ],
      [
        "▁face",
        -8.415160518603134
      ],
      [
        "▁hard",
        -8.420984144924164
      ],
      [
        "▁small",
        -8.42423462177647
      ],
      [
        "▁feel",
        -8.425061781715605
      ],
      [
        "▁side",
        -8.431452779227156
      ],
      [
        "we",
        -8.432148629615329
      ],
      [
        "▁line",
        -8.432171119943435
      ],
      [
        "▁doesn",
        -8.433988060010295
      ],
      [
        "▁girl",
        -8.440435879416317
      ],
      [
        "ate",
        -8.444109594391081
      ],
      [
        "ten",
        -8.455444942475664
      ],
      [
        "ful",
        -8.457780928619169
      ],
      [
        "▁order",
        -8.45824295601064
      ],
      [
        "▁young",
        -8.461130107842683
      ],
      [
        "▁maybe",
        -8.467918205630324
      ],
      [
        "▁hear",
        -8.47104513835727
      ],
      [
        "nough",
        -8.472084309300428
      ],
      [
        "▁move",
        -8.473173063511263
      ],
      [
        "ance",
        -8.474505186786828
      ],
      [
        "▁family",
        -8.475830317658653
      ],
      [
        "▁mo",
        -8.478144366943207
      ],
      [
        "▁boy",
        -8.480188041650907
      ],
      [
        "▁stay",
        -8.481395978973907
      ],
      [
        "▁hi",
        -8.492109427991425
      ],
      [
        "▁remember",
        -8.4933657966496
      ],
      [
        "▁today",
        -8.494591871677649
      ],
      [
        "▁nice",
        -8.50071055814047
      ],
      [
        "▁set",
        -8.504479066125915
      ],
      [
        "▁bad",
        -8.506001071194241
      ],
      [
        "▁case",
        -8.506569586862785
      ],
      [
        "▁light",
        -8.506933435444216
      ],
      [
        "▁against",
        -8.508298630471092
      ],
      [
        "▁five",
        -8.511023111497419
      ],
      [
        "▁else",
        -8.51251308592659
      ],
      [
        "▁without",
        -8.515147170323111
      ],
      [
        "▁turn",
        -8.517270566031497
      ],
      [
        "▁idea",
        -8.52357030930158
      ],
      [
        "▁room",
        -8.524621530434038
      ],
      [
        "tic",
        -8.529948631509008
      ],
      [
        "▁john",
        -8.53030958645964
      ],
      [
        "▁together",
        -8.533872804122584
      ],
      [
        "▁son",
        -8.537131731835931
      ],
      [
        "▁run",
        -8.539766583514293
      ],
      [
        "▁problem",
        -8.54227599359348
      ],
      [
        "ember",
        -8.547333428517309
      ],
      [
        "▁believe",
        -8.548092248544044
      ],
      [
        "▁quite",
        -8.556553974153564
      ],
      [
        "ous",
        -8.556794895801614
      ],
      [
        "less",
        -8.557833089106245
      ],
      [
        "▁few",
        -8.558415333029508
      ],
      [
        "ling",
        -8.560054181958524
      ],
      [
        "▁became",
        -8.561927227695508
      ],
      [
        "▁mind",
        -8.561969724574672
      ],
      [
        "▁week",
        -8.562951482356475
      ],
      [
        "▁bo",
        -8.566010220763369
      ],
      [
        "▁though",
        -8.567424539556608
      ],
      [
        "▁person",
        -8.573897948370792
      ],
      [
        "▁real",
        -8.576905767280303
      ],
      [
        "▁per",
        -8.580351260055886
      ],
      [
        "▁seen",
        -8.58106705569084
      ],
      [
        "▁b",
        -8.585297143793033
      ],
      [
        "▁town",
        -8.585367087520188
      ],
      [
        "▁sp",
        -8.587649166948054
      ],
      [
        "▁coming",
        -8.588247552207482
      ],
      [
        "▁team",
        -8.59045864698798
      ],
      [
        "ated",
        -8.591080949960222
      ],
      [
        "▁care",
        -8.594673436884653
      ],
      [
        "▁minute",
        -8.595563318590164
      ],
      [
        "den",
        -8.595828895449042
      ],
      [
        "▁south",
        -8.59708457320691
      ],
      [
        "you",
        -8.597238023064936
      ],
      [
        "▁group",
        -8.59806126765277
      ],
      [
        "▁north",
        -8.598308466561818
      ],
      [
        "▁children",
        -8.600121238344094
      ],
      [
        "/",
        -8.601802549915996
      ],
      [
        "▁dis",
        -8.606652743789356
      ],
      [
        "▁ask",
        -8.606664803411265
      ],
      [
        "▁looking",
        -8.606755641869304
      ],
      [
        "▁book",
        -8.61398993903468
      ],
      [
        "getting",
        -8.615221093143138
      ],
      [
        "▁understand",
        -8.61693917591008
      ],
      [
        "▁death",
        -8.619859365690955
      ],
      [
        "▁ho",
        -8.623099584737789
      ],
      [
        "▁game",
        -8.62615838720724
      ],
      [
        "*",
        -8.626835542547933
      ],
      [
        "▁se",
        -8.630118613663221
      ],
      [
        "▁woman",
        -8.632394260536906
      ],
      [
        "▁died",
        -8.63418343198417
      ],
      [
        "▁morning",
        -8.63425119093502
      ],
      [
        "ver",
        -8.6351666544024
      ],
      [
        "▁try",
        -8.637078725659464
      ],
      [
        "▁whole",
        -8.637319204571842
      ],
      [
        "▁yet",
        -8.639476444214683
      ],
      [
        "▁bring",
        -8.641043488924439
      ],
      [
        "per",
        -8.641196245823826
      ],
      [
        "ang",
        -8.643024684442151
      ],
      [
        "ca",
        -8.648815425240809
      ],
      [
        "▁happened",
        -8.655146399693244
      ],
      [
        "▁question",
        -8.655809845596991
      ],
      [
        "les",
        -8.65679167075445
      ],
      [
        "▁job",
        -8.658327012819406
      ],
      [
        "wa",
        -8.661465660913873
      ],
      [
        "é",
        -8.663102175949692
      ],
      [
        "▁pre",
        -8.66423360533616
      ],
      [
        "▁miss",
        -8.666002278325086
      ],
      [
        "▁shall",
        -8.66879061161662
      ],
      [
        "▁red",
        -8.671228463119064
      ],
      [
        "▁country",
        -8.672816223040448
      ],
      [
        "ard",
        -8.672964126685802
      ],
      [
        "▁universit",
        -8.675826289212548
      ],
      [
        "▁brother",
        -8.67754181236862
      ],
      [
        "▁six",
        -8.680057050140054
      ],
      [
        "▁pa",
        -8.680136636701508
      ],
      [
        "▁county",
        -8.682669606448478
      ],
      [
        "▁friend",
        -8.6850570462104
      ],
      [
        "▁cl",
        -8.686575000876548
      ],
      [
        "▁having",
        -8.687398148384117
      ],
      [
        "▁form",
        -8.68902719054529
      ],
      [
        "▁sort",
        -8.689580217664815
      ],
      [
        "▁large",
        -8.689962272462246
      ],
      [
        "▁isn",
        -8.690572346421614
      ],
      [
        "▁main",
        -8.69522015746676
      ],
      [
        "▁power",
        -8.695795269948835
      ],
      [
        "▁music",
        -8.697562826565033
      ],
      [
        "▁door",
        -8.69839167748208
      ],
      [
        "▁asked",
        -8.699203270843782
      ],
      [
        "▁half",
        -8.699390021040692
      ],
      [
        "ial",
        -8.70481273884215
      ],
      [
        "▁dead",
        -8.708875158702845
      ],
      [
        "himself",
        -8.70949608738296
      ],
      [
        "▁says",
        -8.709702866227598
      ],
      [
        "▁heart",
        -8.709893374667768
      ],
      [
        "▁eyes",
        -8.711753711392507
      ],
      [
        "▁matter",
        -8.713471156305953
      ],
      [
        "▁national",
        -8.71478990426975
      ],
      [
        "gu",
        -8.715824328692547
      ],
      [
        "▁vi",
        -8.716882188208071
      ],
      [
        "ally",
        -8.72027362990259
      ],
      [
        "▁seem",
        -8.721475433305866
      ],
      [
        "▁black",
        -8.722110907122827
      ],
      [
        "▁general",
        -8.722417614501346
      ],
      [
        "▁soon",
        -8.722462508374802
      ],
      [
        "▁gave",
        -8.72344154381108
      ],
      [
        "▁fire",
        -8.725032744533681
      ],
      [
        "▁system",
        -8.727696207646439
      ],
      [
        "already",
        -8.730542935669469
      ],
      [
        "▁air",
        -8.731245586583483
      ],
      [
        "▁movie",
        -8.739199363288733
      ],
      [
        "ber",
        -8.73991696585303
      ],
      [
        "▁fine",
        -8.740253885165457
      ],
      [
        "▁important",
        -8.74055836953048
      ],
      [
        "▁upon",
        -8.745886447740624
      ],
      [
        "▁al",
        -8.745995253376165
      ],
      [
        "▁wrong",
        -8.751763542228115
      ],
      [
        "by",
        -8.752427781064103
      ],
      [
        "▁women",
        -8.75728811268559
      ],
      [
        "▁ja",
        -8.757671096925787
      ],
      [
        "▁knew",
        -8.760551686789476
      ],
      [
        "▁days",
        -8.761322678342538
      ],
      [
        "one",
        -8.762971797007495
      ],
      [
        "▁white",
        -8.76422914117358
      ],
      [
        "▁full",
        -8.7670832405705
      ],
      [
        "ka",
        -8.767108983028656
      ],
      [
        "self",
        -8.767111988791768
      ],
      [
        "▁president",
        -8.771638997730168
      ],
      [
        "▁release",
        -8.771963328534577
      ],
      [
        "ism",
        -8.774494180717152
      ],
      [
        "▁hold",
        -8.77999690783409
      ],
      [
        "j",
        -8.780733284090665
      ],
      [
        "▁read",
        -8.784475064043633
      ],
      [
        "led",
        -8.785390931587006
      ],
      [
        "ence",
        -8.786752539962713
      ],
      [
        "▁someone",
        -8.788478469896223
      ],
      [
        "▁ten",
        -8.788726067588705
      ],
      [
        "our",
        -8.788842238888488
      ],
      [
        "▁born",
        -8.789928006264862
      ],
      [
        "▁become",
        -8.793048019908863
      ],
      [
        "▁certain",
        -8.793335546673124
      ],
      [
        "▁near",
        -8.794132176627944
      ],
      [
        "▁round",
        -8.796729289348974
      ],
      [
        "▁dr",
        -8.796934006512082
      ],
      [
        "▁talking",
        -8.79707653323292
      ],
      [
        "▁saying",
        -8.799112048986935
      ],
      [
        "lin",
        -8.801919416143239
      ],
      [
        "▁pro",
        -8.802071079971956
      ],
      [
        "▁bar",
        -8.802419053543968
      ],
      [
        "▁along",
        -8.802938041658077
      ],
      [
        "ster",
        -8.803265254598411
      ],
      [
        "▁ba",
        -8.803513999123421
      ],
      [
        "▁rest",
        -8.805460566374594
      ],
      [
        "▁sea",
        -8.80552586134942
      ],
      [
        "▁eat",
        -8.807001084234933
      ],
      [
        "▁began",
        -8.809801079225544
      ],
      [
        "▁pay",
        -8.812164500073923
      ],
      [
        "▁trying",
        -8.812249675390621
      ],
      [
        "▁jo",
        -8.813915763510025
      ],
      [
        "▁word",
        -8.816207072201866
      ],
      [
        "ley",
        -8.820773163235042
      ],
      [
        "▁free",
        -8.822002049545103
      ],
      [
        "▁fact",
        -8.822058543623754
      ],
      [
        "▁moment",
        -8.822502664797199
      ],
      [
        "way",
        -8.822983286886927
      ],
      [
        "▁times",
        -8.823300775703927
      ],
      [
        "▁station",
        -8.825099868156624
      ],
      [
        "▁pretty",
        -8.828434982275791
      ],
      [
        "heard",
        -8.82844013028459
      ],
      [
        "▁probabl",
        -8.830400628699994
      ],
      [
        "▁government",
        -8.830794894377885
      ],
      [
        "▁record",
        -8.833073970470846
      ],
      [
        "out",
        -8.833498882521475
      ],
      [
        "▁often",
        -8.833742761644674
      ],
      [
        "▁film",
        -8.833955603751491
      ],
      [
        "▁land",
        -8.833979100056922
      ],
      [
        "▁short",
        -8.834477433227189
      ],
      [
        "▁party",
        -8.836763413804594
      ],
      [
        "▁started",
        -8.838465945203653
      ],
      [
        "ow",
        -8.841488761648108
      ],
      [
        "▁close",
        -8.84164352497429
      ],
      [
        "▁ex",
        -8.842793041136567
      ],
      [
        "ven",
        -8.844346317473695
      ],
      [
        "▁gone",
        -8.846392331803933
      ],
      [
        "▁human",
        -8.850604383395401
      ],
      [
        "▁wanna",
        -8.850690933626648
      ],
      [
        "▁wife",
        -8.851876772683692
      ],
      [
        "▁story",
        -8.852497302393186
      ],
      [
        "▁listen",
        -8.853342901361154
      ],
      [
        "ger",
        -8.854588730930331
      ],
      [
        "▁present",
        -8.857117986601732
      ],
      [
        "king",
        -8.859856114688585
      ],
      [
        "▁ka",
        -8.864824771640485
      ],
      [
        "▁act",
        -8.869420214964016
      ],
      [
        "▁ab",
        -8.87398810807548
      ],
      [
        "▁early",
        -8.87447211423532
      ],
      [
        "▁reason",
        -8.87504148531357
      ],
      [
        "▁hope",
        -8.876737231292866
      ],
      [
        "▁france",
        -8.877534027182506
      ],
      [
        "▁dad",
        -8.878546438238349
      ],
      [
        "▁court",
        -8.880011970159273
      ],
      [
        "▁kill",
        -8.881373534796463
      ],
      [
        "▁watch",
        -8.886485670995445
      ],
      [
        "▁baby",
        -8.887174951188118
      ],
      [
        "▁service",
        -8.887869116889114
      ],
      [
        "▁business",
        -8.892046266056308
      ],
      [
        "cu",
        -8.895190316544554
      ],
      [
        "▁law",
        -8.895230504340397
      ],
      [
        "#",
        -8.899180457699211
      ],
      [
        "▁sh",
        -8.899274652037665
      ],
      [
        "▁drink",
        -8.901733187428192
      ],
      [
        "▁sit",
        -8.901748907445999
      ],
      [
        "▁po",
        -8.905427434151687
      ],
      [
        "que",
        -8.906707452104689
      ],
      [
        "▁ready",
        -8.90730858607218
      ],
      [
        "▁goes",
        -8.908035075254231
      ],
      [
        "what",
        -8.912180183254797
      ],
      [
        "▁true",
        -8.912250142969016
      ],
      [
        "▁die",
        -8.912815157849554
      ],
      [
        "▁history",
        -8.913202072154881
      ],
      [
        "▁lost",
        -8.913656572266156
      ],
      [
        "▁blood",
        -8.917036060042406
      ],
      [
        "▁cut",
        -8.918152341248511
      ],
      [
        "▁age",
        -8.918243827109567
      ],
      [
        "▁company",
        -8.919617160811192
      ],
      [
        "▁making",
        -8.922472764098622
      ],
      [
        "▁hello",
        -8.928278443100925
      ],
      [
        "▁ship",
        -8.930652947868648
      ],
      [
        "ical",
        -8.931640133217016
      ],
      [
        "▁gu",
        -8.933922671542174
      ],
      [
        "▁means",
        -8.934991291572548
      ],
      [
        "con",
        -8.935984509227957
      ],
      [
        "▁almost",
        -8.938319337613953
      ],
      [
        "▁english",
        -8.939151399015355
      ],
      [
        "▁island",
        -8.939525061888832
      ],
      [
        "▁example",
        -8.942234263660321
      ],
      [
        "▁deal",
        -8.942270901786754
      ],
      [
        "mp",
        -8.94346666061691
      ],
      [
        "ner",
        -8.94534109440594
      ],
      [
        "▁late",
        -8.945822172138485
      ],
      [
        "▁sometimes",
        -8.947553996246432
      ],
      [
        "ade",
        -8.952995110726418
      ],
      [
        "▁top",
        -8.953514516267918
      ],
      [
        "wanted",
        -8.955529328567707
      ],
      [
        "▁million",
        -8.961444902530628
      ],
      [
        "▁rock",
        -8.962087481080697
      ],
      [
        "▁ar",
        -8.964095193168555
      ],
      [
        "▁seven",
        -8.967854429060917
      ],
      [
        "▁san",
        -8.967969199826584
      ],
      [
        "▁fi",
        -8.969146197396
      ],
      [
        "gra",
        -8.97118119649788
      ],
      [
        "▁hit",
        -8.972281217604536
      ],
      [
        "▁da",
        -8.973555782720144
      ],
      [
        "▁pick",
        -8.97645183204224
      ],
      [
        "men",
        -8.977182309971255
      ],
      [
        "▁va",
        -8.978545729893476
      ],
      [
        "▁yourself",
        -8.978596992641023
      ],
      [
        "▁fall",
        -8.983033903950167
      ],
      [
        "▁li",
        -8.984044268013104
      ],
      [
        "▁west",
        -8.984618376736519
      ],
      [
        "ail",
        -8.984830487204292
      ],
      [
        "ating",
        -8.98505152515542
      ],
      [
        "▁ago",
        -8.985295458515818
      ],
      [
        "ham",
        -8.987797175105321
      ],
      [
        "▁daughter",
        -8.98812982002978
      ],
      [
        "▁fr",
        -8.99072253503904
      ],
      [
        "▁public",
        -8.992281155383726
      ],
      [
        "▁allow",
        -8.99269892372492
      ],
      [
        "▁street",
        -8.993206580236212
      ],
      [
        "▁cause",
        -8.993599573008566
      ],
      [
        "▁working",
        -8.99424968971394
      ],
      [
        "▁body",
        -8.995128784519132
      ],
      [
        "ng",
        -8.998010964982921
      ],
      [
        "▁march",
        -9.00130276233701
      ],
      [
        "pp",
        -9.003234470449353
      ],
      [
        "ward",
        -9.00537648848462
      ],
      [
        "▁usual",
        -9.008367923594452
      ],
      [
        "car",
        -9.009415653540028
      ],
      [
        "▁building",
        -9.0115578301905
      ],
      [
        "▁wouldn",
        -9.011870620851948
      ],
      [
        "born",
        -9.01251669056422
      ],
      [
        "▁road",
        -9.013783936192375
      ],
      [
        "▁j",
        -9.01510440877964
      ],
      [
        "▁district",
        -9.01804373027874
      ],
      [
        "▁river",
        -9.02376350669559
      ],
      [
        "▁term",
        -9.02668587746324
      ],
      [
        "ator",
        -9.02764990700162
      ],
      [
        "gen",
        -9.0282278531364
      ],
      [
        "▁food",
        -9.028558116085543
      ],
      [
        "▁area",
        -9.030017277892377
      ],
      [
        "▁child",
        -9.030206450771306
      ],
      [
        "▁given",
        -9.030891045525934
      ],
      [
        "ack",
        -9.031722100973855
      ],
      [
        "▁ok",
        -9.032354816727786
      ],
      [
        "▁happy",
        -9.032864436815236
      ],
      [
        "han",
        -9.034055467590711
      ],
      [
        "line",
        -9.0351838213412
      ],
      [
        "▁york",
        -9.041093770448736
      ],
      [
        "ship",
        -9.041270997979796
      ],
      [
        "time",
        -9.042002397089796
      ],
      [
        "▁haven",
        -9.04233230057319
      ],
      [
        "▁hands",
        -9.0431965401025
      ],
      [
        "▁stand",
        -9.044244548738398
      ],
      [
        "com",
        -9.04435518092318
      ],
      [
        "▁fight",
        -9.0449286444949
      ],
      [
        "ves",
        -9.048957443816768
      ],
      [
        "▁art",
        -9.050173141421736
      ],
      [
        "▁pi",
        -9.050469640984405
      ],
      [
        "mer",
        -9.051545406352805
      ],
      [
        "▁stuff",
        -9.052835942540526
      ],
      [
        "ler",
        -9.056032018105787
      ],
      [
        "▁fl",
        -9.056033251664722
      ],
      [
        "▁hu",
        -9.056212438437854
      ],
      [
        "▁meet",
        -9.057135072982732
      ],
      [
        "▁cr",
        -9.058351111489106
      ],
      [
        "ex",
        -9.058453223523824
      ],
      [
        "▁myself",
        -9.058525510192236
      ],
      [
        "▁sub",
        -9.05992529884092
      ],
      [
        "▁brought",
        -9.060222149409316
      ],
      [
        "▁guess",
        -9.0607125140845
      ],
      [
        "▁front",
        -9.060734266208996
      ],
      [
        "▁doctor",
        -9.061481544940792
      ],
      [
        "▁wish",
        -9.062709396537056
      ],
      [
        "▁le",
        -9.06502764709843
      ],
      [
        "▁several",
        -9.065670654371509
      ],
      [
        "▁thanks",
        -9.065891296521407
      ],
      [
        "ped",
        -9.066758827740168
      ],
      [
        "▁park",
        -9.066959981247404
      ],
      [
        "qui",
        -9.067319265559904
      ],
      [
        "▁du",
        -9.069198809760104
      ],
      [
        "▁bi",
        -9.070848378293835
      ],
      [
        "▁quick",
        -9.073241858762756
      ],
      [
        "▁past",
        -9.075663081948097
      ],
      [
        "▁win",
        -9.077327788886295
      ],
      [
        "▁fa",
        -9.077454988520689
      ],
      [
        "▁sha",
        -9.077536084609676
      ],
      [
        "▁walk",
        -9.078977489879074
      ],
      [
        "▁buy",
        -9.08039519626331
      ],
      [
        "▁behind",
        -9.081713846344869
      ],
      [
        "▁sun",
        -9.082669140945873
      ],
      [
        "▁song",
        -9.08292507823521
      ],
      [
        "▁support",
        -9.083231496008512
      ],
      [
        "▁least",
        -9.083295914764657
      ],
      [
        "len",
        -9.085903643927647
      ],
      [
        "▁captain",
        -9.086274719385782
      ],
      [
        "ok",
        -9.088277068257751
      ],
      [
        "▁language",
        -9.089836630610227
      ],
      [
        "▁killed",
        -9.091717277375452
      ],
      [
        "ach",
        -9.09208901870018
      ],
      [
        "▁cor",
        -9.092293294940632
      ],
      [
        "bb",
        -9.092411256630903
      ],
      [
        "▁star",
        -9.093224839804249
      ],
      [
        "▁serie",
        -9.093638124754982
      ],
      [
        "▁wasn",
        -9.09391934456088
      ],
      [
        "▁friends",
        -9.095112368440905
      ],
      [
        "ring",
        -9.096382103585714
      ],
      [
        "▁special",
        -9.097513816319706
      ],
      [
        "▁season",
        -9.099672926172389
      ],
      [
        "▁januar",
        -9.102152858127628
      ],
      [
        "ck",
        -9.1024710578409
      ],
      [
        "▁reach",
        -9.102570815977398
      ],
      [
        "▁taking",
        -9.10269507531102
      ],
      [
        "married",
        -9.106309179099778
      ],
      [
        "▁office",
        -9.106972799324552
      ],
      [
        "▁rather",
        -9.10739066578656
      ],
      [
        "▁either",
        -9.108372231081438
      ],
      [
        "▁common",
        -9.109928313862632
      ],
      [
        "▁paper",
        -9.11280235417994
      ],
      [
        "▁force",
        -9.112839652902704
      ],
      [
        "▁single",
        -9.112852545105632
      ],
      [
        "▁alright",
        -9.11421098244972
      ],
      [
        "▁clear",
        -9.116318466486156
      ],
      [
        "▁sound",
        -9.11737838913528
      ],
      [
        "cent",
        -9.119198391084993
      ],
      [
        "▁plan",
        -9.119333710799138
      ],
      [
        "▁band",
        -9.119378075705423
      ],
      [
        "▁answer",
        -9.121923463735357
      ],
      [
        "▁taken",
        -9.12261364896474
      ],
      [
        "▁eight",
        -9.12276648307762
      ],
      [
        "bu",
        -9.122807146714957
      ],
      [
        "ze",
        -9.127681722974472
      ],
      [
        "▁check",
        -9.127953845513348
      ],
      [
        "▁design",
        -9.128072144358612
      ],
      [
        "▁award",
        -9.129956675810742
      ],
      [
        "▁police",
        -9.131638415984009
      ],
      [
        "▁mrs",
        -9.132656299700304
      ],
      [
        "▁church",
        -9.133586146514968
      ],
      [
        "▁voice",
        -9.134733069038749
      ],
      [
        "▁strong",
        -9.135759433485996
      ],
      [
        "▁poor",
        -9.13677614391282
      ],
      [
        "▁class",
        -9.13818094916821
      ],
      [
        "▁words",
        -9.13861200760632
      ],
      [
        "▁sleep",
        -9.140789250578958
      ],
      [
        "▁huh",
        -9.143121521234072
      ],
      [
        "end",
        -9.143478259731465
      ],
      [
        "$",
        -9.144314614418676
      ],
      [
        "▁alone",
        -9.145284113992254
      ],
      [
        "▁green",
        -9.146732309326389
      ],
      [
        "▁beautiful",
        -9.148632034848765
      ],
      [
        "▁living",
        -9.150259652333329
      ],
      [
        "uc",
        -9.150502887016646
      ],
      [
        "▁piece",
        -9.152579082864165
      ],
      [
        "▁wa",
        -9.152816195810711
      ],
      [
        "let",
        -9.15524139496277
      ],
      [
        "▁consider",
        -9.15526600678334
      ],
      [
        "▁dear",
        -9.155638271006769
      ],
      [
        "▁mom",
        -9.15707914918942
      ],
      [
        "▁east",
        -9.157396088066967
      ],
      [
        "▁mine",
        -9.159541970219518
      ],
      [
        "aught",
        -9.159688410652077
      ],
      [
        "▁ga",
        -9.162866291309758
      ],
      [
        "▁wi",
        -9.163794449782142
      ],
      [
        "lan",
        -9.165375358974476
      ],
      [
        "ious",
        -9.166304907531403
      ],
      [
        "▁ball",
        -9.166946832017189
      ],
      [
        "▁attack",
        -9.169982050816833
      ],
      [
        "▁perhaps",
        -9.17049701874312
      ],
      [
        "▁lo",
        -9.170786560384013
      ],
      [
        "za",
        -9.172552676165258
      ],
      [
        "ping",
        -9.174626550339418
      ],
      [
        "ja",
        -9.175325275568245
      ],
      [
        "▁lady",
        -9.175442974546144
      ],
      [
        "▁bl",
        -9.177000612796832
      ],
      [
        "▁har",
        -9.177742164132182
      ],
      [
        "▁everyone",
        -9.179887652595545
      ],
      [
        "lar",
        -9.180666292348478
      ],
      [
        "▁third",
        -9.181615457633448
      ],
      [
        "▁player",
        -9.184454099263313
      ],
      [
        "▁hundred",
        -9.18496839523863
      ],
      [
        "kin",
        -9.187038659596055
      ],
      [
        "▁fair",
        -9.189347130170056
      ],
      [
        "▁pe",
        -9.19012076834905
      ],
      [
        "▁cross",
        -9.190663788963905
      ],
      [
        "▁horse",
        -9.19128405089029
      ],
      [
        "▁rule",
        -9.192146028202794
      ],
      [
        "▁tea",
        -9.192638751246244
      ],
      [
        "▁type",
        -9.192653326712271
      ],
      [
        "▁local",
        -9.192985864023576
      ],
      [
        "▁couldn",
        -9.193656281299369
      ],
      [
        "▁sister",
        -9.194094945643464
      ],
      [
        "ide",
        -9.195347969363764
      ],
      [
        "hal",
        -9.196529443467382
      ],
      [
        "▁wall",
        -9.198594603207734
      ],
      [
        "▁sent",
        -9.20376343633499
      ],
      [
        "▁happen",
        -9.205588190595188
      ],
      [
        "▁album",
        -9.20593819682948
      ],
      [
        "▁mu",
        -9.205978783868929
      ],
      [
        "▁bed",
        -9.20865340275245
      ],
      [
        "well",
        -9.20890238582627
      ],
      [
        "▁mark",
        -9.209251385633646
      ],
      [
        "▁met",
        -9.210079863685902
      ],
      [
        "▁cat",
        -9.211560012762405
      ],
      [
        "%",
        -9.212250553951236
      ],
      [
        "▁less",
        -9.212370281067262
      ],
      [
        "▁jul",
        -9.215271223597693
      ],
      [
        "▁british",
        -9.217449889503106
      ],
      [
        "▁member",
        -9.218789465854757
      ],
      [
        "▁blue",
        -9.219208000108118
      ],
      [
        "▁fuck",
        -9.219421460337074
      ],
      [
        "▁include",
        -9.219661825462795
      ],
      [
        "▁tra",
        -9.22011688455181
      ],
      [
        "▁lay",
        -9.2233575186622
      ],
      [
        "▁speak",
        -9.226822475091131
      ],
      [
        "▁month",
        -9.226947607225036
      ],
      [
        "stra",
        -9.228283171098456
      ],
      [
        "▁inside",
        -9.229782543237906
      ],
      [
        "▁german",
        -9.230859136788974
      ],
      [
        "val",
        -9.23286056267166
      ],
      [
        "stan",
        -9.23422852309747
      ],
      [
        "▁ran",
        -9.234417247261993
      ],
      [
        "ken",
        -9.235616119293002
      ],
      [
        "more",
        -9.236817264054022
      ],
      [
        "▁fish",
        -9.237436749061338
      ],
      [
        "uk",
        -9.23841148028169
      ],
      [
        "▁com",
        -9.241457065471277
      ],
      [
        "▁cos",
        -9.242801493883604
      ],
      [
        "▁chance",
        -9.242843347813574
      ],
      [
        "che",
        -9.24349474434192
      ],
      [
        "▁outside",
        -9.243560070151988
      ],
      [
        "▁break",
        -9.244591179265768
      ],
      [
        "▁major",
        -9.24624120260746
      ],
      [
        "▁gold",
        -9.24819419988358
      ],
      [
        "▁sept",
        -9.248704775665074
      ],
      [
        "▁test",
        -9.250199989065212
      ],
      [
        "across",
        -9.250484704119758
      ],
      [
        "▁figure",
        -9.251023202121564
      ],
      [
        "▁region",
        -9.25364047148982
      ],
      [
        "▁following",
        -9.254084116089746
      ],
      [
        "▁thinking",
        -9.25428720144582
      ],
      [
        "▁original",
        -9.25608985110425
      ],
      [
        "▁football",
        -9.258277819778412
      ],
      [
        "▁send",
        -9.258529396744066
      ],
      [
        "▁character",
        -9.258800801916625
      ],
      [
        "▁nine",
        -9.260017606550583
      ],
      [
        "▁club",
        -9.260053215286533
      ],
      [
        "▁held",
        -9.260632493128096
      ],
      [
        "▁result",
        -9.261257365766202
      ],
      [
        "▁cost",
        -9.262225341965513
      ],
      [
        "▁french",
        -9.262494963149171
      ],
      [
        "▁exactly",
        -9.263629323115296
      ],
      [
        "▁population",
        -9.267349177490589
      ],
      [
        "▁playing",
        -9.270192699914348
      ],
      [
        "▁ground",
        -9.274086848842227
      ],
      [
        "▁table",
        -9.274273493259956
      ],
      [
        "▁write",
        -9.274349120018323
      ],
      [
        "▁built",
        -9.27466000330142
      ],
      [
        "▁lord",
        -9.274733105760262
      ],
      [
        "▁college",
        -9.275886898129452
      ],
      [
        "turned",
        -9.27664196674865
      ],
      [
        "row",
        -9.277987296172435
      ],
      [
        "ction",
        -9.278576749147144
      ],
      [
        "▁hair",
        -9.279355068896756
      ],
      [
        "of",
        -9.28064974953343
      ],
      [
        "▁count",
        -9.281171430039612
      ],
      [
        "▁save",
        -9.282422331280436
      ],
      [
        "▁je",
        -9.283494901245152
      ],
      [
        "but",
        -9.28415989682255
      ],
      [
        "▁return",
        -9.285080660356154
      ],
      [
        "▁twenty",
        -9.285140399007936
      ],
      [
        "▁touch",
        -9.28873411135621
      ],
      [
        "▁dark",
        -9.288764884759814
      ],
      [
        "▁list",
        -9.29134883315052
      ],
      [
        "har",
        -9.291674752188085
      ],
      [
        "▁gun",
        -9.29229785908213
      ],
      [
        "▁master",
        -9.293031593780585
      ],
      [
        "old",
        -9.294033195278976
      ],
      [
        "▁fun",
        -9.294653989432184
      ],
      [
        "▁remain",
        -9.295110638367154
      ],
      [
        "▁cha",
        -9.295968885171357
      ],
      [
        "▁effect",
        -9.299497782712528
      ],
      [
        "▁department",
        -9.300126689520052
      ],
      [
        "▁possible",
        -9.301476484065104
      ],
      [
        "▁whatever",
        -9.301890353105655
      ],
      [
        "▁su",
        -9.301958510955156
      ],
      [
        "▁trouble",
        -9.30327731909196
      ],
      [
        "▁bird",
        -9.303744676225689
      ],
      [
        "▁everybody",
        -9.304576092906148
      ],
      [
        "▁report",
        -9.304827664647044
      ],
      [
        "▁video",
        -9.304975475658914
      ],
      [
        "▁qu",
        -9.305702417754668
      ],
      [
        "▁control",
        -9.30791865858332
      ],
      [
        "▁tomorrow",
        -9.311347834546702
      ],
      [
        "▁anyone",
        -9.312115065780564
      ],
      [
        "▁post",
        -9.312406352745905
      ],
      [
        "gotta",
        -9.312656529264377
      ],
      [
        "▁inter",
        -9.312941960471058
      ],
      [
        "▁village",
        -9.313427321925406
      ],
      [
        "ric",
        -9.315108526629704
      ],
      [
        "▁continue",
        -9.315778479410056
      ],
      [
        "▁hurt",
        -9.316044928891252
      ],
      [
        "▁bear",
        -9.318381104107708
      ],
      [
        "her",
        -9.319272627665075
      ],
      [
        "▁follow",
        -9.320599637758177
      ],
      [
        "all",
        -9.320867696279633
      ],
      [
        "▁earth",
        -9.321039740791717
      ],
      [
        "▁whether",
        -9.321749650263662
      ],
      [
        "▁um",
        -9.321957342046309
      ],
      [
        "▁shut",
        -9.322054916720948
      ],
      [
        "▁includin",
        -9.324578811760173
      ],
      [
        "▁space",
        -9.32578200466386
      ],
      [
        "huh",
        -9.32660342750648
      ],
      [
        "▁comes",
        -9.3273119504973
      ],
      [
        "▁step",
        -9.32870391389131
      ],
      [
        "tur",
        -9.330026263125992
      ],
      [
        "▁phone",
        -9.33069140935574
      ],
      [
        "▁couple",
        -9.331440873767136
      ],
      [
        "▁leg",
        -9.33163051069291
      ],
      [
        "pril",
        -9.332040753380715
      ],
      [
        "ji",
        -9.332339748244964
      ],
      [
        "▁program",
        -9.332603766068178
      ],
      [
        "▁shit",
        -9.332761519479709
      ],
      [
        "▁ver",
        -9.333072279186286
      ],
      [
        "▁wonder",
        -9.333321133024707
      ],
      [
        "▁offer",
        -9.335365619602626
      ],
      [
        "▁pan",
        -9.336578884562249
      ],
      [
        "▁anyway",
        -9.33835843534727
      ],
      [
        "▁level",
        -9.33861737649732
      ],
      [
        "▁pass",
        -9.33903122855005
      ],
      [
        "▁fe",
        -9.33921775363897
      ],
      [
        "▁cap",
        -9.339576148225255
      ],
      [
        "▁london",
        -9.33991466675498
      ],
      [
        "▁easy",
        -9.339967612098995
      ],
      [
        "▁till",
        -9.341733210876903
      ],
      [
        "▁arm",
        -9.341959633289312
      ],
      [
        "▁peter",
        -9.342404791099096
      ],
      [
        "ung",
        -9.342684695236947
      ],
      [
        "▁looks",
        -9.342882072052868
      ],
      [
        "▁cur",
        -9.343146742195902
      ],
      [
        "▁bill",
        -9.343368236593516
      ],
      [
        "for",
        -9.346634330124704
      ],
      [
        "▁lu",
        -9.34979997681145
      ],
      [
        "▁thousand",
        -9.35045120080295
      ],
      [
        "▁imp",
        -9.350798962903204
      ],
      [
        "▁written",
        -9.351105384566791
      ],
      [
        "ice",
        -9.351160342201045
      ],
      [
        "▁ac",
        -9.353344270490176
      ],
      [
        "▁among",
        -9.35351699114555
      ],
      [
        "my",
        -9.354111282719447
      ],
      [
        "▁makes",
        -9.354846665323825
      ],
      [
        "ure",
        -9.355147101682192
      ],
      [
        "▁felt",
        -9.35561443214016
      ],
      [
        "▁fell",
        -9.356853061392084
      ],
      [
        "▁hill",
        -9.356915689742328
      ],
      [
        "▁train",
        -9.357504107884274
      ],
      [
        "▁cup",
        -9.35808727903616
      ],
      [
        "▁august",
        -9.358414390416756
      ],
      [
        "▁june",
        -9.358746876968452
      ],
      [
        "nes",
        -9.35943752698107
      ],
      [
        "act",
        -9.359440933976256
      ],
      [
        "ory",
        -9.359512764862313
      ],
      [
        "▁sign",
        -9.36091111764046
      ],
      [
        "▁sense",
        -9.361487244847243
      ],
      [
        "▁cold",
        -9.361623302050823
      ],
      [
        "▁england",
        -9.361754758383228
      ],
      [
        "▁career",
        -9.362163445679116
      ],
      [
        "using",
        -9.36382924995522
      ],
      [
        "side",
        -9.364802401750536
      ],
      [
        "▁hot",
        -9.364902095283652
      ],
      [
        "day",
        -9.366875180990837
      ],
      [
        "▁feeling",
        -9.367105942382286
      ],
      [
        "▁comp",
        -9.367972397357498
      ],
      [
        "▁kid",
        -9.368356918376625
      ],
      [
        "▁process",
        -9.36846900869013
      ],
      [
        "▁box",
        -9.368483529623433
      ],
      [
        "chi",
        -9.368859970746428
      ],
      [
        "▁view",
        -9.371517817549174
      ],
      [
        "▁centur",
        -9.37182708332742
      ],
      [
        "▁particular",
        -9.375227288813166
      ],
      [
        "▁fo",
        -9.376287108388834
      ],
      [
        "▁clean",
        -9.376698348563885
      ],
      [
        "pos",
        -9.377815427510818
      ],
      [
        "▁shot",
        -9.378756371150176
      ],
      [
        "▁nov",
        -9.378930698176893
      ],
      [
        "▁nor",
        -9.38042578784319
      ],
      [
        "—",
        -9.380667495295071
      ],
      [
        "▁information",
        -9.380873022260683
      ],
      [
        "▁hell",
        -9.381691794277868
      ],
      [
        "▁husband",
        -9.382715328267066
      ],
      [
        "▁worry",
        -9.38271536090777
      ],
      [
        "▁army",
        -9.384184485786822
      ],
      [
        "▁equal",
        -9.386147856686948
      ],
      [
        "▁cover",
        -9.386956726457516
      ],
      [
        "gar",
        -9.38805931259498
      ],
      [
        "▁based",
        -9.388449818380543
      ],
      [
        "off",
        -9.38867653673798
      ],
      [
        "▁former",
        -9.388777491790815
      ],
      [
        "▁super",
        -9.389113163861822
      ],
      [
        "▁instead",
        -9.390986660567693
      ],
      [
        "gan",
        -9.391693946685589
      ],
      [
        "▁wind",
        -9.392486348660569
      ],
      [
        "tried",
        -9.39343954745691
      ],
      [
        "▁current",
        -9.39509209452126
      ],
      [
        "▁throw",
        -9.395882226914148
      ],
      [
        "air",
        -9.395896672991766
      ],
      [
        "▁sal",
        -9.399697296217466
      ],
      [
        "▁dog",
        -9.400624765108445
      ],
      [
        "▁receive",
        -9.401018278550744
      ],
      [
        "▁event",
        -9.402750378205283
      ],
      [
        "▁role",
        -9.404667490550434
      ],
      [
        "▁fast",
        -9.405581839296978
      ],
      [
        "rap",
        -9.4064779640858
      ],
      [
        "uff",
        -9.408412087294534
      ],
      [
        "▁television",
        -9.411140893690106
      ],
      [
        "▁issue",
        -9.41126375256265
      ],
      [
        "mal",
        -9.411429073102603
      ],
      [
        "▁america",
        -9.414581272267323
      ],
      [
        "▁field",
        -9.416020098381088
      ],
      [
        "▁octob",
        -9.416063476918968
      ],
      [
        "▁drive",
        -9.41616119820991
      ],
      [
        "▁somebody",
        -9.416201423024672
      ],
      [
        "▁produce",
        -9.416766611994486
      ],
      [
        "▁hour",
        -9.417363164595308
      ],
      [
        "▁murder",
        -9.417478227798789
      ],
      [
        "▁ye",
        -9.418921474741907
      ],
      [
        "▁george",
        -9.420314634079292
      ],
      [
        "▁color",
        -9.421080524288044
      ],
      [
        "▁ki",
        -9.422999712506265
      ],
      [
        "▁window",
        -9.424023274529205
      ],
      [
        "▁pull",
        -9.42432466622391
      ],
      [
        "▁cannot",
        -9.42555972370274
      ],
      [
        "▁difficult",
        -9.426003011268971
      ],
      [
        "▁trust",
        -9.42604550337212
      ],
      [
        "▁truth",
        -9.42623189789709
      ],
      [
        "▁low",
        -9.426829806939644
      ],
      [
        "▁bra",
        -9.426918290708716
      ],
      [
        "▁commune",
        -9.427431095350864
      ],
      [
        "▁mov",
        -9.428187422665935
      ],
      [
        "▁members",
        -9.429004589995364
      ],
      [
        "that",
        -9.429437860535892
      ],
      [
        "▁gr",
        -9.43217075112798
      ],
      [
        "▁december",
        -9.433993160001398
      ],
      [
        "▁wrote",
        -9.436772328698002
      ],
      [
        "ros",
        -9.439980938664103
      ],
      [
        "▁hours",
        -9.44094615766152
      ],
      [
        "▁experience",
        -9.4411003509383
      ],
      [
        "▁promise",
        -9.441827295839245
      ],
      [
        "mar",
        -9.444156014464948
      ],
      [
        "ions",
        -9.444590781068444
      ],
      [
        "▁dream",
        -9.445410779485403
      ],
      [
        "▁james",
        -9.446207283936324
      ],
      [
        "▁international",
        -9.44691222161154
      ],
      [
        "ran",
        -9.44928391525766
      ],
      [
        "▁feet",
        -9.449950484152405
      ],
      [
        "▁tri",
        -9.449981063584469
      ],
      [
        "▁mc",
        -9.450869041936262
      ],
      [
        "▁eye",
        -9.45320371170137
      ],
      [
        "▁social",
        -9.45379273074625
      ],
      [
        "can",
        -9.454626052784237
      ],
      [
        "▁crie",
        -9.454795682821947
      ],
      [
        "▁communit",
        -9.455694458816218
      ],
      [
        "▁mad",
        -9.456219184668676
      ],
      [
        "▁ju",
        -9.456960233847012
      ],
      [
        "▁dress",
        -9.458711432821604
      ],
      [
        "qua",
        -9.459215808507787
      ],
      [
        "▁add",
        -9.460105791598515
      ],
      [
        "she",
        -9.461287490478693
      ],
      [
        "▁although",
        -9.461623782533133
      ],
      [
        "▁draw",
        -9.46191841169622
      ],
      [
        "▁picture",
        -9.462159221376634
      ],
      [
        "▁sat",
        -9.462367917700824
      ],
      [
        "how",
        -9.46289714691263
      ],
      [
        "lam",
        -9.46289718812446
      ],
      [
        "▁boys",
        -9.464045611897395
      ],
      [
        "▁wood",
        -9.464209688422404
      ],
      [
        "pur",
        -9.465407539875828
      ],
      [
        "▁jack",
        -9.466296205175864
      ],
      [
        "pol",
        -9.468298883464849
      ],
      [
        "tri",
        -9.468314578693404
      ],
      [
        "ble",
        -9.46953153452312
      ],
      [
        "▁dance",
        -9.47007974545367
      ],
      [
        "▁queen",
        -9.471319172594656
      ],
      [
        "▁position",
        -9.471978378625938
      ],
      [
        "nic",
        -9.472493084563563
      ],
      [
        "▁tonight",
        -9.47253713545514
      ],
      [
        "▁games",
        -9.472817731732745
      ],
      [
        "▁period",
        -9.475741880391244
      ],
      [
        "▁burn",
        -9.477640795177477
      ],
      [
        "▁due",
        -9.477819093832284
      ],
      [
        "▁daddy",
        -9.47959590839162
      ],
      [
        "▁tree",
        -9.479888509193332
      ],
      [
        "▁middle",
        -9.48025890170911
      ],
      [
        "don",
        -9.480300851676402
      ],
      [
        "ong",
        -9.480991529020605
      ],
      [
        "▁frank",
        -9.481287892962229
      ],
      [
        "ral",
        -9.483325434930498
      ],
      [
        "▁seat",
        -9.48362505600538
      ],
      [
        "▁febr",
        -9.484393903802136
      ],
      [
        "▁ru",
        -9.486769446018805
      ],
      [
        "▁league",
        -9.488569548246552
      ],
      [
        "▁letter",
        -9.489622818356626
      ],
      [
        "▁aren",
        -9.49163412034354
      ],
      [
        "▁bu",
        -9.49234770860591
      ],
      [
        "▁news",
        -9.493145102204156
      ],
      [
        "jo",
        -9.493916437200904
      ],
      [
        "kept",
        -9.494039650680753
      ],
      [
        "▁bur",
        -9.495549617867727
      ],
      [
        "▁supposed",
        -9.498527892761588
      ],
      [
        "▁health",
        -9.499341404776374
      ],
      [
        "▁port",
        -9.500385465082193
      ],
      [
        "▁longer",
        -9.502100541147268
      ],
      [
        "▁province",
        -9.50233640170671
      ],
      [
        "▁agree",
        -9.503550922278771
      ],
      [
        "▁william",
        -9.505457359854669
      ],
      [
        "▁forget",
        -9.50858674383534
      ],
      [
        "▁fat",
        -9.509095591420396
      ],
      [
        "▁learn",
        -9.510404156990216
      ],
      [
        "▁meeting",
        -9.51053431848354
      ],
      [
        "▁hall",
        -9.5106856741629
      ],
      [
        "ther",
        -9.511350753839944
      ],
      [
        "▁afraid",
        -9.512398357718936
      ],
      [
        "▁grand",
        -9.51239913867692
      ],
      [
        "live",
        -9.512892765246928
      ],
      [
        "▁project",
        -9.513186676751832
      ],
      [
        "nder",
        -9.515079187669212
      ],
      [
        "▁sing",
        -9.516677939329078
      ],
      [
        "cc",
        -9.51745005863759
      ],
      [
        "log",
        -9.518108262451843
      ],
      [
        "▁wh",
        -9.518212760451831
      ],
      [
        "▁interest",
        -9.519637563915133
      ],
      [
        "▁excuse",
        -9.520210532030578
      ],
      [
        "▁honey",
        -9.5203790070128
      ],
      [
        "▁kids",
        -9.52095269542787
      ],
      [
        "▁running",
        -9.521861485154634
      ],
      [
        "▁works",
        -9.523298106202963
      ],
      [
        "▁ring",
        -9.524743410867922
      ],
      [
        "▁union",
        -9.52594811471936
      ],
      [
        "▁bank",
        -9.526068358932411
      ],
      [
        "▁card",
        -9.526983125165192
      ],
      [
        "▁square",
        -9.528886231762025
      ],
      [
        "ture",
        -9.531039109248198
      ],
      [
        "▁key",
        -9.532578460806793
      ],
      [
        "ize",
        -9.533226358958498
      ],
      [
        "▁pr",
        -9.53329368358763
      ],
      [
        "▁summer",
        -9.534498268991005
      ],
      [
        "▁share",
        -9.534817363017243
      ],
      [
        "▁above",
        -9.536820682834492
      ],
      [
        "ou",
        -9.537150787360122
      ],
      [
        "vol",
        -9.538068552583889
      ],
      [
        "looked",
        -9.538136369369608
      ],
      [
        "▁fucking",
        -9.539991434842404
      ],
      [
        "▁popular",
        -9.54003983739377
      ],
      [
        "▁publish",
        -9.54080262612391
      ],
      [
        "▁capital",
        -9.540807081933265
      ],
      [
        "▁battle",
        -9.540884435053734
      ],
      [
        "▁match",
        -9.542871300650578
      ],
      [
        "▁ko",
        -9.54300734617841
      ],
      [
        "▁fear",
        -9.543187914661328
      ],
      [
        "zed",
        -9.546590059684789
      ],
      [
        "ker",
        -9.547913254747382
      ],
      [
        "vin",
        -9.553614896373594
      ],
      [
        "▁push",
        -9.553697449658284
      ],
      [
        "▁accept",
        -9.555342765745284
      ],
      [
        "ock",
        -9.5566809123119
      ],
      [
        "ple",
        -9.55688241052346
      ],
      [
        "▁science",
        -9.556938827531074
      ],
      [
        "▁beat",
        -9.55978239900044
      ],
      [
        "▁center",
        -9.55982935875388
      ],
      [
        "▁natural",
        -9.560219758589334
      ],
      [
        "▁value",
        -9.561025255858974
      ],
      [
        "▁discover",
        -9.564814160150137
      ],
      [
        "▁lives",
        -9.566651114803996
      ],
      [
        "▁final",
        -9.56666721532736
      ],
      [
        "▁further",
        -9.567612999258014
      ],
      [
        "▁che",
        -9.569074314688931
      ],
      [
        "▁leader",
        -9.569082771915369
      ],
      [
        "▁hospital",
        -9.569213633823525
      ],
      [
        "ban",
        -9.57103635072592
      ],
      [
        "rab",
        -9.57115360896561
      ],
      [
        "ο",
        -9.5725017752508
      ],
      [
        "▁roll",
        -9.573172693355538
      ],
      [
        "ney",
        -9.573819349263005
      ],
      [
        "ez",
        -9.574218863163718
      ],
      [
        "▁themsel",
        -9.576311213590929
      ],
      [
        "lie",
        -9.576384653532571
      ],
      [
        "▁lead",
        -9.578834484055612
      ],
      [
        "▁catch",
        -9.581677247440076
      ],
      [
        "▁education",
        -9.582475952525298
      ],
      [
        "▁waiting",
        -9.586048720562388
      ],
      [
        "eli",
        -9.586097662997211
      ],
      [
        "▁action",
        -9.586453278287207
      ],
      [
        "▁mon",
        -9.586475075614032
      ],
      [
        "▁ear",
        -9.587094686004724
      ],
      [
        "vis",
        -9.587104032085035
      ],
      [
        "ju",
        -9.58715953602992
      ],
      [
        "▁cool",
        -9.5872249155788
      ],
      [
        "▁paul",
        -9.588081486074946
      ],
      [
        "ries",
        -9.589370027995349
      ],
      [
        "▁deep",
        -9.589992337237728
      ],
      [
        "▁wo",
        -9.59052930467204
      ],
      [
        "▁provide",
        -9.591801907057365
      ],
      [
        "▁mhm",
        -9.592662126820066
      ],
      [
        "▁title",
        -9.59344409351626
      ],
      [
        "▁visit",
        -9.593618152942526
      ],
      [
        "▁page",
        -9.593880525661934
      ],
      [
        "▁straight",
        -9.595075599957577
      ],
      [
        "▁mommy",
        -9.595259893984258
      ],
      [
        "▁enter",
        -9.59587858526116
      ],
      [
        "▁sweet",
        -9.597238319909174
      ],
      [
        "▁expect",
        -9.59885073015587
      ],
      [
        "▁pound",
        -9.599399402729397
      ],
      [
        "▁foot",
        -9.599577928323717
      ],
      [
        "▁personal",
        -9.600563486004958
      ],
      [
        "▁bre",
        -9.601542931726774
      ],
      [
        "▁study",
        -9.602316655800536
      ],
      [
        "aud",
        -9.604202652195251
      ],
      [
        "▁rich",
        -9.604440980971722
      ],
      [
        "▁according",
        -9.605997619060982
      ],
      [
        "▁societ",
        -9.607825399222568
      ],
      [
        "▁worth",
        -9.608701101965568
      ],
      [
        "ram",
        -9.611140297364727
      ],
      [
        "▁search",
        -9.612364162210003
      ],
      [
        "nce",
        -9.613794555611452
      ],
      [
        "▁charge",
        -9.61395492934096
      ],
      [
        "q",
        -9.614002382193696
      ],
      [
        "▁mid",
        -9.614018644716932
      ],
      [
        "▁girls",
        -9.614314519075982
      ],
      [
        "▁chief",
        -9.614708751424368
      ],
      [
        "mil",
        -9.615017409164338
      ],
      [
        "▁famous",
        -9.61555887354408
      ],
      [
        "van",
        -9.617167461059992
      ],
      [
        "stood",
        -9.618705784277656
      ],
      [
        "▁created",
        -9.620780807698726
      ],
      [
        "▁board",
        -9.620978411435132
      ],
      [
        "▁rat",
        -9.62210376064708
      ],
      [
        "mic",
        -9.622371071947272
      ],
      [
        "▁funny",
        -9.622549174776632
      ],
      [
        "▁secret",
        -9.622698517343128
      ],
      [
        "▁feature",
        -9.626835046265526
      ],
      [
        "yes",
        -9.627129809061833
      ],
      [
        "par",
        -9.627286493682623
      ],
      [
        "▁normal",
        -9.62882553543691
      ],
      [
        "▁future",
        -9.630383896911574
      ],
      [
        "▁unit",
        -9.631693705785876
      ],
      [
        "▁central",
        -9.632091462465873
      ],
      [
        "▁date",
        -9.633114046918264
      ],
      [
        "▁evening",
        -9.633883340075796
      ],
      [
        "hol",
        -9.6346883773548
      ],
      [
        "▁direct",
        -9.63621413704138
      ],
      [
        "▁rec",
        -9.63674056244686
      ],
      [
        "cause",
        -9.636889179305346
      ],
      [
        "▁stage",
        -9.63760287414995
      ],
      [
        "▁boat",
        -9.637948194633475
      ],
      [
        "rus",
        -9.640073718927711
      ],
      [
        "▁indian",
        -9.640960622603584
      ],
      [
        "▁rose",
        -9.641492717887928
      ],
      [
        "▁mary",
        -9.642517292526405
      ],
      [
        "▁bag",
        -9.642562397563411
      ],
      [
        "▁amount",
        -9.642890264962324
      ],
      [
        "▁glad",
        -9.643241346900624
      ],
      [
        "▁join",
        -9.643275091432631
      ],
      [
        "abilit",
        -9.643502870307998
      ],
      [
        "▁raise",
        -9.643588092454255
      ],
      [
        "▁market",
        -9.64376025873158
      ],
      [
        "▁travel",
        -9.64511028478432
      ],
      [
        "▁careful",
        -9.646837370981071
      ],
      [
        "dic",
        -9.64707854817564
      ],
      [
        "▁enjoy",
        -9.647097306900662
      ],
      [
        "▁official",
        -9.64709951932456
      ],
      [
        "los",
        -9.649388111624177
      ],
      [
        "▁ph",
        -9.652555002507244
      ],
      [
        "giving",
        -9.65424651025835
      ],
      [
        "▁kiss",
        -9.6551744425173
      ],
      [
        "▁appear",
        -9.655511993637646
      ],
      [
        "▁represent",
        -9.655979906722251
      ],
      [
        "lor",
        -9.656032056243
      ],
      [
        "▁pen",
        -9.656427286541987
      ],
      [
        "▁safe",
        -9.656566745186394
      ],
      [
        "▁minister",
        -9.65699810961123
      ],
      [
        "▁track",
        -9.658322353453343
      ],
      [
        "▁david",
        -9.658736025926336
      ],
      [
        "▁michael",
        -9.659106169286694
      ],
      [
        "▁contain",
        -9.659639631336622
      ],
      [
        "ified",
        -9.660449348217876
      ],
      [
        "▁japan",
        -9.661572456725182
      ],
      [
        "▁christian",
        -9.661621566138486
      ],
      [
        "▁lose",
        -9.662108287649948
      ],
      [
        "▁camp",
        -9.66297826854236
      ],
      [
        "▁bell",
        -9.664579652597675
      ],
      [
        "▁condition",
        -9.665059420383042
      ],
      [
        "▁boo",
        -9.6663212696191
      ],
      [
        "▁served",
        -9.669202112313553
      ],
      [
        "▁decided",
        -9.670067539895111
      ],
      [
        "▁similar",
        -9.670512602028616
      ],
      [
        "▁vo",
        -9.67058979311274
      ],
      [
        "▁cho",
        -9.671427939466543
      ],
      [
        "ville",
        -9.671466884958768
      ],
      [
        "▁modern",
        -9.675078494681674
      ],
      [
        "▁soft",
        -9.675673468334924
      ],
      [
        "rom",
        -9.675724314037428
      ],
      [
        "▁coast",
        -9.6763887860568
      ],
      [
        "til",
        -9.67647791621754
      ],
      [
        "▁refer",
        -9.676661124772588
      ],
      [
        "▁mum",
        -9.677699944275266
      ],
      [
        "nut",
        -9.678801376957754
      ],
      [
        "ix",
        -9.679215045484266
      ],
      [
        "▁floor",
        -9.680999207917118
      ],
      [
        "▁trade",
        -9.68123233085148
      ],
      [
        "▁prince",
        -9.682794947809784
      ],
      [
        "▁ste",
        -9.682955997335991
      ],
      [
        "▁complete",
        -9.683121681486034
      ],
      [
        "▁subject",
        -9.683351444111857
      ],
      [
        "▁flower",
        -9.68366100545218
      ],
      [
        "▁hate",
        -9.685801878733557
      ],
      [
        "zi",
        -9.686162123532506
      ],
      [
        "▁passed",
        -9.68844465460981
      ],
      [
        "▁tre",
        -9.689446050058937
      ],
      [
        "light",
        -9.689769894684066
      ],
      [
        "▁beginning",
        -9.68985179011482
      ],
      [
        "▁quiet",
        -9.689875063438729
      ],
      [
        "▁sell",
        -9.69088998883748
      ],
      [
        "▁wow",
        -9.69192987701512
      ],
      [
        "▁countr",
        -9.692204332181172
      ],
      [
        "▁teacher",
        -9.692890859163274
      ],
      [
        "▁cook",
        -9.692906896377352
      ],
      [
        "▁forest",
        -9.69380094445855
      ],
      [
        "▁pain",
        -9.69386184560908
      ],
      [
        "▁finally",
        -9.694335148372204
      ],
      [
        "whose",
        -9.695669725467257
      ],
      [
        "ists",
        -9.696065808562675
      ],
      [
        "▁crazy",
        -9.69635565932838
      ],
      [
        "▁india",
        -9.696409922317088
      ],
      [
        "cle",
        -9.696634677566388
      ],
      [
        "▁ahead",
        -9.69782230294329
      ],
      [
        "▁protect",
        -9.698141498455502
      ],
      [
        "ami",
        -9.699167770265888
      ],
      [
        "▁bus",
        -9.700414790785633
      ],
      [
        "▁nobody",
        -9.70050287589019
      ],
      [
        "▁robert",
        -9.701045514264267
      ],
      [
        "▁stick",
        -9.703026463805056
      ],
      [
        "▁council",
        -9.703863085510124
      ],
      [
        "▁peace",
        -9.703980661924176
      ],
      [
        "ace",
        -9.704488700664188
      ],
      [
        "var",
        -9.705835906254975
      ],
      [
        "▁wear",
        -9.70668458074569
      ],
      [
        "ku",
        -9.708116137135349
      ],
      [
        "▁books",
        -9.709059982726892
      ],
      [
        "▁pl",
        -9.709303453556542
      ],
      [
        "▁treat",
        -9.709679472592695
      ],
      [
        "▁sick",
        -9.710161176879224
      ],
      [
        "▁product",
        -9.710704293120738
      ],
      [
        "▁total",
        -9.711538133963188
      ],
      [
        "▁director",
        -9.712666197943934
      ],
      [
        "▁yo",
        -9.713625101181597
      ],
      [
        "▁suppose",
        -9.714236755673628
      ],
      [
        "ugh",
        -9.71791113049849
      ],
      [
        "▁stone",
        -9.718249170921668
      ],
      [
        "▁laugh",
        -9.719181383204631
      ],
      [
        "▁telling",
        -9.719555199252564
      ],
      [
        "▁farm",
        -9.720324332836007
      ],
      [
        "▁pin",
        -9.7205021164548
      ],
      [
        "hir",
        -9.722425438163873
      ],
      [
        "▁political",
        -9.722565248175242
      ],
      [
        "▁bridge",
        -9.723137386769878
      ],
      [
        "▁development",
        -9.723143310839164
      ],
      [
        "▁parents",
        -9.723724593477936
      ],
      [
        "▁pop",
        -9.724266638092429
      ],
      [
        "▁mouth",
        -9.724438109531214
      ],
      [
        "mor",
        -9.726575197923308
      ],
      [
        "▁returned",
        -9.727342301067717
      ],
      [
        "ities",
        -9.7275751486169
      ],
      [
        "▁breath",
        -9.728067133719058
      ],
      [
        "▁followed",
        -9.728357577717189
      ],
      [
        "▁computer",
        -9.728535038172891
      ],
      [
        "▁japanese",
        -9.729631043191633
      ],
      [
        "▁kingdom",
        -9.729634218417711
      ],
      [
        "▁wild",
        -9.72966419462158
      ],
      [
        "▁race",
        -9.729990376290091
      ],
      [
        "▁rain",
        -9.730815537424082
      ],
      [
        "▁officer",
        -9.731952525352767
      ],
      [
        "▁simple",
        -9.732586538937664
      ],
      [
        "▁especially",
        -9.733501963637256
      ],
      [
        "▁interesting",
        -9.734141254712585
      ],
      [
        "▁bro",
        -9.735824056890134
      ],
      [
        "▁specie",
        -9.73597214551528
      ],
      [
        "▁animals",
        -9.73602525782382
      ],
      [
        "ford",
        -9.736230501451274
      ],
      [
        "pen",
        -9.73629387031792
      ],
      [
        "▁wide",
        -9.737472118920788
      ],
      [
        "not",
        -9.737753710955412
      ],
      [
        "▁host",
        -9.738290409109847
      ],
      [
        "speaking",
        -9.73916092600519
      ],
      [
        "▁henry",
        -9.739350559507354
      ],
      [
        "▁scene",
        -9.739395928612293
      ],
      [
        "▁royal",
        -9.739418616249775
      ],
      [
        "now",
        -9.740215314096265
      ],
      [
        "▁fit",
        -9.741081184378816
      ],
      [
        "▁require",
        -9.741298600714956
      ],
      [
        "▁glass",
        -9.741412059444944
      ],
      [
        "▁jump",
        -9.741552223600548
      ],
      [
        "▁radio",
        -9.741566258389266
      ],
      [
        "▁success",
        -9.743040525499044
      ],
      [
        "▁hang",
        -9.743471376662669
      ],
      [
        "▁perform",
        -9.744136217428403
      ],
      [
        "linois",
        -9.744239458390268
      ],
      [
        "▁pal",
        -9.744572814521137
      ],
      [
        "paid",
        -9.744799922963177
      ],
      [
        "▁germany",
        -9.745316241377653
      ],
      [
        "▁garden",
        -9.746408592409496
      ],
      [
        "een",
        -9.746510101455849
      ],
      [
        "▁drop",
        -9.746908566051466
      ],
      [
        "▁respect",
        -9.747147363268938
      ],
      [
        "▁welcome",
        -9.747191082044376
      ],
      [
        "▁mis",
        -9.74985277259019
      ],
      [
        "seemed",
        -9.750983477192063
      ],
      [
        "▁private",
        -9.751142689243188
      ],
      [
        "▁situation",
        -9.752114198757324
      ],
      [
        "▁dan",
        -9.75224653463038
      ],
      [
        "▁damn",
        -9.753851286542432
      ],
      [
        "▁dar",
        -9.75447796999464
      ],
      [
        "▁professional",
        -9.75465022717881
      ],
      [
        "▁sitting",
        -9.75527747235283
      ],
      [
        "▁fellow",
        -9.75531040565997
      ],
      [
        "▁bigge",
        -9.755500586502762
      ],
      [
        "▁gar",
        -9.755540039838548
      ],
      [
        "load",
        -9.75559274264908
      ],
      [
        "ense",
        -9.756205761990609
      ],
      [
        "ative",
        -9.756461427075353
      ],
      [
        "pec",
        -9.757410386441038
      ],
      [
        "▁strange",
        -9.75764711323789
      ],
      [
        "▁establish",
        -9.758061152662336
      ],
      [
        "▁writing",
        -9.758061173682677
      ],
      [
        "▁mention",
        -9.759329845143752
      ],
      [
        "▁store",
        -9.759432929853745
      ],
      [
        "towards",
        -9.760228517246189
      ],
      [
        "▁model",
        -9.76108909915236
      ],
      [
        "▁leaving",
        -9.7611408186318
      ],
      [
        "port",
        -9.762386108509858
      ],
      [
        "▁cal",
        -9.76253245755584
      ],
      [
        "▁elect",
        -9.762636311083073
      ],
      [
        "▁blow",
        -9.764555113545162
      ],
      [
        "located",
        -9.765159533435636
      ],
      [
        "rie",
        -9.765752867913411
      ],
      [
        "▁version",
        -9.766186449822923
      ],
      [
        "▁size",
        -9.766977160628608
      ],
      [
        "▁nature",
        -9.767116835349569
      ],
      [
        "▁spend",
        -9.767415052381208
      ],
      [
        "abad",
        -9.76743433581975
      ],
      [
        "ball",
        -9.767981758164527
      ],
      [
        "▁begin",
        -9.768276233914287
      ],
      [
        "▁guard",
        -9.76949528997546
      ],
      [
        "▁difference",
        -9.770067298888405
      ],
      [
        "over",
        -9.770682153426648
      ],
      [
        "▁anybody",
        -9.771195677571862
      ],
      [
        "zz",
        -9.77195405379231
      ],
      [
        "▁forward",
        -9.772139367437443
      ],
      [
        "▁virginia",
        -9.773265909571624
      ],
      [
        "▁except",
        -9.773343593822853
      ],
      [
        "bra",
        -9.77404361219214
      ],
      [
        "▁bal",
        -9.7740445392592
      ],
      [
        "thus",
        -9.77687166520533
      ],
      [
        "▁wants",
        -9.776970561133377
      ],
      [
        "▁indeed",
        -9.777225188425152
      ],
      [
        "▁tax",
        -9.778368511092271
      ],
      [
        "▁brown",
        -9.779490715097642
      ],
      [
        "▁app",
        -9.7795666434545
      ],
      [
        "arch",
        -9.779746170023047
      ],
      [
        "ible",
        -9.78098533978172
      ],
      [
        "▁shoot",
        -9.78107341695863
      ],
      [
        "▁grow",
        -9.782165520605258
      ],
      [
        "▁roman",
        -9.782222870364343
      ],
      [
        "▁christ",
        -9.78523011044818
      ],
      [
        "▁pat",
        -9.78523036224773
      ],
      [
        "▁basic",
        -9.785329656670426
      ],
      [
        "▁perfect",
        -9.786440976531658
      ],
      [
        "▁artist",
        -9.78658173231917
      ],
      [
        "▁finished",
        -9.787655829394147
      ],
      [
        "rian",
        -9.78768584778384
      ],
      [
        "loo",
        -9.787832901807311
      ],
      [
        "▁site",
        -9.78856113675041
      ],
      [
        "je",
        -9.792296582082606
      ],
      [
        "come",
        -9.792428650357005
      ],
      [
        "▁movement",
        -9.79279742997846
      ],
      [
        "▁non",
        -9.793025928608772
      ],
      [
        "▁bon",
        -9.793609982652264
      ],
      [
        "▁explain",
        -9.794150535692996
      ],
      [
        "▁bri",
        -9.794193433929738
      ],
      [
        "▁miles",
        -9.79426236705172
      ],
      [
        "▁disc",
        -9.794725418217764
      ],
      [
        "board",
        -9.795634506377908
      ],
      [
        "▁account",
        -9.796608019540578
      ],
      [
        "▁actor",
        -9.796811012761603
      ],
      [
        "pla",
        -9.797307825679905
      ],
      [
        "▁thou",
        -9.79807835074371
      ],
      [
        "▁para",
        -9.798779356577509
      ],
      [
        "▁europe",
        -9.799470795708055
      ],
      [
        "▁decision",
        -9.800729311275802
      ],
      [
        "tru",
        -9.801260115089692
      ],
      [
        "▁students",
        -9.802384358277616
      ],
      [
        "wood",
        -9.802565748984977
      ],
      [
        "▁plant",
        -9.802710114075277
      ],
      [
        "▁suggest",
        -9.803046457130764
      ],
      [
        "▁price",
        -9.80310846107745
      ],
      [
        "rate",
        -9.803236149556938
      ],
      [
        "▁sad",
        -9.803407914195294
      ],
      [
        "▁limit",
        -9.804972120369683
      ],
      [
        "field",
        -9.806980780355698
      ],
      [
        "▁various",
        -9.806987896595375
      ],
      [
        "gon",
        -9.80770300669117
      ],
      [
        "▁uncle",
        -9.808489478953623
      ],
      [
        "▁mac",
        -9.808540533323068
      ],
      [
        "▁vote",
        -9.80945695963721
      ],
      [
        "cor",
        -9.81048217966872
      ],
      [
        "▁belong",
        -9.81163747573773
      ],
      [
        "▁happens",
        -9.812753962216227
      ],
      [
        "▁lake",
        -9.81302109165183
      ],
      [
        "cher",
        -9.81302751764019
      ],
      [
        "▁division",
        -9.813431736341828
      ],
      [
        "bel",
        -9.81410108650909
      ],
      [
        "▁van",
        -9.814180841545866
      ],
      [
        "▁exist",
        -9.815015547374452
      ],
      [
        "▁rep",
        -9.81740149660101
      ],
      [
        "▁machine",
        -9.818606495445746
      ],
      [
        "▁finger",
        -9.818688798126493
      ],
      [
        "▁sch",
        -9.820084136145097
      ],
      [
        "▁answered",
        -9.820715295933615
      ],
      [
        "kan",
        -9.82106296177427
      ],
      [
        "▁nav",
        -9.823240591035423
      ],
      [
        "pir",
        -9.825537616008742
      ],
      [
        "▁block",
        -9.825668117873468
      ],
      [
        "▁destroy",
        -9.825953737752144
      ],
      [
        "▁scot",
        -9.826413325210716
      ],
      [
        "ola",
        -9.826980723044205
      ],
      [
        "▁championship",
        -9.827089180622572
      ],
      [
        "rob",
        -9.82790388525008
      ],
      [
        "▁california",
        -9.828084598082215
      ],
      [
        "▁tv",
        -9.828105771177365
      ],
      [
        "▁operation",
        -9.82930334991801
      ],
      [
        "like",
        -9.830111858740269
      ],
      [
        "▁western",
        -9.830308459128563
      ],
      [
        "▁whom",
        -9.832333753385418
      ],
      [
        "▁increase",
        -9.832360815458816
      ],
      [
        "yard",
        -9.832610642635554
      ],
      [
        "▁somewhere",
        -9.83334668004224
      ],
      [
        "pro",
        -9.833410532583711
      ],
      [
        "▁build",
        -9.833581327783737
      ],
      [
        "▁doubt",
        -9.834506690201197
      ],
      [
        "house",
        -9.835105672056418
      ],
      [
        "▁spring",
        -9.83708960676209
      ],
      [
        "▁research",
        -9.837437199273726
      ],
      [
        "▁material",
        -9.837731889360631
      ],
      [
        "art",
        -9.838478650072211
      ],
      [
        "ants",
        -9.838578226478871
      ],
      [
        "▁coach",
        -9.838617343416598
      ],
      [
        "rop",
        -9.839610616210908
      ],
      [
        "ski",
        -9.840468345223591
      ],
      [
        "▁patient",
        -9.840546648048548
      ],
      [
        "▁dinner",
        -9.840974042647854
      ],
      [
        "▁fail",
        -9.841979813252063
      ],
      [
        "ium",
        -9.84249184470526
      ],
      [
        "▁chair",
        -9.842905810529516
      ],
      [
        "▁command",
        -9.844281819940305
      ],
      [
        "▁warm",
        -9.845102270207049
      ],
      [
        "▁escape",
        -9.84639050475274
      ],
      [
        "▁sam",
        -9.846477838000432
      ],
      [
        "▁judge",
        -9.847719603344617
      ],
      [
        "▁finish",
        -9.848332889884468
      ],
      [
        "▁richard",
        -9.848788088133553
      ],
      [
        "▁led",
        -9.849293618352752
      ],
      [
        "▁studie",
        -9.849748517369484
      ],
      [
        "▁announce",
        -9.849925883959202
      ],
      [
        "▁claim",
        -9.850335811557931
      ],
      [
        "clo",
        -9.851413938918515
      ],
      [
        "▁prove",
        -9.851593482437064
      ],
      [
        "▁sex",
        -9.851611442542564
      ],
      [
        "▁object",
        -9.851775019634836
      ],
      [
        "▁dick",
        -9.852609546808676
      ],
      [
        "▁energy",
        -9.8540180105481
      ],
      [
        "right",
        -9.854561058878865
      ],
      [
        "signed",
        -9.856039038831668
      ],
      [
        "▁ooh",
        -9.85627253089093
      ],
      [
        "▁describe",
        -9.857307467878574
      ],
      [
        "work",
        -9.861521005694998
      ],
      [
        "▁spirit",
        -9.86166467396914
      ],
      [
        "▁militar",
        -9.861713987178
      ],
      [
        "▁serious",
        -9.86199452510041
      ],
      [
        "▁base",
        -9.86390203194414
      ],
      [
        "burg",
        -9.865554818359929
      ],
      [
        "▁anti",
        -9.86659781718942
      ],
      [
        "▁honor",
        -9.867446458367969
      ],
      [
        "▁sar",
        -9.869684538611171
      ],
      [
        "▁obvious",
        -9.8705746460523
      ],
      [
        "▁drug",
        -9.871870250603967
      ],
      [
        "▁media",
        -9.873373636229593
      ],
      [
        "▁def",
        -9.873394593566797
      ],
      [
        "▁press",
        -9.876975324351994
      ],
      [
        "where",
        -9.877263045128185
      ],
      [
        "▁charles",
        -9.877303001591397
      ],
      [
        "ought",
        -9.877565949023523
      ],
      [
        "▁plus",
        -9.877879496494886
      ],
      [
        "▁clothes",
        -9.878398068632864
      ],
      [
        "uar",
        -9.878822848296892
      ],
      [
        "▁civil",
        -9.879065687586328
      ],
      [
        "▁lower",
        -9.87928056672878
      ],
      [
        "▁disease",
        -9.880642681909697
      ],
      [
        "▁broke",
        -9.88066707515604
      ],
      [
        "▁none",
        -9.880895792409923
      ],
      [
        "▁trip",
        -9.881028260547602
      ],
      [
        "months",
        -9.881551241832137
      ],
      [
        "▁partner",
        -9.883011372586571
      ],
      [
        "hat",
        -9.883913201336828
      ],
      [
        "▁florid",
        -9.884051434244263
      ],
      [
        "lim",
        -9.884755603900611
      ],
      [
        "▁trans",
        -9.88527850557102
      ],
      [
        "▁forgot",
        -9.886528163340357
      ],
      [
        "▁lie",
        -9.88681096094188
      ],
      [
        "▁message",
        -9.887609346413178
      ],
      [
        "▁involved",
        -9.888087147199254
      ],
      [
        "▁py",
        -9.888524495036798
      ],
      [
        "▁election",
        -9.889213965180838
      ],
      [
        "▁cell",
        -9.890127313830202
      ],
      [
        "▁immediate",
        -9.890811421458988
      ],
      [
        "▁beside",
        -9.89120754101868
      ],
      [
        "▁marriage",
        -9.891947871816717
      ],
      [
        "▁regard",
        -9.892084908542866
      ],
      [
        "▁gre",
        -9.892338586046634
      ],
      [
        "▁snow",
        -9.893809768612128
      ],
      [
        "ude",
        -9.896932807096878
      ],
      [
        "▁fer",
        -9.898371268917469
      ],
      [
        "▁attention",
        -9.89994150228222
      ],
      [
        "▁ill",
        -9.90065958098095
      ],
      [
        "▁harr",
        -9.902739647315697
      ],
      [
        "▁standing",
        -9.904202111827985
      ],
      [
        "rat",
        -9.905205055895587
      ],
      [
        "▁prime",
        -9.906630668044974
      ],
      [
        "night",
        -9.906880643645575
      ],
      [
        "▁mill",
        -9.907464860223758
      ],
      [
        "▁princess",
        -9.907570051174192
      ],
      [
        "uck",
        -9.909512714739314
      ],
      [
        "▁mistake",
        -9.91035636185207
      ],
      [
        "use",
        -9.911184939144803
      ],
      [
        "▁ice",
        -9.911601506693
      ],
      [
        "▁speed",
        -9.915181062582963
      ],
      [
        "▁mal",
        -9.915283785214047
      ],
      [
        "▁nation",
        -9.91539616698637
      ],
      [
        "▁ride",
        -9.915709279204345
      ],
      [
        "late",
        -9.916727194070774
      ],
      [
        "wan",
        -9.917042029163788
      ],
      [
        "qu",
        -9.91840608707003
      ],
      [
        "▁fu",
        -9.919077651749104
      ],
      [
        "▁serve",
        -9.919370646702404
      ],
      [
        "▁brain",
        -9.91947526825405
      ],
      [
        "▁heavy",
        -9.919629349270831
      ],
      [
        "▁honest",
        -9.919630220464152
      ],
      [
        "ā",
        -9.920784843466862
      ],
      [
        "▁ancient",
        -9.920785306810464
      ],
      [
        "▁milk",
        -9.92102541488859
      ],
      [
        "▁fan",
        -9.922952532311983
      ],
      [
        "▁author",
        -9.925002405208758
      ],
      [
        "rid",
        -9.925040054635357
      ],
      [
        "▁previous",
        -9.925477267024725
      ],
      [
        "▁cit",
        -9.925897033643196
      ],
      [
        "rick",
        -9.92733902268212
      ],
      [
        "▁extra",
        -9.927480146455029
      ],
      [
        "▁arms",
        -9.927798848305548
      ],
      [
        "▁address",
        -9.92784011846934
      ],
      [
        "clock",
        -9.9279798622408
      ],
      [
        "▁professor",
        -9.93019114341371
      ],
      [
        "▁entire",
        -9.931852906464444
      ],
      [
        "bla",
        -9.93193358326971
      ],
      [
        "▁data",
        -9.932354795697568
      ],
      [
        "▁mountain",
        -9.932433740614057
      ],
      [
        "▁census",
        -9.933741497413068
      ],
      [
        "▁purpose",
        -9.93374157416364
      ],
      [
        "▁spent",
        -9.933770068664687
      ],
      [
        "▁animal",
        -9.935470208918757
      ],
      [
        "▁realize",
        -9.935507213442284
      ],
      [
        "▁tro",
        -9.937827726567347
      ],
      [
        "anna",
        -9.938643546588947
      ],
      [
        "▁bat",
        -9.939037342816608
      ],
      [
        "char",
        -9.939088930976414
      ],
      [
        "▁double",
        -9.939693950212789
      ],
      [
        "▁moon",
        -9.939974062446352
      ],
      [
        "▁bought",
        -9.941232743404314
      ],
      [
        "▁choice",
        -9.942206050556894
      ],
      [
        "▁smile",
        -9.944499732929636
      ],
      [
        "▁soul",
        -9.944573545542852
      ],
      [
        "▁code",
        -9.94494921839961
      ],
      [
        "▁carry",
        -9.945254396511668
      ],
      [
        "low",
        -9.946532554142305
      ],
      [
        "stopped",
        -9.946798551367024
      ],
      [
        "▁episode",
        -9.948070049523302
      ],
      [
        "▁factor",
        -9.948081719072665
      ],
      [
        "▁depend",
        -9.948355462214357
      ],
      [
        "▁cast",
        -9.950454739437678
      ],
      [
        "▁sold",
        -9.950830233476085
      ],
      [
        "bar",
        -9.950991529568064
      ],
      [
        "▁spot",
        -9.951581914288358
      ],
      [
        "pet",
        -9.952073806167215
      ],
      [
        "▁grew",
        -9.952626853161544
      ],
      [
        "▁individual",
        -9.952892234986944
      ],
      [
        "▁kh",
        -9.95479496848289
      ],
      [
        "▁bye",
        -9.955093549517215
      ],
      [
        "▁suit",
        -9.955178344550548
      ],
      [
        "▁sail",
        -9.956524299233994
      ],
      [
        "▁association",
        -9.958952859210136
      ],
      [
        "▁degree",
        -9.95895352993831
      ],
      [
        "▁dev",
        -9.959934861337684
      ],
      [
        "▁separate",
        -9.960171550603553
      ],
      [
        "▁gas",
        -9.960953890896867
      ],
      [
        "simply",
        -9.961447132447258
      ],
      [
        "▁practice",
        -9.962606961179471
      ],
      [
        "▁source",
        -9.96261707246382
      ],
      [
        "bound",
        -9.962945388484655
      ],
      [
        "fla",
        -9.963019378611492
      ],
      [
        "▁cow",
        -9.963440590019127
      ],
      [
        "nam",
        -9.96491890150758
      ],
      [
        "▁meaning",
        -9.965423583086778
      ],
      [
        "▁q",
        -9.966220679925572
      ],
      [
        "▁attempt",
        -9.966274438511263
      ],
      [
        "▁oil",
        -9.966849838540856
      ],
      [
        "▁boss",
        -9.968673741767606
      ],
      [
        "▁wound",
        -9.968730595269667
      ],
      [
        "nish",
        -9.96920055747232
      ],
      [
        "stairs",
        -9.969988996242034
      ],
      [
        "▁dollar",
        -9.970033539780887
      ],
      [
        "▁shop",
        -9.970385190156138
      ],
      [
        "ight",
        -9.97126279760339
      ],
      [
        "gro",
        -9.97157313294266
      ],
      [
        "▁production",
        -9.974087590580798
      ],
      [
        "por",
        -9.97447866303267
      ],
      [
        "▁stupid",
        -9.974884809291758
      ],
      [
        "▁sounds",
        -9.975185098753368
      ],
      [
        "worked",
        -9.97847549851601
      ],
      [
        "appeared",
        -9.978590554007258
      ],
      [
        "▁castle",
        -9.978651416855858
      ],
      [
        "▁approach",
        -9.979838150047865
      ],
      [
        "▁hurry",
        -9.979838378878142
      ],
      [
        "▁influence",
        -9.980109634071956
      ],
      [
        "▁crime",
        -9.98358489619316
      ],
      [
        "▁nan",
        -9.98362509393155
      ],
      [
        "▁style",
        -9.98493283303992
      ],
      [
        "head",
        -9.985100343349082
      ],
      [
        "á",
        -9.986064805627198
      ],
      [
        "▁meant",
        -9.986170293847126
      ],
      [
        "▁prize",
        -9.986322161430266
      ],
      [
        "▁terribl",
        -9.986716563064387
      ],
      [
        "▁paint",
        -9.987613179985187
      ],
      [
        "▁therefor",
        -9.988130438312186
      ],
      [
        "▁relationship",
        -9.988644944724332
      ],
      [
        "ette",
        -9.98937318873323
      ],
      [
        "rig",
        -9.991055653510733
      ],
      [
        "thirty",
        -9.991075836815428
      ],
      [
        "▁spoke",
        -9.991519702997792
      ],
      [
        "script",
        -9.9924166000599
      ],
      [
        "▁completely",
        -9.992713036590416
      ],
      [
        "laughter",
        -9.993577899445423
      ],
      [
        "▁academ",
        -9.993598082187548
      ],
      [
        "▁length",
        -9.99362295913485
      ],
      [
        "▁italian",
        -9.993624355567624
      ],
      [
        "▁southern",
        -9.993661429646112
      ],
      [
        "▁range",
        -9.993900128356575
      ],
      [
        "▁brand",
        -9.994935810087709
      ],
      [
        "▁fly",
        -9.995419014047824
      ],
      [
        "▁dry",
        -9.99597268807361
      ],
      [
        "▁saint",
        -9.996151575427763
      ],
      [
        "▁wonderful",
        -9.996521900883284
      ],
      [
        "▁network",
        -9.997420160161974
      ],
      [
        "ural",
        -9.997749409791007
      ],
      [
        "▁cop",
        -9.99808750672021
      ],
      [
        "▁shouldn",
        -9.998786391168489
      ],
      [
        "▁create",
        -9.999516550554103
      ],
      [
        "▁female",
        -9.999903577153956
      ],
      [
        "▁path",
        -10.000394812496337
      ],
      [
        "▁politician",
        -10.001265391185775
      ],
      [
        "▁cry",
        -10.002222823833623
      ],
      [
        "▁winter",
        -10.00225369524895
      ],
      [
        "▁broken",
        -10.002335310895582
      ],
      [
        "room",
        -10.002549005732622
      ],
      [
        "▁tall",
        -10.003461621957626
      ],
      [
        "▁northern",
        -10.003771498500694
      ],
      [
        "▁european",
        -10.003987221899472
      ],
      [
        "▁aha",
        -10.00459854674826
      ],
      [
        "stor",
        -10.005080663455097
      ],
      [
        "aid",
        -10.005507577083074
      ],
      [
        "▁br",
        -10.005567443780665
      ],
      [
        "law",
        -10.005982897852816
      ],
      [
        "▁section",
        -10.006663733849065
      ],
      [
        "nor",
        -10.009287678266007
      ],
      [
        "▁risk",
        -10.01014550668171
      ],
      [
        "▁bright",
        -10.010508475783595
      ],
      [
        "▁contract",
        -10.011443588714505
      ],
      [
        "▁successful",
        -10.011644978966812
      ],
      [
        "rum",
        -10.011834843122102
      ],
      [
        "▁alan",
        -10.012166675333354
      ],
      [
        "▁joe",
        -10.012246936321963
      ],
      [
        "▁formula",
        -10.014502489810887
      ],
      [
        "▁opportunit",
        -10.015217690121805
      ],
      [
        "▁evidence",
        -10.015217690577645
      ],
      [
        "▁governor",
        -10.015241628235056
      ],
      [
        "▁watching",
        -10.015900379970944
      ],
      [
        "horn",
        -10.01775101816428
      ],
      [
        "year",
        -10.017946631186316
      ],
      [
        "below",
        -10.018576800744912
      ],
      [
        "▁measure",
        -10.019111470146711
      ],
      [
        "ridge",
        -10.019345755060176
      ],
      [
        "▁jesu",
        -10.02018215031983
      ],
      [
        "▁distance",
        -10.02168114788877
      ],
      [
        "▁dec",
        -10.02264422800772
      ],
      [
        "▁higher",
        -10.0230831902746
      ],
      [
        "▁unless",
        -10.023434214006544
      ],
      [
        "cop",
        -10.024670123716144
      ],
      [
        "sigh",
        -10.02521321827955
      ],
      [
        "▁access",
        -10.025561364158088
      ],
      [
        "ology",
        -10.025910802195613
      ],
      [
        "▁included",
        -10.027101962486688
      ],
      [
        "▁dut",
        -10.0272647475101
      ],
      [
        "▁hum",
        -10.027836979365755
      ],
      [
        "▁mass",
        -10.03008786376468
      ],
      [
        "carried",
        -10.030200653947285
      ],
      [
        "▁coffee",
        -10.03338824598786
      ],
      [
        "▁review",
        -10.033503754478478
      ],
      [
        "▁regular",
        -10.034737794965244
      ],
      [
        "▁image",
        -10.034758536834058
      ],
      [
        "col",
        -10.034771893038574
      ],
      [
        "added",
        -10.035277127774537
      ],
      [
        "▁corner",
        -10.035606102122316
      ],
      [
        "▁congress",
        -10.036011254473582
      ],
      [
        "▁bomb",
        -10.036133898534576
      ],
      [
        "ification",
        -10.03729267570158
      ],
      [
        "▁thomas",
        -10.03732525075089
      ],
      [
        "▁detail",
        -10.037341833623756
      ],
      [
        "▁score",
        -10.038736040124846
      ],
      [
        "▁songs",
        -10.03878948753345
      ],
      [
        "▁lee",
        -10.038804625236404
      ],
      [
        "▁wave",
        -10.03901170115321
      ],
      [
        "▁empire",
        -10.039958753506374
      ],
      [
        "▁pet",
        -10.040506159240913
      ],
      [
        "▁tail",
        -10.040692255317158
      ],
      [
        "shore",
        -10.040969026752162
      ],
      [
        "▁knock",
        -10.041328333300688
      ],
      [
        "▁collect",
        -10.042115754260562
      ],
      [
        "▁sight",
        -10.042236062788865
      ],
      [
        "▁gain",
        -10.04239109724872
      ],
      [
        "▁method",
        -10.04392365237026
      ],
      [
        "▁agent",
        -10.044492516923388
      ],
      [
        "▁washington",
        -10.045256850450931
      ],
      [
        "▁defeat",
        -10.045426927249682
      ],
      [
        "mble",
        -10.04578290569433
      ],
      [
        "▁china",
        -10.046916663249007
      ],
      [
        "▁native",
        -10.047115210645153
      ],
      [
        "▁imagine",
        -10.047533652517338
      ],
      [
        "▁text",
        -10.048095423685664
      ],
      [
        "▁electric",
        -10.049478707572003
      ],
      [
        "▁storm",
        -10.0497576757631
      ],
      [
        "▁select",
        -10.05151172960419
      ],
      [
        "▁fund",
        -10.051663890335092
      ],
      [
        "▁compet",
        -10.052476027289124
      ],
      [
        "▁sudden",
        -10.052515924074026
      ],
      [
        "▁bull",
        -10.053855455682356
      ],
      [
        "▁hotel",
        -10.05395781405374
      ],
      [
        "▁sil",
        -10.054027891626092
      ],
      [
        "▁direction",
        -10.054401113340385
      ],
      [
        "phil",
        -10.054985664747775
      ],
      [
        "lap",
        -10.05556250121754
      ],
      [
        "families",
        -10.057247607143916
      ],
      [
        "▁joined",
        -10.05815919210539
      ],
      [
        "▁marry",
        -10.058739278451268
      ],
      [
        "ü",
        -10.059932561811715
      ],
      [
        "▁propert",
        -10.060352672375949
      ],
      [
        "▁organization",
        -10.062662931673636
      ],
      [
        "▁technolog",
        -10.063979757488678
      ],
      [
        "▁fin",
        -10.064145641837412
      ],
      [
        "▁develop",
        -10.064840726190774
      ],
      [
        "▁religion",
        -10.06532704560906
      ],
      [
        "▁firm",
        -10.065379128674518
      ],
      [
        "▁bay",
        -10.066729308151473
      ],
      [
        "▁birthday",
        -10.06675606975288
      ],
      [
        "▁proper",
        -10.067676487706605
      ],
      [
        "▁relat",
        -10.068281088231544
      ],
      [
        "▁bottom",
        -10.069392373590016
      ],
      [
        "▁bob",
        -10.0695469127487
      ],
      [
        "▁securit",
        -10.070751060732904
      ],
      [
        "▁route",
        -10.071057935678496
      ],
      [
        "▁goal",
        -10.07135499519418
      ],
      [
        "▁studio",
        -10.072125759016863
      ],
      [
        "this",
        -10.072140853885443
      ],
      [
        "zar",
        -10.072795763196114
      ],
      [
        "▁training",
        -10.07333303344679
      ],
      [
        "▁happening",
        -10.074965216340717
      ],
      [
        "▁function",
        -10.076407521430944
      ],
      [
        "▁structure",
        -10.077572095050582
      ],
      [
        "▁heaven",
        -10.07797896779954
      ],
      [
        "nearly",
        -10.0798543324006
      ],
      [
        "▁attend",
        -10.0804122902398
      ],
      [
        "ular",
        -10.081110617900936
      ],
      [
        "utter",
        -10.08112125843828
      ],
      [
        "ick",
        -10.081207094401751
      ],
      [
        "▁industr",
        -10.081472266405065
      ],
      [
        "▁yesterday",
        -10.081687922731913
      ],
      [
        "▁feed",
        -10.081920702381876
      ],
      [
        "▁hop",
        -10.082024925087424
      ],
      [
        "▁centre",
        -10.082550489585644
      ],
      [
        "bil",
        -10.083134911430074
      ],
      [
        "▁neck",
        -10.083257370304416
      ],
      [
        "▁standard",
        -10.083547590079444
      ],
      [
        "some",
        -10.083835957829615
      ],
      [
        "bre",
        -10.08427425659472
      ],
      [
        "roo",
        -10.084885858998046
      ],
      [
        "▁storie",
        -10.08495708786452
      ],
      [
        "▁iron",
        -10.087492391547691
      ],
      [
        "▁skin",
        -10.08861578657856
      ],
      [
        "▁luck",
        -10.088621320175076
      ],
      [
        "take",
        -10.08987385914411
      ],
      [
        "rang",
        -10.090444095135886
      ],
      [
        "▁authorit",
        -10.090528675032887
      ],
      [
        "▁hole",
        -10.092039618269569
      ],
      [
        "▁male",
        -10.092658841820684
      ],
      [
        "▁basket",
        -10.092746323599377
      ],
      [
        "▁culture",
        -10.092790868279844
      ],
      [
        "back",
        -10.093066415430911
      ],
      [
        "▁cre",
        -10.093737446567282
      ],
      [
        "▁performance",
        -10.094435080145692
      ],
      [
        "aff",
        -10.094634622561635
      ],
      [
        "bit",
        -10.094808098804766
      ],
      [
        "▁branch",
        -10.094909506208232
      ],
      [
        "▁takes",
        -10.095278600612286
      ],
      [
        "▁quarter",
        -10.095529593633085
      ],
      [
        "▁huge",
        -10.096503067351588
      ],
      [
        "▁interested",
        -10.09662186644631
      ],
      [
        "▁pig",
        -10.096821601019457
      ],
      [
        "▁ocean",
        -10.096927020678423
      ],
      [
        "cut",
        -10.09824329441777
      ],
      [
        "▁loved",
        -10.098409400275123
      ],
      [
        "▁focus",
        -10.098433652846795
      ],
      [
        "▁economic",
        -10.098436091758426
      ],
      [
        "▁available",
        -10.099718327675411
      ],
      [
        "▁worse",
        -10.09972286360581
      ],
      [
        "▁palace",
        -10.099817288547843
      ],
      [
        "▁engineer",
        -10.100125605685108
      ],
      [
        "hmm",
        -10.100551111416731
      ],
      [
        "▁africa",
        -10.10090048861856
      ],
      [
        "rod",
        -10.101579974360622
      ],
      [
        "▁print",
        -10.102122168697075
      ],
      [
        "▁correct",
        -10.103098254177452
      ],
      [
        "press",
        -10.103250524092871
      ],
      [
        "kat",
        -10.10372224698855
      ],
      [
        "▁divide",
        -10.104080804105608
      ],
      [
        "▁lock",
        -10.105115783460388
      ],
      [
        "▁railway",
        -10.105421017312043
      ],
      [
        "▁writer",
        -10.106092077224218
      ],
      [
        "▁victor",
        -10.106276897602076
      ],
      [
        "ual",
        -10.106399632949532
      ],
      [
        "dish",
        -10.106534789120513
      ],
      [
        "lying",
        -10.10686287587638
      ],
      [
        "▁kar",
        -10.108629427492534
      ],
      [
        "▁retire",
        -10.109574758404076
      ],
      [
        "▁apple",
        -10.109903586661378
      ],
      [
        "▁advance",
        -10.110978211690783
      ],
      [
        "▁foreign",
        -10.110978524291257
      ],
      [
        "▁beach",
        -10.11148197388276
      ],
      [
        "laugh",
        -10.112603004472742
      ],
      [
        "▁sky",
        -10.113756868381472
      ],
      [
        "▁flight",
        -10.114139288697826
      ],
      [
        "▁kick",
        -10.114390688644631
      ],
      [
        "▁fur",
        -10.114819468006164
      ],
      [
        "▁edge",
        -10.1150118527603
      ],
      [
        "▁australia",
        -10.11521485525105
      ],
      [
        "▁crew",
        -10.116372561052966
      ],
      [
        "cal",
        -10.116757590772796
      ],
      [
        "▁developed",
        -10.116784509730987
      ],
      [
        "▁consist",
        -10.116833244818926
      ],
      [
        "▁mike",
        -10.117061309544024
      ],
      [
        "▁scared",
        -10.118150355156184
      ],
      [
        "ization",
        -10.119104414047593
      ],
      [
        "shire",
        -10.119636435327068
      ],
      [
        "ome",
        -10.120104683991784
      ],
      [
        "companie",
        -10.12139018565466
      ],
      [
        "▁continu",
        -10.121391609461146
      ],
      [
        "▁specific",
        -10.122392613485031
      ],
      [
        "▁tired",
        -10.122395598687628
      ],
      [
        "▁smell",
        -10.12259208473387
      ],
      [
        "▁percent",
        -10.122934529080034
      ],
      [
        "▁injur",
        -10.12327748594698
      ],
      [
        "top",
        -10.123847150859202
      ],
      [
        "▁settle",
        -10.12471041965888
      ],
      [
        "▁slow",
        -10.126193154895898
      ],
      [
        "▁ag",
        -10.126451268319546
      ],
      [
        "▁element",
        -10.126675934919795
      ],
      [
        "▁fruit",
        -10.126685414797752
      ],
      [
        "jan",
        -10.128243850309552
      ],
      [
        "▁fourth",
        -10.128409313559905
      ],
      [
        "▁plain",
        -10.12852731022438
      ],
      [
        "rou",
        -10.128779046918323
      ],
      [
        "▁eating",
        -10.129928553481976
      ],
      [
        "town",
        -10.13071996887771
      ],
      [
        "▁prison",
        -10.132189047453918
      ],
      [
        "cro",
        -10.132214087850569
      ],
      [
        "▁paris",
        -10.132717476834966
      ],
      [
        "▁flat",
        -10.13506909560714
      ],
      [
        "▁gene",
        -10.13509017829286
      ],
      [
        "rio",
        -10.135852363996216
      ],
      [
        "▁notice",
        -10.135872092759714
      ],
      [
        "▁engine",
        -10.136336340354722
      ],
      [
        "▁sim",
        -10.136676259153878
      ],
      [
        "▁constant",
        -10.136796890414736
      ],
      [
        "▁pee",
        -10.136888625720273
      ],
      [
        "▁grant",
        -10.136963626653484
      ],
      [
        "▁accident",
        -10.138239486201494
      ],
      [
        "▁demand",
        -10.138295299719603
      ],
      [
        "try",
        -10.139068924961832
      ],
      [
        "▁pack",
        -10.139340167582356
      ],
      [
        "rib",
        -10.140749255403652
      ],
      [
        "▁novel",
        -10.14131893326617
      ],
      [
        "▁chose",
        -10.14322552912444
      ],
      [
        "▁fift",
        -10.14382343520704
      ],
      [
        "war",
        -10.14409993604412
      ],
      [
        "▁valley",
        -10.14411078740255
      ],
      [
        "▁tape",
        -10.14425573582136
      ],
      [
        "▁aunt",
        -10.145104251453631
      ],
      [
        "▁afternoon",
        -10.145548751880003
      ],
      [
        "▁sum",
        -10.145593376927202
      ],
      [
        "▁heat",
        -10.145654736167543
      ],
      [
        "▁min",
        -10.146228745249491
      ],
      [
        "▁trees",
        -10.14682987390087
      ],
      [
        "▁tour",
        -10.147203712484142
      ],
      [
        "▁singer",
        -10.147307244700803
      ],
      [
        "necessary",
        -10.147747035626072
      ],
      [
        "panish",
        -10.147884945116031
      ],
      [
        "ware",
        -10.149245853153964
      ],
      [
        "▁rad",
        -10.149614150410049
      ],
      [
        "▁document",
        -10.149947339806856
      ],
      [
        "bru",
        -10.149974498210112
      ],
      [
        "▁slight",
        -10.15088937033205
      ],
      [
        "▁effort",
        -10.151416866097367
      ],
      [
        "▁yellow",
        -10.151417706175891
      ],
      [
        "▁content",
        -10.15178907555141
      ],
      [
        "elle",
        -10.151824782150609
      ],
      [
        "▁louis",
        -10.151949793046397
      ],
      [
        "▁reg",
        -10.152169934761051
      ],
      [
        "▁calm",
        -10.15229022546232
      ],
      [
        "▁cheer",
        -10.152487770506774
      ],
      [
        "▁bab",
        -10.152576190887128
      ],
      [
        "bri",
        -10.152639921696643
      ],
      [
        "▁tie",
        -10.152848851754442
      ],
      [
        "▁frog",
        -10.153104128423095
      ],
      [
        "who",
        -10.15348970467716
      ],
      [
        "▁philosoph",
        -10.15436886457308
      ],
      [
        "▁shows",
        -10.154614039204692
      ],
      [
        "▁fix",
        -10.155078303953218
      ],
      [
        "mate",
        -10.155518126163429
      ],
      [
        "▁anne",
        -10.156909485045102
      ],
      [
        "▁teach",
        -10.157589127882192
      ],
      [
        "pul",
        -10.158148659458387
      ],
      [
        "▁fill",
        -10.159473972879857
      ],
      [
        "wick",
        -10.16004396309561
      ],
      [
        "vor",
        -10.160290539218476
      ],
      [
        "ux",
        -10.161866670387782
      ],
      [
        "▁learned",
        -10.16316671892536
      ],
      [
        "▁angry",
        -10.163290004521324
      ],
      [
        "▁truck",
        -10.163311535528477
      ],
      [
        "▁barr",
        -10.164583617655332
      ],
      [
        "▁rate",
        -10.16577511827006
      ],
      [
        "▁larges",
        -10.165902797448078
      ],
      [
        "▁catholic",
        -10.166265015247076
      ],
      [
        "rud",
        -10.16788894289826
      ],
      [
        "lid",
        -10.16883170025411
      ],
      [
        "▁showed",
        -10.169021086485268
      ],
      [
        "▁remove",
        -10.169371916415404
      ],
      [
        "▁adam",
        -10.169384372896268
      ],
      [
        "▁silver",
        -10.1694559899892
      ],
      [
        "▁grave",
        -10.170140575755898
      ],
      [
        "▁fresh",
        -10.170781236727256
      ],
      [
        "▁pair",
        -10.17147010133066
      ],
      [
        "▁committee",
        -10.172266942941864
      ],
      [
        "▁museum",
        -10.172267176632964
      ],
      [
        "▁iran",
        -10.172529913676934
      ],
      [
        "▁earlier",
        -10.17324019120608
      ],
      [
        "cap",
        -10.173606265258517
      ],
      [
        "▁joy",
        -10.174225852612985
      ],
      [
        "istic",
        -10.175090588979993
      ],
      [
        "ended",
        -10.175357999254947
      ],
      [
        "▁photo",
        -10.176886819608406
      ],
      [
        "▁spread",
        -10.1769214421783
      ],
      [
        "berg",
        -10.177878313785726
      ],
      [
        "▁wake",
        -10.179013026471038
      ],
      [
        "vic",
        -10.17904240216733
      ],
      [
        "cia",
        -10.179967656239764
      ],
      [
        "▁closed",
        -10.180187134217402
      ],
      [
        "mark",
        -10.180919233504769
      ],
      [
        "▁campaign",
        -10.181336794393586
      ],
      [
        "▁holding",
        -10.181667445712712
      ],
      [
        "bert",
        -10.18276887734124
      ],
      [
        "▁absolutel",
        -10.182826606577947
      ],
      [
        "put",
        -10.183414628189595
      ],
      [
        "▁mess",
        -10.1840965228099
      ],
      [
        "▁platform",
        -10.184378680849598
      ],
      [
        "▁hide",
        -10.185197408527252
      ],
      [
        "▁policy",
        -10.185230572755632
      ],
      [
        "▁introduce",
        -10.185903012295604
      ],
      [
        "▁lad",
        -10.185912936717106
      ],
      [
        "chan",
        -10.187585066057345
      ],
      [
        "ically",
        -10.188192648612642
      ],
      [
        "▁planet",
        -10.18900263738773
      ],
      [
        "▁enemy",
        -10.189146542624126
      ],
      [
        "▁buck",
        -10.189684261934794
      ],
      [
        "▁rot",
        -10.189914286918413
      ],
      [
        "▁defend",
        -10.190264118729496
      ],
      [
        "wise",
        -10.19110451755532
      ],
      [
        "▁taste",
        -10.192104574385509
      ],
      [
        "▁smart",
        -10.192733124221444
      ],
      [
        "▁medicine",
        -10.193560121877104
      ],
      [
        "nov",
        -10.19359573114632
      ],
      [
        "▁reading",
        -10.193688446014118
      ],
      [
        "▁busy",
        -10.1937528459102
      ],
      [
        "▁beyond",
        -10.19510779045378
      ],
      [
        "▁lawyer",
        -10.195184281115
      ],
      [
        "covered",
        -10.19536448553298
      ],
      [
        "bol",
        -10.196229365515409
      ],
      [
        "▁camera",
        -10.196318023485908
      ],
      [
        "▁wheel",
        -10.196646215840143
      ],
      [
        "▁weapon",
        -10.196647120411097
      ],
      [
        "chu",
        -10.197251885401847
      ],
      [
        "▁parliament",
        -10.19972810590698
      ],
      [
        "▁fault",
        -10.199741261490464
      ],
      [
        "▁letters",
        -10.19998497361744
      ],
      [
        "▁broad",
        -10.20027875469572
      ],
      [
        "▁disappear",
        -10.200288835871127
      ],
      [
        "▁concern",
        -10.200585967430245
      ],
      [
        "pho",
        -10.202494501371486
      ],
      [
        "▁medical",
        -10.20312871991661
      ],
      [
        "▁ray",
        -10.203619137370469
      ],
      [
        "mount",
        -10.204150114876947
      ],
      [
        "▁jim",
        -10.204660514250913
      ],
      [
        "▁dirt",
        -10.204697708703751
      ],
      [
        "▁critic",
        -10.205052716431132
      ],
      [
        "definitely",
        -10.205943163076745
      ],
      [
        "▁birth",
        -10.205950871920267
      ],
      [
        "▁opening",
        -10.206744082062356
      ],
      [
        "▁harm",
        -10.206754562590692
      ],
      [
        "▁strength",
        -10.20749222062122
      ],
      [
        "▁channel",
        -10.20749591851336
      ],
      [
        "syria",
        -10.20798105004634
      ],
      [
        "tel",
        -10.209255144409848
      ],
      [
        "▁knowledge",
        -10.210616995664516
      ],
      [
        "▁link",
        -10.211695112482628
      ],
      [
        "▁bow",
        -10.212685075123147
      ],
      [
        "▁contact",
        -10.213757179137708
      ],
      [
        "trac",
        -10.214779595665362
      ],
      [
        "▁gall",
        -10.21534685358662
      ],
      [
        "▁handle",
        -10.21576843752384
      ],
      [
        "▁benefit",
        -10.218464017055096
      ],
      [
        "pel",
        -10.219588597343066
      ],
      [
        "▁fool",
        -10.220145613173496
      ],
      [
        "mel",
        -10.221047862889558
      ],
      [
        "▁commission",
        -10.22169827252599
      ],
      [
        "▁colon",
        -10.222234054245217
      ],
      [
        "▁weather",
        -10.22338161977666
      ],
      [
        "lov",
        -10.224409032604656
      ],
      [
        "▁neither",
        -10.224788297283103
      ],
      [
        "▁surface",
        -10.224794512830666
      ],
      [
        "▁canad",
        -10.225120013566862
      ],
      [
        "▁opinion",
        -10.226375461663606
      ],
      [
        "with",
        -10.226381318694171
      ],
      [
        "▁minus",
        -10.226967931756173
      ],
      [
        "▁staff",
        -10.228027821200415
      ],
      [
        "tuck",
        -10.228614648897665
      ],
      [
        "▁affect",
        -10.22911719179892
      ],
      [
        "▁twic",
        -10.22986181447346
      ],
      [
        "gate",
        -10.230191522418565
      ],
      [
        "stone",
        -10.230431679394664
      ],
      [
        "▁sharp",
        -10.230634650831798
      ],
      [
        "rag",
        -10.230636663797316
      ],
      [
        "▁twelve",
        -10.231152575280529
      ],
      [
        "bid",
        -10.23186978089776
      ],
      [
        "there",
        -10.232399909978389
      ],
      [
        "then",
        -10.234160091490672
      ],
      [
        "▁average",
        -10.23435326604626
      ],
      [
        "▁believed",
        -10.237156992785524
      ],
      [
        "▁joseph",
        -10.237557674231638
      ],
      [
        "bro",
        -10.237776681394273
      ],
      [
        "eld",
        -10.238929035921467
      ],
      [
        "▁flow",
        -10.239128523413951
      ],
      [
        "▁festival",
        -10.239165389822316
      ],
      [
        "▁stars",
        -10.239394909054973
      ],
      [
        "why",
        -10.240092198626494
      ],
      [
        "▁express",
        -10.240630491503548
      ],
      [
        "▁weren",
        -10.241884774967293
      ],
      [
        "▁troop",
        -10.24241603854552
      ],
      [
        "▁republic",
        -10.242739223494551
      ],
      [
        "▁metal",
        -10.244008407426
      ],
      [
        "lip",
        -10.245036657002196
      ],
      [
        "▁angel",
        -10.245608899645102
      ],
      [
        "▁walking",
        -10.246138417305383
      ],
      [
        "mination",
        -10.246200062716294
      ],
      [
        "▁nose",
        -10.248330407915248
      ],
      [
        "▁sports",
        -10.249223224763684
      ],
      [
        "▁ladies",
        -10.249696372713093
      ],
      [
        "▁traditional",
        -10.250668286047548
      ],
      [
        "▁tim",
        -10.250679735029443
      ],
      [
        "▁thy",
        -10.250729217444064
      ],
      [
        "▁conduct",
        -10.252125830050815
      ],
      [
        "▁speech",
        -10.253765814316566
      ],
      [
        "▁driv",
        -10.254096787637843
      ],
      [
        "lab",
        -10.254279047193243
      ],
      [
        "nian",
        -10.254416379755892
      ],
      [
        "▁pictures",
        -10.255767111915445
      ],
      [
        "▁manager",
        -10.255968086427067
      ],
      [
        "▁religious",
        -10.257022997995486
      ],
      [
        "aki",
        -10.25828519835024
      ],
      [
        "▁article",
        -10.258674581230313
      ],
      [
        "▁giant",
        -10.258697189851487
      ],
      [
        "under",
        -10.259440318531896
      ],
      [
        "iel",
        -10.259603546565636
      ],
      [
        "expected",
        -10.261185455898332
      ],
      [
        "▁shape",
        -10.261568325275096
      ],
      [
        "▁newspaper",
        -10.2619491362505
      ],
      [
        "ibi",
        -10.262566814114964
      ],
      [
        "ston",
        -10.262593740755298
      ],
      [
        "▁resource",
        -10.263596579578008
      ],
      [
        "▁christmas",
        -10.263603216862853
      ],
      [
        "hand",
        -10.263869473102176
      ],
      [
        "▁hor",
        -10.263962534025795
      ],
      [
        "raw",
        -10.264223630229186
      ],
      [
        "▁student",
        -10.264270613682072
      ],
      [
        "▁discuss",
        -10.264785808134423
      ],
      [
        "▁choose",
        -10.265274079772352
      ],
      [
        "▁pocket",
        -10.26689973166152
      ],
      [
        "▁competition",
        -10.266906465761428
      ],
      [
        "▁loss",
        -10.267566283795784
      ],
      [
        "▁hung",
        -10.268845303943625
      ],
      [
        "▁forty",
        -10.269720916718878
      ],
      [
        "▁constitution",
        -10.270213622941965
      ],
      [
        "ctor",
        -10.27081592517066
      ],
      [
        "▁map",
        -10.27114470531987
      ],
      [
        "▁origin",
        -10.272812307270131
      ],
      [
        "▁damage",
        -10.273338976829574
      ],
      [
        "▁dangerous",
        -10.27370786600883
      ],
      [
        "▁repeat",
        -10.273752681220238
      ],
      [
        "▁weak",
        -10.2745307707568
      ],
      [
        "nny",
        -10.274625070405657
      ],
      [
        "stream",
        -10.275213793413249
      ],
      [
        "eventually",
        -10.27521663913912
      ],
      [
        "▁gil",
        -10.276148696060789
      ],
      [
        "ó",
        -10.27687476176722
      ],
      [
        "mus",
        -10.27847846648628
      ],
      [
        "▁brief",
        -10.278570595963473
      ],
      [
        "▁forced",
        -10.278760111107191
      ],
      [
        "ograph",
        -10.28055871247038
      ],
      [
        "▁smith",
        -10.281144603306466
      ],
      [
        "chines",
        -10.281247035038716
      ],
      [
        "ddle",
        -10.281693985498304
      ],
      [
        "ole",
        -10.28191489311772
      ],
      [
        "▁legal",
        -10.282218805904852
      ],
      [
        "▁capture",
        -10.28222326449264
      ],
      [
        "fighting",
        -10.282240736362787
      ],
      [
        "mode",
        -10.28324392930152
      ],
      [
        "▁suffer",
        -10.283433435637251
      ],
      [
        "bir",
        -10.283843560222586
      ],
      [
        "▁plate",
        -10.284855778325774
      ],
      [
        "▁colour",
        -10.285516268419586
      ],
      [
        "hood",
        -10.285731857635753
      ],
      [
        "▁shoulder",
        -10.286916808481664
      ],
      [
        "rénée",
        -10.286950411500072
      ],
      [
        "▁rough",
        -10.286953184804918
      ],
      [
        "▁tony",
        -10.287574762683018
      ],
      [
        "▁circle",
        -10.29033167400828
      ],
      [
        "▁lucky",
        -10.290582171490623
      ],
      [
        "▁recognize",
        -10.29130888075463
      ],
      [
        "▁conference",
        -10.29202657033506
      ],
      [
        "▁symbol",
        -10.292033410274495
      ],
      [
        "▁launch",
        -10.292040992220729
      ],
      [
        "tub",
        -10.292821919107592
      ],
      [
        "▁decide",
        -10.292987810641808
      ],
      [
        "arrived",
        -10.293025295948738
      ],
      [
        "atlantique",
        -10.293724356184777
      ],
      [
        "just",
        -10.293751899493136
      ],
      [
        "▁location",
        -10.293779881135777
      ],
      [
        "door",
        -10.294011414639428
      ],
      [
        "▁apart",
        -10.294399211487924
      ],
      [
        "▁file",
        -10.29507037601698
      ],
      [
        "▁wine",
        -10.295298599959516
      ],
      [
        "▁greek",
        -10.295637867590855
      ],
      [
        "▁spin",
        -10.296143488522896
      ],
      [
        "ological",
        -10.296327788984918
      ],
      [
        "ulation",
        -10.29666734408273
      ],
      [
        "▁steve",
        -10.297543625535711
      ],
      [
        "vision",
        -10.298158186374897
      ],
      [
        "▁dragon",
        -10.298260418559948
      ],
      [
        "▁deliver",
        -10.298260598342832
      ],
      [
        "gli",
        -10.2983299787698
      ],
      [
        "ians",
        -10.298376065418124
      ],
      [
        "▁challenge",
        -10.298835103384828
      ],
      [
        "▁victim",
        -10.298835245653049
      ],
      [
        "▁anywhere",
        -10.299803630676648
      ],
      [
        "▁connect",
        -10.30002304546608
      ],
      [
        "asking",
        -10.300292695672413
      ],
      [
        "▁majest",
        -10.300545690787931
      ],
      [
        "▁pressure",
        -10.30072056201246
      ],
      [
        "▁bath",
        -10.302204268047497
      ],
      [
        "▁credit",
        -10.30228592170118
      ],
      [
        "▁memory",
        -10.302330308673849
      ],
      [
        "▁temp",
        -10.303842449403426
      ],
      [
        "cip",
        -10.303882625762004
      ],
      [
        "lum",
        -10.30397172365652
      ],
      [
        "▁jimm",
        -10.305524774300608
      ],
      [
        "▁negative",
        -10.309135628642997
      ],
      [
        "▁federal",
        -10.30913603050572
      ],
      [
        "▁golden",
        -10.309360741022823
      ],
      [
        "elli",
        -10.310421884954897
      ],
      [
        "▁duck",
        -10.310551975413514
      ],
      [
        "▁proud",
        -10.310928653511525
      ],
      [
        "▁zero",
        -10.311181630725072
      ],
      [
        "ington",
        -10.311189183732935
      ],
      [
        "▁soldiers",
        -10.312031151729816
      ],
      [
        "uch",
        -10.31364988756285
      ],
      [
        "▁secretar",
        -10.31389353863688
      ],
      [
        "▁bless",
        -10.314922203218016
      ],
      [
        "▁dun",
        -10.315967483431551
      ],
      [
        "▁gentlemen",
        -10.316062913302217
      ],
      [
        "▁guest",
        -10.316221713533738
      ],
      [
        "down",
        -10.318798637287657
      ],
      [
        "▁flo",
        -10.319257460435663
      ],
      [
        "▁emperor",
        -10.319543362982936
      ],
      [
        "▁martin",
        -10.319788575064536
      ],
      [
        "▁physical",
        -10.320631900634798
      ],
      [
        "▁broadcast",
        -10.321325695950218
      ],
      [
        "▁growing",
        -10.323234640683696
      ],
      [
        "▁poet",
        -10.323724450968504
      ],
      [
        "ö",
        -10.324788105764856
      ],
      [
        "▁waste",
        -10.325568182884377
      ],
      [
        "▁owner",
        -10.326466093631687
      ],
      [
        "▁relative",
        -10.326607643109696
      ],
      [
        "▁tower",
        -10.328066448202996
      ],
      [
        "far",
        -10.328970705784322
      ],
      [
        "rish",
        -10.3295647581245
      ],
      [
        "▁droppe",
        -10.329942506523702
      ],
      [
        "▁positive",
        -10.330060536087604
      ],
      [
        "▁slowly",
        -10.330295297745394
      ],
      [
        "lity",
        -10.330684156693424
      ],
      [
        "blo",
        -10.331537770138889
      ],
      [
        "▁engage",
        -10.331832098322952
      ],
      [
        "▁wedding",
        -10.331860190619434
      ],
      [
        "▁magic",
        -10.332718647303588
      ],
      [
        "í",
        -10.333590977236971
      ],
      [
        "▁desire",
        -10.333641002014753
      ],
      [
        "▁lion",
        -10.334112473622811
      ],
      [
        "▁nick",
        -10.334130254087553
      ],
      [
        "▁russian",
        -10.334841835160056
      ],
      [
        "▁primar",
        -10.33553595009823
      ],
      [
        "cast",
        -10.336089048781243
      ],
      [
        "▁comment",
        -10.336526545242435
      ],
      [
        "▁forth",
        -10.33756227163845
      ],
      [
        "▁achieve",
        -10.338910344940532
      ],
      [
        "▁pretend",
        -10.338999660765252
      ],
      [
        "▁crowd",
        -10.339423714325246
      ],
      [
        "▁jud",
        -10.339653377209851
      ],
      [
        "▁champion",
        -10.340571949998044
      ],
      [
        "▁texa",
        -10.340852162745144
      ],
      [
        "▁bottle",
        -10.34087850530647
      ],
      [
        "▁rub",
        -10.341006269966554
      ],
      [
        "nel",
        -10.34130125270789
      ],
      [
        "▁basi",
        -10.341638871302834
      ],
      [
        "▁revolution",
        -10.34247202824616
      ],
      [
        "▁universe",
        -10.342478514012214
      ],
      [
        "mut",
        -10.34314360682325
      ],
      [
        "▁worker",
        -10.344218067399732
      ],
      [
        "▁switch",
        -10.344259064334512
      ],
      [
        "▁hook",
        -10.344947821147422
      ],
      [
        "▁municipalit",
        -10.344972465564172
      ],
      [
        "▁darling",
        -10.34653790140272
      ],
      [
        "▁rush",
        -10.346674558203128
      ],
      [
        "▁ruin",
        -10.346990350425289
      ],
      [
        "▁forgive",
        -10.347862820863002
      ],
      [
        "▁der",
        -10.348420088022948
      ],
      [
        "▁statement",
        -10.34890639553751
      ],
      [
        "see",
        -10.349163049968894
      ],
      [
        "▁bang",
        -10.349352497275127
      ],
      [
        "▁easily",
        -10.349635408818584
      ],
      [
        "gged",
        -10.349746380093988
      ],
      [
        "▁employ",
        -10.351356091594464
      ],
      [
        "▁lack",
        -10.351378156999267
      ],
      [
        "▁apparent",
        -10.351433002804676
      ],
      [
        "gun",
        -10.35176978426578
      ],
      [
        "▁slave",
        -10.352411987497304
      ],
      [
        "run",
        -10.353215606453508
      ],
      [
        "▁pleasure",
        -10.353234483485735
      ],
      [
        "▁border",
        -10.353235146893327
      ],
      [
        "▁surround",
        -10.353239899444626
      ],
      [
        "▁chart",
        -10.353563096826438
      ],
      [
        "new",
        -10.353603228215784
      ],
      [
        "his",
        -10.354199933027346
      ],
      [
        "zu",
        -10.354801163696036
      ],
      [
        "▁independent",
        -10.35503951494069
      ],
      [
        "▁bitch",
        -10.355235361114191
      ],
      [
        "▁adult",
        -10.358662441329836
      ],
      [
        "▁greater",
        -10.359286691468643
      ],
      [
        "lay",
        -10.359602151580958
      ],
      [
        "▁magazine",
        -10.360474311283284
      ],
      [
        "▁olympic",
        -10.360474311879091
      ],
      [
        "▁chapter",
        -10.36072014447024
      ],
      [
        "filled",
        -10.36172671964895
      ],
      [
        "illa",
        -10.36208668851257
      ],
      [
        "book",
        -10.36269986123326
      ],
      [
        "▁grown",
        -10.363219838149655
      ],
      [
        "▁smoke",
        -10.364125362085865
      ],
      [
        "▁gift",
        -10.364135926880468
      ],
      [
        "▁bread",
        -10.364765147526308
      ],
      [
        "ception",
        -10.365192872306302
      ],
      [
        "place",
        -10.365227127666838
      ],
      [
        "▁prevent",
        -10.366401706958364
      ],
      [
        "▁cash",
        -10.366885509448254
      ],
      [
        "sign",
        -10.367107006204934
      ],
      [
        "▁holy",
        -10.367854853031536
      ],
      [
        "▁multi",
        -10.369548526932116
      ],
      [
        "▁progress",
        -10.369598514629615
      ],
      [
        "▁gather",
        -10.36992805509056
      ],
      [
        "▁appearance",
        -10.37002893075964
      ],
      [
        "▁suddenl",
        -10.37058358656729
      ],
      [
        "▁laid",
        -10.371185563163476
      ],
      [
        "atter",
        -10.371755416201184
      ],
      [
        "▁sake",
        -10.372184688827929
      ],
      [
        "▁justice",
        -10.37427400064536
      ],
      [
        "▁signal",
        -10.3752681571009
      ],
      [
        "▁reform",
        -10.375443714727435
      ],
      [
        "bot",
        -10.375459796746751
      ],
      [
        "form",
        -10.376150197888476
      ],
      [
        "▁older",
        -10.376547294755396
      ],
      [
        "roc",
        -10.377372887392523
      ],
      [
        "izing",
        -10.37750751804553
      ],
      [
        "▁oppos",
        -10.377793157793516
      ],
      [
        "▁killing",
        -10.37819391435034
      ],
      [
        "▁root",
        -10.378481796427488
      ],
      [
        "▁tar",
        -10.378957538299169
      ],
      [
        "▁jackson",
        -10.378990156033128
      ],
      [
        "sleep",
        -10.380453834629431
      ],
      [
        "grunt",
        -10.380755336075191
      ],
      [
        "nnie",
        -10.38143445427096
      ],
      [
        "yeh",
        -10.382184734766277
      ],
      [
        "▁affair",
        -10.382523780687956
      ],
      [
        "▁etc",
        -10.38359987981255
      ],
      [
        "phy",
        -10.383846016739405
      ],
      [
        "▁kn",
        -10.384272132433022
      ],
      [
        "muni",
        -10.384380719437605
      ],
      [
        "▁earn",
        -10.3847498915243
      ],
      [
        "▁sword",
        -10.38492946524862
      ],
      [
        "▁joke",
        -10.386388501747229
      ],
      [
        "▁grey",
        -10.38689607713479
      ],
      [
        "rich",
        -10.386992259774791
      ],
      [
        "▁interview",
        -10.388148540130686
      ],
      [
        "▁dare",
        -10.3885179938722
      ],
      [
        "dale",
        -10.388577687217136
      ],
      [
        "▁afterward",
        -10.388752204242518
      ],
      [
        "loc",
        -10.389212836992806
      ],
      [
        "▁powerful",
        -10.389267504185558
      ],
      [
        "▁hid",
        -10.389408826320658
      ],
      [
        "walked",
        -10.390399438130164
      ],
      [
        "▁plane",
        -10.391645058337753
      ],
      [
        "▁kitchen",
        -10.391842864909888
      ],
      [
        "▁african",
        -10.392134539881384
      ],
      [
        "▁trick",
        -10.392239271134018
      ],
      [
        "▁republican",
        -10.39331059716744
      ],
      [
        "▁tournament",
        -10.393718430463846
      ],
      [
        "▁drunk",
        -10.394459704797011
      ],
      [
        "▁clearly",
        -10.395272239105722
      ],
      [
        "▁avoid",
        -10.395598092713694
      ],
      [
        "▁maintain",
        -10.395601028186285
      ],
      [
        "▁librar",
        -10.395632331449384
      ],
      [
        "▁evil",
        -10.396250034805686
      ],
      [
        "▁bush",
        -10.396668387838217
      ],
      [
        "▁qualit",
        -10.396949292429507
      ],
      [
        "▁surprise",
        -10.3973584800523
      ],
      [
        "▁relation",
        -10.397427935771349
      ],
      [
        "▁empty",
        -10.397481607324677
      ],
      [
        "ugg",
        -10.397692825626052
      ],
      [
        "▁rev",
        -10.397918059339638
      ],
      [
        "▁emb",
        -10.397961477324014
      ],
      [
        "phone",
        -10.397963183165228
      ],
      [
        "lica",
        -10.39821681644371
      ],
      [
        "del",
        -10.398639792422856
      ],
      [
        "tting",
        -10.399018819731651
      ],
      [
        "▁reveal",
        -10.399406863437424
      ],
      [
        "▁weird",
        -10.39945961787478
      ],
      [
        "▁easie",
        -10.401722314226433
      ],
      [
        "org",
        -10.401907690418074
      ],
      [
        "▁shout",
        -10.401918143772091
      ],
      [
        "▁solve",
        -10.401921902445462
      ],
      [
        "▁bother",
        -10.401956053886588
      ],
      [
        "totally",
        -10.402650413270514
      ],
      [
        "▁lieutenant",
        -10.403152388029405
      ],
      [
        "▁faith",
        -10.404923555943617
      ],
      [
        "▁southwestern",
        -10.40504992217494
      ],
      [
        "▁impossibl",
        -10.405050032600515
      ],
      [
        "▁devil",
        -10.405136311199763
      ],
      [
        "▁addition",
        -10.406258437203135
      ],
      [
        "▁chicken",
        -10.406969336588633
      ],
      [
        "▁actress",
        -10.406978238246424
      ],
      [
        "▁split",
        -10.406986472243643
      ],
      [
        "▁replie",
        -10.407160123375046
      ],
      [
        "pool",
        -10.40840320980294
      ],
      [
        "▁trial",
        -10.41022519198057
      ],
      [
        "▁worried",
        -10.410366482326692
      ],
      [
        "▁scale",
        -10.411073715114448
      ],
      [
        "mont",
        -10.411426686021864
      ],
      [
        "▁chat",
        -10.412025092976137
      ],
      [
        "▁audience",
        -10.412676894037157
      ],
      [
        "▁nat",
        -10.413103517777149
      ],
      [
        "gel",
        -10.41335583338376
      ],
      [
        "▁tight",
        -10.414455682831385
      ],
      [
        "▁temperature",
        -10.414591981190815
      ],
      [
        "▁request",
        -10.414592939890696
      ],
      [
        "▁citizen",
        -10.414598402102913
      ],
      [
        "position",
        -10.415407838627836
      ],
      [
        "▁danger",
        -10.416629839166616
      ],
      [
        "uz",
        -10.417311274428382
      ],
      [
        "nate",
        -10.41776199951138
      ],
      [
        "aged",
        -10.419699259201415
      ],
      [
        "▁prior",
        -10.419915310722608
      ],
      [
        "▁beaut",
        -10.42040860257502
      ],
      [
        "aving",
        -10.420494788784158
      ],
      [
        "▁spain",
        -10.42063356199655
      ],
      [
        "lav",
        -10.421621256448848
      ],
      [
        "▁airport",
        -10.422619754590896
      ],
      [
        "▁stu",
        -10.42332981437245
      ],
      [
        "▁chicago",
        -10.42422608638788
      ],
      [
        "▁labor",
        -10.424318675387967
      ],
      [
        "▁significant",
        -10.426163942861075
      ],
      [
        "▁micro",
        -10.427035458087175
      ],
      [
        "▁refuse",
        -10.428110713693137
      ],
      [
        "▁pun",
        -10.429598319496026
      ],
      [
        "▁cub",
        -10.429799467110662
      ],
      [
        "▁flying",
        -10.430781764405832
      ],
      [
        "▁commander",
        -10.431901158313956
      ],
      [
        "▁territor",
        -10.432008113184525
      ],
      [
        "▁chain",
        -10.432354933371377
      ],
      [
        "▁priest",
        -10.432435384677204
      ],
      [
        "produc",
        -10.4329430098445
      ],
      [
        "▁manner",
        -10.433815392217026
      ],
      [
        "▁remind",
        -10.433956893509617
      ],
      [
        "wearing",
        -10.434338254580409
      ],
      [
        "▁rome",
        -10.434934127066192
      ],
      [
        "▁lunch",
        -10.435964554357028
      ],
      [
        "▁collection",
        -10.436635948243149
      ],
      [
        "▁aware",
        -10.436688381636408
      ],
      [
        "▁coat",
        -10.43757940214157
      ],
      [
        "▁scientist",
        -10.437871391601202
      ],
      [
        "▁complex",
        -10.437873601374552
      ],
      [
        "▁eva",
        -10.43809892705665
      ],
      [
        "▁brave",
        -10.43853215284361
      ],
      [
        "star",
        -10.438704899746508
      ],
      [
        "mol",
        -10.43899553864069
      ],
      [
        "▁soldier",
        -10.440583178949913
      ],
      [
        "▁journey",
        -10.441804698295584
      ],
      [
        "▁target",
        -10.441845977614284
      ],
      [
        "▁roof",
        -10.44199600539044
      ],
      [
        "▁twin",
        -10.442150003213577
      ],
      [
        "▁leading",
        -10.442350315350092
      ],
      [
        "raj",
        -10.442579346016164
      ],
      [
        "▁stole",
        -10.442607638048678
      ],
      [
        "lton",
        -10.443036936184193
      ],
      [
        "yep",
        -10.44366139841376
      ],
      [
        "▁climb",
        -10.443779887465736
      ],
      [
        "▁drew",
        -10.443890451545728
      ],
      [
        "▁thick",
        -10.44413857433542
      ],
      [
        "rol",
        -10.444655599676242
      ],
      [
        "▁initial",
        -10.44598757301318
      ],
      [
        "▁shock",
        -10.446081151629953
      ],
      [
        "▁steal",
        -10.446711058453298
      ],
      [
        "è",
        -10.447733399586577
      ],
      [
        "▁alcohol",
        -10.449717694633552
      ],
      [
        "▁teeth",
        -10.449720535628408
      ],
      [
        "▁construction",
        -10.44980262776219
      ],
      [
        "▁mix",
        -10.44987420181726
      ],
      [
        "▁device",
        -10.44988492328643
      ],
      [
        "▁sunday",
        -10.450065317109615
      ],
      [
        "▁jane",
        -10.450875250609457
      ],
      [
        "▁crash",
        -10.45176520376796
      ],
      [
        "▁reduce",
        -10.451991248314258
      ],
      [
        "▁fox",
        -10.453158831704108
      ],
      [
        "▁conversation",
        -10.453697683854022
      ],
      [
        "▁domin",
        -10.45387783423022
      ],
      [
        "▁management",
        -10.45397872578637
      ],
      [
        "▁recover",
        -10.454012174103823
      ],
      [
        "mond",
        -10.45472455132198
      ],
      [
        "crying",
        -10.45582540522118
      ],
      [
        "▁drama",
        -10.457067310798667
      ],
      [
        "▁pie",
        -10.457738715852262
      ],
      [
        "▁replaced",
        -10.458583645379193
      ],
      [
        "▁otherwise",
        -10.458781850125526
      ],
      [
        "▁opera",
        -10.45932668245164
      ],
      [
        "▁environment",
        -10.459570000823858
      ],
      [
        "▁financial",
        -10.45969764724685
      ],
      [
        "▁amazing",
        -10.459703416525944
      ],
      [
        "▁owe",
        -10.45973457967067
      ],
      [
        "▁flash",
        -10.459956362877222
      ],
      [
        "ency",
        -10.461390082159204
      ],
      [
        "▁orange",
        -10.46184242991334
      ],
      [
        "▁photograph",
        -10.463717922282518
      ],
      [
        "▁instrument",
        -10.46371806255456
      ],
      [
        "▁silence",
        -10.463936877723684
      ],
      [
        "▁bowl",
        -10.464695538202962
      ],
      [
        "▁pure",
        -10.46492376000286
      ],
      [
        "▁shri",
        -10.4650490797709
      ],
      [
        "▁scott",
        -10.465310728880322
      ],
      [
        "▁ghost",
        -10.465733911194311
      ],
      [
        "▁breakfast",
        -10.465733933050233
      ],
      [
        "▁transfer",
        -10.465742192416425
      ],
      [
        "▁honour",
        -10.466795778864252
      ],
      [
        "▁prefer",
        -10.467787436953024
      ],
      [
        "▁cancer",
        -10.468344492253053
      ],
      [
        "▁reported",
        -10.469550914389943
      ],
      [
        "▁temple",
        -10.46971858405874
      ],
      [
        "▁active",
        -10.469957210529548
      ],
      [
        "▁madam",
        -10.470718016873496
      ],
      [
        "▁medal",
        -10.47076187571604
      ],
      [
        "▁rare",
        -10.470862416341673
      ],
      [
        "▁moral",
        -10.471821411713764
      ],
      [
        "▁meat",
        -10.472592567561936
      ],
      [
        "sky",
        -10.475797959212276
      ],
      [
        "▁physic",
        -10.476656614997085
      ],
      [
        "▁strike",
        -10.47793987212515
      ],
      [
        "▁multiple",
        -10.478000480675211
      ],
      [
        "▁motor",
        -10.478007040665249
      ],
      [
        "▁alex",
        -10.479075414022915
      ],
      [
        "▁blind",
        -10.48003839058472
      ],
      [
        "▁mama",
        -10.480076723684784
      ],
      [
        "▁speaker",
        -10.480985370563571
      ],
      [
        "chin",
        -10.481085790831528
      ],
      [
        "▁excit",
        -10.481330517234303
      ],
      [
        "viv",
        -10.481967233351552
      ],
      [
        "▁learning",
        -10.483482102140258
      ],
      [
        "▁throat",
        -10.484064336617262
      ],
      [
        "▁worst",
        -10.484069404904012
      ],
      [
        "▁vice",
        -10.48477075943702
      ],
      [
        "▁receiv",
        -10.485006971022
      ],
      [
        "▁becoming",
        -10.48619718947054
      ],
      [
        "▁bullet",
        -10.486294038957332
      ],
      [
        "▁treatment",
        -10.486917612441392
      ],
      [
        "▁gal",
        -10.487740499673366
      ],
      [
        "▁knee",
        -10.48829344125377
      ],
      [
        "▁pope",
        -10.489049012934426
      ],
      [
        "▁button",
        -10.490620106285002
      ],
      [
        "‘",
        -10.492320303332182
      ],
      [
        "▁painting",
        -10.492784289657488
      ],
      [
        "pot",
        -10.493728497511398
      ],
      [
        "recently",
        -10.494127091144886
      ],
      [
        "▁sleeping",
        -10.494338448199962
      ],
      [
        "▁favor",
        -10.494547333960616
      ],
      [
        "▁skill",
        -10.494726931642008
      ],
      [
        "▁desert",
        -10.494769988292283
      ],
      [
        "▁directly",
        -10.495481698599551
      ],
      [
        "département",
        -10.496473994214584
      ],
      [
        "▁complain",
        -10.496549600147018
      ],
      [
        "xico",
        -10.497225626401704
      ],
      [
        "▁dude",
        -10.49802688781255
      ],
      [
        "mission",
        -10.499513343357323
      ],
      [
        "▁teaching",
        -10.499772386977458
      ],
      [
        "▁concerned",
        -10.501577162131586
      ],
      [
        "▁minor",
        -10.501794063240949
      ],
      [
        "▁econom",
        -10.502619543332475
      ],
      [
        "▁holiday",
        -10.502737515459144
      ],
      [
        "▁display",
        -10.502915401671418
      ],
      [
        "ava",
        -10.503449744092531
      ],
      [
        "▁daniel",
        -10.505044745938736
      ],
      [
        "▁mayor",
        -10.505073711849548
      ],
      [
        "▁observe",
        -10.505495272786575
      ],
      [
        "boy",
        -10.50625383041637
      ],
      [
        "▁div",
        -10.506686479195595
      ],
      [
        "▁awful",
        -10.506947639602934
      ],
      [
        "zer",
        -10.508479134251612
      ],
      [
        "▁possibl",
        -10.508737048668088
      ],
      [
        "▁scholar",
        -10.509040766580243
      ],
      [
        "▁reaction",
        -10.509429186501473
      ],
      [
        "▁tool",
        -10.509554595585094
      ],
      [
        "▁crown",
        -10.51097672721269
      ],
      [
        "▁loose",
        -10.511444908212145
      ],
      [
        "stead",
        -10.51213997896304
      ],
      [
        "▁surprised",
        -10.513401394299628
      ],
      [
        "▁bastard",
        -10.515384395683654
      ],
      [
        "▁historical",
        -10.5156321617742
      ],
      [
        "▁rapid",
        -10.51755225102091
      ],
      [
        "▁propose",
        -10.517907034325631
      ],
      [
        "▁favorite",
        -10.51964974548628
      ],
      [
        "ambi",
        -10.519900559326237
      ],
      [
        "▁soviet",
        -10.521765550380533
      ],
      [
        "▁ticket",
        -10.521838548665857
      ],
      [
        "yeah",
        -10.521867211049177
      ],
      [
        "▁attract",
        -10.522262450921664
      ],
      [
        "▁forever",
        -10.523140352598109
      ],
      [
        "boo",
        -10.52535372594878
      ],
      [
        "▁sentence",
        -10.526620715791395
      ],
      [
        "▁crack",
        -10.526667429088276
      ],
      [
        "water",
        -10.526802418945952
      ],
      [
        "▁screw",
        -10.52818999285811
      ],
      [
        "▁belief",
        -10.528201552342054
      ],
      [
        "▁operate",
        -10.529474198284332
      ],
      [
        "▁ren",
        -10.529567086725471
      ],
      [
        "▁strateg",
        -10.530339914142452
      ],
      [
        "▁appeal",
        -10.530363606158517
      ],
      [
        "▁hungr",
        -10.530473923701312
      ],
      [
        "▁iowa",
        -10.530621801520809
      ],
      [
        "▁institute",
        -10.53249482430254
      ],
      [
        "▁creature",
        -10.532586664846292
      ],
      [
        "▁pirate",
        -10.532809693258883
      ],
      [
        "▁prepared",
        -10.53309019388455
      ],
      [
        "bury",
        -10.533333142696106
      ],
      [
        "▁planning",
        -10.534752324798289
      ],
      [
        "▁declare",
        -10.53477110185984
      ],
      [
        "▁string",
        -10.534858512630285
      ],
      [
        "▁noise",
        -10.535372465668958
      ],
      [
        "▁surviv",
        -10.53678489146043
      ],
      [
        "▁typical",
        -10.53682216272437
      ],
      [
        "▁epi",
        -10.53730095783947
      ],
      [
        "ensi",
        -10.539339151204029
      ],
      [
        "▁delight",
        -10.54016316459824
      ],
      [
        "▁inform",
        -10.540213900772686
      ],
      [
        "▁actual",
        -10.540548260717236
      ],
      [
        "▁susan",
        -10.540815566250494
      ],
      [
        "bha",
        -10.5408381478804
      ],
      [
        "▁commercial",
        -10.541162264324864
      ],
      [
        "▁budd",
        -10.541521615334888
      ],
      [
        "▁producer",
        -10.543243070123264
      ],
      [
        "▁compare",
        -10.545037713939289
      ],
      [
        "▁connection",
        -10.546136220546472
      ],
      [
        "appointed",
        -10.546311295575135
      ],
      [
        "▁salt",
        -10.546510122606376
      ],
      [
        "▁musical",
        -10.546704222013098
      ],
      [
        "▁terr",
        -10.546742485370658
      ],
      [
        "▁occurr",
        -10.547090564038236
      ],
      [
        "▁concert",
        -10.5477151938031
      ],
      [
        "▁jenn",
        -10.547960922633663
      ],
      [
        "▁hans",
        -10.548064314706409
      ],
      [
        "▁politic",
        -10.548275129338386
      ],
      [
        "tian",
        -10.549485235121992
      ],
      [
        "▁burie",
        -10.549867420061982
      ],
      [
        "face",
        -10.549976598637675
      ],
      [
        "▁grass",
        -10.55050051474118
      ],
      [
        "▁seriously",
        -10.55158540096185
      ],
      [
        "▁experiment",
        -10.552103295702508
      ],
      [
        "▁import",
        -10.552143755603332
      ],
      [
        "▁sugar",
        -10.552423217210798
      ],
      [
        "▁safety",
        -10.554525949264752
      ],
      [
        "▁hunt",
        -10.555806843294851
      ],
      [
        "▁xi",
        -10.55587203874788
      ],
      [
        "folk",
        -10.555961960305236
      ],
      [
        "itz",
        -10.556051283911057
      ],
      [
        "▁carter",
        -10.556300403455555
      ],
      [
        "▁rabbit",
        -10.556523270276998
      ],
      [
        "while",
        -10.55753716958066
      ],
      [
        "▁cheap",
        -10.558136509522688
      ],
      [
        "▁succeed",
        -10.55872589348832
      ],
      [
        "▁shift",
        -10.558744569989942
      ],
      [
        "threw",
        -10.558847325145642
      ],
      [
        "▁egg",
        -10.559325584939602
      ],
      [
        "▁strip",
        -10.559652314832682
      ],
      [
        "▁spell",
        -10.559947448899244
      ],
      [
        "▁chocolate",
        -10.560943177901612
      ],
      [
        "▁suspect",
        -10.560943272845329
      ],
      [
        "▁northwest",
        -10.560958227786852
      ],
      [
        "▁nineteen",
        -10.563167945498384
      ],
      [
        "▁shirt",
        -10.563272775592583
      ],
      [
        "▁chris",
        -10.56525556978669
      ],
      [
        "▁metro",
        -10.56562435384522
      ],
      [
        "▁instant",
        -10.565906797061276
      ],
      [
        "▁quit",
        -10.566037333082187
      ],
      [
        "▁duke",
        -10.566751681172756
      ],
      [
        "▁tam",
        -10.56686380674833
      ],
      [
        "▁generation",
        -10.567629310440603
      ],
      [
        "▁electron",
        -10.567643909015466
      ],
      [
        "▁steel",
        -10.56804744836478
      ],
      [
        "▁aye",
        -10.568368050375742
      ],
      [
        "▁demo",
        -10.568430498706864
      ],
      [
        "▁shake",
        -10.56900252938464
      ],
      [
        "▁gang",
        -10.56918860458771
      ],
      [
        "▁blame",
        -10.570311411786458
      ],
      [
        "▁rip",
        -10.570453852905109
      ],
      [
        "bodies",
        -10.570481516222015
      ],
      [
        "▁sweetie",
        -10.57086482064825
      ],
      [
        "▁admit",
        -10.572080554466282
      ],
      [
        "ional",
        -10.573574265816934
      ],
      [
        "list",
        -10.5735995131461
      ],
      [
        "verse",
        -10.574079077373131
      ],
      [
        "▁transport",
        -10.574166013036573
      ],
      [
        "▁gay",
        -10.574362418195228
      ],
      [
        "▁nar",
        -10.576579621995762
      ],
      [
        "▁application",
        -10.576603409816848
      ],
      [
        "▁seek",
        -10.576911183958211
      ],
      [
        "cept",
        -10.577379653584863
      ],
      [
        "▁net",
        -10.577700604251584
      ],
      [
        "▁pray",
        -10.578654082588294
      ],
      [
        "▁communication",
        -10.578860726020189
      ],
      [
        "▁friday",
        -10.578869695576548
      ],
      [
        "▁sexual",
        -10.578980878869189
      ],
      [
        "▁assume",
        -10.579385895632385
      ],
      [
        "▁grandma",
        -10.579784191642128
      ],
      [
        "▁nurse",
        -10.579972931155408
      ],
      [
        "▁killer",
        -10.580552284685416
      ],
      [
        "▁losing",
        -10.580815015034606
      ],
      [
        "profit",
        -10.581197144745207
      ],
      [
        "▁occur",
        -10.581767013399714
      ],
      [
        "▁jail",
        -10.582380218552888
      ],
      [
        "▁swear",
        -10.58294760324486
      ],
      [
        "▁argument",
        -10.583391177034116
      ],
      [
        "▁roger",
        -10.58339733501856
      ],
      [
        "▁client",
        -10.58343188616649
      ],
      [
        "▁fifth",
        -10.58358700472191
      ],
      [
        "▁mob",
        -10.583617452840226
      ],
      [
        "▁lou",
        -10.585939179111902
      ],
      [
        "▁prisoner",
        -10.586136538315536
      ],
      [
        "anne",
        -10.586353488544344
      ],
      [
        "▁gentl",
        -10.587429655060706
      ],
      [
        "▁cricket",
        -10.587941594506333
      ],
      [
        "▁recent",
        -10.588128202779384
      ],
      [
        "▁democratic",
        -10.58852677451032
      ],
      [
        "▁lips",
        -10.589766794967822
      ],
      [
        "▁upper",
        -10.589990585822818
      ],
      [
        "▁invent",
        -10.59048262908456
      ],
      [
        "▁odd",
        -10.591135040513556
      ],
      [
        "nik",
        -10.591177235470694
      ],
      [
        "▁laughing",
        -10.594318028201313
      ],
      [
        "▁maria",
        -10.594508815850968
      ],
      [
        "everywhere",
        -10.594694379206214
      ],
      [
        "▁saturday",
        -10.59480650196796
      ],
      [
        "▁climate",
        -10.59481199953447
      ],
      [
        "▁cousin",
        -10.594819887819249
      ],
      [
        "▁goodbye",
        -10.594861806652446
      ],
      [
        "▁trail",
        -10.596283803942711
      ],
      [
        "▁tip",
        -10.596461650973684
      ],
      [
        "▁driver",
        -10.596499878064469
      ],
      [
        "▁stretch",
        -10.597106679186137
      ],
      [
        "▁tongue",
        -10.59711083900217
      ],
      [
        "rim",
        -10.597485418528596
      ],
      [
        "founded",
        -10.598088771421434
      ],
      [
        "▁flag",
        -10.598242038593492
      ],
      [
        "lock",
        -10.598283588598676
      ],
      [
        "▁struck",
        -10.599410561517944
      ],
      [
        "▁lecture",
        -10.599411306507209
      ],
      [
        "▁pattern",
        -10.599414596675809
      ],
      [
        "good",
        -10.600159893764769
      ],
      [
        "anti",
        -10.601007189763315
      ],
      [
        "rilla",
        -10.60133425656434
      ],
      [
        "▁survive",
        -10.601765970178665
      ],
      [
        "▁tale",
        -10.602268672900973
      ],
      [
        "▁shame",
        -10.604246404441444
      ],
      [
        "▁counter",
        -10.604370161549678
      ],
      [
        "▁representative",
        -10.606503917823918
      ],
      [
        "▁matt",
        -10.606847988840707
      ],
      [
        "lop",
        -10.607383714794995
      ],
      [
        "dying",
        -10.608390644276746
      ],
      [
        "▁reflect",
        -10.608422922272768
      ],
      [
        "▁worship",
        -10.608680825602192
      ],
      [
        "▁corn",
        -10.609603260743782
      ],
      [
        "▁kennedy",
        -10.611010518002969
      ],
      [
        "▁rail",
        -10.612365080200274
      ],
      [
        "▁item",
        -10.612727735387876
      ],
      [
        "▁grab",
        -10.613035972178192
      ],
      [
        "▁cake",
        -10.614601234995236
      ],
      [
        "▁debut",
        -10.615169446886169
      ],
      [
        "▁manufactur",
        -10.615688807122028
      ],
      [
        "▁threaten",
        -10.615715437150612
      ],
      [
        "▁bin",
        -10.61606496984844
      ],
      [
        "▁guide",
        -10.616392222348091
      ],
      [
        "angeles",
        -10.616539337352991
      ],
      [
        "onne",
        -10.616766323301947
      ],
      [
        "rising",
        -10.61686610906427
      ],
      [
        "craft",
        -10.617415476236063
      ],
      [
        "▁chamber",
        -10.618039408980296
      ],
      [
        "▁senator",
        -10.618040411098391
      ],
      [
        "▁task",
        -10.61808679975115
      ],
      [
        "▁frame",
        -10.61836265326694
      ],
      [
        "long",
        -10.618456989900809
      ],
      [
        "rite",
        -10.619013947955931
      ],
      [
        "▁responsibl",
        -10.620389166567945
      ],
      [
        "▁relax",
        -10.62038954332833
      ],
      [
        "▁cloud",
        -10.620489864496133
      ],
      [
        "▁settlement",
        -10.620989059200143
      ],
      [
        "▁theatre",
        -10.621548908465648
      ],
      [
        "▁statistic",
        -10.622747675861625
      ],
      [
        "shah",
        -10.622985182124166
      ],
      [
        "▁latin",
        -10.623004628691849
      ],
      [
        "▁starr",
        -10.623298262595808
      ],
      [
        "▁bishop",
        -10.625116115360818
      ],
      [
        "▁cul",
        -10.625842397589462
      ],
      [
        "pac",
        -10.626338388424578
      ],
      [
        "▁absolute",
        -10.627528104371304
      ],
      [
        "▁fifteen",
        -10.627571170634909
      ],
      [
        "▁tommy",
        -10.627806752809647
      ],
      [
        "▁habit",
        -10.630342044871089
      ],
      [
        "▁managed",
        -10.630709186652885
      ],
      [
        "hop",
        -10.631356204807302
      ],
      [
        "▁principle",
        -10.632237641437776
      ],
      [
        "▁despite",
        -10.632238046683852
      ],
      [
        "▁practical",
        -10.632238776905936
      ],
      [
        "▁snake",
        -10.63224185221656
      ],
      [
        "▁drawing",
        -10.63236846476886
      ],
      [
        "▁glor",
        -10.632905878992762
      ],
      [
        "▁fixed",
        -10.633825619512525
      ],
      [
        "▁advantage",
        -10.634624275386404
      ],
      [
        "▁proceed",
        -10.634639174199126
      ],
      [
        "▁instance",
        -10.634684782425976
      ],
      [
        "▁knight",
        -10.63492241766652
      ],
      [
        "▁creat",
        -10.636438159271474
      ],
      [
        "▁neu",
        -10.6393954196489
      ],
      [
        "▁background",
        -10.639416104677064
      ],
      [
        "▁poly",
        -10.639463197275596
      ],
      [
        "▁bride",
        -10.639762884853775
      ],
      [
        "▁expression",
        -10.63988408461421
      ],
      [
        "▁winner",
        -10.640164379136618
      ],
      [
        "▁chase",
        -10.641044835603868
      ],
      [
        "▁orchestra",
        -10.641819565682807
      ],
      [
        "▁opposite",
        -10.641828488616632
      ],
      [
        "▁canadian",
        -10.641944930592226
      ],
      [
        "▁musician",
        -10.642141872869626
      ],
      [
        "▁emi",
        -10.642250928850146
      ],
      [
        "rank",
        -10.642878245960176
      ],
      [
        "▁option",
        -10.644235631815368
      ],
      [
        "▁mir",
        -10.64446667347996
      ],
      [
        "chuckles",
        -10.644679582912811
      ],
      [
        "▁sport",
        -10.64489690624492
      ],
      [
        "ador",
        -10.64507753120301
      ],
      [
        "▁additional",
        -10.645124449822331
      ],
      [
        "lash",
        -10.645218838544675
      ],
      [
        "▁nap",
        -10.646265943129595
      ],
      [
        "▁unfortunate",
        -10.646643644935931
      ],
      [
        "▁exchange",
        -10.646644054769723
      ],
      [
        "▁variet",
        -10.64664795537102
      ],
      [
        "▁freedom",
        -10.64665300658592
      ],
      [
        "scottish",
        -10.646671912596554
      ],
      [
        "▁nest",
        -10.64668283246312
      ],
      [
        "▁carbon",
        -10.646693431933958
      ],
      [
        "▁cock",
        -10.646786918950731
      ],
      [
        "▁brita",
        -10.647672543465353
      ],
      [
        "▁steam",
        -10.647943558584316
      ],
      [
        "▁protest",
        -10.648756847288286
      ],
      [
        "▁thin",
        -10.648827243630445
      ],
      [
        "▁servant",
        -10.651492826754708
      ],
      [
        "▁programme",
        -10.65199983589152
      ],
      [
        "▁plot",
        -10.652174122509456
      ],
      [
        "▁responsibilit",
        -10.65392522692972
      ],
      [
        "▁chemical",
        -10.653932777878545
      ],
      [
        "▁silent",
        -10.654450478280046
      ],
      [
        "▁arrange",
        -10.656178812141144
      ],
      [
        "mov",
        -10.656758318286553
      ],
      [
        "▁height",
        -10.657051591430552
      ],
      [
        "american",
        -10.657133176757489
      ],
      [
        "▁oursel",
        -10.657895989450576
      ],
      [
        "▁senior",
        -10.658809813545506
      ],
      [
        "▁palm",
        -10.659257956278664
      ],
      [
        "▁understood",
        -10.65970055571394
      ],
      [
        "rak",
        -10.66011197581763
      ],
      [
        "▁sergeant",
        -10.661260226160714
      ],
      [
        "▁facilit",
        -10.661260617235651
      ],
      [
        "lot",
        -10.66165441056192
      ],
      [
        "▁billion",
        -10.662628344166812
      ],
      [
        "▁improve",
        -10.6633910932793
      ],
      [
        "▁vehicle",
        -10.663717266737104
      ],
      [
        "▁deserve",
        -10.663723119050577
      ],
      [
        "▁colonel",
        -10.663781760853576
      ],
      [
        "poo",
        -10.665266693860628
      ],
      [
        "spoken",
        -10.665351144782855
      ],
      [
        "▁controll",
        -10.665359242205128
      ],
      [
        "▁response",
        -10.666180276776023
      ],
      [
        "▁adventure",
        -10.666180283968435
      ],
      [
        "▁austria",
        -10.66618370385403
      ],
      [
        "▁winning",
        -10.666403297818476
      ],
      [
        "▁highway",
        -10.667898868021268
      ],
      [
        "▁gentleman",
        -10.668653433932324
      ],
      [
        "▁confirm",
        -10.671124666951092
      ],
      [
        "▁shadow",
        -10.671132144422389
      ],
      [
        "▁laura",
        -10.67120842293362
      ],
      [
        "▁label",
        -10.672041703956069
      ],
      [
        "▁jean",
        -10.672294252728625
      ],
      [
        "▁criminal",
        -10.673606059156151
      ],
      [
        "▁shooting",
        -10.673919596657433
      ],
      [
        "rise",
        -10.675017765441332
      ],
      [
        "▁suck",
        -10.67578101901044
      ],
      [
        "▁advice",
        -10.678587716882149
      ],
      [
        "fall",
        -10.678621718720652
      ],
      [
        "▁legend",
        -10.678998280411342
      ],
      [
        "▁grace",
        -10.67900811386648
      ],
      [
        "▁edward",
        -10.679335263067426
      ],
      [
        "mine",
        -10.679749697333673
      ],
      [
        "▁passion",
        -10.680034319811504
      ],
      [
        "▁occasion",
        -10.680913585264864
      ],
      [
        "▁promote",
        -10.68108904617552
      ],
      [
        "▁slipp",
        -10.681256285513255
      ],
      [
        "▁plent",
        -10.681865044916066
      ],
      [
        "mother",
        -10.68236290768656
      ],
      [
        "comb",
        -10.682499375804491
      ],
      [
        "▁km",
        -10.683663694285492
      ],
      [
        "▁russia",
        -10.68433756826525
      ],
      [
        "▁tradition",
        -10.685834495619446
      ],
      [
        "▁passenger",
        -10.686106240371483
      ],
      [
        "▁geograph",
        -10.686223376619385
      ],
      [
        "vat",
        -10.686333673287386
      ],
      [
        "▁failure",
        -10.686338761007647
      ],
      [
        "▁dutch",
        -10.68638499322952
      ],
      [
        "▁witness",
        -10.687570394099923
      ],
      [
        "▁bubble",
        -10.688626968042918
      ],
      [
        "▁protection",
        -10.68885571113118
      ],
      [
        "kha",
        -10.691089062055152
      ],
      [
        "▁traffic",
        -10.691150366121873
      ],
      [
        "▁uniform",
        -10.691161696377662
      ],
      [
        "rov",
        -10.693399495999309
      ],
      [
        "▁appreciate",
        -10.69368199712963
      ],
      [
        "▁imagin",
        -10.694672226251736
      ],
      [
        "▁eleven",
        -10.69622415104386
      ],
      [
        "▁graduate",
        -10.696532881528668
      ],
      [
        "▁dail",
        -10.697234036232276
      ],
      [
        "▁cris",
        -10.697435066832645
      ],
      [
        "▁wire",
        -10.698677662266714
      ],
      [
        "aging",
        -10.698768594298976
      ],
      [
        "▁cheese",
        -10.698791050773629
      ],
      [
        "▁pardon",
        -10.6990315504252
      ],
      [
        "▁koh",
        -10.700470465440969
      ],
      [
        "▁lesson",
        -10.701152112203616
      ],
      [
        "when",
        -10.70155965121537
      ],
      [
        "▁grade",
        -10.7038751136228
      ],
      [
        "▁weekend",
        -10.704732703701325
      ],
      [
        "therine",
        -10.705151781038332
      ],
      [
        "lain",
        -10.705286265593578
      ],
      [
        "▁ceremon",
        -10.706437309610097
      ],
      [
        "▁stranger",
        -10.70751102724426
      ],
      [
        "will",
        -10.707996642410464
      ],
      [
        "▁mental",
        -10.708062653981589
      ],
      [
        "▁concept",
        -10.70811983214594
      ],
      [
        "▁flu",
        -10.70890661122892
      ],
      [
        "▁referr",
        -10.709778436931217
      ],
      [
        "▁unlike",
        -10.709957371670086
      ],
      [
        "▁agreement",
        -10.71022773676555
      ],
      [
        "▁pink",
        -10.710520615051523
      ],
      [
        "▁witch",
        -10.710900672767616
      ],
      [
        "most",
        -10.711481946392482
      ],
      [
        "▁instruction",
        -10.712361374043237
      ],
      [
        "point",
        -10.713695908784556
      ],
      [
        "▁gla",
        -10.713832972527385
      ],
      [
        "wolf",
        -10.714212079563264
      ],
      [
        "asses",
        -10.714898590897707
      ],
      [
        "▁admir",
        -10.71821861826056
      ],
      [
        "▁restaurant",
        -10.71935735314434
      ],
      [
        "▁budget",
        -10.719358419263209
      ],
      [
        "▁idiot",
        -10.719358703269585
      ],
      [
        "▁arrest",
        -10.720305926626484
      ],
      [
        "▁chairman",
        -10.720377403607802
      ],
      [
        "▁kim",
        -10.720398254018964
      ],
      [
        "▁severe",
        -10.720415191798192
      ],
      [
        "▁afford",
        -10.7219702511922
      ],
      [
        "dancing",
        -10.72227045155131
      ],
      [
        "▁useful",
        -10.722520944513864
      ],
      [
        "▁manage",
        -10.723646951719957
      ],
      [
        "hawk",
        -10.72396945686686
      ],
      [
        "▁tang",
        -10.724245689895804
      ],
      [
        "guilty",
        -10.724572814196364
      ],
      [
        "▁knife",
        -10.724576947977203
      ],
      [
        "▁register",
        -10.724578466436196
      ],
      [
        "▁muslim",
        -10.724589333022193
      ],
      [
        "▁noble",
        -10.725399951313197
      ],
      [
        "▁categor",
        -10.727191412485114
      ],
      [
        "▁australian",
        -10.727224542289402
      ],
      [
        "▁aim",
        -10.729270768432146
      ],
      [
        "▁define",
        -10.729425171799674
      ],
      [
        "▁semi",
        -10.729626752028558
      ],
      [
        "+",
        -10.729814937992945
      ],
      [
        "▁secure",
        -10.72982359142616
      ],
      [
        "▁cooper",
        -10.72999185665716
      ],
      [
        "▁expensive",
        -10.732446518007432
      ],
      [
        "▁excellent",
        -10.73244651825489
      ],
      [
        "▁frequent",
        -10.732446518635747
      ],
      [
        "▁argue",
        -10.735524100033189
      ],
      [
        "▁proof",
        -10.735784182881057
      ],
      [
        "▁pipe",
        -10.73705070963322
      ],
      [
        "▁status",
        -10.73773083939528
      ],
      [
        "▁convention",
        -10.737731292587611
      ],
      [
        "▁diamond",
        -10.737738604335084
      ],
      [
        "▁presence",
        -10.737778138073608
      ],
      [
        "▁planne",
        -10.73794819846027
      ],
      [
        "lau",
        -10.738299902796363
      ],
      [
        "▁chip",
        -10.7384002936395
      ],
      [
        "chester",
        -10.740002348754611
      ],
      [
        "▁motion",
        -10.740143449764878
      ],
      [
        "▁monster",
        -10.740907329395572
      ],
      [
        "▁pour",
        -10.741180682335226
      ],
      [
        "▁setting",
        -10.741286894504649
      ],
      [
        "▁auto",
        -10.74139728146512
      ],
      [
        "idney",
        -10.741750346569187
      ],
      [
        "▁recommend",
        -10.743042652836706
      ],
      [
        "▁internet",
        -10.74304720862514
      ],
      [
        "▁rescue",
        -10.743064173470964
      ],
      [
        "▁nathan",
        -10.743216142359271
      ],
      [
        "▁senate",
        -10.743347472808429
      ],
      [
        "▁activit",
        -10.744986156756188
      ],
      [
        "gasp",
        -10.745345696063538
      ],
      [
        "▁dust",
        -10.745425055860476
      ],
      [
        "▁mile",
        -10.745478906107993
      ],
      [
        "▁frighten",
        -10.7457093258593
      ],
      [
        "▁destin",
        -10.74575776379662
      ],
      [
        "▁chest",
        -10.745780653975272
      ],
      [
        "▁gran",
        -10.747296220749565
      ],
      [
        "▁regional",
        -10.748090085564993
      ],
      [
        "▁mathematic",
        -10.74838337397642
      ],
      [
        "enne",
        -10.750939947274311
      ],
      [
        "▁supreme",
        -10.756447710859934
      ],
      [
        "ashi",
        -10.757174047032589
      ],
      [
        "▁batter",
        -10.757904896767908
      ],
      [
        "▁dave",
        -10.758480695010547
      ],
      [
        "▁volume",
        -10.759161758525044
      ],
      [
        "▁vessel",
        -10.759167086793983
      ],
      [
        "▁piano",
        -10.759213693053749
      ],
      [
        "▁edition",
        -10.75931376400214
      ],
      [
        "▁neighbour",
        -10.761860384616549
      ],
      [
        "▁hurricane",
        -10.761860384646894
      ],
      [
        "▁candidate",
        -10.761860411672371
      ],
      [
        "▁reserve",
        -10.761865200156468
      ],
      [
        "extremely",
        -10.763222703150976
      ],
      [
        "▁soil",
        -10.763648685060971
      ],
      [
        "▁administration",
        -10.764577775920896
      ],
      [
        "▁massachusett",
        -10.7645777759232
      ],
      [
        "▁institution",
        -10.76457777602594
      ],
      [
        "▁amendment",
        -10.764578685344173
      ],
      [
        "▁treasure",
        -10.764578913319228
      ],
      [
        "▁upset",
        -10.76536039299032
      ],
      [
        "▁gray",
        -10.76671969445767
      ],
      [
        "▁carolina",
        -10.767336085845407
      ],
      [
        "entirely",
[...]
