{
  "version": "1.0",
  "truncation": null,
  "padding": null,
  "added_tokens": [
    {
      "id": 0,
      "content": "<pad>",
      "single_word": false,
      "lstrip": false,
      "rstrip": false,
      "normalized": false,
      "special": true
    },
    {
      "id": 1,
      "content": "</s>",
      "single_word": false,
      "lstrip": false,
      "rstrip": false,
      "normalized": false,
      "special": true
    },
    {
      "id": 2,
      "content": "<unk>",
      "single_word": false,
      "lstrip": false,
      "rstrip": false,
      "normalized": false,
      "special": true
    }
  ],
  "normalizer": {
    "type": "Sequence",
    "normalizers": [
      {
        "type": "Nmt"
      },
      {
        "type": "NFKC"
      },
      {
        "type": "Replace",
        "pattern": {
          "Regex": " {2,}"
        },
        "content": " "
      },
      {
        "type": "Lowercase"
      }
    ]
  },
  "pre_tokenizer": {
    "type": "Sequence",
    "pretokenizers": [
      {
        "type": "Metaspace",
        "replacement": "▁",
        "add_prefix_space": true
      },
      {
        "type": "Digits",
        "individual_digits": true
      },
      {
        "type": "Punctuation",
        "behavior": "Isolated"
      }
    ]
  },
  "post_processor": {
    "type": "TemplateProcessing",
    "single": [
      {
        "Sequence": {
          "id": "A",
          "type_id": 0
        }
      },
      {
        "SpecialToken": {
          "id": "</s>",
          "type_id": 0
        }
      }
    ],
    "pair": [
      {
        "Sequence": {
          "id": "A",
          "type_id": 0
        }
      },
      {
        "Sequence": {
          "id": "B",
          "type_id": 1
        }
      }
    ],
    "special_tokens": {
      "</s>": {
        "id": "</s>",
        "ids": [
          1
        ],
        "tokens": [
          "</s>"
        ]
      }
    }
  },
  "decoder": {
    "type": "Metaspace",
    "replacement": "▁",
    "add_prefix_space": true
  },
  "model": {
    "type": "Unigram",
    "unk_id": 2,
    "vocab": [
      [
        "<pad>",
        0.0
      ],
      [
        "</s>",
        0.0
      ],
      [
        "<unk>",
        0.0
      ],
      [
        "▁",
        -2.402828567656261
      ],
      [
        ".",
        -2.856326625099035
      ],
      [
        ",",
        -3.2714632165512256
      ],
      [
        "▁the",
        -3.46633296346171
      ],
      [
        "s",
        -3.6372247174299943
      ],
      [
        "'",
        -3.818881928300529
      ],
      [
        "a",
        -3.8536599888818746
      ],
      [
        "i",
        -4.0567116768607026
      ],
      [
        "▁and",
        -4.203063317158332
      ],
      [
        "▁to",
        -4.210718700004515
      ],
      [
        "▁of",
        -4.286056360737835
      ],
      [
        "▁you",
        -4.301434127512998
      ],
      [
        "t",
        -4.4605891623778415
      ],
      [
        "▁in",
        -4.4933037656273385
      ],
      [
        "?",
        -4.579053985721929
      ],
      [
        "-",
        -4.584785614750885
      ],
      [
        "▁it",
        -4.6140911767307795
      ],
      [
        "▁that",
        -4.768612979613549
      ],
      [
        "▁is",
        -4.902446327538778
      ],
      [
        "d",
        -4.912483205926939
      ],
      [
        "\"",
        -5.001815594996025
      ],
      [
        "▁was",
        -5.1100096065655904
      ],
      [
        "1",
        -5.1642683454168665
      ],
      [
        "▁he",
        -5.196419317335954
      ],
      [
        "0",
        -5.295250820073363
      ],
      [
        "e",
        -5.342581530234895
      ],
      [
        "▁for",
        -5.345136009789227
      ],
      [
        "!",
        -5.40475671373682
      ],
      [
        "▁on",
        -5.416818797407975
      ],
      [
        "▁we",
        -5.4788123449334165
      ],
      [
        "o",
        -5.542696642972405
      ],
      [
        "▁this",
        -5.568281385147481
      ],
      [
        "2",
        -5.58675067511091
      ],
      [
        "▁with",
        -5.601495668887386
      ],
      [
        "▁what",
        -5.6040775577971935
      ],
      [
        "m",
        -5.699410346955466
      ],
      [
        "▁be",
        -5.704285092297237
      ],
      [
        "y",
        -5.716251658075656
      ],
      [
        "▁have",
        -5.728976503516316
      ],
      [
        "▁are",
        -5.747087257294259
      ],
      [
        "▁as",
        -5.7486164060203215
      ],
      [
        "h",
        -5.760756690008472
      ],
      [
        "9",
        -5.791359421710736
      ],
      [
        "▁me",
        -5.810585701912652
      ],
      [
        "▁not",
        -5.837301938341055
      ],
      [
        "▁they",
        -5.846731867852377
      ],
      [
        "▁but",
        -5.870923721001768
      ],
      [
        "▁do",
        -5.9140056669991345
      ],
      [
        "▁so",
        -5.9205722327031935
      ],
      [
        "re",
        -5.941706252916292
      ],
      [
        "▁his",
        -5.98025242849566
      ],
      [
        "▁she",
        -6.01406471564227
      ],
      [
        "▁there",
        -6.018477238357304
      ],
      [
        "▁no",
        -6.041862381732939
      ],
      [
        "▁can",
        -6.046859988075742
      ],
      [
        "n",
        -6.047568485103719
      ],
      [
        "▁all",
        -6.053596255081187
      ],
      [
        "▁my",
        -6.079338941766192
      ],
      [
        "▁one",
        -6.1015972596037855
      ],
      [
        "▁your",
        -6.118750682329347
      ],
      [
        "▁from",
        -6.1401256643272095
      ],
      [
        ")",
        -6.143705220029966
      ],
      [
        "(",
        -6.150723983819862
      ],
      [
        "▁by",
        -6.151665699450396
      ],
      [
        "▁know",
        -6.156756862852076
      ],
      [
        "ing",
        -6.187559254309662
      ],
      [
        "▁her",
        -6.209069280077877
      ],
      [
        "▁don",
        -6.26556412032609
      ],
      [
        "▁had",
        -6.268212572403664
      ],
      [
        "▁like",
        -6.28867272006433
      ],
      [
        "▁an",
        -6.3188548674679375
      ],
      [
        "▁if",
        -6.319534157534221
      ],
      [
        "▁just",
        -6.366696237606183
      ],
      [
        "▁up",
        -6.396381202216755
      ],
      [
        "8",
        -6.40213838020288
      ],
      [
        "▁about",
        -6.406540480438245
      ],
      [
        "▁or",
        -6.415656015110464
      ],
      [
        "ly",
        -6.422279103815217
      ],
      [
        "▁out",
        -6.4258677343556485
      ],
      [
        "3",
        -6.429372335659641
      ],
      [
        "▁him",
        -6.42950212613653
      ],
      [
        "ll",
        -6.432892551398828
      ],
      [
        "5",
        -6.4403081129853845
      ],
      [
        "▁go",
        -6.453412765523533
      ],
      [
        "▁here",
        -6.462389996126296
      ],
      [
        "▁were",
        -6.465121187861206
      ],
      [
        "▁get",
        -6.482081802703361
      ],
      [
        "4",
        -6.531155536876673
      ],
      [
        "▁when",
        -6.54485870374706
      ],
      [
        "▁right",
        -6.548175468938439
      ],
      [
        "▁who",
        -6.556131223926766
      ],
      [
        ":",
        -6.560666861128219
      ],
      [
        "▁now",
        -6.567356800264674
      ],
      [
        "▁well",
        -6.571110209043633
      ],
      [
        ";",
        -6.571298780494953
      ],
      [
        "7",
        -6.573488444568753
      ],
      [
        "6",
        -6.583278716100088
      ],
      [
        "er",
        -6.630184510926691
      ],
      [
        "▁will",
        -6.642147987001604
      ],
      [
        "▁yeah",
        -6.645257994907691
      ],
      [
        "r",
        -6.661846174773226
      ],
      [
        "ve",
        -6.68872001105087
      ],
      [
        "l",
        -6.689941798386865
      ],
      [
        "▁see",
        -6.705502090033409
      ],
      [
        "▁would",
        -6.7116350781738525
      ],
      [
        "▁think",
        -6.733736803258354
      ],
      [
        "▁which",
        -6.73871191535026
      ],
      [
        "▁has",
        -6.751328210356453
      ],
      [
        "▁how",
        -6.755539624399196
      ],
      [
        "▁then",
        -6.788044413856468
      ],
      [
        "▁them",
        -6.793463861369975
      ],
      [
        "▁time",
        -6.802350466618579
      ],
      [
        "=",
        -6.803219884585488
      ],
      [
        "▁come",
        -6.803953302413982
      ],
      [
        "▁did",
        -6.805939387153263
      ],
      [
        "▁some",
        -6.830556340900326
      ],
      [
        "▁got",
        -6.830638357327144
      ],
      [
        "▁been",
        -6.846502716887533
      ],
      [
        "▁said",
        -6.8509274465431815
      ],
      [
        "▁want",
        -6.8678151479873275
      ],
      [
        "▁good",
        -6.907075778111009
      ],
      [
        "▁more",
        -6.922967709489319
      ],
      [
        "▁where",
        -6.924796724708205
      ],
      [
        "▁their",
        -6.925311753599406
      ],
      [
        "`",
        -6.943939843180862
      ],
      [
        "▁people",
        -6.963765411875684
      ],
      [
        "▁going",
        -6.971863368583133
      ],
      [
        "▁two",
        -6.991188932110429
      ],
      [
        "▁very",
        -7.004562752246136
      ],
      [
        "▁let",
        -7.038219153255355
      ],
      [
        "▁back",
        -7.053110502578059
      ],
      [
        "▁first",
        -7.062352168234428
      ],
      [
        "▁could",
        -7.068218236612484
      ],
      [
        "c",
        -7.0748668110941395
      ],
      [
        "▁over",
        -7.086698995644266
      ],
      [
        "▁other",
        -7.09772261468736
      ],
      [
        "g",
        -7.136050830433884
      ],
      [
        "u",
        -7.140214165440808
      ],
      [
        "▁yes",
        -7.142293625668534
      ],
      [
        "▁because",
        -7.148276264497881
      ],
      [
        "▁into",
        -7.160181732540517
      ],
      [
        "▁say",
        -7.164730384150394
      ],
      [
        "▁look",
        -7.1654602667309035
      ],
      [
        "▁little",
        -7.173992348768964
      ],
      [
        "▁us",
        -7.175156927641472
      ],
      [
        "▁down",
        -7.18633925624758
      ],
      [
        "▁okay",
        -7.1873152716589
      ],
      [
        "▁our",
        -7.190802117907445
      ],
      [
        "▁why",
        -7.196035904930465
      ],
      [
        "▁only",
        -7.204351960470158
      ],
      [
        "▁take",
        -7.209674143012132
      ],
      [
        "▁after",
        -7.235257091166671
      ],
      [
        "▁also",
        -7.23996680915613
      ],
      [
        "in",
        -7.247970152677771
      ],
      [
        "▁way",
        -7.250865139452275
      ],
      [
        "]",
        -7.258586048224187
      ],
      [
        "[",
        -7.259329739663709
      ],
      [
        "▁man",
        -7.261701273347898
      ],
      [
        "▁these",
        -7.275266121101444
      ],
      [
        "▁make",
        -7.30083350332526
      ],
      [
        "▁new",
        -7.30582224369455
      ],
      [
        "|",
        -7.311822177579609
      ],
      [
        "f",
        -7.321247595041386
      ],
      [
        "▁really",
        -7.328010219889819
      ],
      [
        "b",
        -7.340693208715264
      ],
      [
        "▁any",
        -7.384979746517072
      ],
      [
        "▁than",
        -7.406230841665366
      ],
      [
        "▁something",
        -7.444501445226649
      ],
      [
        "▁tell",
        -7.46074309628216
      ],
      [
        "p",
        -7.463752311986278
      ],
      [
        "▁much",
        -7.47794071983064
      ],
      [
        "▁put",
        -7.494722318670279
      ],
      [
        "▁before",
        -7.520833280750411
      ],
      [
        "▁gonna",
        -7.520840637426753
      ],
      [
        "▁never",
        -7.525394707973968
      ],
      [
        "▁made",
        -7.532751652981448
      ],
      [
        "▁should",
        -7.537031184048592
      ],
      [
        "▁too",
        -7.542181905189052
      ],
      [
        "▁need",
        -7.555178071148323
      ],
      [
        "k",
        -7.56003099590246
      ],
      [
        "▁off",
        -7.562518767126583
      ],
      [
        "▁may",
        -7.5874425922116835
      ],
      [
        "▁even",
        -7.598964798946208
      ],
      [
        "▁didn",
        -7.599565501388183
      ],
      [
        "▁work",
        -7.600485779063241
      ],
      [
        "▁many",
        -7.600854750134793
      ],
      [
        "▁mean",
        -7.605497610929381
      ],
      [
        "▁day",
        -7.606496528648815
      ],
      [
        "▁three",
        -7.633883796678537
      ],
      [
        "on",
        -7.634205906728582
      ],
      [
        "▁uh",
        -7.638689572294789
      ],
      [
        "▁again",
        -7.647554620598726
      ],
      [
        "▁give",
        -7.659743192490174
      ],
      [
        "▁those",
        -7.674297606528439
      ],
      [
        "▁years",
        -7.680563358133805
      ],
      [
        "“",
        -7.681266842571809
      ],
      [
        "▁life",
        -7.693060467118924
      ],
      [
        "▁world",
        -7.698098994876863
      ],
      [
        "”",
        -7.703942282752315
      ],
      [
        "▁long",
        -7.708058689807649
      ],
      [
        "▁thing",
        -7.711395073450152
      ],
      [
        "▁most",
        -7.71411146230162
      ],
      [
        "▁great",
        -7.719336210956916
      ],
      [
        "▁am",
        -7.719908782057269
      ],
      [
        "▁still",
        -7.727399875348944
      ],
      [
        "the",
        -7.728718689885156
      ],
      [
        "▁old",
        -7.740304085798384
      ],
      [
        "▁through",
        -7.757604171991945
      ],
      [
        "▁home",
        -7.769792483037243
      ],
      [
        "v",
        -7.770875041077121
      ],
      [
        "▁things",
        -7.771620010213141
      ],
      [
        "▁away",
        -7.789955890827933
      ],
      [
        "▁must",
        -7.801317388042891
      ],
      [
        "▁last",
        -7.801670094075156
      ],
      [
        "▁love",
        -7.805664635611961
      ],
      [
        "_",
        -7.810858601345444
      ],
      [
        "▁thought",
        -7.813207307248186
      ],
      [
        "▁used",
        -7.8149821178874
      ],
      [
        "▁being",
        -7.83811507038496
      ],
      [
        "▁doing",
        -7.839375129540436
      ],
      [
        "w",
        -7.843915417691257
      ],
      [
        "▁name",
        -7.844076905608441
      ],
      [
        "▁won",
        -7.862914204429911
      ],
      [
        "▁came",
        -7.863261895613896
      ],
      [
        "▁went",
        -7.866280447463247
      ],
      [
        "an",
        -7.868813744640587
      ],
      [
        "’",
        -7.873082175372247
      ],
      [
        "▁find",
        -7.874555946779484
      ],
      [
        "▁does",
        -7.887179321014184
      ],
      [
        "▁such",
        -7.890944498182812
      ],
      [
        "▁same",
        -7.906275089807719
      ],
      [
        "▁help",
        -7.907922648964407
      ],
      [
        "▁called",
        -7.909211878724074
      ],
      [
        "▁mr",
        -7.910953759541133
      ],
      [
        "▁house",
        -7.916030520442943
      ],
      [
        "▁place",
        -7.936024275606714
      ],
      [
        "▁another",
        -7.94085584610281
      ],
      [
        "▁part",
        -7.941864759746892
      ],
      [
        "▁hey",
        -7.956832810306157
      ],
      [
        "▁school",
        -7.966168729639135
      ],
      [
        "–",
        -7.966868824924811
      ],
      [
        "▁erm",
        -7.972432744460484
      ],
      [
        "▁♪",
        -7.9803964008282176
      ],
      [
        "▁night",
        -7.9943800764900335
      ],
      [
        "▁found",
        -7.998680002424841
      ],
      [
        "▁sure",
        -8.000178251002163
      ],
      [
        "▁around",
        -8.00336302795291
      ],
      [
        "▁please",
        -8.006023052541927
      ],
      [
        "▁thank",
        -8.020246393089565
      ],
      [
        "▁own",
        -8.026641937976137
      ],
      [
        "▁big",
        -8.028170288409955
      ],
      [
        "▁kind",
        -8.042744861123323
      ],
      [
        "▁city",
        -8.044796722520166
      ],
      [
        "▁anything",
        -8.047493548972447
      ],
      [
        "▁always",
        -8.048593673355732
      ],
      [
        "▁while",
        -8.058730932520856
      ],
      [
        "▁lot",
        -8.05989357643686
      ],
      [
        "▁every",
        -8.06335755650748
      ],
      [
        "▁nothing",
        -8.06397228861191
      ],
      [
        "▁god",
        -8.06848136830047
      ],
      [
        "▁might",
        -8.068930276125204
      ],
      [
        "▁better",
        -8.069642913900173
      ],
      [
        "▁use",
        -8.0843009732133
      ],
      [
        "▁year",
        -8.08594880376726
      ],
      [
        "▁left",
        -8.0923051493247
      ],
      [
        "▁under",
        -8.11223519972269
      ],
      [
        "▁between",
        -8.117552883441864
      ],
      [
        "▁sorry",
        -8.119983853876484
      ],
      [
        "▁call",
        -8.131696745471503
      ],
      [
        "▁end",
        -8.132005980352364
      ],
      [
        "▁done",
        -8.140903832518667
      ],
      [
        "▁talk",
        -8.144244062773343
      ],
      [
        "▁father",
        -8.158056601311905
      ],
      [
        "▁keep",
        -8.158935317916297
      ],
      [
        "▁told",
        -8.165761079795098
      ],
      [
        "▁ever",
        -8.168460047211157
      ],
      [
        "▁money",
        -8.170658562112619
      ],
      [
        "▁state",
        -8.173005876524853
      ],
      [
        "▁show",
        -8.174716240745237
      ],
      [
        "▁four",
        -8.176448658241915
      ],
      [
        "▁next",
        -8.178444830574017
      ],
      [
        "▁its",
        -8.184166311745267
      ],
      [
        "▁both",
        -8.18870083863749
      ],
      [
        "&",
        -8.19605683487213
      ],
      [
        "▁mother",
        -8.204754410558584
      ],
      [
        "▁course",
        -8.20685898629141
      ],
      [
        "▁known",
        -8.207067181358399
      ],
      [
        "▁second",
        -8.208092760575049
      ],
      [
        "▁best",
        -8.20918168582244
      ],
      [
        "▁until",
        -8.209504130524497
      ],
      [
        "▁each",
        -8.210092001618255
      ],
      [
        "▁head",
        -8.219677331788807
      ],
      [
        "man",
        -8.227447905466803
      ],
      [
        "x",
        -8.228715791495757
      ],
      [
        "▁different",
        -8.233041824808087
      ],
      [
        "▁sir",
        -8.243795775053087
      ],
      [
        "▁number",
        -8.244372884984253
      ],
      [
        "▁water",
        -8.24525111194882
      ],
      [
        "▁during",
        -8.246024761257615
      ],
      [
        "▁later",
        -8.247418183932568
      ],
      [
        "able",
        -8.247621163539598
      ],
      [
        "▁united",
        -8.247734637371277
      ],
      [
        "▁stop",
        -8.247840357261573
      ],
      [
        "amp",
        -8.24845316598909
      ],
      [
        "▁car",
        -8.251093070900554
      ],
      [
        "▁since",
        -8.258744337881605
      ],
      [
        "▁men",
        -8.260380484085264
      ],
      [
        "▁actually",
        -8.283890851799407
      ],
      [
        "▁took",
        -8.287159507314351
      ],
      [
        "▁everything",
        -8.287636875457764
      ],
      [
        "▁maybe",
        -8.291111183856684
      ],
      [
        "▁once",
        -8.292724464914567
      ],
      [
        "▁doesn",
        -8.299466091968817
      ],
      [
        "▁mm",
        -8.303256105967751
      ],
      [
        "▁family",
        -8.310479613052385
      ],
      [
        "▁states",
        -8.31111975486192
      ],
      [
        "▁american",
        -8.31403210478324
      ],
      [
        "ies",
        -8.318321694098753
      ],
      [
        "▁five",
        -8.327763449265914
      ],
      [
        "▁leave",
        -8.329364531273896
      ],
      [
        "▁saw",
        -8.332163022669528
      ],
      [
        "▁girl",
        -8.33891384430124
      ],
      [
        "▁enough",
        -8.339212474355827
      ],
      [
        "▁play",
        -8.34702233029986
      ],
      [
        "▁feel",
        -8.347158426491811
      ],
      [
        "▁war",
        -8.347627411603739
      ],
      [
        "▁without",
        -8.350708878965724
      ],
      [
        "us",
        -8.356684738284732
      ],
      [
        "▁wait",
        -8.356921626844457
      ],
      [
        "▁bit",
        -8.37349861591081
      ],
      [
        "▁today",
        -8.376168533275
      ],
      [
        "▁against",
        -8.381545587613044
      ],
      [
        "and",
        -8.383101044241247
      ],
      [
        "▁hand",
        -8.390026955459433
      ],
      [
        "▁nice",
        -8.390648007325948
      ],
      [
        "▁together",
        -8.392235700580557
      ],
      [
        "▁believe",
        -8.414730499259356
      ],
      [
        "▁coming",
        -8.420246531112097
      ],
      [
        "▁seen",
        -8.426009532582032
      ],
      [
        "▁boy",
        -8.426676724137126
      ],
      [
        "▁live",
        -8.429859998857072
      ],
      [
        "▁died",
        -8.431917732292145
      ],
      [
        "▁wanted",
        -8.443005827128758
      ],
      [
        "▁else",
        -8.450217219985364
      ],
      [
        "▁high",
        -8.45333279857985
      ],
      [
        "/",
        -8.455950404228425
      ],
      [
        "▁remember",
        -8.456725621230374
      ],
      [
        "▁national",
        -8.45752698407195
      ],
      [
        "▁children",
        -8.457579733143042
      ],
      [
        "▁became",
        -8.457943164238605
      ],
      [
        "▁mind",
        -8.461374534306662
      ],
      [
        "▁far",
        -8.463441807118919
      ],
      [
        "▁king",
        -8.468236108521603
      ],
      [
        "▁team",
        -8.468241260313379
      ],
      [
        "▁few",
        -8.474118874238338
      ],
      [
        "▁try",
        -8.478379839552286
      ],
      [
        "▁young",
        -8.48109534444031
      ],
      [
        "▁set",
        -8.481450648826529
      ],
      [
        "▁bad",
        -8.482277651538713
      ],
      [
        "▁quite",
        -8.48287341463237
      ],
      [
        "▁looking",
        -8.485025495266116
      ],
      [
        "▁though",
        -8.487759600631549
      ],
      [
        "▁isn",
        -8.488331323877318
      ],
      [
        "▁face",
        -8.494252250740619
      ],
      [
        "▁son",
        -8.494610144739163
      ],
      [
        "▁point",
        -8.498117838552515
      ],
      [
        "▁hear",
        -8.49927102388747
      ],
      [
        "▁side",
        -8.500379221856573
      ],
      [
        "▁ask",
        -8.505548474189833
      ],
      [
        "▁room",
        -8.51501370854378
      ],
      [
        "▁woman",
        -8.515120825407863
      ],
      [
        "to",
        -8.518239733119785
      ],
      [
        "▁county",
        -8.518987412959941
      ],
      [
        "▁yet",
        -8.524304919924225
      ],
      [
        "you",
        -8.529723324614585
      ],
      [
        "▁care",
        -8.533269411831293
      ],
      [
        "▁born",
        -8.535930606247186
      ],
      [
        "▁open",
        -8.536452405477554
      ],
      [
        "▁getting",
        -8.539537077422862
      ],
      [
        "▁morning",
        -8.5468858577262
      ],
      [
        "▁happened",
        -8.552557054089228
      ],
      [
        "▁music",
        -8.557388424003255
      ],
      [
        "▁book",
        -8.56165215338999
      ],
      [
        "▁eyes",
        -8.561833154716389
      ],
      [
        "▁friend",
        -8.56881138596771
      ],
      [
        "▁north",
        -8.571027957832234
      ],
      [
        "▁understand",
        -8.575321703429607
      ],
      [
        "▁heart",
        -8.575801880314938
      ],
      [
        "▁whole",
        -8.57908871668171
      ],
      [
        "z",
        -8.582524759041823
      ],
      [
        "▁says",
        -8.584798314437043
      ],
      [
        "▁real",
        -8.586045429236984
      ],
      [
        "▁times",
        -8.586142421131136
      ],
      [
        "▁small",
        -8.589130767442239
      ],
      [
        "▁having",
        -8.592979909899846
      ],
      [
        "▁death",
        -8.593182545239152
      ],
      [
        "▁days",
        -8.594235936574186
      ],
      [
        "▁south",
        -8.59468516174229
      ],
      [
        "▁town",
        -8.597744731720232
      ],
      [
        "▁stay",
        -8.5987396762073
      ],
      [
        "▁person",
        -8.599106253610872
      ],
      [
        "▁half",
        -8.599129357922415
      ],
      [
        "j",
        -8.602852467974568
      ],
      [
        "▁start",
        -8.609443063633991
      ],
      [
        "▁white",
        -8.609963750748681
      ],
      [
        "▁heard",
        -8.611332472650933
      ],
      [
        "▁system",
        -8.611515839095073
      ],
      [
        "▁himself",
        -8.614660740472516
      ],
      [
        "▁fine",
        -8.61786365941755
      ],
      [
        "or",
        -8.618232131125666
      ],
      [
        "▁hard",
        -8.623863383325649
      ],
      [
        "▁game",
        -8.628984066029389
      ],
      [
        "▁order",
        -8.6300831246661
      ],
      [
        "▁played",
        -8.639287035701033
      ],
      [
        "▁run",
        -8.640360917368223
      ],
      [
        "▁knew",
        -8.640486068697623
      ],
      [
        "▁started",
        -8.641468329741635
      ],
      [
        "▁talking",
        -8.644085956301485
      ],
      [
        "▁upon",
        -8.64823283660055
      ],
      [
        "▁already",
        -8.649254213333915
      ],
      [
        "▁along",
        -8.651271066505709
      ],
      [
        "▁women",
        -8.655629918717604
      ],
      [
        "▁wrong",
        -8.658103822755528
      ],
      [
        "▁john",
        -8.659470768146905
      ],
      [
        "▁asked",
        -8.660702959659966
      ],
      [
        "▁sort",
        -8.661006171999977
      ],
      [
        "▁idea",
        -8.661887328015498
      ],
      [
        "▁case",
        -8.669703904405806
      ],
      [
        "▁group",
        -8.674965422826416
      ],
      [
        "▁shall",
        -8.675748431815155
      ],
      [
        "▁soon",
        -8.680312945645099
      ],
      [
        "▁someone",
        -8.680801293905006
      ],
      [
        "▁six",
        -8.683124180607319
      ],
      [
        "▁country",
        -8.684515015294854
      ],
      [
        "▁pretty",
        -8.685808147010015
      ],
      [
        "▁baby",
        -8.687859030361382
      ],
      [
        "▁saying",
        -8.690021361990466
      ],
      [
        "▁move",
        -8.69163315557614
      ],
      [
        "▁party",
        -8.69483790946455
      ],
      [
        "▁black",
        -8.694914002296207
      ],
      [
        "▁important",
        -8.695129167620195
      ],
      [
        "▁gave",
        -8.696841529404352
      ],
      [
        "▁however",
        -8.69867394348373
      ],
      [
        "▁door",
        -8.699551374352385
      ],
      [
        "▁trying",
        -8.70332549229379
      ],
      [
        "▁matter",
        -8.706717986832436
      ],
      [
        "▁guy",
        -8.7068399537575
      ],
      [
        "▁turn",
        -8.707340654773938
      ],
      [
        "▁dead",
        -8.710285188393033
      ],
      [
        "▁un",
        -8.715677231049403
      ],
      [
        "#",
        -8.719498537100302
      ],
      [
        "▁light",
        -8.719813935943911
      ],
      [
        "▁university",
        -8.719901522488309
      ],
      [
        "▁round",
        -8.724702450664612
      ],
      [
        "▁word",
        -8.72516597858687
      ],
      [
        "▁gone",
        -8.726000348910008
      ],
      [
        "▁eat",
        -8.726658811108521
      ],
      [
        "▁story",
        -8.728960834613105
      ],
      [
        "▁wife",
        -8.730677694512302
      ],
      [
        "▁wanna",
        -8.73153167769315
      ],
      [
        "▁red",
        -8.732480879577691
      ],
      [
        "▁line",
        -8.73436966347572
      ],
      [
        "▁job",
        -8.73518729247628
      ],
      [
        "▁change",
        -8.747249141988998
      ],
      [
        "▁read",
        -8.751627835989996
      ],
      [
        "*",
        -8.756001917048836
      ],
      [
        "▁early",
        -8.759399606686806
      ],
      [
        "▁kill",
        -8.760097347064313
      ],
      [
        "▁business",
        -8.760547109575018
      ],
      [
        "▁miss",
        -8.761824649886014
      ],
      [
        "▁moment",
        -8.761884846256352
      ],
      [
        "▁probably",
        -8.764017601857793
      ],
      [
        "▁government",
        -8.764555762830938
      ],
      [
        "▁movie",
        -8.76551314512321
      ],
      [
        "▁brother",
        -8.766229021728337
      ],
      [
        "▁began",
        -8.767506219793365
      ],
      [
        "▁hold",
        -8.77012140435127
      ],
      [
        "▁lost",
        -8.770562560933723
      ],
      [
        "▁air",
        -8.7729952562245
      ],
      [
        "▁bring",
        -8.780065143603615
      ],
      [
        "▁company",
        -8.789385524125358
      ],
      [
        "▁often",
        -8.793584747668993
      ],
      [
        "▁making",
        -8.79578278619207
      ],
      [
        "▁power",
        -8.800128427800088
      ],
      [
        "▁means",
        -8.80236265554498
      ],
      [
        "▁problem",
        -8.802666398979794
      ],
      [
        "born",
        -8.806325939449575
      ],
      [
        "▁hello",
        -8.809679328353878
      ],
      [
        "▁general",
        -8.810784716619871
      ],
      [
        "▁child",
        -8.815024531559896
      ],
      [
        "▁fire",
        -8.81540064207373
      ],
      [
        "▁goes",
        -8.818227310623163
      ],
      [
        "▁near",
        -8.818257268397353
      ],
      [
        "▁week",
        -8.81925229161359
      ],
      [
        "▁service",
        -8.819398310344098
      ],
      [
        "▁fact",
        -8.819634045347012
      ],
      [
        "▁president",
        -8.820237609952295
      ],
      [
        "▁guys",
        -8.821608943602634
      ],
      [
        "▁true",
        -8.824503224734384
      ],
      [
        "▁full",
        -8.827427089260903
      ],
      [
        "▁looked",
        -8.82781464761428
      ],
      [
        "▁age",
        -8.832684301665918
      ],
      [
        "▁listen",
        -8.83416321259138
      ],
      [
        "▁top",
        -8.835567059490339
      ],
      [
        "▁ready",
        -8.838180135012943
      ],
      [
        "▁dad",
        -8.841752863772516
      ],
      [
        "▁almost",
        -8.850817471511789
      ],
      [
        "▁ten",
        -8.85130189943274
      ],
      [
        "▁close",
        -8.854244397356927
      ],
      [
        "▁yourself",
        -8.855531076044352
      ],
      [
        "▁body",
        -8.85814505030847
      ],
      [
        "▁sit",
        -8.858526454269255
      ],
      [
        "▁happy",
        -8.859008961392485
      ],
      [
        "he",
        -8.863081579957196
      ],
      [
        "▁ok",
        -8.863818296039224
      ],
      [
        "▁working",
        -8.868148559293173
      ],
      [
        "▁wouldn",
        -8.868676029333596
      ],
      [
        "▁history",
        -8.872551999771387
      ],
      [
        "▁given",
        -8.874049529696169
      ],
      [
        "we",
        -8.875030495601415
      ],
      [
        "▁become",
        -8.880673920136022
      ],
      [
        "▁ago",
        -8.883041751184361
      ],
      [
        "▁hope",
        -8.886193955707025
      ],
      [
        "▁sometimes",
        -8.893170310818489
      ],
      [
        "▁hi",
        -8.900059213352618
      ],
      [
        "▁haven",
        -8.910117676105546
      ],
      [
        "▁river",
        -8.910809099913104
      ],
      [
        "▁huh",
        -8.913857310555539
      ],
      [
        "▁song",
        -8.918997437859456
      ],
      [
        "▁west",
        -8.920060828053503
      ],
      [
        "▁late",
        -8.92350416468035
      ],
      [
        "▁hands",
        -8.927382086526869
      ],
      [
        "▁friends",
        -8.927914996540565
      ],
      [
        "▁large",
        -8.931569375119572
      ],
      [
        "$",
        -8.933735596885791
      ],
      [
        "▁york",
        -8.93385344889851
      ],
      [
        "▁least",
        -8.935784674958228
      ],
      [
        "▁pay",
        -8.936006750043513
      ],
      [
        "▁player",
        -8.939024130845446
      ],
      [
        "▁series",
        -8.943477254794796
      ],
      [
        "▁myself",
        -8.944017642726427
      ],
      [
        "▁mrs",
        -8.944846608495563
      ],
      [
        "▁several",
        -8.945550980927138
      ],
      [
        "▁march",
        -8.946873398759683
      ],
      [
        "▁ha",
        -8.947467270669799
      ],
      [
        "▁voice",
        -8.950404632218289
      ],
      [
        "▁daughter",
        -8.950814344766505
      ],
      [
        "▁public",
        -8.95222602548688
      ],
      [
        "▁club",
        -8.952830904203267
      ],
      [
        "▁alone",
        -8.956030315025398
      ],
      [
        "▁sea",
        -8.956258063509697
      ],
      [
        "▁land",
        -8.960962973187407
      ],
      [
        "▁free",
        -8.961109420899943
      ],
      [
        "▁behind",
        -8.961750518382837
      ],
      [
        "▁thanks",
        -8.96289249946154
      ],
      [
        "▁married",
        -8.965517030780084
      ],
      [
        "▁um",
        -8.972586321129654
      ],
      [
        "▁watch",
        -8.97468132801215
      ],
      [
        "▁film",
        -8.980486377748177
      ],
      [
        "▁form",
        -8.982508999929784
      ],
      [
        "▁brought",
        -8.985725996101001
      ],
      [
        "▁killed",
        -8.985908571038062
      ],
      [
        "▁human",
        -8.986315717631854
      ],
      [
        "▁station",
        -8.9874801631803
      ],
      [
        "▁short",
        -8.989197668222614
      ],
      [
        "▁english",
        -8.989755843111716
      ],
      [
        "▁beautiful",
        -8.993632343800703
      ],
      [
        "▁guess",
        -8.994229983644903
      ],
      [
        "▁question",
        -8.995353587327815
      ],
      [
        "▁rest",
        -8.99631581382102
      ],
      [
        "▁road",
        -8.99956347540834
      ],
      [
        "▁meet",
        -9.002671825142121
      ],
      [
        "ness",
        -9.004558531458352
      ],
      [
        "▁either",
        -9.007170809789823
      ],
      [
        "▁january",
        -9.008023990935794
      ],
      [
        "▁france",
        -9.010369769557446
      ],
      [
        "▁taking",
        -9.012442514188905
      ],
      [
        "▁dear",
        -9.016174939446758
      ],
      [
        "▁released",
        -9.01954978899874
      ],
      [
        "▁words",
        -9.021895092691604
      ],
      [
        "▁hundred",
        -9.023503768862732
      ],
      [
        "▁food",
        -9.02463843900269
      ],
      [
        "▁season",
        -9.027332260093576
      ],
      [
        "▁cut",
        -9.031751011439624
      ],
      [
        "▁church",
        -9.032400756691857
      ],
      [
        "▁green",
        -9.034465065669506
      ],
      [
        "▁taken",
        -9.03684906664219
      ],
      [
        "%",
        -9.039352511113185
      ],
      [
        "▁rather",
        -9.0416089927117
      ],
      [
        "▁front",
        -9.044105498130186
      ],
      [
        "▁member",
        -9.05768384616993
      ],
      [
        "▁alright",
        -9.05866819643602
      ],
      [
        "▁poor",
        -9.059168658919956
      ],
      [
        "▁police",
        -9.063068165676444
      ],
      [
        "▁less",
        -9.063351484279512
      ],
      [
        "▁example",
        -9.06441141836794
      ],
      [
        "▁couldn",
        -9.06612490971452
      ],
      [
        "▁living",
        -9.066883220391096
      ],
      [
        "▁within",
        -9.068326407641807
      ],
      [
        "▁june",
        -9.071331710369387
      ],
      [
        "▁department",
        -9.074364105150089
      ],
      [
        "▁inside",
        -9.074380123403287
      ],
      [
        "▁looks",
        -9.074528843937433
      ],
      [
        "▁die",
        -9.077022783689
      ],
      [
        "—",
        -9.0784905078493
      ],
      [
        "▁piece",
        -9.079878386749408
      ],
      [
        "▁comes",
        -9.08017636589796
      ],
      [
        "▁district",
        -9.080367673152148
      ],
      [
        "▁british",
        -9.08387561938598
      ],
      [
        "▁everyone",
        -9.086129710355756
      ],
      [
        "▁stuff",
        -9.090421038593847
      ],
      [
        "▁career",
        -9.091553790435198
      ],
      [
        "▁august",
        -9.095744743336637
      ],
      [
        "▁thinking",
        -9.095806667541222
      ],
      [
        "▁office",
        -9.09584725459972
      ],
      [
        "what",
        -9.096734811324431
      ],
      [
        "▁language",
        -9.096898345220916
      ],
      [
        "▁million",
        -9.097344837790793
      ],
      [
        "▁minute",
        -9.100818830620382
      ],
      [
        "▁album",
        -9.100998114700111
      ],
      [
        "▁third",
        -9.10264429464914
      ],
      [
        "▁east",
        -9.10359466796478
      ],
      [
        "▁following",
        -9.103671353191611
      ],
      [
        "▁la",
        -9.10790821351282
      ],
      [
        "▁single",
        -9.10812409368456
      ],
      [
        "▁reason",
        -9.108976905627014
      ],
      [
        "▁present",
        -9.112440869168614
      ],
      [
        "▁lady",
        -9.112950239527006
      ],
      [
        "▁minutes",
        -9.113204133234085
      ],
      [
        "▁mom",
        -9.114290616355516
      ],
      [
        "▁hell",
        -9.118487856497987
      ],
      [
        "▁perhaps",
        -9.119358883422064
      ],
      [
        "▁seven",
        -9.12025049553836
      ],
      [
        "▁held",
        -9.121629772666209
      ],
      [
        "▁law",
        -9.122276493553578
      ],
      [
        "▁playing",
        -9.12502067354471
      ],
      [
        "▁earth",
        -9.126336753558313
      ],
      [
        "▁football",
        -9.128533270960832
      ],
      [
        "▁common",
        -9.129765623647032
      ],
      [
        "▁special",
        -9.12996538198516
      ],
      [
        "▁return",
        -9.130804859097896
      ],
      [
        "▁sent",
        -9.131730475953116
      ],
      [
        "▁september",
        -9.132611411569938
      ],
      [
        "▁main",
        -9.134007339702912
      ],
      [
        "▁happen",
        -9.134650808806462
      ],
      [
        "▁dr",
        -9.134855373119
      ],
      [
        "▁hit",
        -9.13506716896062
      ],
      [
        "▁former",
        -9.13849255916448
      ],
      [
        "▁band",
        -9.14064988457809
      ],
      [
        "▁deal",
        -9.140787078521427
      ],
      [
        "▁october",
        -9.141391225973567
      ],
      [
        "huh",
        -9.141988799491934
      ],
      [
        "▁turned",
        -9.142748740318169
      ],
      [
        "▁april",
        -9.143348668760378
      ],
      [
        "▁include",
        -9.146004938613164
      ],
      [
        "▁makes",
        -9.14603543303602
      ],
      [
        "▁answer",
        -9.146474405850482
      ],
      [
        "▁past",
        -9.149655403489778
      ],
      [
        "▁outside",
        -9.149713319143732
      ],
      [
        "ity",
        -9.150041628175355
      ],
      [
        "▁wish",
        -9.150589932898685
      ],
      [
        "▁drink",
        -9.150694034427838
      ],
      [
        "▁named",
        -9.15358529159532
      ],
      [
        "▁twenty",
        -9.154434854525196
      ],
      [
        "▁sleep",
        -9.15551236025965
      ],
      [
        "▁july",
        -9.155730064718195
      ],
      [
        "▁chance",
        -9.158096724202252
      ],
      [
        "▁doctor",
        -9.15892160593148
      ],
      [
        "▁including",
        -9.164732298783328
      ],
      [
        "▁sound",
        -9.16520708826246
      ],
      [
        "▁everybody",
        -9.166522044647133
      ],
      [
        "▁street",
        -9.166652645210483
      ],
      [
        "▁exactly",
        -9.167533980403531
      ],
      [
        "▁major",
        -9.167586606748612
      ],
      [
        "▁felt",
        -9.17106614939519
      ],
      [
        "▁across",
        -9.17187310601946
      ],
      [
        "▁blue",
        -9.174807812197884
      ],
      [
        "▁building",
        -9.17501701129182
      ],
      [
        "▁lord",
        -9.175567802242885
      ],
      [
        "▁college",
        -9.177046169477707
      ],
      [
        "▁french",
        -9.177837909136972
      ],
      [
        "▁thousand",
        -9.178672947216215
      ],
      [
        "▁using",
        -9.179330607166294
      ],
      [
        "▁stand",
        -9.17993964884411
      ],
      [
        "▁till",
        -9.180216701848392
      ],
      [
        "▁original",
        -9.182522955648972
      ],
      [
        "▁local",
        -9.182968231937595
      ],
      [
        "▁lived",
        -9.18362515430875
      ],
      [
        "▁area",
        -9.184587230409926
      ],
      [
        "▁whatever",
        -9.185964302983768
      ],
      [
        "▁speak",
        -9.186804537964209
      ],
      [
        "▁usually",
        -9.193659709905244
      ],
      [
        "▁sister",
        -9.19455845953232
      ],
      [
        "▁international",
        -9.194921860549858
      ],
      [
        "▁possible",
        -9.19643485852351
      ],
      [
        "▁peter",
        -9.196468742832332
      ],
      [
        "▁league",
        -9.198800655104597
      ],
      [
        "▁december",
        -9.200135217427274
      ],
      [
        "▁result",
        -9.201415384813709
      ],
      [
        "land",
        -9.201926157792396
      ],
      [
        "▁somebody",
        -9.202839525965215
      ],
      [
        "▁blood",
        -9.203795452859508
      ],
      [
        "▁ma",
        -9.20440511252352
      ],
      [
        "▁gotta",
        -9.204940844976685
      ],
      [
        "▁anyone",
        -9.20838897160963
      ],
      [
        "▁write",
        -9.212174172165165
      ],
      [
        "▁region",
        -9.212276105668572
      ],
      [
        "▁easy",
        -9.215018167750898
      ],
      [
        "▁worked",
        -9.215710644095488
      ],
      [
        "▁population",
        -9.215942195450502
      ],
      [
        "▁months",
        -9.21670764383249
      ],
      [
        "▁whether",
        -9.216761389908516
      ],
      [
        "▁november",
        -9.2177586036507
      ],
      [
        "▁hours",
        -9.218139613700588
      ],
      [
        "▁anyway",
        -9.219338740464792
      ],
      [
        "▁mine",
        -9.21956897485494
      ],
      [
        "▁list",
        -9.220139971988196
      ],
      [
        "▁husband",
        -9.22183113300632
      ],
      [
        "▁court",
        -9.222479632321788
      ],
      [
        "▁among",
        -9.22525037182075
      ],
      [
        "▁level",
        -9.226345264030998
      ],
      [
        "▁co",
        -9.227153323215829
      ],
      [
        "up",
        -9.227645861915924
      ],
      [
        "▁tomorrow",
        -9.228095775948178
      ],
      [
        "▁control",
        -9.232836918858926
      ],
      [
        "▁eight",
        -9.23404677778687
      ],
      [
        "▁hair",
        -9.238098372670468
      ],
      [
        "▁tried",
        -9.238473971659245
      ],
      [
        "▁dog",
        -9.242183638595984
      ],
      [
        "▁shit",
        -9.244234015063828
      ],
      [
        "▁couple",
        -9.2454268097245
      ],
      [
        "▁feet",
        -9.247594017696906
      ],
      [
        "▁walk",
        -9.249037699069351
      ],
      [
        "▁others",
        -9.249368221458788
      ],
      [
        "▁cos",
        -9.249995790548324
      ],
      [
        "▁certain",
        -9.25060117643453
      ],
      [
        "▁village",
        -9.250953090739907
      ],
      [
        "▁hot",
        -9.251393262045031
      ],
      [
        "▁phone",
        -9.25619871264066
      ],
      [
        "▁built",
        -9.256203831907996
      ],
      [
        "by",
        -9.258211467057654
      ],
      [
        "▁februar",
        -9.26020882805084
      ],
      [
        "▁clear",
        -9.262985908529588
      ],
      [
        "▁german",
        -9.263057242903509
      ],
      [
        "▁sun",
        -9.265331066964592
      ],
      [
        "▁island",
        -9.266577559516747
      ],
      [
        "▁cup",
        -9.267792380589988
      ],
      [
        "▁per",
        -9.268403263462138
      ],
      [
        "▁park",
        -9.27147519917838
      ],
      [
        "▁moved",
        -9.27382500691444
      ],
      [
        "▁army",
        -9.274611578101672
      ],
      [
        "▁sense",
        -9.275643693851256
      ],
      [
        "▁fight",
        -9.284685252779838
      ],
      [
        "▁buy",
        -9.289432421062177
      ],
      [
        "▁century",
        -9.290694850007498
      ],
      [
        "▁rock",
        -9.295508960735296
      ],
      [
        "▁art",
        -9.297785377835565
      ],
      [
        "▁seems",
        -9.298806801916978
      ],
      [
        "▁table",
        -9.299786573587747
      ],
      [
        "▁captain",
        -9.301885275626637
      ],
      [
        "▁fun",
        -9.302575975073967
      ],
      [
        "me",
        -9.302761432638636
      ],
      [
        "▁break",
        -9.304375377523634
      ],
      [
        "▁although",
        -9.30556200808894
      ],
      [
        "▁hurt",
        -9.305857657609632
      ],
      [
        "▁cold",
        -9.309144146131931
      ],
      [
        "▁based",
        -9.31010413584406
      ],
      [
        "▁bed",
        -9.311685311771104
      ],
      [
        "▁instead",
        -9.313938733508028
      ],
      [
        "▁tonight",
        -9.314228272278198
      ],
      [
        "▁written",
        -9.315825305484804
      ],
      [
        "▁middle",
        -9.320476129382554
      ],
      [
        "▁hour",
        -9.32298990366334
      ],
      [
        "▁cannot",
        -9.323296046016909
      ],
      [
        "▁girls",
        -9.325479332185646
      ],
      [
        "▁boys",
        -9.326763593717288
      ],
      [
        "▁master",
        -9.32775003740528
      ],
      [
        "▁plan",
        -9.33118088612365
      ],
      [
        "▁forget",
        -9.332713340488525
      ],
      [
        "▁trouble",
        -9.333963658600164
      ],
      [
        "that",
        -9.33432404306457
      ],
      [
        "▁members",
        -9.336103626861968
      ],
      [
        "▁london",
        -9.337385630811884
      ],
      [
        "▁television",
        -9.338669937422909
      ],
      [
        "▁information",
        -9.340840346197368
      ],
      [
        "▁role",
        -9.34184748620664
      ],
      [
        "▁ran",
        -9.34194007458
      ],
      [
        "▁tree",
        -9.34324462208096
      ],
      [
        "▁afraid",
        -9.34361416331275
      ],
      [
        "be",
        -9.345839971763857
      ],
      [
        "▁ground",
        -9.348156229273918
      ],
      [
        "how",
        -9.349002739697
      ],
      [
        "▁pick",
        -9.349004229122848
      ],
      [
        "▁games",
        -9.351048594284398
      ],
      [
        "▁kids",
        -9.353165351513049
      ],
      [
        "▁seemed",
        -9.353267871002584
      ],
      [
        "one",
        -9.354540069895672
      ],
      [
        "▁dark",
        -9.355383927465246
      ],
      [
        "▁type",
        -9.35566297792954
      ],
      [
        "▁shut",
        -9.35648490304492
      ],
      [
        "▁strong",
        -9.363250729759308
      ],
      [
        "▁space",
        -9.365545726571506
      ],
      [
        "▁worry",
        -9.366999258749706
      ],
      [
        "▁act",
        -9.367724839330524
      ],
      [
        "▁al",
        -9.36923428990118
      ],
      [
        "▁fair",
        -9.369717937093592
      ],
      [
        "▁america",
        -9.3702802697354
      ],
      [
        "▁truth",
        -9.37040015820254
      ],
      [
        "▁win",
        -9.372886208353096
      ],
      [
        "▁england",
        -9.37405904143738
      ],
      [
        "▁lives",
        -9.374761097199796
      ],
      [
        "▁wrote",
        -9.37511437756713
      ],
      [
        "▁force",
        -9.376272210587512
      ],
      [
        "▁support",
        -9.376403913644207
      ],
      [
        "▁paper",
        -9.37718686495269
      ],
      [
        "▁daddy",
        -9.379025451582727
      ],
      [
        "▁experience",
        -9.379421631233509
      ],
      [
        "▁running",
        -9.380452202859248
      ],
      [
        "▁attack",
        -9.382320192688985
      ],
      [
        "▁fucking",
        -9.383588654099553
      ],
      [
        "▁longer",
        -9.387258973514362
      ],
      [
        "▁check",
        -9.3877871969792
      ],
      [
        "▁excuse",
        -9.394012583906296
      ],
      [
        "um",
        -9.394015812669611
      ],
      [
        "▁due",
        -9.402720613358383
      ],
      [
        "▁fall",
        -9.405194689863366
      ],
      [
        "▁works",
        -9.405728798727065
      ],
      [
        "▁position",
        -9.406540952487289
      ],
      [
        "▁aren",
        -9.407463135878384
      ],
      [
        "▁send",
        -9.408483495983289
      ],
      [
        "▁final",
        -9.408790160125664
      ],
      [
        "▁wants",
        -9.409890011072196
      ],
      [
        "▁changed",
        -9.412226125217224
      ],
      [
        "▁fell",
        -9.412947230299029
      ],
      [
        "▁san",
        -9.415256090408413
      ],
      [
        "▁picture",
        -9.417506866958092
      ],
      [
        "▁fuck",
        -9.418413283427256
      ],
      [
        "but",
        -9.42075952134786
      ],
      [
        "▁shot",
        -9.422977595297512
      ],
      [
        "▁mhm",
        -9.423649226408768
      ],
      [
        "▁summer",
        -9.424606510873446
      ],
      [
        "▁program",
        -9.425260593574722
      ],
      [
        "▁race",
        -9.425945210249727
      ],
      [
        "▁nine",
        -9.42666776954622
      ],
      [
        "▁sign",
        -9.42706868296358
      ],
      [
        "▁gold",
        -9.428731998616508
      ],
      [
        "▁class",
        -9.432701374670788
      ],
      [
        "▁equal",
        -9.433424306079663
      ],
      [
        "▁center",
        -9.43707476198988
      ],
      [
        "▁nobody",
        -9.438052283492262
      ],
      [
        "▁waiting",
        -9.44607138379864
      ],
      [
        "▁received",
        -9.446328446214492
      ],
      [
        "▁news",
        -9.446615601569905
      ],
      [
        "▁ball",
        -9.447724496426172
      ],
      [
        "▁save",
        -9.450051525359422
      ],
      [
        "▁future",
        -9.45076212323927
      ],
      [
        "▁prince",
        -9.45130294576535
      ],
      [
        "▁george",
        -9.452256109501118
      ],
      [
        "▁themselves",
        -9.45319526063495
      ],
      [
        "▁above",
        -9.45373807302063
      ],
      [
        "▁record",
        -9.453946478845156
      ],
      [
        "▁supposed",
        -9.454125339688437
      ],
      [
        "▁kept",
        -9.457646323613323
      ],
      [
        "▁box",
        -9.462465989911436
      ],
      [
        "▁period",
        -9.46513682454482
      ],
      [
        "▁video",
        -9.466756301865448
      ],
      [
        "▁ship",
        -9.468952786617816
      ],
      [
        "▁field",
        -9.470269735253678
      ],
      [
        "▁feeling",
        -9.4704477897953
      ],
      [
        "▁fast",
        -9.473871336788491
      ],
      [
        "▁created",
        -9.474480291027383
      ],
      [
        "▁kid",
        -9.476263310516028
      ],
      [
        "well",
        -9.478671075641222
      ],
      [
        "▁low",
        -9.47927707206611
      ],
      [
        "▁according",
        -9.481103200270878
      ],
      [
        "▁letter",
        -9.489981423641575
      ],
      [
        "son",
        -9.492774559363632
      ],
      [
        "▁sat",
        -9.493523082253668
      ],
      [
        "▁careful",
        -9.493812302424413
      ],
      [
        "▁council",
        -9.495481321912386
      ],
      [
        "▁further",
        -9.497295956773248
      ],
      [
        "▁parents",
        -9.49894036910279
      ],
      [
        "▁species",
        -9.502467915231763
      ],
      [
        "▁honey",
        -9.5039766947358
      ],
      [
        "▁horse",
        -9.5043467939176
      ],
      [
        "▁throw",
        -9.506520396115103
      ],
      [
        "go",
        -9.50729920721502
      ],
      [
        "▁minister",
        -9.507860771409655
      ],
      [
        "▁le",
        -9.509243348461258
      ],
      [
        "▁learn",
        -9.510656507665436
      ],
      [
        "▁hall",
        -9.511278122790769
      ],
      [
        "▁mark",
        -9.512945471645663
      ],
      [
        "▁effect",
        -9.513184454370826
      ],
      [
        "▁social",
        -9.517591712494353
      ],
      [
        "▁quiet",
        -9.517958187405966
      ],
      [
        "▁books",
        -9.521806154341176
      ],
      [
        "▁itself",
        -9.524808447863764
      ],
      [
        "▁herself",
        -9.52713529981026
      ],
      [
        "▁hospital",
        -9.527267859663304
      ],
      [
        "▁paul",
        -9.52992851956157
      ],
      [
        "ted",
        -9.530702497263745
      ],
      [
        "▁finished",
        -9.530779087452483
      ],
      [
        "▁evening",
        -9.531360676715224
      ],
      [
        "▁gun",
        -9.531709256083309
      ],
      [
        "▁finally",
        -9.534150355810876
      ],
      [
        "▁decided",
        -9.5342354304292
      ],
      [
        "▁rose",
        -9.534242717835069
      ],
      [
        "▁jack",
        -9.534309746042446
      ],
      [
        "▁star",
        -9.53613274508234
      ],
      [
        "▁figure",
        -9.539997298086307
      ],
      [
        "▁board",
        -9.541834849028689
      ],
      [
        "▁wall",
        -9.543455860151465
      ],
      [
        "▁dance",
        -9.54448033157862
      ],
      [
        "▁david",
        -9.544680285771964
      ],
      [
        "▁fish",
        -9.548095034588142
      ],
      [
        "▁brown",
        -9.54837769578273
      ],
      [
        "▁cat",
        -9.548858778340607
      ],
      [
        "▁complete",
        -9.549686120615716
      ],
      [
        "▁eye",
        -9.552350274305269
      ],
      [
        "▁bear",
        -9.552495627738727
      ],
      [
        "▁funny",
        -9.55462617653681
      ],
      [
        "▁drive",
        -9.55623151581632
      ],
      [
        "▁project",
        -9.557355916794162
      ],
      [
        "▁queen",
        -9.559499555787232
      ],
      [
        "▁cover",
        -9.560779793308306
      ],
      [
        "▁mouth",
        -9.562249594655272
      ],
      [
        "▁served",
        -9.56316660832521
      ],
      [
        "▁issue",
        -9.564602359921029
      ],
      [
        "▁mommy",
        -9.56552976446191
      ],
      [
        "▁meeting",
        -9.566779122181408
      ],
      [
        "▁trust",
        -9.568417528012988
      ],
      [
        "▁welcome",
        -9.568833631728843
      ],
      [
        "ous",
        -9.5692910572595
      ],
      [
        "▁crie",
        -9.572649468235443
      ],
      [
        "ch",
        -9.57270362550865
      ],
      [
        "▁problems",
        -9.573788924348452
      ],
      [
        "▁community",
        -9.574234898175758
      ],
      [
        "men",
        -9.574245510639717
      ],
      [
        "▁beginning",
        -9.576643694548023
      ],
      [
        "▁lead",
        -9.577313416931275
      ],
      [
        "▁dinner",
        -9.57793277702199
      ],
      [
        "▁political",
        -9.578266796047007
      ],
      [
        "▁chief",
        -9.578551320295572
      ],
      [
        "▁crazy",
        -9.578727888360111
      ],
      [
        "▁straight",
        -9.580932962492232
      ],
      [
        "▁computer",
        -9.58114742155977
      ],
      [
        "▁japan",
        -9.583645154601076
      ],
      [
        "▁led",
        -9.585113833652322
      ],
      [
        "▁follow",
        -9.58575087915888
      ],
      [
        "▁th",
        -9.586483745517446
      ],
      [
        "▁whose",
        -9.588382598617835
      ],
      [
        "▁telling",
        -9.588440404053738
      ],
      [
        "▁passed",
        -9.588898091253192
      ],
      [
        "▁central",
        -9.591327737550897
      ],
      [
        "▁lay",
        -9.591540455414004
      ],
      [
        "▁james",
        -9.592860522728218
      ],
      [
        "▁famous",
        -9.593003723271911
      ],
      [
        "▁similar",
        -9.593864711353302
      ],
      [
        "▁championship",
        -9.59402054396269
      ],
      [
        "▁seem",
        -9.594855290647295
      ],
      [
        "▁union",
        -9.595571729380964
      ],
      [
        "▁director",
        -9.596453610771878
      ],
      [
        "▁seat",
        -9.598902226807756
      ],
      [
        "▁bank",
        -9.599096037761116
      ],
      [
        "▁education",
        -9.59928342712192
      ],
      [
        "▁indian",
        -9.600035128960949
      ],
      [
        "▁germany",
        -9.601729269831612
      ],
      [
        "▁touch",
        -9.60203488033178
      ],
      [
        "▁society",
        -9.602404068073737
      ],
      [
        "▁leaving",
        -9.60301739517387
      ],
      [
        "▁forward",
        -9.603358041800192
      ],
      [
        "▁happens",
        -9.60368832675108
      ],
      [
        "▁cool",
        -9.605475398524888
      ],
      [
        "▁pass",
        -9.605512951339303
      ],
      [
        "▁model",
        -9.606336600661129
      ],
      [
        "▁train",
        -9.607526807801124
      ],
      [
        "▁william",
        -9.610038315198231
      ],
      [
        "▁ahead",
        -9.610627691038152
      ],
      [
        "▁bill",
        -9.611624032991768
      ],
      [
        "▁step",
        -9.61233908705954
      ],
      [
        "▁certainly",
        -9.614443671278748
      ],
      [
        "▁situation",
        -9.617368399331628
      ],
      [
        "▁capital",
        -9.617466045600027
      ],
      [
        "▁glad",
        -9.617934010157049
      ],
      [
        "▁commune",
        -9.61821023202896
      ],
      [
        "▁simple",
        -9.618434313183092
      ],
      [
        "▁election",
        -9.620309129613265
      ],
      [
        "▁dream",
        -9.620905508756358
      ],
      [
        "▁floor",
        -9.62124721950604
      ],
      [
        "▁needs",
        -9.622166179563258
      ],
      [
        "▁award",
        -9.622608392387551
      ],
      [
        "▁market",
        -9.627794841511337
      ],
      [
        "▁especially",
        -9.62855134672975
      ],
      [
        "▁suppose",
        -9.629388561701989
      ],
      [
        "▁wow",
        -9.630486620790752
      ],
      [
        "▁radio",
        -9.63259282937745
      ],
      [
        "▁describe",
        -9.633107261182523
      ],
      [
        "▁sweet",
        -9.633642610231496
      ],
      [
        "▁michael",
        -9.633873115788836
      ],
      [
        "▁battle",
        -9.635880192374874
      ],
      [
        "▁stage",
        -9.637963725732298
      ],
      [
        "▁bar",
        -9.638152956537544
      ],
      [
        "▁professional",
        -9.638454499762982
      ],
      [
        "▁returned",
        -9.639865297249765
      ],
      [
        "▁popular",
        -9.640184148067052
      ],
      [
        "▁health",
        -9.640341884080868
      ],
      [
        "▁weeks",
        -9.64104134291114
      ],
      [
        "▁anybody",
        -9.64164982449512
      ],
      [
        "▁opened",
        -9.641711079161468
      ],
      [
        "▁begin",
        -9.641840622325304
      ],
      [
        "▁cause",
        -9.64189709436522
      ],
      [
        "▁stood",
        -9.643770685367375
      ],
      [
        "▁total",
        -9.644511965503929
      ],
      [
        "▁quickly",
        -9.644525552340353
      ],
      [
        "▁sitting",
        -9.648055266534817
      ],
      [
        "▁character",
        -9.649100573586727
      ],
      [
        "▁ca",
        -9.651395017329271
      ],
      [
        "▁energy",
        -9.652144226476254
      ],
      [
        "yes",
        -9.652307811438687
      ],
      [
        "▁wind",
        -9.652329593593384
      ],
      [
        "▁students",
        -9.653091710699076
      ],
      [
        "▁wonder",
        -9.654350513916071
      ],
      [
        "▁writing",
        -9.656037711900076
      ],
      [
        "▁interesting",
        -9.656610224961618
      ],
      [
        "▁research",
        -9.65703686347408
      ],
      [
        "▁subject",
        -9.657456058990212
      ],
      [
        "▁giving",
        -9.6603291432273
      ],
      [
        "▁page",
        -9.661335978204905
      ],
      [
        "of",
        -9.662852542490803
      ],
      [
        "▁aha",
        -9.66312203133046
      ],
      [
        "▁deep",
        -9.663122480388154
      ],
      [
        "▁cell",
        -9.663652845873193
      ],
      [
        "▁individual",
        -9.66432886058998
      ],
      [
        "▁bye",
        -9.668713736930396
      ],
      [
        "▁lose",
        -9.66957344016268
      ],
      [
        "▁interest",
        -9.669737897915846
      ],
      [
        "▁site",
        -9.671245088537878
      ],
      [
        "▁strange",
        -9.673267280013366
      ],
      [
        "▁increase",
        -9.677365732786225
      ],
      [
        "▁safe",
        -9.677602439966895
      ],
      [
        "▁nature",
        -9.677961027874671
      ],
      [
        "▁ice",
        -9.67809178599957
      ],
      [
        "▁study",
        -9.678235787568466
      ],
      [
        "▁machine",
        -9.678937169992391
      ],
      [
        "▁division",
        -9.679867121382674
      ],
      [
        "▁california",
        -9.68094706549522
      ],
      [
        "▁uncle",
        -9.68145697075027
      ],
      [
        "q",
        -9.682905038998378
      ],
      [
        "▁natural",
        -9.68349841207561
      ],
      [
        "▁month",
        -9.685483612716862
      ],
      [
        "▁development",
        -9.68649461182214
      ],
      [
        "▁modern",
        -9.686637287276806
      ],
      [
        "▁personal",
        -9.686672220929877
      ],
      [
        "▁secret",
        -9.686848600466307
      ],
      [
        "▁window",
        -9.68823622204684
      ],
      [
        "▁report",
        -9.6895827396696
      ],
      [
        "▁countries",
        -9.68967960924475
      ],
      [
        "▁particular",
        -9.694730666198252
      ],
      [
        "▁moving",
        -9.695118378374612
      ],
      [
        "▁reached",
        -9.695540372341547
      ],
      [
        "▁cross",
        -9.695748141477932
      ],
      [
        "▁ring",
        -9.695893953760567
      ],
      [
        "▁foot",
        -9.696603831235835
      ],
      [
        "▁military",
        -9.696792226241303
      ],
      [
        "▁non",
        -9.697700816059326
      ],
      [
        "▁miles",
        -9.6980462519014
      ],
      [
        "▁science",
        -9.698852434940882
      ],
      [
        "▁difficult",
        -9.699099674443678
      ],
      [
        "▁difference",
        -9.699515167257722
      ],
      [
        "cause",
        -9.69964648482895
      ],
      [
        "▁damn",
        -9.701127440051236
      ],
      [
        "▁hate",
        -9.7013066167814
      ],
      [
        "▁indeed",
        -9.703041325224442
      ],
      [
        "▁term",
        -9.703634127934244
      ],
      [
        "▁india",
        -9.704235908023469
      ],
      [
        "▁movement",
        -9.70439995464147
      ],
      [
        "▁catch",
        -9.704463719022618
      ],
      [
        "▁towards",
        -9.705578439136335
      ],
      [
        "▁account",
        -9.705619843047227
      ],
      [
        "▁worth",
        -9.705719997372189
      ],
      [
        "▁alive",
        -9.706199886390152
      ],
      [
        "▁action",
        -9.707152156039236
      ],
      [
        "ation",
        -9.707269310249677
      ],
      [
        "▁royal",
        -9.708479375205789
      ],
      [
        "▁whom",
        -9.708923050751215
      ],
      [
        "▁hill",
        -9.709299998200803
      ],
      [
        "▁expect",
        -9.71235010175701
      ],
      [
        "▁publishe",
        -9.716253243646577
      ],
      [
        "▁process",
        -9.717034876504655
      ],
      [
        "▁japanese",
        -9.717738644239589
      ],
      [
        "▁value",
        -9.717808646709186
      ],
      [
        "▁self",
        -9.71934805455328
      ],
      [
        "▁kingdom",
        -9.719626785184577
      ],
      [
        "▁match",
        -9.7204465721203
      ],
      [
        "▁sick",
        -9.720811323396871
      ],
      [
        "▁amount",
        -9.72155590813949
      ],
      [
        "▁quick",
        -9.721665443179608
      ],
      [
        "▁pull",
        -9.72220412882779
      ],
      [
        "▁version",
        -9.722823628407504
      ],
      [
        "▁fear",
        -9.724280150819112
      ],
      [
        "▁appeared",
        -9.724443128889474
      ],
      [
        "▁function",
        -9.724932122432207
      ],
      [
        "▁allow",
        -9.725745207809233
      ],
      [
        "▁clean",
        -9.726077906418992
      ],
      [
        "▁nor",
        -9.728165874470912
      ],
      [
        "▁view",
        -9.728488120314116
      ],
      [
        "▁caught",
        -9.729008076684876
      ],
      [
        "▁ooh",
        -9.729307562705756
      ],
      [
        "▁mary",
        -9.730407527085474
      ],
      [
        "▁located",
        -9.731448005632291
      ],
      [
        "▁private",
        -9.731826826911906
      ],
      [
        "▁design",
        -9.733165443113773
      ],
      [
        "▁questions",
        -9.73337309782325
      ],
      [
        "▁followed",
        -9.73345118844109
      ],
      [
        "▁none",
        -9.737082670808029
      ],
      [
        "for",
        -9.737737853779782
      ],
      [
        "▁finish",
        -9.74055606929874
      ],
      [
        "▁except",
        -9.742422234881513
      ],
      [
        "▁grow",
        -9.742458026342163
      ],
      [
        "▁key",
        -9.742976702222789
      ],
      [
        "▁decision",
        -9.743137123602654
      ],
      [
        "▁grand",
        -9.745815599341537
      ],
      [
        "▁post",
        -9.746146924817124
      ],
      [
        "▁test",
        -9.74683270869322
      ],
      [
        "don",
        -9.747427428355833
      ],
      [
        "▁color",
        -9.749094983614746
      ],
      [
        "▁anymore",
        -9.750853668557689
      ],
      [
        "▁politician",
        -9.75271918537438
      ],
      [
        "▁peace",
        -9.752783582631638
      ],
      [
        "▁cost",
        -9.753353753750714
      ],
      [
        "▁wood",
        -9.75860620672716
      ],
      [
        "my",
        -9.759437636661536
      ],
      [
        "▁robert",
        -9.760309735281831
      ],
      [
        "ville",
        -9.76106258706441
      ],
      [
        "▁sounds",
        -9.761532592899504
      ],
      [
        "▁date",
        -9.763355876262008
      ],
      [
        "▁share",
        -9.766059919628496
      ],
      [
        "▁needed",
        -9.766394534539629
      ],
      [
        "▁title",
        -9.767380183329545
      ],
      [
        "▁various",
        -9.76788924070751
      ],
      [
        "▁stone",
        -9.769064198101896
      ],
      [
        "▁suddenly",
        -9.76950714101554
      ],
      [
        "▁arm",
        -9.77252605571386
      ],
      [
        "▁object",
        -9.7729421289314
      ],
      [
        "▁store",
        -9.772992119935434
      ],
      [
        "ling",
        -9.773504280970371
      ],
      [
        "▁push",
        -9.774747034480187
      ],
      [
        "▁jesus",
        -9.777343575095625
      ],
      [
        "▁current",
        -9.777900742649836
      ],
      [
        "▁province",
        -9.780810083698888
      ],
      [
        "▁degree",
        -9.78168707982182
      ],
      [
        "▁stopped",
        -9.782415870765997
      ],
      [
        "▁lake",
        -9.78503085617942
      ],
      [
        "▁wonderful",
        -9.785928798023509
      ],
      [
        "▁somewhere",
        -9.786716023910325
      ],
      [
        "▁hurry",
        -9.787373189575924
      ],
      [
        "▁tea",
        -9.788371834091375
      ],
      [
        "▁serious",
        -9.78904161078669
      ],
      [
        "▁animals",
        -9.789398863276167
      ],
      [
        "▁chair",
        -9.791250756343402
      ],
      [
        "▁sold",
        -9.791707695703693
      ],
      [
        "▁allowed",
        -9.792445540320765
      ],
      [
        "▁western",
        -9.793084732069028
      ],
      [
        "▁european",
        -9.793901040746654
      ],
      [
        "▁perfect",
        -9.793925577637584
      ],
      [
        "less",
        -9.79415611982846
      ],
      [
        "▁places",
        -9.794591992860909
      ],
      [
        "▁stupid",
        -9.796092788438552
      ],
      [
        "▁beat",
        -9.796557378730634
      ],
      [
        "▁data",
        -9.796778033271544
      ],
      [
        "▁material",
        -9.797078072502275
      ],
      [
        "▁takes",
        -9.798096498333305
      ],
      [
        "▁standing",
        -9.798356440233135
      ],
      [
        "▁size",
        -9.799690169040462
      ],
      [
        "▁europe",
        -9.80523660826928
      ],
      [
        "▁ex",
        -9.80690437348562
      ],
      [
        "▁square",
        -9.80725460186064
      ],
      [
        "▁promise",
        -9.808452063317675
      ],
      [
        "▁bird",
        -9.808694369444058
      ],
      [
        "▁camp",
        -9.80877207694278
      ],
      [
        "▁seeing",
        -9.809180454652488
      ],
      [
        "▁lie",
        -9.810368543080036
      ],
      [
        "▁terms",
        -9.810437458992531
      ],
      [
        "ley",
        -9.813171835624049
      ],
      [
        "▁thirty",
        -9.81582567624732
      ],
      [
        "▁wear",
        -9.816898189292074
      ],
      [
        "▁paid",
        -9.81873453303875
      ],
      [
        "▁boat",
        -9.818928115941898
      ],
      [
        "▁offer",
        -9.819356892893229
      ],
      [
        "▁professor",
        -9.819627063447417
      ],
      [
        "▁therefore",
        -9.821416473574828
      ],
      [
        "▁build",
        -9.821531915862884
      ],
      [
        "▁patient",
        -9.821640946397787
      ],
      [
        "▁spent",
        -9.822748130885708
      ],
      [
        "▁female",
        -9.824063559188348
      ],
      [
        "▁officer",
        -9.825433572682815
      ],
      [
        "▁answered",
        -9.825732638032102
      ],
      [
        "▁brain",
        -9.826407295841928
      ],
      [
        "ate",
        -9.826611379254585
      ],
      [
        "▁involved",
        -9.826900515727402
      ],
      [
        "▁bought",
        -9.827730207978984
      ],
      [
        "▁parts",
        -9.8280648750889
      ],
      [
        "▁gets",
        -9.828651045004117
      ],
      [
        "▁arms",
        -9.828703171669098
      ],
      [
        "▁jo",
        -9.829778947971157
      ],
      [
        "produced",
        -9.833116800347623
      ],
      [
        "▁explain",
        -9.83317867562302
      ],
      [
        "▁meant",
        -9.833345390770328
      ],
      [
        "▁entire",
        -9.83520001384247
      ],
      [
        "▁attention",
        -9.836276544505337
      ],
      [
        "▁relationship",
        -9.837570568469252
      ],
      [
        "covered",
        -9.837609797853144
      ],
      [
        "▁carry",
        -9.838736099275604
      ],
      [
        "▁production",
        -9.839362371449784
      ],
      [
        "day",
        -9.839802397598122
      ],
      [
        "▁provide",
        -9.8424238163651
      ],
      [
        "▁mad",
        -9.84255459048624
      ],
      [
        "▁asking",
        -9.84287845122789
      ],
      [
        "▁roman",
        -9.84345389528488
      ],
      [
        "‘",
        -9.84395404842646
      ],
      [
        "▁broke",
        -9.844276450423845
      ],
      [
        "▁northern",
        -9.845036152211495
      ],
      [
        "▁nearly",
        -9.84678944465906
      ],
      [
        "▁rich",
        -9.847009043076962
      ],
      [
        "▁scene",
        -9.847854692059531
      ],
      [
        "▁sam",
        -9.848303581616705
      ],
      [
        "▁plus",
        -9.850665742030104
      ],
      [
        "▁considered",
        -9.850941242001396
      ],
      [
        "▁joined",
        -9.852171399068514
      ],
      [
        "▁lower",
        -9.852566918417534
      ],
      [
        "▁stars",
        -9.85332872788681
      ],
      [
        "▁forest",
        -9.853815995962696
      ],
      [
        "▁enjoy",
        -9.85392457611671
      ],
      [
        "▁bridge",
        -9.855108325063378
      ],
      [
        "ment",
        -9.85526430926777
      ],
      [
        "▁largest",
        -9.85781564435157
      ],
      [
        "▁sad",
        -9.858917546253856
      ],
      [
        "▁marriage",
        -9.861727615436504
      ],
      [
        "▁wild",
        -9.862162072022558
      ],
      [
        "▁evidence",
        -9.865389227403329
      ],
      [
        "▁tired",
        -9.867109438327317
      ],
      [
        "▁soul",
        -9.867941908055217
      ],
      [
        "▁purpose",
        -9.8688845566866
      ],
      [
        "▁sex",
        -9.869370822129651
      ],
      [
        "▁trade",
        -9.869537093125176
      ],
      [
        "▁separate",
        -9.871492141671116
      ],
      [
        "▁grew",
        -9.872639860505078
      ],
      [
        "▁stick",
        -9.873096391243728
      ],
      [
        "▁vote",
        -9.87382000459324
      ],
      [
        "directed",
        -9.875084612006164
      ],
      [
        "▁china",
        -9.876719803416098
      ],
      [
        "▁hang",
        -9.876746635766152
      ],
      [
        "▁coast",
        -9.877055318472596
      ],
      [
        "▁southern",
        -9.878034588486557
      ],
      [
        "▁product",
        -9.878681449136096
      ],
      [
        "▁pain",
        -9.87871769383718
      ],
      [
        "▁clothes",
        -9.87886075026947
      ],
      [
        "▁completely",
        -9.88148804335726
      ],
      [
        "▁garden",
        -9.882181844423236
      ],
      [
        "▁leader",
        -9.883328465042194
      ],
      [
        "▁source",
        -9.884055466038175
      ],
      [
        "▁draw",
        -9.884532978227508
      ],
      [
        "▁bag",
        -9.884813301679412
      ],
      [
        "▁simply",
        -9.885424097003618
      ],
      [
        "▁fifty",
        -9.885793831440678
      ],
      [
        "not",
        -9.88669160898652
      ],
      [
        "▁charge",
        -9.886951925308312
      ],
      [
        "▁heavy",
        -9.887207488884057
      ],
      [
        "▁mountain",
        -9.888619315646244
      ],
      [
        "▁christmas",
        -9.88942107875419
      ],
      [
        "ca",
        -9.88957921221244
      ],
      [
        "▁census",
        -9.891552649050087
      ],
      [
        "▁snow",
        -9.892493268784555
      ],
      [
        "▁sell",
        -9.89308196580108
      ],
      [
        "▁formula",
        -9.893686117149908
      ],
      [
        "▁laugh",
        -9.894534366820514
      ],
      [
        "▁added",
        -9.895923386856332
      ],
      [
        "▁drop",
        -9.90026031994809
      ],
      [
        "▁shouldn",
        -9.900811492522502
      ],
      [
        "▁yellow",
        -9.901419680400569
      ],
      [
        "▁join",
        -9.9020283068434
      ],
      [
        "▁fellow",
        -9.90205376901685
      ],
      [
        "▁dollar",
        -9.9020701220232
      ],
      [
        "▁absolutely",
        -9.90241456284545
      ],
      [
        "▁coffee",
        -9.903363035035648
      ],
      [
        "▁broken",
        -9.903735605684126
      ],
      [
        "▁travel",
        -9.90499581539353
      ],
      [
        "▁centre",
        -9.90597932092538
      ],
      [
        "▁score",
        -9.906729006000814
      ],
      [
        "time",
        -9.907752279352604
      ],
      [
        "let",
        -9.909333849406073
      ],
      [
        "▁loved",
        -9.909423237637414
      ],
      [
        "▁doubt",
        -9.909472729426708
      ],
      [
        "▁super",
        -9.909521471103726
      ],
      [
        "▁thus",
        -9.912225731647949
      ],
      [
        "▁paris",
        -9.912799746695944
      ],
      [
        "▁regular",
        -9.914584153320432
      ],
      [
        "▁plays",
        -9.914730780733212
      ],
      [
        "▁actor",
        -9.91506343322014
      ],
      [
        "▁saint",
        -9.915175702591831
      ],
      [
        "▁ye",
        -9.915322015467195
      ],
      [
        "▁watching",
        -9.917871393903772
      ],
      [
        "▁warm",
        -9.919029821987504
      ],
      [
        "▁starting",
        -9.919296274486944
      ],
      [
        "▁reach",
        -9.91977257466665
      ],
      [
        "▁included",
        -9.92033029294509
      ],
      [
        "▁respect",
        -9.920805119757343
      ],
      [
        "▁training",
        -9.921128633303846
      ],
      [
        "all",
        -9.921267974711403
      ],
      [
        "▁afternoon",
        -9.923307442270758
      ],
      [
        "ur",
        -9.925979729338454
      ],
      [
        "▁moon",
        -9.926272295760288
      ],
      [
        "▁winter",
        -9.929922745424827
      ],
      [
        "▁frank",
        -9.93004192039587
      ],
      [
        "▁lovely",
        -9.930136668577726
      ],
      [
        "▁yesterday",
        -9.930295234952396
      ],
      [
        "▁range",
        -9.930354576155112
      ],
      [
        "▁bottom",
        -9.931037504669296
      ],
      [
        "▁below",
        -9.93113283432685
      ],
      [
        "stories",
        -9.936807258902578
      ],
      [
        "▁successful",
        -9.937414705845876
      ],
      [
        "▁australia",
        -9.937603890975767
      ],
      [
        "ng",
        -9.938044387650503
      ],
      [
        "▁direction",
        -9.939025686375487
      ],
      [
        "▁trees",
        -9.939303239986536
      ],
      [
        "▁higher",
        -9.9395413404426
      ],
      [
        "▁shows",
        -9.93987813410402
      ],
      [
        "▁milk",
        -9.940230571120091
      ],
      [
        "▁murder",
        -9.94040810034182
      ],
      [
        "▁richard",
        -9.940467079099164
      ],
      [
        "▁municipality",
        -9.941357834793514
      ],
      [
        "▁caused",
        -9.941845517076166
      ],
      [
        "▁rate",
        -9.941898948804962
      ],
      [
        "▁prime",
        -9.942498407765733
      ],
      [
        "▁choice",
        -9.942982160409333
      ],
      [
        "▁talked",
        -9.943451082521968
      ],
      [
        "▁track",
        -9.944003151868989
      ],
      [
        "▁association",
        -9.94618998012899
      ],
      [
        "▁charles",
        -9.946571195720294
      ],
      [
        "▁fly",
        -9.949051946057535
      ],
      [
        "▁birthday",
        -9.949761822176772
      ],
      [
        "▁security",
        -9.95025594288553
      ],
      [
        "▁visit",
        -9.950741523783655
      ],
      [
        "year",
        -9.95117571466119
      ],
      [
        "▁unless",
        -9.951577666651342
      ],
      [
        "▁studie",
        -9.951810430971344
      ],
      [
        "▁spoke",
        -9.95216400689722
      ],
      [
        "▁sky",
        -9.954357973839889
      ],
      [
        "▁sub",
        -9.954588353073769
      ],
      [
        "▁shoot",
        -9.954677777976736
      ],
      [
        "▁disease",
        -9.954941605642952
      ],
      [
        "helped",
        -9.958264834757832
      ],
      [
        "▁hotel",
        -9.958529260123187
      ],
      [
        "▁points",
        -9.959075479251684
      ],
      [
        "▁engine",
        -9.959179477705074
      ],
      [
        "▁spend",
        -9.959666736695102
      ],
      [
        "▁normal",
        -9.959767530213652
      ],
      [
        "she",
        -9.960587078102323
      ],
      [
        "▁pre",
        -9.96085961663728
      ],
      [
        "▁calling",
        -9.961212506140216
      ],
      [
        "▁length",
        -9.961978784912604
      ],
      [
        "▁add",
        -9.96216659981392
      ],
      [
        "▁episode",
        -9.96233167584824
      ],
      [
        "▁event",
        -9.96245822686145
      ],
      [
        "▁areas",
        -9.963170959110329
      ],
      [
        "▁structure",
        -9.963667613673014
      ],
      [
        "▁speed",
        -9.964504801118762
      ],
      [
        "▁henry",
        -9.964878496282727
      ],
      [
        "▁distance",
        -9.964968668263008
      ],
      [
        "▁prison",
        -9.966801441815342
      ],
      [
        "▁italian",
        -9.967410423099723
      ],
      [
        "▁continue",
        -9.968536897407883
      ],
      [
        "▁worse",
        -9.971139557964918
      ],
      [
        "▁interested",
        -9.971380938141184
      ],
      [
        "▁russian",
        -9.971851689082078
      ],
      [
        "▁average",
        -9.971988075074886
      ],
      [
        "▁boss",
        -9.972559235797377
      ],
      [
        "▁imagine",
        -9.97291652917233
      ],
      [
        "▁aunt",
        -9.973853236537677
      ],
      [
        "this",
        -9.974910215700202
      ],
      [
        "▁ancient",
        -9.975062057153782
      ],
      [
        "▁showed",
        -9.975341388942269
      ],
      [
        "▁contain",
        -9.97575449354109
      ],
      [
        "▁rule",
        -9.97587289087345
      ],
      [
        "▁washington",
        -9.976048318905743
      ],
      [
        "▁mistake",
        -9.97656579018786
      ],
      [
        "▁meaning",
        -9.97696433511204
      ],
      [
        "▁founded",
        -9.97708145531033
      ],
      [
        "▁happening",
        -9.977209380469567
      ],
      [
        "▁release",
        -9.978742879225596
      ],
      [
        "▁fit",
        -9.979208059101309
      ],
      [
        "▁spring",
        -9.980940724228208
      ],
      [
        "▁nose",
        -9.981379519082791
      ],
      [
        "▁style",
        -9.982822493707266
      ],
      [
        "▁accept",
        -9.982983326884522
      ],
      [
        "▁sing",
        -9.983764106561257
      ],
      [
        "▁civil",
        -9.986273114095075
      ],
      [
        "▁base",
        -9.9880809753702
      ],
      [
        "▁double",
        -9.989050347257413
      ],
      [
        "▁ride",
        -9.98971732005603
      ],
      [
        "+",
        -9.989989868598665
      ],
      [
        "▁practice",
        -9.99042902127088
      ],
      [
        "continued",
        -9.993629936339474
      ],
      [
        "▁luck",
        -9.994367797430929
      ],
      [
        "▁performance",
        -9.99445567627448
      ],
      [
        "▁message",
        -9.997109161850284
      ],
      [
        "é",
        -9.997268400430324
      ],
      [
        "▁wide",
        -9.997355302904666
      ],
      [
        "▁mum",
        -9.99781096654138
      ],
      [
        "▁count",
        -9.998270088052005
      ],
      [
        "▁closed",
        -9.998627922717874
      ],
      [
        "▁di",
        -9.998872828502796
      ],
      [
        "▁price",
        -9.999508052446584
      ],
      [
        "▁anne",
        -9.999589172027616
      ],
      [
        "▁numbers",
        -9.999823895103193
      ],
      [
        "▁announced",
        -10.000861461998294
      ],
      [
        "▁pounds",
        -10.001370548591431
      ],
      [
        "side",
        -10.001553640923436
      ],
      [
        "▁corner",
        -10.002574554058828
      ],
      [
        "▁putting",
        -10.003103366577143
      ],
      [
        "▁press",
        -10.004248533616414
      ],
      [
        "▁earlier",
        -10.00625749495168
      ],
      [
        "▁princess",
        -10.007518118941
      ],
      [
        "▁governor",
        -10.008025379405058
      ],
      [
        "▁sight",
        -10.008484891706596
      ],
      [
        "▁spirit",
        -10.008643569028482
      ],
      [
        "hat",
        -10.008675756012652
      ],
      [
        "▁animal",
        -10.010497583640143
      ],
      [
        "like",
        -10.01138852312192
      ],
      [
        "▁canada",
        -10.011389302099069
      ],
      [
        "▁section",
        -10.011942730572226
      ],
      [
        "▁gas",
        -10.013002146542876
      ],
      [
        "▁carried",
        -10.0134526743697
      ],
      [
        "▁committee",
        -10.01421620404826
      ],
      [
        "▁huge",
        -10.01592995944651
      ],
      [
        "▁fox",
        -10.016833386781448
      ],
      [
        "▁agree",
        -10.019214515940543
      ],
      [
        "▁medical",
        -10.019436097357078
      ],
      [
        "▁singer",
        -10.019686855095944
      ],
      [
        "▁reading",
        -10.022539444664195
      ],
      [
        "▁storm",
        -10.022693281183733
      ],
      [
        "▁records",
        -10.022726386561748
      ],
      [
        "▁busy",
        -10.024064220750503
      ],
      [
        "▁method",
        -10.025184791198546
      ],
      [
        "▁formed",
        -10.025928986874764
      ],
      [
        "▁developed",
        -10.027147693394555
      ],
      [
        "▁create",
        -10.030613497241912
      ],
      [
        "▁crime",
        -10.030648296277104
      ],
      [
        "▁silver",
        -10.03142861169131
      ],
      [
        "▁martin",
        -10.031603021950048
      ],
      [
        "▁thomas",
        -10.031948906408966
      ],
      [
        "▁student",
        -10.033316721454662
      ],
      [
        "▁terrible",
        -10.034475548560692
      ],
      [
        "▁africa",
        -10.034585736673709
      ],
      [
        "▁cry",
        -10.034697276509524
      ],
      [
        "▁bus",
        -10.03473969709296
      ],
      [
        "▁notice",
        -10.034851917336626
      ],
      [
        "▁weren",
        -10.036386932281848
      ],
      [
        "▁speaking",
        -10.038331863243942
      ],
      [
        "elected",
        -10.03918114310972
      ],
      [
        "▁calm",
        -10.03967955990895
      ],
      [
        "▁groups",
        -10.040571825798082
      ],
      [
        "old",
        -10.040641077446622
      ],
      [
        "▁available",
        -10.041084904236811
      ],
      [
        "▁divide",
        -10.041087973251155
      ],
      [
        "▁teacher",
        -10.041200672873916
      ],
      [
        "▁ended",
        -10.041832103916382
      ],
      [
        "▁christian",
        -10.04429748567374
      ],
      [
        "▁success",
        -10.044322679912192
      ],
      [
        "▁lee",
        -10.045488031398312
      ],
      [
        "▁oil",
        -10.04576898368483
      ],
      [
        "▁depend",
        -10.04581697570288
      ],
      [
        "▁learned",
        -10.047209329294011
      ],
      [
        "▁joe",
        -10.048111656888953
      ],
      [
        "▁bay",
        -10.050028602171878
      ],
      [
        "▁beyond",
        -10.050420388986328
      ],
      [
        "▁marry",
        -10.051064358011676
      ],
      [
        "▁effort",
        -10.051484352943117
      ],
      [
        "▁van",
        -10.051683583942484
      ],
      [
        "▁fault",
        -10.052555317999676
      ],
      [
        "▁songs",
        -10.052584441570067
      ],
      [
        "▁flowers",
        -10.052995466612156
      ],
      [
        "▁ladies",
        -10.054676052082328
      ],
      [
        "▁fourth",
        -10.055234987618055
      ],
      [
        "▁accident",
        -10.055236688687748
      ],
      [
        "ability",
        -10.056473866098376
      ],
      [
        "ary",
        -10.059199604234614
      ],
      [
        "▁code",
        -10.060635113166525
      ],
      [
        "▁remain",
        -10.061082964529398
      ],
      [
        "▁chinese",
        -10.063609091530758
      ],
      [
        "▁established",
        -10.065286093334455
      ],
      [
        "▁christ",
        -10.065818683056875
      ],
      [
        "necessary",
        -10.066901691971935
      ],
      [
        "▁scared",
        -10.067278152804285
      ],
      [
        "▁blow",
        -10.067386120341595
      ],
      [
        "▁rain",
        -10.06805701370718
      ],
      [
        "▁attempt",
        -10.06812643268298
      ],
      [
        "▁search",
        -10.068627406261566
      ],
      [
        "▁theory",
        -10.069509097437948
      ],
      [
        "▁wake",
        -10.069797779666944
      ],
      [
        "▁pictures",
        -10.070852216378524
      ],
      [
        "▁protect",
        -10.07188565268265
      ],
      [
        "▁taste",
        -10.072114918534508
      ],
      [
        "▁museum",
        -10.072274891675836
      ],
      [
        "▁valley",
        -10.072844093399384
      ],
      [
        "▁official",
        -10.073077153595625
      ],
      [
        "▁ought",
        -10.073081377106188
      ],
      [
        "▁chapter",
        -10.07385360535998
      ],
      [
        "▁wedding",
        -10.07472473140952
      ],
      [
        "▁holding",
        -10.074989742200795
      ],
      [
        "▁kiss",
        -10.07547574085752
      ],
      [
        "▁twelve",
        -10.075594271135952
      ],
      [
        "▁forces",
        -10.076087553100043
      ],
      [
        "▁dress",
        -10.076129366307264
      ],
      [
        "▁smile",
        -10.07721980905531
      ],
      [
        "▁feature",
        -10.07790717217284
      ],
      [
        "▁honor",
        -10.078509052300182
      ],
      [
        "▁economic",
        -10.079109388941228
      ],
      [
        "▁obviously",
        -10.07959661285308
      ],
      [
        "▁youth",
        -10.08009366875538
      ],
      [
        "▁events",
        -10.08053626541083
      ],
      [
        "▁camera",
        -10.080637728222792
      ],
      [
        "▁risk",
        -10.080702380286478
      ],
      [
        "▁smell",
        -10.082320913387772
      ],
      [
        "▁flight",
        -10.08283494921274
      ],
      [
        "▁pair",
        -10.084697137825293
      ],
      [
        "▁surface",
        -10.08470795535565
      ],
      [
        "▁eating",
        -10.084928896768972
      ],
      [
        "▁media",
        -10.085020362972246
      ],
      [
        "▁legs",
        -10.085556618736812
      ],
      [
        "▁coach",
        -10.086231356305516
      ],
      [
        "▁glass",
        -10.088868095817764
      ],
      [
        "▁neither",
        -10.089778796354622
      ],
      [
        "▁pressure",
        -10.092212921808212
      ],
      [
        "▁competition",
        -10.092683133480064
      ],
      [
        "▁recognize",
        -10.093003411286391
      ],
      [
        "▁bright",
        -10.093544308327788
      ],
      [
        "▁mostly",
        -10.09403585857127
      ],
      [
        "▁golden",
        -10.094653111843332
      ],
      [
        "▁appearance",
        -10.095236899036822
      ],
      [
        "eventually",
        -10.096989220844597
      ],
      [
        "▁lines",
        -10.097035034714834
      ],
      [
        "▁fresh",
        -10.097362547657582
      ],
      [
        "▁magazine",
        -10.097721968273794
      ],
      [
        "▁jim",
        -10.09785053437782
      ],
      [
        "▁require",
        -10.097995358960338
      ],
      [
        "▁shop",
        -10.098415318043047
      ],
      [
        "▁fighting",
        -10.098524315136553
      ],
      [
        "▁exist",
        -10.09896753679277
      ],
      [
        "▁palace",
        -10.099676299371575
      ],
      [
        "▁firm",
        -10.099749214688718
      ],
      [
        "▁fat",
        -10.100296480933368
      ],
      [
        "▁republic",
        -10.10262466992846
      ],
      [
        "▁plant",
        -10.10686904293832
      ],
      [
        "ham",
        -10.107522145272002
      ],
      [
        "▁surprise",
        -10.107829448211223
      ],
      [
        "▁native",
        -10.107848999138884
      ],
      [
        "▁iron",
        -10.108987951712
      ],
      [
        "▁gives",
        -10.10906769033767
      ],
      [
        "▁choose",
        -10.109304550609464
      ],
      [
        "▁network",
        -10.109989132920076
      ],
      [
        "▁older",
        -10.109989309367926
      ],
      [
        "▁changes",
        -10.113743948713616
      ],
      [
        "age",
        -10.114280106935665
      ],
      [
        "▁skin",
        -10.114690358162754
      ],
      [
        "▁lying",
        -10.114882882336506
      ],
      [
        "▁castle",
        -10.115256496797578
      ],
      [
        "▁frog",
        -10.115378027165054
      ],
      [
        "led",
        -10.115492274151585
      ],
      [
        "▁pop",
        -10.11676770433104
      ],
      [
        "▁walking",
        -10.116993032673092
      ],
      [
        "▁lucky",
        -10.117120959011665
      ],
      [
        "¶",
        -10.117171646272094
      ],
      [
        "▁prize",
        -10.118671253595233
      ],
      [
        "▁texas",
        -10.119964333317052
      ],
      [
        "▁spanish",
        -10.12267969946708
      ],
      [
        "▁replie",
        -10.12367760673102
      ],
      [
        "▁bi",
        -10.12442287074624
      ],
      [
        "▁card",
        -10.125074846097618
      ],
      [
        "▁command",
        -10.12518260833074
      ],
      [
        "▁twice",
        -10.125306836387836
      ],
      [
        "▁extra",
        -10.126386176039386
      ],
      [
        "▁judge",
        -10.1264039681683
      ],
      [
        "▁raised",
        -10.129360289957887
      ],
      [
        "▁produce",
        -10.13096443894817
      ],
      [
        "▁greater",
        -10.132534613234954
      ],
      [
        "▁eastern",
        -10.132662953330025
      ],
      [
        "▁discovered",
        -10.133298404594813
      ],
      [
        "▁throughout",
        -10.13359399062794
      ],
      [
        "▁arrived",
        -10.134444621287622
      ],
      [
        "▁knowledge",
        -10.13477309513532
      ],
      [
        "▁movies",
        -10.134883198422486
      ],
      [
        "▁signed",
        -10.13558982525045
      ],
      [
        "there",
        -10.135708686064804
      ],
      [
        "▁affair",
        -10.135885643995282
      ],
      [
        "walked",
        -10.13680249019486
      ],
      [
        "▁route",
        -10.137123339602198
      ],
      [
        "▁staff",
        -10.137358572208663
      ],
      [
        "▁dangerous",
        -10.138551060239283
      ],
      [
        "▁enemy",
        -10.140461062044348
      ],
      [
        "▁dry",
        -10.140923194752384
      ],
      [
        "house",
        -10.142358015813684
      ],
      [
        "▁mission",
        -10.142899952649048
      ],
      [
        "now",
        -10.14424946873496
      ],
      [
        "ally",
        -10.145040022550758
      ],
      [
        "off",
        -10.14720138429105
      ],
      [
        "▁claim",
        -10.148495509163128
      ],
      [
        "▁contact",
        -10.148509038160102
      ],
      [
        "▁kitchen",
        -10.149281467982131
      ],
      [
        "▁sports",
        -10.149503646517005
      ],
      [
        "▁slow",
        -10.150566530673482
      ],
      [
        "▁pennsylvania",
        -10.150956528980856
      ],
      [
        "▁guest",
        -10.15124955668242
      ],
      [
        "▁male",
        -10.151289791570504
      ],
      [
        "▁studio",
        -10.153718934922418
      ],
      [
        "▁campaign",
        -10.153807309620536
      ],
      [
        "▁federal",
        -10.154498234486235
      ],
      [
        "▁refer",
        -10.154513445052478
      ],
      [
        "▁escape",
        -10.154519747222173
      ],
      [
        "▁ways",
        -10.154602760086377
      ],
      [
        "▁bo",
        -10.155162204119357
      ],
      [
        "▁forty",
        -10.155451946804064
      ],
      [
        "out",
        -10.155921041031984
      ],
      [
        "▁angry",
        -10.15644998949461
      ],
      [
        "▁names",
        -10.157254171587237
      ],
      [
        "▁thou",
        -10.15734499214786
      ],
      [
        "▁manager",
        -10.157347227175984
      ],
      [
        "▁rules",
        -10.158074369571109
      ],
      [
        "▁dan",
        -10.158303849010109
      ],
      [
        "▁soldiers",
        -10.158473304349132
      ],
      [
        "▁decide",
        -10.159287893163738
      ],
      [
        "▁spot",
        -10.159793980133104
      ],
      [
        "}",
        -10.161568171007334
      ],
      [
        "▁du",
        -10.16203595153137
      ],
      [
        "▁secretary",
        -10.162782219939295
      ],
      [
        "▁belong",
        -10.163348238489274
      ],
      [
        "▁independent",
        -10.16375249342291
      ],
      [
        "▁empire",
        -10.165196229829672
      ],
      [
        "▁policy",
        -10.168482375488932
      ],
      [
        "▁culture",
        -10.16903375457241
      ],
      [
        "▁fix",
        -10.16918704969422
      ],
      [
        "▁memory",
        -10.169234602497996
      ],
      [
        "▁wa",
        -10.170552948294022
      ],
      [
        "▁cases",
        -10.17119194932704
      ],
      [
        "field",
        -10.172999459540632
      ],
      [
        "▁strength",
        -10.174155188420094
      ],
      [
        "▁mass",
        -10.174546594878038
      ],
      [
        "▁believed",
        -10.175131619628388
      ],
      [
        "▁birth",
        -10.175829546505293
      ],
      [
        "▁correct",
        -10.177387992534452
      ],
      [
        "▁pleasure",
        -10.177447852094128
      ],
      [
        "▁percent",
        -10.177800115242146
      ],
      [
        "▁proud",
        -10.17800781583972
      ],
      [
        "her",
        -10.17866115872542
      ],
      [
        "▁faith",
        -10.179035247864755
      ],
      [
        "▁property",
        -10.18074821308342
      ],
      [
        "▁newspaper",
        -10.18159488714482
      ],
      [
        "▁greek",
        -10.18213822922274
      ],
      [
        "▁lawyer",
        -10.182809413840896
      ],
      [
        "▁ear",
        -10.183819488559012
      ],
      [
        "▁weight",
        -10.184393313219982
      ],
      [
        "▁hide",
        -10.184534743329351
      ],
      [
        "▁neck",
        -10.184975095328635
      ],
      [
        "▁path",
        -10.185800522592093
      ],
      [
        "▁weather",
        -10.185859509479206
      ],
      [
        "▁leaves",
        -10.186063650061778
      ],
      [
        "▁shoulder",
        -10.186272936504253
      ],
      [
        "▁apart",
        -10.186570912310223
      ],
      [
        "▁holy",
        -10.1869629555891
      ],
      [
        "▁likely",
        -10.187693787435483
      ],
      [
        "▁suggest",
        -10.188333891549757
      ],
      [
        "▁letters",
        -10.188399212102626
      ],
      [
        "▁smith",
        -10.19072207133853
      ],
      [
        "▁missing",
        -10.192279633097172
      ],
      [
        "▁spread",
        -10.192458707573238
      ],
      [
        "▁impossibl",
        -10.193231958323706
      ],
      [
        "why",
        -10.19330270681438
      ],
      [
        "▁anywhere",
        -10.193817381023312
      ],
      [
        "▁slowly",
        -10.196175074813793
      ],
      [
        "▁bottle",
        -10.19634893423384
      ],
      [
        "▁guard",
        -10.196692694769991
      ],
      [
        "▁chicago",
        -10.196765270247356
      ],
      [
        "▁tape",
        -10.196859626066493
      ],
      [
        "▁gentlemen",
        -10.196992957397573
      ],
      [
        "▁cast",
        -10.197792611193451
      ],
      [
        "▁border",
        -10.198540909291337
      ],
      [
        "▁tour",
        -10.198638482156298
      ],
      [
        "▁unit",
        -10.198640858040823
      ],
      [
        "▁easily",
        -10.200602754217694
      ],
      [
        "▁bell",
        -10.20068349353685
      ],
      [
        "▁definitely",
        -10.200769120653534
      ],
      [
        "▁tower",
        -10.200827835932335
      ],
      [
        "can",
        -10.20098672056518
      ],
      [
        "▁evil",
        -10.20327631597195
      ],
      [
        "▁consider",
        -10.20332094044455
      ],
      [
        "▁ka",
        -10.204025672506129
      ],
      [
        "▁concern",
        -10.204451549184846
      ],
      [
        "▁gay",
        -10.205205765607664
      ],
      [
        "▁heaven",
        -10.20692355851324
      ],
      [
        "▁aged",
        -10.206993060341729
      ],
      [
        "who",
        -10.207133674111184
      ],
      [
        "▁festival",
        -10.207403451263366
      ],
      [
        "▁legal",
        -10.207831481417246
      ],
      [
        "▁dick",
        -10.207982975702173
      ],
      [
        "▁trip",
        -10.20843039328749
      ],
      [
        "▁handle",
        -10.208433065818609
      ],
      [
        "▁ideas",
        -10.20952222278562
      ],
      [
        "▁brothers",
        -10.21065249991125
      ],
      [
        "▁opening",
        -10.21082659630801
      ],
      [
        "▁shown",
        -10.21219167883613
      ],
      [
        "fully",
        -10.212488277181707
      ],
      [
        "▁birds",
        -10.212727824737478
      ],
      [
        "▁soviet",
        -10.213233509884567
      ],
      [
        "den",
        -10.214158087161742
      ],
      [
        "▁amazing",
        -10.215810177386023
      ],
      [
        "families",
        -10.216551010847285
      ],
      [
        "▁forgot",
        -10.217143806405684
      ],
      [
        "▁recorded",
        -10.219014618916592
      ],
      [
        "wood",
        -10.21916291431956
      ],
      [
        "▁artist",
        -10.219189010993055
      ],
      [
        "▁leading",
        -10.219240652191475
      ],
      [
        "▁lunch",
        -10.219440262819466
      ],
      [
        "\\",
        -10.220167446074315
      ],
      [
        "▁location",
        -10.22092490193171
      ],
      [
        "▁technology",
        -10.221065941385843
      ],
      [
        "▁pa",
        -10.222148546878676
      ],
      [
        "ten",
        -10.222364525251722
      ],
      [
        "▁italy",
        -10.222584334501017
      ],
      [
        "▁teach",
        -10.224141248915158
      ],
      [
        "▁citie",
        -10.22443914408547
      ],
      [
        "▁victim",
        -10.225570554318772
      ],
      [
        "▁bigger",
        -10.226326617944094
      ],
      [
        "▁soft",
        -10.226979778702471
      ],
      [
        "▁flat",
        -10.227061941672645
      ],
      [
        "▁dropped",
        -10.22741029456349
      ],
      [
        "▁opinion",
        -10.22755887485817
      ],
      [
        "▁cancer",
        -10.22763281341775
      ],
      [
        "▁awards",
        -10.227749060311387
      ],
      [
        "▁painting",
        -10.228575460067464
      ],
      [
        "▁channel",
        -10.228616337549823
      ],
      [
        "▁speech",
        -10.228687786310134
      ],
      [
        "▁challenge",
        -10.22896761763536
      ],
      [
        "▁bob",
        -10.229060892993
      ],
      [
        "▁influence",
        -10.229104981728906
      ],
      [
        "▁foreign",
        -10.229176095016369
      ],
      [
        "▁entered",
        -10.22962868915687
      ],
      [
        "▁nation",
        -10.230065581210535
      ],
      [
        "▁leg",
        -10.23056856128512
      ],
      [
        "▁dare",
        -10.230781646794144
      ],
      [
        "▁fool",
        -10.23113612460078
      ],
      [
        "▁writer",
        -10.23119395480511
      ],
      [
        "▁shoes",
        -10.232457893871375
      ],
      [
        "currently",
        -10.232591193621412
      ],
      [
        "▁justice",
        -10.233619449645891
      ],
      [
        "▁cook",
        -10.234080555515016
      ],
      [
        "▁goal",
        -10.23408747524658
      ],
      [
        "▁laughing",
        -10.23471588133244
      ],
      [
        "▁beach",
        -10.234860204434105
      ],
      [
        "▁circle",
        -10.235553671224924
      ],
      [
        "▁edge",
        -10.236652566427694
      ],
      [
        "▁opportunit",
        -10.23674965189628
      ],
      [
        "▁develop",
        -10.237764764772267
      ],
      [
        "▁planet",
        -10.238292204539375
      ],
      [
        "▁industry",
        -10.238657965445162
      ],
      [
        "▁trial",
        -10.238886316146754
      ],
      [
        "▁jump",
        -10.239224618061437
      ],
      [
        "▁actress",
        -10.239928978836764
      ],
      [
        "▁academy",
        -10.241406232480957
      ],
      [
        "▁hole",
        -10.24239550112406
      ],
      [
        "▁beauty",
        -10.242655990484849
      ],
      [
        "▁railway",
        -10.242752434846189
      ],
      [
        "▁text",
        -10.242876686264678
      ],
      [
        "▁ocean",
        -10.243224304357131
      ],
      [
        "▁organization",
        -10.250019319121384
      ],
      [
        "▁religion",
        -10.250875503879598
      ],
      [
        "▁driver",
        -10.251335179576673
      ],
      [
        "▁positive",
        -10.2523434696701
      ],
      [
        ">",
        -10.254332259470331
      ],
      [
        "▁port",
        -10.255197474326284
      ],
      [
        "▁driving",
        -10.255987123645513
      ],
      [
        "▁agreed",
        -10.256049040385882
      ],
      [
        "▁learning",
        -10.256292298746846
      ],
      [
        "▁weird",
        -10.256543458022344
      ],
      [
        "▁collection",
        -10.25735595081569
      ],
      [
        "▁taught",
        -10.257958640893602
      ],
      [
        "per",
        -10.258684770932271
      ],
      [
        "▁tall",
        -10.259766599937524
      ],
      [
        "▁statistic",
        -10.260027730014716
      ],
      [
        "▁growing",
        -10.26024896549452
      ],
      [
        "▁shape",
        -10.260718781579346
      ],
      [
        "▁conversation",
        -10.261669443252694
      ],
      [
        "▁standard",
        -10.261751817808694
      ],
      [
        "▁hasn",
        -10.262269553363224
      ],
      [
        "line",
        -10.26369764034182
      ],
      [
        "▁string",
        -10.264620739674257
      ],
      [
        "▁agent",
        -10.265507941639116
      ],
      [
        "▁ar",
        -10.26587714437677
      ],
      [
        "▁lots",
        -10.265956252860578
      ],
      [
        "▁apple",
        -10.26736637584861
      ],
      [
        "▁smoke",
        -10.268401874794948
      ],
      [
        "▁toward",
        -10.26863083582412
      ],
      [
        "▁greatest",
        -10.26970774511948
      ],
      [
        "▁medal",
        -10.270020530318687
      ],
      [
        "▁conference",
        -10.270724374287251
      ],
      [
        "▁breakfast",
        -10.270831945893104
      ],
      [
        "▁basically",
        -10.271232830582504
      ],
      [
        "▁zero",
        -10.271630232488306
      ],
      [
        "▁particularly",
        -10.271980860627387
      ],
      [
        "<",
        -10.27309277586922
      ],
      [
        "▁smaller",
        -10.275129374485912
      ],
      [
        "▁desire",
        -10.27688786254854
      ],
      [
        "▁contract",
        -10.277663789494897
      ],
      [
        "▁enter",
        -10.278675144397114
      ],
      [
        "▁worried",
        -10.279889473623284
      ],
      [
        "▁ba",
        -10.280285594717697
      ],
      [
        "▁sunday",
        -10.280693070588152
      ],
      [
        "con",
        -10.283250352151548
      ],
      [
        "bloody",
        -10.284181647936313
      ],
      [
        "▁heat",
        -10.284595272075284
      ],
      [
        "▁truck",
        -10.285677077857668
      ],
      [
        "▁minus",
        -10.286028332612316
      ],
      [
        "remained",
        -10.286730628189217
      ],
      [
        "▁laid",
        -10.286739610900158
      ],
      [
        "▁rise",
        -10.289245004252225
      ],
      [
        "▁otherwise",
        -10.289329771129308
      ],
      [
        "▁hungry",
        -10.28944077671525
      ],
      [
        "▁direct",
        -10.289681685013491
      ],
      [
        "▁author",
        -10.29035446659176
      ],
      [
        "▁smart",
        -10.29037965080238
      ],
      [
        "▁colonel",
        -10.29039405207534
      ],
      [
        "▁darling",
        -10.291070444940374
      ],
      [
        "▁sharp",
        -10.29111426321692
      ],
      [
        "library",
        -10.292212043224763
      ],
      [
        "clock",
        -10.293230334047331
      ],
      [
        "▁plane",
        -10.293901169324707
      ],
      [
        "▁mid",
        -10.294813760947877
      ],
      [
        "▁addition",
        -10.296195160235037
      ],
      [
        "▁killing",
        -10.296258379102005
      ],
      [
        "▁singing",
        -10.296614327830106
      ],
      [
        "▁picked",
        -10.296755661097448
      ],
      [
        "▁medicine",
        -10.297944922945485
      ],
      [
        "▁wine",
        -10.298945863010484
      ],
      [
        "▁mike",
        -10.299060948965368
      ],
      [
        "▁farm",
        -10.299271821752097
      ],
      [
        "▁virginia",
        -10.299770690511432
      ],
      [
        "companies",
        -10.302298892743686
      ],
      [
        "▁placed",
        -10.302623150963049
      ],
      [
        "▁highest",
        -10.302845936640583
      ],
      [
        "▁besides",
        -10.303390251740488
      ],
      [
        "car",
        -10.303778875117374
      ],
      [
        "▁condition",
        -10.304429037162842
      ],
      [
        "▁expected",
        -10.305097615409734
      ],
      [
        "▁active",
        -10.305134615578009
      ],
      [
        "▁survive",
        -10.305816325709287
      ],
      [
        "▁african",
        -10.306447635235113
      ],
      [
        "▁aye",
        -10.307306552038066
      ],
      [
        "▁mentioned",
        -10.307519866133037
      ],
      [
        "▁access",
        -10.30756122567059
      ],
      [
        "▁wearing",
        -10.307695455096027
      ],
      [
        "▁measure",
        -10.307707486425407
      ],
      [
        "▁magic",
        -10.308007827693444
      ],
      [
        "▁initial",
        -10.30821532258776
      ],
      [
        "▁parliament",
        -10.30831971561014
      ],
      [
        "ized",
        -10.309026857839656
      ],
      [
        "▁forced",
        -10.30950122338745
      ],
      [
        "▁saved",
        -10.310051108709755
      ],
      [
        "▁stuck",
        -10.310666570691346
      ],
      [
        "▁sake",
        -10.313454252021923
      ],
      [
        "▁perform",
        -10.3145850229098
      ],
      [
        "▁airport",
        -10.315134246767686
      ],
      [
        "▁forever",
        -10.3152527537098
      ],
      [
        "generally",
        -10.315582240899468
      ],
      [
        "▁empty",
        -10.31629146339566
      ],
      [
        "les",
        -10.318632131085574
      ],
      [
        "war",
        -10.3188883240826
      ],
      [
        "▁flying",
        -10.32106925246053
      ],
      [
        "▁bitch",
        -10.323033892884844
      ],
      [
        "▁freedom",
        -10.323656133719863
      ],
      [
        "▁powerful",
        -10.324743184918336
      ],
      [
        "duty",
        -10.324762439426928
      ],
      [
        "▁catholic",
        -10.32493525542813
      ],
      [
        "▁louis",
        -10.327274662602775
      ],
      [
        "▁block",
        -10.328294981596978
      ],
      [
        "▁expression",
        -10.328311328192134
      ],
      [
        "▁types",
        -10.32844651992412
      ],
      [
        "▁declare",
        -10.329054028031347
      ],
      [
        "▁novel",
        -10.329210894591698
      ],
      [
        "▁traditional",
        -10.329582341809234
      ],
      [
        "law",
        -10.329682974390476
      ],
      [
        "▁totally",
        -10.330085072153038
      ],
      [
        "▁waste",
        -10.33028635355491
      ],
      [
        "▁congress",
        -10.331092367837096
      ],
      [
        "▁negative",
        -10.331341957107282
      ],
      [
        "▁roll",
        -10.331974701706232
      ],
      [
        "▁host",
        -10.33217804497194
      ],
      [
        "▁anti",
        -10.332745568900531
      ],
      [
        "▁credit",
        -10.333313482127158
      ],
      [
        "▁mayor",
        -10.334189077158287
      ],
      [
        "▁serve",
        -10.335060384280672
      ],
      [
        "▁clearly",
        -10.335741782665156
      ],
      [
        "▁upper",
        -10.335819624072998
      ],
      [
        "▁tail",
        -10.337061771949667
      ],
      [
        "▁bread",
        -10.337146656075124
      ],
      [
        "▁designed",
        -10.337803920565602
      ],
      [
        "ard",
        -10.33839124933934
      ],
      [
        "they",
        -10.338783861093477
      ],
      [
        "▁crew",
        -10.339585195066014
      ],
      [
        "▁hardly",
        -10.34024857939406
      ],
      [
        "▁reported",
        -10.341145986108248
      ],
      [
        "▁teams",
        -10.341450828349249
      ],
      [
        "▁forth",
        -10.341835139593709
      ],
      [
        "▁related",
        -10.342543645098054
      ],
      [
        "▁forgive",
        -10.342614811660198
      ],
      [
        "▁canadian",
        -10.342720417589977
      ],
      [
        "▁resource",
        -10.343114682745064
      ],
      [
        "▁address",
        -10.344539133425563
      ],
      [
        "▁australian",
        -10.344799868009698
      ],
      [
        "▁danger",
        -10.345500755616548
      ],
      [
        "▁temple",
        -10.346838732747166
      ],
      [
        "▁chairman",
        -10.347430456882757
      ],
      [
        "▁pro",
        -10.347637907988831
      ],
      [
        "▁plain",
        -10.348331193695444
      ],
      [
        "▁noise",
        -10.34840418898145
      ],
      [
        "▁physical",
        -10.348446371148034
      ],
      [
        "▁los",
        -10.348475976792106
      ],
      [
        "▁yep",
        -10.348585819668878
      ],
      [
        "▁operation",
        -10.350326685168763
      ],
      [
        "▁sarah",
        -10.350545274969374
      ],
      [
        "▁silly",
        -10.3514792537271
      ],
      [
        "▁teeth",
        -10.35149462039775
      ],
      [
        "▁realize",
        -10.3517551932459
      ],
      [
        "▁breath",
        -10.352667877249004
      ],
      [
        "▁drama",
        -10.352720600767944
      ],
      [
        "▁joseph",
        -10.353251038550068
      ],
      [
        "▁features",
        -10.35372541582981
      ],
      [
        "▁prove",
        -10.353861501051844
      ],
      [
        "▁damage",
        -10.354257502869425
      ],
      [
        "▁km",
        -10.354588068382132
      ],
      [
        "▁mention",
        -10.3545974679931
      ],
      [
        "▁appear",
        -10.354819570225816
      ],
      [
        "▁mexico",
        -10.355088664130312
      ],
      [
        "▁plants",
        -10.355360507664534
      ],
      [
        "▁generation",
        -10.356785119539254
      ],
      [
        "▁orange",
        -10.357815006108437
      ],
      [
        "▁acting",
        -10.357885427214736
      ],
      [
        "▁filled",
        -10.358026412890077
      ],
      [
        "▁temperature",
        -10.3582421465189
      ],
      [
        "▁drew",
        -10.35919570204935
      ],
      [
        "▁vi",
        -10.359916194389893
      ],
      [
        "▁charlie",
        -10.360884322456313
      ],
      [
        "▁turning",
        -10.361552895874167
      ],
      [
        "▁plans",
        -10.36191314064872
      ],
      [
        "▁cars",
        -10.362371967605664
      ],
      [
        "▁construction",
        -10.362681181045666
      ],
      [
        "▁mess",
        -10.364612197256942
      ],
      [
        "▁retired",
        -10.36472155912207
      ],
      [
        "▁conditions",
        -10.366720807785548
      ],
      [
        "larger",
        -10.366794719309953
      ],
      [
        "▁immediatel",
        -10.367316763518062
      ],
      [
        "▁ge",
        -10.367449840412911
      ],
      [
        "▁rare",
        -10.369530227039766
      ],
      [
        "▁emperor",
        -10.37122657185351
      ],
      [
        "offered",
        -10.37138076073031
      ],
      [
        "▁image",
        -10.37209786052632
      ],
      [
        "▁missed",
        -10.373792599227828
      ],
      [
        "▁dresse",
        -10.37416454194851
      ],
      [
        "▁solution",
        -10.374244106392402
      ],
      [
        "▁adam",
        -10.375083996626635
      ],
      [
        "▁metal",
        -10.37519530612323
      ],
      [
        "▁windows",
        -10.375317393062684
      ],
      [
        "▁performe",
        -10.376168946223473
      ],
      [
        "▁seriously",
        -10.378018329759042
      ],
      [
        "▁sh",
        -10.378076755875911
      ],
      [
        "ful",
        -10.378122665903984
      ],
      [
        "▁religious",
        -10.378152200044516
      ],
      [
        "▁fill",
        -10.378259901867734
      ],
      [
        "▁colour",
        -10.37858428090217
      ],
      [
        "▁ourselves",
        -10.37891303096742
      ],
      [
        "▁tax",
        -10.37912863787298
      ],
      [
        "possibly",
        -10.379181905683131
      ],
      [
        "▁destroy",
        -10.382350346191869
      ],
      [
        "▁institute",
        -10.382481806743742
      ],
      [
        "▁treatment",
        -10.382595507464458
      ],
      [
        "▁becoming",
        -10.382798692987112
      ],
      [
        "▁mountains",
        -10.383792923406435
      ],
      [
        "▁spain",
        -10.383807734527306
      ],
      [
        "▁silence",
        -10.384810845686951
      ],
      [
        "▁honest",
        -10.384852513073788
      ],
      [
        "▁democratic",
        -10.386391821314248
      ],
      [
        "▁cap",
        -10.387067638908992
      ],
      [
        "▁crying",
        -10.387253057515236
      ],
      [
        "▁criminal",
        -10.388337217296566
      ],
      [
        "▁giant",
        -10.389297253245328
      ],
      [
        "▁compare",
        -10.389598381805389
      ],
      [
        "▁raise",
        -10.390224730643263
      ],
      [
        "▁recently",
        -10.391239143909525
      ],
      [
        "▁ray",
        -10.391767814730022
      ],
      [
        "▁becomes",
        -10.392119553790554
      ],
      [
        "▁biggest",
        -10.392455632372002
      ],
      [
        "▁rid",
        -10.393794050091332
      ],
      [
        "▁loud",
        -10.393969962680693
      ],
      [
        "▁lesson",
        -10.394205954710587
      ],
      [
        "▁journey",
        -10.3943643055751
      ],
      [
        "▁recording",
        -10.395134423935524
      ],
      [
        "▁coat",
        -10.397648505234445
      ],
      [
        "▁jane",
        -10.397862592232698
      ],
      [
        "▁ordered",
        -10.39788931944484
      ],
      [
        "▁drawing",
        -10.397989228168116
      ],
      [
        "▁loss",
        -10.398106523377526
      ],
      [
        "▁eggs",
        -10.398596611264985
      ],
      [
        "▁file",
        -10.398666795046074
      ],
      [
        "▁drug",
        -10.398964825806292
      ],
      [
        "▁russia",
        -10.399067063728385
      ],
      [
        "owned",
        -10.399282897604722
      ],
      [
        "▁horses",
        -10.399709816445723
      ],
      [
        "▁responsible",
        -10.39976716145706
      ],
      [
        "▁previous",
        -10.400445423700054
      ],
      [
        "▁authority",
        -10.400903550109318
      ],
      [
        "▁grown",
        -10.401449084647522
      ],
      [
        "▁finger",
        -10.401929511843385
      ],
      [
        "▁directly",
        -10.40403226917957
      ],
      [
        "▁♫",
        -10.404269055960471
      ],
      [
        "▁mama",
        -10.40495742158346
      ],
      [
        "gen",
        -10.40496939797024
      ],
      [
        "▁jean",
        -10.405040441407214
      ],
      [
        "▁planning",
        -10.405111041538976
      ],
      [
        "ler",
        -10.40697708599788
      ],
      [
        "▁dogs",
        -10.40716721319599
      ],
      [
        "ent",
        -10.4072004343596
      ],
      [
        "▁flower",
        -10.407328466787956
      ],
      [
        "▁reduce",
        -10.407530910548171
      ],
      [
        "▁wave",
        -10.408819821744972
      ],
      [
        "▁wo",
        -10.409132462042557
      ],
      [
        "▁afterward",
        -10.41018660122638
      ],
      [
        "▁management",
        -10.410859130998237
      ],
      [
        "▁finding",
        -10.411581365130829
      ],
      [
        "▁runs",
        -10.413372000954586
      ],
      [
        "▁financial",
        -10.413977783327296
      ],
      [
        "▁characters",
        -10.414720718592434
      ],
      [
        "▁quarter",
        -10.4151686589289
      ],
      [
        "▁joy",
        -10.417402767677023
      ],
      [
        "▁compete",
        -10.41820009469625
      ],
      [
        "way",
        -10.418523697461142
      ],
      [
        "▁dirty",
        -10.419590887825548
      ],
      [
        "▁producer",
        -10.419682862102183
      ],
      [
        "▁turns",
        -10.419764011466816
      ],
      [
        "▁pen",
        -10.420660590621724
      ],
      [
        "▁operate",
        -10.420891065382753
      ],
      [
        "▁roof",
        -10.42184258064264
      ],
      [
        "▁partner",
        -10.422825030365976
      ],
      [
        "▁meat",
        -10.423940112218354
      ],
      [
        "▁branch",
        -10.424686851499386
      ],
      [
        "▁significant",
        -10.425195147317911
      ],
      [
        "▁promised",
        -10.425607248679748
      ],
      [
        "{",
        -10.426502007409812
      ],
      [
        "▁application",
        -10.426726604156734
      ],
      [
        "▁nick",
        -10.42730879651794
      ],
      [
        "▁despite",
        -10.428116426740472
      ],
      [
        "▁hmm",
        -10.428560587980632
      ],
      [
        "▁replaced",
        -10.42865341866164
      ],
      [
        "▁graduate",
        -10.428912723912628
      ],
      [
        "▁arts",
        -10.43002732002715
      ],
      [
        "▁sleeping",
        -10.43053302922392
      ],
      [
        "▁faile",
        -10.431066040159031
      ],
      [
        "▁factor",
        -10.43129799764914
      ],
      [
        "▁lies",
        -10.431745569584637
      ],
      [
        "▁blind",
        -10.433823695594876
      ],
      [
        "▁teaching",
        -10.43391490258429
      ],
      [
        "gotten",
        -10.434471606791629
      ],
      [
        "▁safety",
        -10.434563202059609
      ],
      [
        "over",
        -10.435193914263165
      ],
      [
        "▁musical",
        -10.43539111564534
      ],
      [
        "▁commander",
        -10.4372625346471
      ],
      [
        "▁everywhere",
        -10.437419598084464
      ],
      [
        "ford",
        -10.437825393236563
      ],
      [
        "▁kim",
        -10.438999833259558
      ],
      [
        "▁priest",
        -10.439157381333848
      ],
      [
        "▁surprised",
        -10.439583963964589
      ],
      [
        "▁harry",
        -10.441290976742923
      ],
      [
        "▁sugar",
        -10.44158870874504
      ],
      [
        "▁tournament",
        -10.441628539150196
      ],
      [
        "▁calls",
        -10.441850235524669
      ],
      [
        "▁quality",
        -10.44222784622305
      ],
      [
        "▁universe",
        -10.442750263216755
      ],
      [
        "▁worst",
        -10.443686284131273
      ],
      [
        "▁concerned",
        -10.444141879420323
      ],
      [
        "▁manner",
        -10.446530342249616
      ],
      [
        "▁pulled",
        -10.44732283101561
      ],
      [
        "▁edward",
        -10.449791583730583
      ],
      [
        "▁introduced",
        -10.450066112959266
      ],
      [
        "▁islands",
        -10.450106964778197
      ],
      [
        "▁listening",
        -10.450154143070476
      ],
      [
        "▁task",
        -10.451043235959032
      ],
      [
        "▁opera",
        -10.45125275796824
      ],
      [
        "▁max",
        -10.4513964808109
      ],
      [
        "keeping",
        -10.45199970702974
      ],
      [
        "▁cow",
        -10.452415394601314
      ],
      [
        "▁client",
        -10.452457974629782
      ],
      [
        "berg",
        -10.453014725776208
      ],
      [
        "▁florida",
        -10.45364790162128
      ],
      [
        "▁appointed",
        -10.454838766999725
      ],
      [
        "▁suit",
        -10.456461311625045
      ],
      [
        "asleep",
        -10.45655335488768
      ],
      [
        "▁environment",
        -10.456933297592297
      ],
      [
        "▁sudden",
        -10.457413059798164
      ],
      [
        "▁starts",
        -10.457569166263074
      ],
      [
        "▁vehicle",
        -10.45853714229613
      ],
      [
        "see",
        -10.45932735026123
      ],
      [
        "▁interview",
        -10.459381285661378
      ],
      [
        "town",
        -10.45957505410076
      ],
      [
        "▁sword",
        -10.459659847187217
      ],
      [
        "▁nineteen",
        -10.459687699885352
      ],
      [
        "▁specific",
        -10.460539054900334
      ],
      [
        "▁limit",
        -10.461074960242522
      ],
      [
        "▁revolution",
        -10.461547482039528
      ],
      [
        "music",
        -10.461581666432984
      ],
      [
        "▁weak",
        -10.462235174377373
      ],
      [
        "▁awful",
        -10.462325370885203
      ],
      [
        "▁prepared",
        -10.462421971107547
      ],
      [
        "que",
        -10.463065771421933
      ],
      [
        "▁easier",
        -10.463151986076335
      ],
      [
        "▁pan",
        -10.46325298216288
      ],
      [
        "▁destroyed",
        -10.46341906043068
      ],
      [
        "▁chicken",
        -10.463604268027815
      ],
      [
        "▁actual",
        -10.464273828311688
      ],
      [
        "▁billy",
        -10.464735905249595
      ],
      [
        "▁bother",
        -10.464743116328814
      ],
      [
        "▁alex",
        -10.465240509625378
      ],
      [
        "▁dreams",
        -10.465487399775329
      ],
      [
        "threw",
        -10.466391456568465
      ],
      [
        "▁dying",
        -10.466521248638506
      ],
      [
        "▁typical",
        -10.467467379724551
      ],
      [
        "▁fixed",
        -10.467573555591915
      ],
      [
        "▁response",
        -10.468000257588946
      ],
      [
        "▁scot",
        -10.46825088709562
      ],
      [
        "▁signal",
        -10.46849420290618
      ],
      [
        "▁row",
        -10.468801166336863
      ],
      [
        "▁heads",
        -10.469190534353327
      ],
      [
        "▁mental",
        -10.469753573681922
      ],
      [
        "▁reasons",
        -10.470701038819977
      ],
      [
        "tic",
        -10.470795112674791
      ],
      [
        "▁dutch",
        -10.470885891014015
      ],
      [
        "▁nurse",
        -10.471144732052956
      ],
      [
        "▁chris",
        -10.471454290773393
      ],
      [
        "▁onto",
        -10.471898280146052
      ],
      [
        "▁dude",
        -10.472255247027826
      ],
      [
        "▁complex",
        -10.472591740753549
      ],
      [
        "with",
        -10.4729057737666
      ],
      [
        "▁foundation",
        -10.47307712872461
      ],
      [
        "▁majest",
        -10.473438122603987
      ],
      [
        "▁gift",
        -10.474536737024971
      ],
      [
        "▁fifteen",
        -10.475836266018876
      ],
      [
        "▁laughe",
        -10.475865789146226
      ],
      [
        "▁rapid",
        -10.475867788552756
      ],
      [
        "▁grass",
        -10.476066028249445
      ],
      [
        "▁gate",
        -10.476840415988626
      ],
      [
        "▁del",
        -10.479699334921031
      ],
      [
        "gun",
        -10.47974277752363
      ],
      [
        "▁rabbit",
        -10.479748296701407
      ],
      [
        "▁potential",
        -10.480019519918477
      ],
      [
        "▁favorite",
        -10.480215966185307
      ],
      [
        "▁broad",
        -10.480456805579887
      ],
      [
        "▁cash",
        -10.4808937837882
      ],
      [
        "ja",
        -10.480952761029274
      ],
      [
        "▁nations",
        -10.481198279374096
      ],
      [
        "▁liked",
        -10.481379343255576
      ],
      [
        "▁mate",
        -10.482195709279896
      ],
      [
        "▁younger",
        -10.484270604942331
      ],
      [
        "com",
        -10.484328452213674
      ],
      [
        "▁theatre",
        -10.485637460501335
      ],
      [
        "▁button",
        -10.485838802369315
      ],
      [
        "angeles",
        -10.48651708108038
      ],
      [
        "▁officers",
        -10.486578597804758
      ],
      [
        "laugh",
        -10.487008541052552
      ],
      [
        "▁swear",
        -10.488229837216318
      ],
      [
        "▁saturday",
        -10.488308021003778
      ],
      [
        "▁britain",
        -10.488433845096354
      ],
      [
        "▁lock",
        -10.489434534196237
      ],
      [
        "▁mainly",
        -10.489610592851976
      ],
      [
        "▁mac",
        -10.489664461764502
      ],
      [
        "▁suspect",
        -10.492106331038292
      ],
      [
        "▁burn",
        -10.49241101392623
      ],
      [
        "▁usual",
        -10.492454915347205
      ],
      [
        "watched",
        -10.493907301236682
      ],
      [
        "sigh",
        -10.495391140867309
      ],
      [
        "▁focus",
        -10.4954984433221
      ],
      [
        "▁grant",
        -10.4968131425045
      ],
      [
        "▁experiment",
        -10.497030396630471
      ],
      [
        "▁uses",
        -10.497325623533165
      ],
      [
        "▁laws",
        -10.49750124338568
      ],
      [
        "▁chemical",
        -10.499177082779978
      ],
      [
        "our",
        -10.499858997333568
      ],
      [
        "▁target",
        -10.500410880170143
      ],
      [
        "▁treat",
        -10.50050111867881
      ],
      [
        "more",
        -10.501489670342435
      ],
      [
        "▁pink",
        -10.501565873656183
      ],
      [
        "▁managed",
        -10.501708874174218
      ],
      [
        "▁reality",
        -10.501918572026517
      ],
      [
        "▁showing",
        -10.502734724414308
      ],
      [
        "▁split",
        -10.505050521204442
      ],
      [
        "▁cheap",
        -10.505078658335584
      ],
      [
        "▁motion",
        -10.505201549796665
      ],
      [
        "▁consist",
        -10.505211553674098
      ],
      [
        "▁apparently",
        -10.505474494185504
      ],
      [
        "▁pocket",
        -10.505592401516646
      ],
      [
        "▁vice",
        -10.505801291723632
      ],
      [
        "▁rome",
        -10.505935607951024
      ],
      [
        "▁joke",
        -10.506440742678071
      ],
      [
        "▁cake",
        -10.506639433111609
      ],
      [
        "▁hockey",
        -10.50764159232988
      ],
      [
        "▁illinois",
        -10.508363393582664
      ],
      [
        "▁scott",
        -10.50891946279298
      ],
      [
        "▁holiday",
        -10.509030841555616
      ],
      [
        "▁exchange",
        -10.509872062434196
      ],
      [
        "han",
        -10.510176397071271
      ],
      [
        "▁opposite",
        -10.510979576846871
      ],
      [
        "▁devil",
        -10.511696623817745
      ],
      [
        "▁instance",
        -10.511722159699229
      ],
      [
        "▁apartment",
        -10.512032601873742
      ],
      [
        "ance",
        -10.512814578324033
      ],
      [
        "▁basic",
        -10.51288558694161
      ],
      [
        "▁republican",
        -10.51353536390939
      ],
      [
        "▁advantage",
        -10.514055164432673
      ],
      [
        "▁copy",
        -10.514227771481316
      ],
      [
        "▁lieutenant",
        -10.514385584272844
      ],
      [
        "▁buried",
        -10.51555153799399
      ],
      [
        "▁prevent",
        -10.516609294020627
      ],
      [
        "▁height",
        -10.517219187765392
      ],
      [
        "▁lift",
        -10.517311914385251
      ],
      [
        "▁fingers",
        -10.51874588716419
      ],
      [
        "▁fifth",
        -10.518885465517217
      ],
      [
        "▁winning",
        -10.519192873472138
      ],
      [
        "▁debut",
        -10.51952318234739
      ],
      [
        "▁losing",
        -10.51960141614046
      ],
      [
        "▁troops",
        -10.52238014249156
      ],
      [
        "▁restaurant",
        -10.522839321315416
      ],
      [
        "▁spoken",
        -10.523091548082544
      ],
      [
        "▁bath",
        -10.523434760192377
      ],
      [
        "▁thick",
        -10.525156183007947
      ],
      [
        "▁appears",
        -10.525326280157714
      ],
      [
        "▁houses",
        -10.525426381164078
      ],
      [
        "▁tiny",
        -10.525748278524295
      ],
      [
        "▁stock",
        -10.52642385472325
      ],
      [
        "▁feed",
        -10.526449350360783
      ],
      [
        "▁ross",
        -10.52657973722632
      ],
      [
        "▁buildings",
        -10.526749040165322
      ],
      [
        "lin",
        -10.527395005628186
      ],
      [
        "▁pound",
        -10.529147274688857
      ],
      [
        "▁instant",
        -10.52970268331155
      ],
      [
        "▁sides",
        -10.530095372750184
      ],
      [
        "▁uk",
        -10.531246745599482
      ],
      [
        "▁stayed",
        -10.531384245585889
      ],
      [
        "▁friday",
        -10.532151578120915
      ],
      [
        "▁angel",
        -10.532186166540466
      ],
      [
        "▁goodbye",
        -10.532749012663793
      ],
      [
        "▁understood",
        -10.533456098116131
      ],
      [
        "▁faster",
        -10.534250636250931
      ],
      [
        "▁historical",
        -10.535513126495747
      ],
      [
        "▁telephone",
        -10.536548542075815
      ],
      [
        "▁senior",
        -10.536671988006477
      ],
      [
        "▁occur",
        -10.536905405184882
      ],
      [
        "▁amy",
        -10.537132693704503
      ],
      [
        "▁steps",
        -10.537600760084564
      ],
      [
        "▁tongue",
        -10.53836126015989
      ],
      [
        "▁tough",
        -10.539528638371127
      ],
      [
        "▁principle",
        -10.539705621111354
      ],
      [
        "▁grace",
        -10.540695249618796
      ],
      [
        "▁succeed",
        -10.541179506047332
      ],
      [
        "▁tony",
        -10.54233583455725
      ],
      [
        "▁aware",
        -10.542710292029367
      ],
      [
        "▁excellent",
        -10.542725653138826
      ],
      [
        "▁noticed",
        -10.543819278741594
      ],
      [
        "▁guns",
        -10.54457195899548
      ],
      [
        "▁weekend",
        -10.544852190261242
      ],
      [
        "▁fruit",
        -10.545178773318518
      ],
      [
        "▁statement",
        -10.54620103203
      ],
      [
        "just",
        -10.546822723114582
      ],
      [
        "▁duck",
        -10.547898451541297
      ],
      [
        "▁ninety",
        -10.548315941917982
      ],
      [
        "▁billion",
        -10.549331117386153
      ],
      [
        "▁comedy",
        -10.550182921475225
      ],
      [
        "head",
        -10.55056488736751
      ],
      [
        "▁dis",
        -10.55077364025498
      ],
      [
        "▁traffic",
        -10.551097504420436
      ],
      [
        "primary",
        -10.551157145113896
      ],
      [
        "▁background",
        -10.55133330062151
      ],
      [
        "▁communication",
        -10.551337376352755
      ],
      [
        "▁sexual",
        -10.55264322713389
      ],
      [
        "▁idiot",
        -10.552671686776772
      ],
      [
        "▁des",
        -10.552677413080811
      ],
      [
        "▁ireland",
        -10.552967631900046
      ],
      [
        "▁screen",
        -10.553946642749352
      ],
      [
        "ran",
        -10.554083210479828
      ],
      [
        "▁concert",
        -10.554425234178666
      ],
      [
        "▁gentleman",
        -10.55462983665258
      ],
      [
        "▁latin",
        -10.55581885053386
      ],
      [
        "▁daniel",
        -10.556229198750623
      ],
      [
        "▁advice",
        -10.556964672960014
      ],
      [
        "▁honour",
        -10.557378288055338
      ],
      [
        "▁knock",
        -10.557399950841738
      ],
      [
        "▁failure",
        -10.55747420169726
      ],
      [
        "good",
        -10.55761641511436
      ],
      [
        "▁throat",
        -10.557655915867324
      ],
      [
        "▁hearing",
        -10.55782675363382
      ],
      [
        "▁soldier",
        -10.558017868045098
      ],
      [
        "▁instrument",
        -10.558170568933424
      ],
      [
        "american",
        -10.558185524323768
      ],
      [
        "▁jimmy",
        -10.558598427534166
      ],
      [
        "▁reference",
        -10.558643596407771
      ],
      [
        "▁sixty",
        -10.559227043423288
      ],
      [
        "▁jail",
        -10.5594278856572
      ],
      [
        "▁favor",
        -10.559847024959607
      ],
      [
        "▁commercial",
        -10.560645739875072
      ],
      [
        "▁variet",
        -10.561645999097074
      ],
      [
        "▁arrest",
        -10.561983093957668
      ],
      [
        "ated",
        -10.562150596610609
      ],
      [
        "come",
        -10.562346377529447
      ],
      [
        "▁lo",
        -10.562383405325171
      ],
      [
        "▁proper",
        -10.563175507207385
      ],
      [
        "▁recent",
        -10.564739852429351
      ],
      [
        "chuckles",
        -10.565059603697197
      ],
      [
        "▁salt",
        -10.565394072111546
      ],
      [
        "yeah",
        -10.565635086432934
      ],
      [
        "▁nervous",
        -10.56621499744441
      ],
      [
        "referred",
        -10.566550532043332
      ],
      [
        "▁shadow",
        -10.566841931404497
      ],
      [
        "▁jackson",
        -10.56748313760965
      ],
      [
        "▁upset",
        -10.568018791000856
      ],
      [
        "mp",
        -10.568796845397827
      ],
      [
        "▁struck",
        -10.56936089338802
      ],
      [
        "▁closer",
        -10.570110945923366
      ],
      [
        "▁cream",
        -10.57085187678514
      ],
      [
        "▁drugs",
        -10.570995294053418
      ],
      [
        "▁walls",
        -10.572432083679285
      ],
      [
        "▁struggle",
        -10.572598477912129
      ],
      [
        "▁blame",
        -10.573719895265878
      ],
      [
        "▁egg",
        -10.57404958742754
      ],
      [
        "▁continues",
        -10.574228571018798
      ],
      [
        "▁climate",
        -10.574320742641788
      ],
      [
        "▁audience",
        -10.5747100256229
      ],
      [
        "▁helping",
        -10.5751176405452
      ],
      [
        "▁matche",
        -10.57513046757946
      ],
      [
        "▁kick",
        -10.575775629555126
      ],
      [
        "▁engineer",
        -10.576315123595762
      ],
      [
        "▁meal",
        -10.576919560461327
      ],
      [
        "▁receive",
        -10.57696087368098
      ],
      [
        "▁tight",
        -10.577106208823803
      ],
      [
        "▁fought",
        -10.577291967190586
      ],
      [
        "aid",
        -10.577415406886043
      ],
      [
        "▁content",
        -10.577998595449156
      ],
      [
        "▁presence",
        -10.5788334381602
      ],
      [
        "▁lips",
        -10.57916230506486
      ],
      [
        "▁trick",
        -10.579814175321552
      ],
      [
        "▁observe",
        -10.58064469460282
      ],
      [
        "▁units",
        -10.581261615469913
      ],
      [
        "▁tears",
        -10.581611606695294
      ],
      [
        "▁wound",
        -10.58179920307959
      ],
      [
        "▁daily",
        -10.584415389186557
      ],
      [
        "▁falling",
        -10.584530621720646
      ],
      [
        "▁crown",
        -10.58496449942149
      ],
      [
        "▁champion",
        -10.585159772799654
      ],
      [
        "▁occasion",
        -10.585215252535546
      ],
      [
        "▁cousin",
        -10.585987598292109
      ],
      [
        "▁useful",
        -10.586186825464509
      ],
      [
        "lan",
        -10.586356321638783
      ],
      [
        "▁papers",
        -10.586381353776035
      ],
      [
        "▁internet",
        -10.587113015881704
      ],
      [
        "workers",
        -10.58824011641199
      ],
      [
        "▁commission",
        -10.589050865641005
      ],
      [
        "▁pardon",
        -10.58916631263518
      ],
      [
        "▁hills",
        -10.58950770159572
      ],
      [
        "▁bodies",
        -10.589939483620975
      ],
      [
        "▁knowing",
        -10.590151211972213
      ],
      [
        "▁victory",
        -10.590415581133382
      ],
      [
        "▁chase",
        -10.590808921979486
      ],
      [
        "▁laura",
        -10.591228367677305
      ],
      [
        "▁territory",
        -10.591250703426295
      ],
      [
        "▁basis",
        -10.591361982751064
      ],
      [
        "▁su",
        -10.59169896487921
      ],
      [
        "▁quit",
        -10.591844704316488
      ],
      [
        "▁beside",
        -10.592193442226735
      ],
      [
        "▁assembly",
        -10.592284839174464
      ],
      [
        "▁drunk",
        -10.59298800536638
      ],
      [
        "▁feelings",
        -10.593108701693907
      ],
      [
        "▁pig",
        -10.593142077907771
      ],
      [
        "shire",
        -10.593548526822012
      ],
      [
        "▁protection",
        -10.59376562297293
      ],
      [
        "▁majority",
        -10.594561002661194
      ],
      [
        "▁settlement",
        -10.59469073143165
      ],
      [
        "▁willing",
        -10.594814542519469
      ],
      [
        "▁plate",
        -10.594988608375491
      ],
      [
        "ium",
        -10.595144260439342
      ],
      [
        "▁admit",
        -10.595207240103992
      ],
      [
        "▁tradition",
        -10.59635172116893
      ],
      [
        "then",
        -10.596399155694716
      ],
      [
        "▁bringing",
        -10.596910221924889
      ],
      [
        "▁achieve",
        -10.596914407221036
      ],
      [
        "▁odd",
        -10.596982062243764
      ],
      [
        "▁fan",
        -10.598875432113909
      ],
      [
        "▁multiple",
        -10.59932923037796
      ],
      [
        "▁concept",
        -10.599808025603291
      ],
      [
        "▁perfectly",
        -10.600126841174523
      ],
      [
        "▁steve",
        -10.600264187838372
      ],
      [
        "▁passenger",
        -10.601035765356288
      ],
      [
        "▁plenty",
        -10.601457052507042
      ],
      [
        "▁notes",
        -10.601901951644727
      ],
      [
        "room",
        -10.60207292792432
      ],
      [
        "▁pool",
        -10.60249285470668
      ],
      [
        "▁transport",
        -10.603202684093707
      ],
      [
        "▁tommy",
        -10.60461087452121
      ],
      [
        "ship",
        -10.604994944839436
      ],
      [
        "▁grave",
        -10.60605411177416
      ],
      [
        "▁strike",
        -10.606281873129763
      ],
      [
        "▁mc",
        -10.606319681989495
      ],
      [
        "▁grade",
        -10.606666865050324
      ],
      [
        "▁kinds",
        -10.606852080864895
      ],
      [
        "▁appreciate",
        -10.607078515628649
      ],
      [
        "▁accepted",
        -10.607852162317704
      ],
      [
        "▁con",
        -10.609111416555914
      ],
      [
        "▁comment",
        -10.609444284687976
      ],
      [
        "▁article",
        -10.610419936652391
      ],
      [
        "▁reaction",
        -10.610525965654604
      ],
      [
        "ze",
        -10.610721667073587
      ],
      [
        "▁approach",
        -10.611277877955231
      ],
      [
        "▁excited",
        -10.61132181128975
      ],
      [
        "▁selected",
        -10.61149503348402
      ],
      [
        "▁weapons",
        -10.611777160275327
      ],
      [
        "ok",
        -10.6124862469218
      ],
      [
        "▁pleasant",
        -10.61282816661618
      ],
      [
        "▁alan",
        -10.612922879192231
      ],
      [
        "▁additional",
        -10.613208081212566
      ],
      [
        "▁johnny",
        -10.613558340814985
      ],
      [
        "▁bound",
        -10.613696222138646
      ],
      [
        "▁bunch",
        -10.614703106826186
      ],
      [
        "▁dancing",
        -10.615337611142042
      ],
      [
        "bar",
        -10.6162171100099
      ],
      [
        "▁minor",
        -10.61656967260796
      ],
      [
        "▁grandfather",
        -10.617096381345869
      ],
      [
        "▁scientific",
        -10.618577445075813
      ],
      [
        "▁entirely",
        -10.618784911332527
      ],
      [
        "where",
        -10.618911264593256
      ],
      [
        "▁drinking",
        -10.619330791035582
      ],
      [
        "▁previously",
        -10.61940502347811
      ],
      [
        "▁fashion",
        -10.619487260495244
      ],
      [
        "▁mount",
        -10.619548895463574
      ],
      [
        "▁manage",
        -10.61967381678289
      ],
      [
        "▁confirm",
        -10.619887958006071
      ],
      [
        "▁volume",
        -10.622402159095232
      ],
      [
        "▁shore",
        -10.622496811088562
      ],
      [
        "▁narrow",
        -10.622544854576477
      ],
      [
        "▁mor",
        -10.623459011023687
      ],
      [
        "▁exercise",
        -10.6237037839105
      ],
      [
        "▁divorce",
        -10.62443537022419
      ],
      [
        "▁dann",
        -10.62459924734048
      ],
      [
        "▁scale",
        -10.624960686481542
      ],
      [
        "▁humans",
        -10.62521075535816
      ],
      [
        "▁assistant",
        -10.62545332582501
      ],
      [
        "▁eighty",
        -10.626854518793722
      ],
      [
        "▁eleven",
        -10.626989365206828
      ],
      [
        "▁electric",
        -10.627568316090091
      ],
      [
        "▁shooting",
        -10.627989786977883
      ],
      [
        "▁desert",
        -10.628379934678303
      ],
      [
        "▁website",
        -10.629191038433058
      ],
      [
        "▁chain",
        -10.6299954403449
      ],
      [
        "▁rough",
        -10.630384057506417
      ],
      [
        "▁limited",
        -10.63089672118568
      ],
      [
        "▁activity",
        -10.631378961072688
      ],
      [
        "▁promote",
        -10.631507668686693
      ],
      [
        "▁cheese",
        -10.631634601901718
      ],
      [
        "▁immediate",
        -10.634242029971873
      ],
      [
        "▁executive",
        -10.634717079266377
      ],
      [
        "▁vision",
        -10.63498838859329
      ],
      [
        "▁defeat",
        -10.63505740156782
      ],
      [
        "chi",
        -10.6354379416486
      ],
      [
        "▁pal",
        -10.63577039883516
      ],
      [
        "ization",
        -10.63610194080401
      ],
      [
        "▁awarde",
        -10.636331791621412
      ],
      [
        "▁detail",
        -10.636636415297888
      ],
      [
        "▁secure",
        -10.637107798545829
      ],
      [
        "tended",
        -10.637488942572489
      ],
      [
        "▁crowd",
        -10.637547049737814
      ],
      [
        "▁lack",
        -10.639079992975836
      ],
      [
        "▁johnson",
        -10.639769564010107
      ],
      [
        "▁supply",
        -10.640226764349269
      ],
      [
        "ped",
        -10.64086836911704
      ],
      [
        "▁passing",
        -10.641298554310676
      ],
      [
        "▁connected",
        -10.641754862468323
      ],
      [
        "bye",
        -10.64270899246586
      ],
      [
        "▁olympics",
        -10.64282141988981
      ],
      [
        "▁flag",
        -10.643877479357492
      ],
      [
        "▁knife",
        -10.645122367794766
      ],
      [
        "▁buddy",
        -10.646652243583205
      ],
      [
        "▁brand",
        -10.647455226792417
      ],
      [
        "uk",
        -10.64840380837324
      ],
      [
        "▁wise",
        -10.648828374386074
      ],
      [
        "▁status",
        -10.649443820176694
      ],
      [
        "▁simon",
        -10.65153829183114
      ],
      [
        "provided",
        -10.65158162624186
      ],
      [
        "▁critic",
        -10.65242335935272
      ],
      [
        "▁upstair",
        -10.6535011744894
      ],
      [
        "▁map",
        -10.654080677590278
      ],
      [
        "▁mixed",
        -10.654230069397515
      ],
      [
        "▁poem",
        -10.654633295196486
      ],
      [
        "▁gang",
        -10.654813367749188
      ],
      [
        "▁ships",
        -10.65550979009572
      ],
      [
        "▁kidding",
        -10.655949008982772
      ],
      [
        "▁setting",
        -10.656401206984668
      ],
      [
        "▁hanging",
        -10.656675590731338
      ],
      [
        "▁programme",
        -10.656793210047326
      ],
      [
        "▁economy",
        -10.657821587574649
      ],
      [
        "▁institution",
        -10.658077310375194
      ],
      [
        "▁changing",
        -10.658512089553996
      ],
      [
        "▁grey",
        -10.658714479109095
      ],
      [
        "slightly",
        -10.658918650591854
      ],
      [
        "▁politics",
        -10.65896538522912
      ],
      [
        "laughter",
        -10.659295928657963
      ],
      [
        "▁latter",
        -10.659712508432406
      ],
      [
        "▁lights",
        -10.66018974936246
      ],
      [
        "▁planned",
        -10.6614423077841
      ],
      [
        "▁bang",
        -10.66153522546224
      ],
      [
        "▁scientists",
        -10.661662541373548
      ],
      [
        "▁pilot",
        -10.66195152909085
      ],
      [
        "▁activities",
        -10.662728988389748
      ],
      [
        "end",
        -10.66274197145917
      ],
      [
        "▁cent",
        -10.66281480923822
      ],
      [
        "▁origin",
        -10.663188002485173
      ],
      [
        "▁gray",
        -10.663893444367512
      ],
      [
        "▁etc",
        -10.664498499729888
      ],
      [
        "▁surely",
        -10.664659833836584
      ],
      [
        "▁cookie",
        -10.665176934174095
      ],
      [
        "▁avoid",
        -10.66594605013533
      ],
      [
        "▁estate",
        -10.666559983422124
      ],
      [
        "▁defense",
        -10.666580019542003
      ],
      [
        "▁tells",
        -10.666582527272585
      ],
      [
        "▁settled",
        -10.667150876060722
      ],
      [
        "▁growth",
        -10.667453869888265
      ],
      [
        "▁relative",
        -10.667594539362012
      ],
      [
        "▁paint",
        -10.668241392861612
      ],
      [
        "pp",
        -10.668463492398793
      ],
      [
        "▁hiding",
        -10.668512851943577
      ],
      [
        "was",
        -10.6686005745211
      ],
      [
        "▁brave",
        -10.668700244458517
      ],
      [
        "▁investigation",
        -10.668958664465332
      ],
      [
        "▁connection",
        -10.66910316959576
      ],
      [
        "▁highly",
        -10.669546672808847
      ],
      [
        "▁applie",
        -10.670335610756837
      ],
      [
        "▁annual",
        -10.671337561140476
      ],
      [
        "▁comfortable",
        -10.671340130254125
      ],
      [
        "▁symbol",
        -10.671731109136694
      ],
      [
        "▁highway",
        -10.67244655966745
      ],
      [
        "▁navy",
        -10.67290847668094
      ],
      [
        "▁mouse",
        -10.673147600614492
      ],
      [
        "▁fired",
        -10.673315546823456
      ],
      [
        "ring",
        -10.67397234640528
      ],
      [
        "▁thin",
        -10.67408228924046
      ],
      [
        "ger",
        -10.674537464752838
      ],
      [
        "▁unlike",
        -10.674576789407288
      ],
      [
        "▁pack",
        -10.675248101852926
      ],
      [
        "▁labour",
        -10.675799185131948
      ],
      [
        "▁flow",
        -10.67582573784028
      ],
      [
        "▁suggested",
        -10.676865093529212
      ],
      [
        "▁bowl",
        -10.677550891736722
      ],
      [
        "▁schedule",
        -10.67779818281293
      ],
      [
        "▁sheep",
        -10.67856737182148
      ],
      [
        "ang",
        -10.680552110805207
      ],
      [
        "▁wolf",
        -10.680960107663893
      ],
      [
        "▁pi",
        -10.681031398358234
      ],
      [
        "▁understanding",
        -10.6823552646454
      ],
      [
        "▁piano",
        -10.682599909522272
      ],
      [
        "▁silent",
        -10.683167958507989
      ],
      [
        "▁arrested",
        -10.683401490291358
      ],
      [
        "▁chart",
        -10.683650503080504
      ],
      [
        "▁fate",
        -10.68389774865463
      ],
      [
        "▁belief",
        -10.684208948507496
      ],
      [
        "▁extremely",
        -10.684224257442915
      ],
      [
        "▁guilty",
        -10.68435592125524
      ],
      [
        "▁aircraft",
        -10.684367834408384
      ],
      [
        "▁seconds",
        -10.684642486791496
      ],
      [
        "▁normally",
        -10.684736437921403
      ],
      [
        "▁pat",
        -10.685171935809729
      ],
      [
        "▁chosen",
        -10.686059467427674
      ],
      [
        "▁innocent",
        -10.687102921328838
      ],
      [
        "▁sweden",
        -10.68722882969778
      ],
      [
        "▁tend",
        -10.687666629455643
      ],
      [
        "▁jewish",
        -10.687744633721504
      ],
      [
        "▁remind",
        -10.68817916700741
      ],
      [
        "▁carrying",
        -10.68901829389403
      ],
      [
        "▁maria",
        -10.689911566702117
      ],
      [
        "▁labor",
        -10.68998128103151
      ],
      [
        "▁cop",
        -10.692469559071254
      ],
      [
        "▁display",
        -10.693085243664108
      ],
      [
        "▁rank",
        -10.696134427183855
      ],
      [
        "▁elements",
        -10.69636908836317
      ],
      [
        "▁classe",
        -10.696684025248468
      ],
      [
        "▁global",
        -10.697089547817004
      ],
      [
        "▁streets",
        -10.69729558330612
      ],
      [
        "▁harm",
        -10.697621664900948
      ],
      [
        "▁collect",
        -10.697633088906008
      ],
      [
        "▁paying",
        -10.697860250958543
      ],
      [
        "▁girlfriend",
        -10.698219696218327
      ],
      [
        "ities",
        -10.698306610544371
      ],
      [
        "▁plot",
        -10.699212461060377
      ],
      [
        "▁frequent",
        -10.69985376927264
      ],
      [
        "▁pure",
        -10.699920872741677
      ],
      [
        "▁parish",
        -10.699941715142076
      ],
      [
        "▁fancy",
        -10.7001298024057
      ],
      [
        "▁hidden",
        -10.700402570535864
      ],
      [
        "▁bull",
        -10.700607934123394
      ],
      [
        "▁invited",
        -10.70085596750464
      ],
      [
        "▁weapon",
        -10.701936312128304
      ],
      [
        "▁bomb",
        -10.701946863685905
      ],
      [
        "▁label",
        -10.703043996079746
      ],
      [
        "▁mill",
        -10.703528134108405
      ],
      [
        "▁motor",
        -10.704341299261054
      ],
      [
        "▁artists",
        -10.704363365505014
      ],
      [
        "▁irish",
        -10.704578371561809
      ],
      [
        "cha",
        -10.704593487660974
      ],
      [
        "▁tim",
        -10.704961232997032
      ],
      [
        "▁killer",
        -10.705833836549523
      ],
      [
        "▁steel",
        -10.705900128542384
      ],
      [
        "▁duke",
        -10.706400479849314
      ],
      [
        "▁arthur",
        -10.706794431330298
      ],
      [
        "▁basketball",
        -10.707044262524894
      ],
      [
        "truly",
        -10.707755935136282
      ],
      [
        "▁moral",
        -10.707798726148164
      ],
      [
        "▁fortune",
        -10.7080756685571
      ],
      [
        "▁seek",
        -10.7082431232338
      ],
      [
        "▁baseball",
        -10.708669822474842
      ],
      [
        "▁defeate",
        -10.708949658785782
      ],
      [
        "▁severe",
        -10.709127359593012
      ],
      [
        "▁selling",
        -10.710061516648429
      ],
      [
        "▁pe",
        -10.710913928148203
      ],
      [
        "▁whenever",
        -10.711181864447193
      ],
      [
        "kin",
        -10.711204963663429
      ],
      [
        "▁owner",
        -10.711282996438229
      ],
      [
        "▁wealth",
        -10.711594638673324
      ],
      [
        "▁loose",
        -10.711738802058342
      ],
      [
        "▁sport",
        -10.711872777049784
      ],
      [
        "▁represente",
        -10.713179477278915
      ],
      [
        "▁familiar",
        -10.713721067644007
      ],
      [
        "▁alice",
        -10.714456266636278
      ],
      [
        "▁spare",
        -10.71472179854074
      ],
      [
        "▁proof",
        -10.71473637591426
      ],
      [
        "▁carolina",
        -10.71496721774436
      ],
      [
        "▁goals",
        -10.714968975546045
      ],
      [
        "che",
        -10.715990605513714
      ],
      [
        "▁prefer",
        -10.7162740679561
      ],
      [
        "▁wings",
        -10.71635683714935
      ],
      [
        "▁happiness",
        -10.716377006979885
      ],
      [
        "▁adult",
        -10.716563135607185
      ],
      [
        "▁elizabeth",
        -10.71661308058404
      ],
      [
        "▁steal",
        -10.716876563892791
      ],
      [
        "▁prior",
        -10.71759129453164
      ],
      [
        "▁option",
        -10.71782384305109
      ],
      [
        "back",
        -10.717849783665836
      ],
      [
        "▁flew",
        -10.719402488502888
      ],
      [
        "▁benefit",
        -10.719468791208657
      ],
      [
        "▁joint",
        -10.720227184964946
      ],
      [
        "▁shame",
        -10.720260729989684
      ],
      [
        "▁feels",
        -10.72028033447105
      ],
      [
        "▁roger",
        -10.720382887486942
      ],
      [
        "▁elder",
        -10.722068475998167
      ],
      [
        "▁bu",
        -10.723717482242067
      ],
      [
        "▁celebrate",
        -10.723834205773873
      ],
      [
        "▁ga",
        -10.723968289525764
      ],
      [
        "▁phil",
        -10.724719243277752
      ],
      [
        "▁bishop",
        -10.725248221252215
      ],
      [
        "▁sum",
        -10.72529564624081
      ],
      [
        "▁expensive",
        -10.725619118166437
      ],
      [
        "▁remembered",
        -10.725661971224564
      ],
      [
        "▁figures",
        -10.726025977788344
      ],
      [
        "▁jobs",
        -10.726055233929994
      ],
      [
        "▁balance",
        -10.726680923587072
      ],
      [
        "removed",
        -10.726946762659196
      ],
      [
        "▁progress",
        -10.727354389308069
      ],
      [
        "▁fields",
        -10.72776415989727
      ],
      [
        "▁reserve",
        -10.727831502013531
      ],
      [
        "▁breaking",
        -10.727918944901315
      ],
      [
        "▁brazil",
        -10.728296351353553
      ],
      [
        "▁papa",
        -10.728877071212532
      ],
      [
        "▁afford",
        -10.729168856894862
      ],
      [
        "▁administration",
        -10.729295510738044
      ],
      [
        "▁iowa",
        -10.729512057426472
      ],
      [
        "▁switzerland",
        -10.72979635828974
      ],
      [
        "▁trail",
        -10.731157998950936
      ],
      [
        "▁monday",
        -10.731326861958417
      ],
      [
        "when",
        -10.73217020433714
      ],
      [
        "▁switch",
        -10.732350145388466
      ],
      [
        "▁spell",
        -10.732670101155096
      ],
      [
        "▁senate",
        -10.732811201921807
      ],
      [
        "▁wondering",
        -10.732841253701327
      ],
      [
        "▁online",
        -10.733376679323753
      ],
      [
        "ver",
        -10.733383990610422
      ],
      [
        "▁apply",
        -10.73362582498981
      ],
      [
        "star",
        -10.734068434460584
      ],
      [
        "▁shirt",
        -10.73406913221668
      ],
      [
        "▁suicide",
        -10.734262404720464
      ],
      [
        "▁pleased",
        -10.734543622854687
      ],
      [
        "▁tropical",
        -10.734821979584204
      ],
      [
        "▁bastard",
        -10.735377014332151
      ],
      [
        "▁inter",
        -10.735421039604285
      ],
      [
        "▁lion",
        -10.737231771393756
      ],
      [
        "▁impact",
        -10.738012757712449
      ],
      [
        "▁zone",
        -10.738177546640069
      ],
      [
        "▁shake",
        -10.738335825737163
      ],
      [
        "▁curious",
        -10.738505537265878
      ],
      [
        "▁handsome",
        -10.738814899145872
      ],
      [
        "▁folks",
        -10.738949595127533
      ],
      [
        "▁carbon",
        -10.739596240780925
      ],
      [
        "▁asia",
        -10.740312766255288
      ],
      [
        "▁responsibility",
        -10.740479087328278
      ],
      [
        "▁turkey",
        -10.740927319119686
      ],
      [
        "▁vessel",
        -10.741831353678984
      ],
      [
        "▁review",
        -10.742300535468388
      ],
      [
        "▁fairy",
        -10.742760912116978
      ],
      [
        "▁realized",
        -10.742997032581435
      ],
      [
        "▁micro",
        -10.743404766182962
      ],
      [
        "▁juice",
        -10.743944822381954
      ],
      [
        "▁constitution",
        -10.744074409817031
      ],
      [
        "▁literature",
        -10.744261786374546
      ],
      [
        "▁zealand",
        -10.74426951137719
      ],
      [
        "▁jones",
        -10.74428677428105
      ],
      [
        "ating",
        -10.744562612326735
      ],
      [
        "▁sang",
        -10.744568566967626
      ],
      [
        "▁eric",
        -10.745415833054084
      ],
      [
        "▁cloud",
        -10.746816590676312
      ],
      [
        "▁cute",
        -10.74727541968048
      ],
      [
        "▁matters",
        -10.749192995245862
      ],
      [
        "▁junior",
        -10.749238994933236
      ],
      [
        "▁budget",
        -10.749490044631342
      ],
      [
        "▁critical",
        -10.749854559661712
      ],
      [
        "▁pale",
        -10.750983030503363
      ],
      [
        "▁headquarter",
        -10.75196567328236
      ],
      [
        "▁entertainment",
        -10.752357931552812
      ],
      [
        "▁operations",
        -10.752736521514889
      ],
      [
        "▁sheet",
        -10.752934458543168
      ],
      [
        "▁staying",
        -10.753078125823114
      ],
      [
        "▁hurricane",
        -10.754964890984796
      ],
      [
        "▁threat",
        -10.755201144497384
      ],
      [
        "night",
        -10.755335641881542
      ],
      [
        "earned",
        -10.755552290333409
      ],
      [
        "▁falls",
        -10.755777723685751
      ],
      [
        "water",
        -10.756329855368604
      ],
      [
        "▁powers",
        -10.757019834646812
      ],
      [
        "racing",
        -10.757396330474773
      ],
      [
        "▁orchestra",
        -10.757548576628604
      ],
      [
        "▁films",
        -10.757632079652849
      ],
      [
        "▁guide",
        -10.757828032833446
      ],
      [
        "▁korea",
        -10.758294231860244
      ],
      [
        "▁grab",
        -10.75838489598937
      ],
      [
        "▁supporte",
        -10.75886936348718
      ],
      [
        "▁cultural",
        -10.75909812862098
      ],
      [
        "▁clever",
        -10.761696916200078
      ],
      [
        "▁oldes",
        -10.762195941368464
      ],
      [
        "▁farmer",
        -10.762644531077122
      ],
      [
        "hmm",
        -10.762696896048896
      ],
      [
        "▁ken",
        -10.762747200630088
      ],
      [
        "▁possibilit",
        -10.763348614387736
      ],
      [
        "▁brilliant",
        -10.763524431319372
      ],
      [
        "▁disappeared",
        -10.763572331650233
      ],
      [
        "▁false",
        -10.763760938919132
      ],
      [
        "▁stadium",
        -10.764168629823546
      ],
      [
        "▁participate",
        -10.764748583589268
      ],
      [
        "▁unknown",
        -10.76566195265012
      ],
      [
        "▁boston",
        -10.765762028966448
      ],
      [
        "▁santa",
        -10.766998910019344
      ],
      [
        "▁monster",
        -10.767048066996038
      ],
      [
        "▁edition",
        -10.767314726671096
      ],
      [
        "some",
        -10.76747905217509
      ],
      [
        "▁jersey",
        -10.767521209653106
      ],
      [
        "▁conflict",
        -10.767647011552638
      ],
      [
        "▁existence",
        -10.767940510203614
      ],
      [
        "za",
        -10.768025888670069
      ],
      [
        "▁hunt",
        -10.76851861272368
      ],
      [
        "▁starr",
        -10.768742973785852
      ],
      [
        "▁lad",
        -10.768989191270729
      ],
      [
        "▁relax",
        -10.769166759337658
      ],
      [
        "▁grandma",
        -10.769704846090082
      ],
      [
        "ears",
        -10.769766835684845
      ],
      [
        "▁determined",
        -10.770558792984607
      ],
      [
        "▁mirror",
        -10.770596787422065
      ],
      [
        "▁constant",
        -10.770920492583452
      ],
      [
        "▁nuclear",
        -10.77141551043037
      ],
      [
        "▁bite",
        -10.77227547762876
      ],
      [
        "your",
        -10.77259105847206
      ],
      [
        "▁solve",
        -10.772904905570243
      ],
      [
        "▁agreement",
        -10.772928684183512
      ],
      [
        "▁copie",
        -10.77306503408083
      ],
      [
        "nce",
        -10.773263204746335
      ],
      [
        "▁sweetie",
        -10.773387146488712
      ],
      [
        "▁suffering",
        -10.773524047030516
      ],
      [
        "▁bible",
        -10.77419776724489
      ],
      [
        "▁ghost",
        -10.774573281646845
      ],
      [
        "▁goodness",
        -10.775003358152034
      ],
      [
        "▁pope",
        -10.775874198630708
      ],
      [
        "▁income",
        -10.77691651157126
      ],
      [
        "ber",
        -10.77752070157064
      ],
      [
        "▁refused",
        -10.777601555988682
      ],
      [
        "▁swing",
        -10.778372718351
      ],
      [
        "▁attacked",
        -10.778646855308892
      ],
      [
        "▁repeat",
        -10.779280087832436
      ],
      [
        "▁connect",
        -10.779661046396098
      ],
      [
        "▁express",
        -10.779757358983147
      ],
      [
        "▁dust",
        -10.780577313350008
      ],
      [
        "▁guitar",
        -10.780635557343198
      ],
      [
        "▁egypt",
        -10.780696781082288
      ],
      [
        "▁associated",
        -10.780733946621654
      ],
      [
        "which",
        -10.781616467806288
      ],
      [
        "▁acid",
        -10.782154283375302
      ],
      [
        "▁deliver",
        -10.782482634198674
      ],
      [
        "▁hunting",
        -10.78273828992009
      ],
      [
        "▁supreme",
        -10.7829089062031
      ],
      [
        "▁woods",
        -10.784107613026626
      ],
      [
        "▁attende",
        -10.784530536283922
      ],
      [
        "▁sentence",
        -10.784691546686531
      ],
      [
        "▁chose",
        -10.78476558467054
      ],
      [
        "▁wheel",
        -10.784870380722056
      ],
      [
        "▁purchase",
        -10.78641031786352
      ],
      [
        "▁presente",
        -10.786925414697649
      ],
      [
        "mar",
        -10.786955523305547
      ],
      [
        "▁hung",
        -10.788323389220391
      ],
      [
        "▁cards",
        -10.78857686258269
      ],
      [
        "▁chest",
        -10.78859037926338
      ],
      [
        "▁regard",
        -10.789381304757544
      ],
      [
        "▁waited",
        -10.789679532401944
      ],
      [
        "jo",
        -10.789708434461502
      ],
      [
        "listed",
        -10.790198772187
      ],
      [
        "▁debt",
        -10.79061813990982
      ],
      [
        "kansas",
        -10.790762427876317
      ],
      [
        "king",
        -10.790812702711532
      ],
      [
        "▁dragon",
        -10.790925905138945
      ],
      [
        "▁detective",
        -10.79133823592759
      ],
      [
        "▁bush",
        -10.791653105622316
      ],
      [
        "▁burning",
        -10.791970978254552
      ],
      [
        "▁causes",
        -10.79240979265875
      ],
      [
        "▁software",
        -10.793403334029268
      ],
      [
        "▁suffered",
        -10.793621301057453
      ],
      [
        "▁pretend",
        -10.793630345696856
      ],
      [
        "▁israel",
        -10.79454479825304
      ],
      [
        "▁americans",
        -10.795045086660364
      ],
      [
        "▁distribute",
        -10.795486893308311
      ],
      [
        "▁ordinary",
        -10.79560188315233
      ],
      [
        "▁trace",
        -10.795838504479368
      ],
      [
        "▁wales",
        -10.79595224427907
      ],
      [
        "▁solid",
        -10.796106508663966
      ],
      [
        "▁defend",
        -10.796301321767164
      ],
      [
        "▁occurre",
        -10.796408985423136
      ],
      [
        "ach",
        -10.796609918114587
      ],
      [
        "▁unusual",
        -10.797415305891942
      ],
      [
        "▁emergency",
        -10.797461203997251
      ],
      [
        "▁photo",
        -10.797854779900844
      ],
      [
        "▁brian",
        -10.79810488406214
      ],
      [
        "▁scheme",
        -10.799164627155312
      ],
      [
        "▁violence",
        -10.799356400330984
      ],
      [
        "▁conduct",
        -10.799534007484132
      ],
      [
        "▁sales",
        -10.799588357563964
      ],
      [
        "ex",
        -10.79987741766935
      ],
      [
        "▁cha",
        -10.800084447762124
      ],
      [
        "▁pride",
        -10.800433074692146
      ],
      [
        "▁bow",
        -10.800520884564556
      ],
      [
        "▁formal",
        -10.801242080760169
      ],
      [
        "▁touched",
        -10.801700937840716
      ],
      [
        "▁behavior",
        -10.802134327151672
      ],
      [
        "ez",
        -10.803011217840494
      ],
      [
        "▁walter",
        -10.804037239534422
      ],
      [
        "▁drawn",
        -10.804524917864777
      ],
      [
        "▁independence",
        -10.804844044545616
      ],
      [
        "▁locked",
        -10.805119844191362
      ],
      [
        "door",
        -10.805262351570482
      ],
      [
        "▁witness",
        -10.805980860118698
      ],
      [
        "▁assume",
        -10.806053830837737
      ],
      [
        "▁darkness",
        -10.806398645101847
      ],
      [
        "▁overall",
        -10.806410885837996
      ],
      [
        "▁proposed",
        -10.810053736457125
      ],
      [
        "▁pray",
        -10.81047214307762
      ],
      [
        "▁romantic",
        -10.810548406010708
      ],
      [
        "▁industrial",
        -10.810611613669163
      ],
      [
        "▁ki",
        -10.810900916220238
      ],
      [
        "▁gain",
        -10.811011613898012
      ],
      [
        "ened",
        -10.811604560397788
      ],
      [
        "▁examples",
        -10.811934157849958
      ],
      [
        "▁fallen",
        -10.812375613938082
      ],
      [
        "▁wing",
        -10.812973403384763
      ],
      [
        "hand",
        -10.813049193049984
      ],
      [
        "▁dozen",
        -10.813205537427002
      ],
      [
        "á",
        -10.81339153924023
      ],
      [
        "▁soil",
        -10.81422657198898
      ],
      [
        "van",
        -10.815496409415616
      ],
      [
        "▁chi",
        -10.816026590564997
      ],
      [
        "ical",
        -10.816112031833317
      ],
      [
        "new",
        -10.81635732067934
      ],
      [
        "▁pot",
        -10.817263551852738
      ],
      [
        "▁sara",
        -10.817769426724391
      ],
      [
        "▁costs",
        -10.817858486237949
      ],
      [
        "▁attitude",
        -10.8178853255259
      ],
      [
        "▁tied",
        -10.817913742833714
      ],
      [
        "▁editor",
        -10.818109988168796
      ],
      [
        "studies",
        -10.818366624092423
      ],
      [
        "▁discussion",
        -10.818951589722458
      ],
      [
        "▁mis",
        -10.82003023844289
      ],
      [
        "▁insurance",
        -10.820497963787298
      ],
      [
        "▁column",
        -10.820805547391728
      ],
      [
        "babies",
        -10.822420257781385
      ],
      [
        "▁sample",
        -10.822525158035315
      ],
      [
        "▁web",
        -10.822703557787555
      ],
      [
        "▁expert",
        -10.824757757175837
      ],
      [
        "▁argument",
        -10.824788957316336
      ],
      [
        "▁ruin",
        -10.824880438467654
      ],
      [
        "▁hoping",
        -10.825571161047945
      ],
      [
        "▁drove",
        -10.825748380808786
      ],
      [
        "▁kong",
        -10.826335259923065
      ],
      [
        "▁philosoph",
        -10.826890739360506
      ],
      [
        "▁broadcast",
        -10.827145625465056
      ],
      [
        "▁demand",
        -10.82732631440207
      ],
      [
        "▁mar",
        -10.82743795211787
      ],
      [
        "▁engaged",
        -10.827513404572224
      ],
      [
        "▁township",
        -10.827962155811294
      ],
      [
        "▁aspect",
        -10.828405692827973
      ],
      [
        "▁fame",
        -10.828679033748829
      ],
      [
        "▁warning",
        -10.829271298043842
      ],
      [
        "▁po",
        -10.82945523218148
      ],
      [
        "▁fred",
        -10.82978540056281
      ],
      [
        "▁creature",
        -10.830726311900085
      ],
      [
        "▁maintain",
        -10.830942334905563
      ],
      [
        "gan",
        -10.831026575067757
      ],
      [
        "▁rocks",
        -10.831857289175606
      ],
      [
        "▁hook",
        -10.832059382672856
      ],
      [
        "based",
        -10.832466334814754
      ],
      [
        "▁description",
        -10.833016483278476
      ],
      [
        "▁chocolate",
        -10.833347909765449
      ],
      [
        "▁bitter",
        -10.833514089258635
      ],
      [
        "▁yard",
        -10.834185237211525
      ],
      [
        "▁rat",
        -10.834355006115125
      ],
      [
        "▁equipment",
        -10.834679588129095
      ],
      [
        "▁saving",
        -10.834820669557294
      ],
      [
        "▁swimming",
        -10.83575097007964
      ],
      [
        "▁glance",
        -10.83601017567732
      ],
      [
        "▁rings",
        -10.836466934751646
      ],
      [
        "▁chamber",
        -10.836725076978516
      ],
      [
        "▁unfortunately",
        -10.837065587031615
      ],
      [
        "▁regional",
        -10.837531139444218
      ],
      [
        "▁prepare",
        -10.837660810852364
      ],
      [
        "▁breathe",
        -10.83880156078327
      ],
      [
        "▁treated",
        -10.839397324525647
      ],
      [
        "▁boyfriend",
        -10.839538046501731
      ],
      [
        "▁root",
        -10.840035835096206
      ],
      [
        "▁jerry",
        -10.840768292469098
      ],
      [
        "ble",
        -10.841669127809771
      ],
      [
        "▁jr",
        -10.841735948507342
      ],
      [
        "▁mile",
        -10.842053250080898
      ],
      [
        "▁equation",
        -10.842676658801604
      ],
      [
        "explained",
        -10.843362993250478
      ],
      [
        "▁urban",
        -10.84396928977926
      ],
      [
        "▁intelligence",
        -10.844519317431248
      ],
      [
        "▁mail",
        -10.844898531938018
      ],
      [
        "▁dawn",
        -10.845173150805936
      ],
      [
        "▁pattern",
        -10.8453431107374
      ],
      [
        "▁instruction",
        -10.84544722465616
      ],
      [
        "▁incident",
        -10.845541068968636
      ],
      [
        "~",
        -10.845693744784604
      ],
      [
        "▁serving",
        -10.845911438145691
      ],
      [
        "▁bro",
        -10.847349830132687
      ],
      [
        "▁corn",
        -10.847559547268826
      ],
      [
        "▁alexander",
        -10.84798662198516
      ],
      [
        "▁importance",
        -10.848392166739586
      ],
      [
        "▁affect",
        -10.848569233279978
      ],
      [
        "▁susan",
        -10.849004259042209
      ],
      [
        "ette",
        -10.849730231299096
      ],
      [
        "▁somewhat",
        -10.849915279703412
      ],
      [
        "▁corporation",
        -10.850067972527418
      ],
      [
        "▁leaders",
        -10.850103874867138
      ],
      [
        "▁smooth",
        -10.850793244993104
      ],
      [
        "▁riding",
        -10.851377741054378
      ],
      [
        "▁horrible",
        -10.851714577053905
      ],
      [
        "▁armed",
        -10.852267975345216
      ],
      [
        "▁sergeant",
        -10.853480393459586
      ],
      [
        "▁suffer",
        -10.853501882774978
      ],
      [
        "ck",
        -10.853917758435262
      ],
      [
        "▁decade",
        -10.854486900345892
      ],
      [
        "▁asian",
        -10.854819633123387
      ],
      [
        "▁coal",
        -10.85487432145046
      ],
      [
        "▁aside",
        -10.855889003173523
      ],
      [
        "bu",
        -10.85614862984266
      ],
      [
        "▁remove",
        -10.857064791834205
      ],
      [
        "▁unique",
        -10.85724999831922
      ],
      [
        "▁pushe",
        -10.857847521424755
      ],
      [
        "▁sale",
        -10.85790658885002
      ],
      [
        "▁circumstances",
        -10.858066899395665
      ],
      [
        "▁par",
        -10.858112385677703
      ],
      [
        "▁korean",
        -10.85819889206434
      ],
      [
        "▁nominate",
        -10.860199328562157
      ],
      [
        "▁winner",
        -10.860471253701512
      ],
      [
        "hey",
        -10.860501429898427
      ],
      [
        "▁rush",
        -10.860928662415477
      ],
      [
        "▁lab",
        -10.861064626726908
      ],
      [
        "▁sisters",
        -10.86117222595472
      ],
      [
        "▁merry",
        -10.861661741856112
      ],
      [
        "▁ridiculous",
        -10.862964746273878
      ],
      [
        "▁principal",
        -10.86298164770038
      ],
      [
        "▁bone",
        -10.863313805131412
      ],
      [
        "▁treasure",
        -10.863374814549246
      ],
      [
        "▁banks",
        -10.864730205320036
      ],
      [
        "▁frame",
        -10.865616025079504
      ],
      [
        "▁request",
        -10.865809567492162
      ],
      [
        "▁properly",
        -10.8658517553441
      ],
      [
        "▁diamond",
        -10.866461555086076
      ],
      [
        "▁curve",
        -10.86722296177686
      ],
      [
        "▁courage",
        -10.8679611741122
      ],
      [
        "▁advance",
        -10.868765693322253
      ],
      [
        "▁represent",
        -10.869548777207717
      ],
      [
        "▁bones",
        -10.871473399304238
      ],
      [
        "▁boo",
        -10.871860849729869
      ],
      [
        "▁agency",
        -10.871888224698228
      ],
      [
        "▁discuss",
        -10.87195333975198
      ],
      [
        "▁crap",
        -10.871966089532371
      ],
      [
        "▁beneath",
        -10.872335507809415
      ],
      [
        "▁journalist",
        -10.872653444728044
      ],
      [
        "launched",
        -10.87286564845478
      ],
      [
        "▁sha",
        -10.873013411526188
      ],
      [
        "▁encourage",
        -10.87321221665345
      ],
      [
        "▁francisco",
        -10.873958447602584
      ],
      [
        "have",
        -10.875201023765689
      ],
      [
        "down",
        -10.876076114925864
      ],
      [
        "▁officially",
        -10.876572246601953
      ],
      [
        "▁polish",
        -10.876742173671184
      ],
      [
        "▁keys",
        -10.876823556687212
      ],
      [
        "▁employee",
        -10.877311010703846
      ],
      [
        "▁ju",
        -10.877385573207428
      ],
      [
        "▁ali",
        -10.877960780493307
      ],
      [
        "▁effective",
        -10.878331048836609
      ],
      [
        "▁lonely",
        -10.87901476728883
      ],
      [
        "▁seasons",
        -10.879161667556772
      ],
      [
        "▁pie",
        -10.879349141429897
      ],
      [
        "▁distribution",
        -10.879905324666913
      ],
      [
        "▁noble",
        -10.880215166829576
      ],
      [
        "▁dig",
        -10.880420666830576
      ],
      [
        "▁berlin",
        -10.880604292936928
      ],
      [
        "▁obvious",
        -10.88127520060199
      ],
      [
        "▁factory",
        -10.88225901494054
      ],
      [
        "▁georgia",
        -10.883200959108311
      ],
      [
        "▁permanent",
        -10.883471804160346
      ],
      [
        "▁pacific",
        -10.883932126658078
      ],
      [
        "engineering",
        -10.884315580300584
      ],
      [
        "▁knight",
        -10.88466712806365
      ],
      [
        "▁ryan",
        -10.885707057850098
      ],
      [
        "▁analysis",
        -10.885735038568331
      ],
      [
        "▁acquire",
        -10.885993957844988
      ],
      [
        "▁anna",
        -10.88601543821182
      ],
      [
        "▁sons",
        -10.886313244863912
      ],
      [
        "▁shortly",
        -10.88651348086529
      ],
      [
        "▁error",
        -10.88681805674827
      ],
      [
        "▁exact",
        -10.886890153685414
      ],
      [
        "▁habit",
        -10.887084050737544
      ],
      [
        "▁smiling",
        -10.887868168768996
      ],
      [
        "▁butter",
        -10.88834226792163
      ],
      [
        "▁dave",
        -10.889031971909132
      ],
      [
        "▁profit",
        -10.889200009988722
      ],
      [
        "▁canton",
        -10.889787937466572
      ],
      [
        "▁ceremon",
        -10.890227350770376
      ],
      [
        "▁alternative",
        -10.89102489226662
      ],
      [
        "▁fuel",
        -10.891193009305717
      ],
      [
        "▁ram",
        -10.892269694425272
      ],
      [
        "▁stephen",
        -10.892348418838717
      ],
      [
        "▁fishing",
        -10.892704301441745
      ],
      [
        "▁praise",
        -10.893299178890665
      ],
      [
        "▁dealing",
        -10.89343022464299
      ],
      [
        "▁committed",
        -10.893882918236187
      ],
      [
        "▁citizens",
        -10.894043725787718
      ],
      [
        "▁eve",
        -10.894089538106474
      ],
      [
        "organized",
        -10.894650413506811
      ],
      [
        "▁beg",
        -10.895009636076942
      ],
      [
        "▁poet",
        -10.895034184986464
      ],
      [
        "▁appeal",
        -10.895148102839835
      ],
      [
        "▁crash",
        -10.899119716669604
      ],
      [
        "his",
        -10.899268319819782
      ],
      [
        "▁hundreds",
        -10.89954557366348
      ],
      [
        "▁stole",
        -10.89968099035968
      ],
      [
        "known",
        -10.899973990816273
      ],
      [
        "▁counter",
        -10.90118080878517
      ],
      [
        "▁sixth",
        -10.901229635279645
      ],
      [
        "▁andrew",
        -10.90130859165718
      ],
      [
        "▁atlantic",
        -10.901683077627432
      ],
      [
        "▁hu",
        -10.90213823161151
      ],
      [
        "▁lane",
        -10.903016411849528
      ],
      [
        "▁rescue",
        -10.903210910157403
      ],
      [
        "▁advanced",
        -10.90321326499814
      ],
      [
        "two",
        -10.904973088216364
      ],
      [
        "▁shift",
        -10.905453563374785
      ],
      [
        "▁rural",
        -10.905575503801726
      ],
      [
        "▁doors",
        -10.905662505107326
      ],
      [
        "▁teachers",
        -10.905783804086756
      ],
      [
        "▁belt",
        -10.906219305292655
      ],
      [
        "▁brief",
        -10.90629824393008
      ],
      [
        "▁boom",
        -10.906457927556264
      ],
      [
        "▁values",
        -10.90688288627533
      ],
      [
        "▁composer",
        -10.90692102224285
      ],
      [
        "▁partie",
        -10.90696132082411
      ],
      [
        "▁pakistan",
        -10.907015619280433
      ],
      [
        "▁slept",
        -10.908037013224591
      ],
      [
        "▁strateg",
        -10.908547866526874
      ],
      [
        "▁favour",
        -10.908706930976525
      ],
      [
        "£",
        -10.908742775547264
      ],
      [
        "▁seventy",
        -10.908973947586134
      ],
      [
        "▁merely",
        -10.910190450658956
      ],
      [
        "▁stranger",
        -10.910550430906364
      ],
      [
        "▁deck",
        -10.910662244294588
      ],
      [
        "▁lap",
        -10.910868955745078
      ],
      [
        "▁subsequent",
        -10.911968425419616
      ],
      [
        "▁desk",
        -10.91211878803979
      ],
      [
        "▁eaten",
        -10.913900343992962
      ],
      [
        "▁presidential",
        -10.914781521121888
      ],
      [
        "▁jan",
        -10.914895902594196
      ],
      [
        "▁introduce",
        -10.915006009017697
      ],
      [
        "stone",
        -10.915088169877569
      ],
      [
        "▁classic",
        -10.915119047676052
      ],
      [
        "▁comfort",
        -10.915163589673345
      ],
      [
        "five",
        -10.916642308773651
      ],
      [
        "▁bedroom",
        -10.916763002727862
      ],
      [
        "▁beer",
        -10.917189736557038
      ],
      [
        "▁platform",
        -10.917261549216695
      ],
      [
        "▁surgery",
        -10.917840677810329
      ],
      [
        "▁creation",
        -10.918093960849818
      ],
      [
        "▁rent",
        -10.91818826203217
      ],
      [
        "▁madam",
        -10.919048953552268
      ],
      [
        "▁mu",
        -10.919208205845845
      ],
      [
        "▁digital",
        -10.921380519727702
      ],
      [
        "▁ideal",
        -10.921484817694012
      ],
      [
        "▁jay",
        -10.923104797818594
      ],
      [
        "▁angle",
        -10.92368870734306
      ],
      [
        "also",
        -10.924147793039303
      ],
      [
        "gar",
        -10.924629379523775
      ],
      [
        "▁convention",
        -10.924916093875352
      ],
      [
        "▁cor",
        -10.92508904970052
      ],
      [
        "▁sending",
        -10.925089383199424
      ],
      [
        "ju",
        -10.92546967756672
      ],
      [
        "▁semi",
        -10.925581714822286
      ],
      [
        "▁taylor",
        -10.925835966873455
      ],
      [
        "▁nest",
        -10.926271997390764
      ],
      [
        "▁layer",
        -10.926734327784192
      ],
      [
        "▁liberal",
        -10.927456601396244
      ],
      [
        "▁authorities",
        -10.927922379708075
      ],
      [
        "get",
        -10.928235804016614
      ],
      [
        "▁ke",
        -10.928288947221754
      ],
      [
        "▁representatives",
        -10.929264160084964
      ],
      [
        "▁load",
        -10.929645648838886
      ],
      [
        "air",
        -10.930135019718763
      ],
      [
        "▁reports",
        -10.93026541599623
      ],
      [
        "▁closely",
        -10.930654739078856
      ],
      [
        "▁wishe",
        -10.931351793877198
      ],
      [
        "pro",
        -10.931575584563728
      ],
      [
        "▁clock",
        -10.931591737192289
      ],
      [
        "▁anger",
        -10.931822024518862
      ],
      [
        "▁funeral",
        -10.932629502421364
      ],
      [
        "▁pity",
        -10.932721046924913
      ],
      [
[...]
