{
  "version": "1.0",
  "truncation": null,
  "padding": null,
  "added_tokens": [
    {
      "id": 0,
      "content": "<pad>",
      "single_word": false,
      "lstrip": false,
      "rstrip": false,
      "normalized": false,
      "special": true
    },
    {
      "id": 1,
      "content": "</s>",
      "single_word": false,
      "lstrip": false,
      "rstrip": false,
      "normalized": false,
      "special": true
    },
    {
      "id": 2,
      "content": "<unk>",
      "single_word": false,
      "lstrip": false,
      "rstrip": false,
      "normalized": false,
      "special": true
    }
  ],
  "normalizer": {
    "type": "Sequence",
    "normalizers": [
      {
        "type": "Nmt"
      },
      {
        "type": "NFKC"
      },
      {
        "type": "Replace",
        "pattern": {
          "Regex": " {2,}"
        },
        "content": " "
      },
      {
        "type": "Lowercase"
      }
    ]
  },
  "pre_tokenizer": {
    "type": "Sequence",
    "pretokenizers": [
      {
        "type": "Metaspace",
        "replacement": "▁",
        "add_prefix_space": true
      },
      {
        "type": "Digits",
        "individual_digits": true
      },
      {
        "type": "Punctuation",
        "behavior": "Isolated"
      }
    ]
  },
  "post_processor": {
    "type": "TemplateProcessing",
    "single": [
      {
        "Sequence": {
          "id": "A",
          "type_id": 0
        }
      },
      {
        "SpecialToken": {
          "id": "</s>",
          "type_id": 0
        }
      }
    ],
    "pair": [
      {
        "Sequence": {
          "id": "A",
          "type_id": 0
        }
      },
      {
        "Sequence": {
          "id": "B",
          "type_id": 1
        }
      }
    ],
    "special_tokens": {
      "</s>": {
        "id": "</s>",
        "ids": [
          1
        ],
        "tokens": [
          "</s>"
        ]
      }
    }
  },
  "decoder": {
    "type": "Metaspace",
    "replacement": "▁",
    "add_prefix_space": true
  },
  "model": {
    "type": "Unigram",
    "unk_id": 2,
    "vocab": [
      [
        "<pad>",
        0.0
      ],
      [
        "</s>",
        0.0
      ],
      [
        "<unk>",
        0.0
      ],
      [
        "▁",
        -2.4327430157218988
      ],
      [
        ".",
        -2.868523173981739
      ],
      [
        ",",
        -3.267189337437326
      ],
      [
        "s",
        -3.425141198883298
      ],
      [
        "▁the",
        -3.4616052226559315
      ],
      [
        "'",
        -3.842288262092472
      ],
      [
        "a",
        -4.040581618360015
      ],
      [
        "i",
        -4.116248348701349
      ],
      [
        "▁and",
        -4.19405612907334
      ],
      [
        "▁to",
        -4.2198224583870605
      ],
      [
        "▁of",
        -4.288238279035049
      ],
      [
        "▁you",
        -4.3398109036693935
      ],
      [
        "▁in",
        -4.49391914987193
      ],
      [
        "-",
        -4.572554131835398
      ],
      [
        "▁it",
        -4.592418994458484
      ],
      [
        "?",
        -4.610732911814917
      ],
      [
        "▁that",
        -4.767233890681945
      ],
      [
        "t",
        -4.87238443358893
      ],
      [
        "▁is",
        -4.904694764064464
      ],
      [
        "\"",
        -5.011135082907645
      ],
      [
        "ed",
        -5.027411007825092
      ],
      [
        "y",
        -5.042797816046511
      ],
      [
        "▁was",
        -5.141308189781263
      ],
      [
        "d",
        -5.159916522548434
      ],
      [
        "▁he",
        -5.194799918472077
      ],
      [
        "1",
        -5.2394672290548385
      ],
      [
        "▁for",
        -5.365433658810803
      ],
      [
        "0",
        -5.3828608929016735
      ],
      [
        "▁on",
        -5.435167628302672
      ],
      [
        "!",
        -5.439823475092281
      ],
      [
        "ing",
        -5.442063091193022
      ],
      [
        "e",
        -5.480117401485241
      ],
      [
        "▁we",
        -5.512654202521253
      ],
      [
        "▁this",
        -5.569118692345233
      ],
      [
        "▁with",
        -5.598460424827572
      ],
      [
        "▁what",
        -5.629285895149533
      ],
      [
        "2",
        -5.668240248629504
      ],
      [
        "▁be",
        -5.69426449621292
      ],
      [
        "▁have",
        -5.7300072717062775
      ],
      [
        "▁are",
        -5.732141332824739
      ],
      [
        "▁as",
        -5.744098932288102
      ],
      [
        "ly",
        -5.770517875087101
      ],
      [
        "m",
        -5.792443131527811
      ],
      [
        "▁not",
        -5.815340730598113
      ],
      [
        "▁but",
        -5.843541977804822
      ],
      [
        "▁me",
        -5.8482106177543045
      ],
      [
        "▁they",
        -5.858696780650231
      ],
      [
        "▁at",
        -5.880249166759446
      ],
      [
        "9",
        -5.9031986915138095
      ],
      [
        "▁so",
        -5.927555862119972
      ],
      [
        "▁do",
        -5.936405810311214
      ],
      [
        "▁his",
        -5.987063641897652
      ],
      [
        "▁there",
        -6.0043759154303995
      ],
      [
        "re",
        -6.031173077747628
      ],
      [
        "▁no",
        -6.05520737816229
      ],
      [
        "▁can",
        -6.057120284806317
      ],
      [
        "▁all",
        -6.062213215802592
      ],
      [
        "▁she",
        -6.071773436600973
      ],
      [
        "▁one",
        -6.101072673180985
      ],
      [
        "▁my",
        -6.103225335224444
      ],
      [
        "▁from",
        -6.150356190213609
      ],
      [
        "▁by",
        -6.15610599775542
      ],
      [
        "▁your",
        -6.16291068049067
      ],
      [
        "▁know",
        -6.178755359926235
      ],
      [
        ")",
        -6.179287813057407
      ],
      [
        "(",
        -6.181170122990627
      ],
      [
        "▁her",
        -6.2163980910998
      ],
      [
        "▁like",
        -6.248266797081358
      ],
      [
        "▁had",
        -6.270543133470806
      ],
      [
        "▁don",
        -6.292608424591043
      ],
      [
        "n",
        -6.304566760564704
      ],
      [
        "▁an",
        -6.337027500902021
      ],
      [
        "▁if",
        -6.337847963932489
      ],
      [
        "▁or",
        -6.380102918987909
      ],
      [
        "▁up",
        -6.3856547234313705
      ],
      [
        "▁him",
        -6.3991842050404415
      ],
      [
        "▁about",
        -6.400947244275477
      ],
      [
        "▁just",
        -6.4040408270472255
      ],
      [
        "▁out",
        -6.425455854516036
      ],
      [
        "▁were",
        -6.426820933027583
      ],
      [
        "▁get",
        -6.449844174173705
      ],
      [
        "▁here",
        -6.46414455212177
      ],
      [
        "▁go",
        -6.469977932887485
      ],
      [
        "o",
        -6.493582013306877
      ],
      [
        "3",
        -6.495007327908631
      ],
      [
        "8",
        -6.510686238018575
      ],
      [
        "ll",
        -6.511067388938045
      ],
      [
        "5",
        -6.513266052412556
      ],
      [
        ";",
        -6.515895704313323
      ],
      [
        "▁when",
        -6.535069096268559
      ],
      [
        "▁well",
        -6.545676165992335
      ],
      [
        "▁who",
        -6.553411219825097
      ],
      [
        ":",
        -6.565721303884546
      ],
      [
        "▁now",
        -6.5692099273247955
      ],
      [
        "▁right",
        -6.574428796968618
      ],
      [
        "er",
        -6.575990419217277
      ],
      [
        "4",
        -6.5903407583744915
      ],
      [
        "▁how",
        -6.623198086862905
      ],
      [
        "▁yeah",
        -6.625559142186415
      ],
      [
        "▁will",
        -6.632509841873874
      ],
      [
        "▁oh",
        -6.634393904320696
      ],
      [
        "6",
        -6.665549284570156
      ],
      [
        "7",
        -6.6763866304156245
      ],
      [
        "h",
        -6.685027050955858
      ],
      [
        "▁which",
        -6.695056551483699
      ],
      [
        "▁see",
        -6.701590434915644
      ],
      [
        "▁would",
        -6.702895597068787
      ],
      [
        "ve",
        -6.718402352122533
      ],
      [
        "▁think",
        -6.743262208403912
      ],
      [
        "▁then",
        -6.7483290491219545
      ],
      [
        "▁them",
        -6.757768671372034
      ],
      [
        "▁has",
        -6.768289020773491
      ],
      [
        "▁said",
        -6.791971990685907
      ],
      [
        "▁some",
        -6.792029312642908
      ],
      [
        "▁time",
        -6.795097136359436
      ],
      [
        "=",
        -6.7959736133396405
      ],
      [
        "`",
        -6.803081493424811
      ],
      [
        "r",
        -6.804690408537262
      ],
      [
        "▁got",
        -6.808290367903455
      ],
      [
        "▁want",
        -6.810933302806353
      ],
      [
        "▁come",
        -6.812140107911189
      ],
      [
        "▁did",
        -6.818799970775704
      ],
      [
        "▁been",
        -6.87004263753543
      ],
      [
        "▁good",
        -6.8838796444895145
      ],
      [
        "▁their",
        -6.884807561916153
      ],
      [
        "▁where",
        -6.907562005595617
      ],
      [
        "l",
        -6.9124389023200585
      ],
      [
        "▁people",
        -6.92139177893886
      ],
      [
        "▁more",
        -6.928670653395642
      ],
      [
        "▁other",
        -6.9729994847232355
      ],
      [
        "▁going",
        -6.976303856737761
      ],
      [
        "▁very",
        -7.005568550687382
      ],
      [
        "▁two",
        -7.014749476052133
      ],
      [
        "▁let",
        -7.049971508959231
      ],
      [
        "▁back",
        -7.078376858129364
      ],
      [
        "▁first",
        -7.081000967087034
      ],
      [
        "▁look",
        -7.081465726238861
      ],
      [
        "▁over",
        -7.09228242012103
      ],
      [
        "▁could",
        -7.092544582728326
      ],
      [
        "on",
        -7.138373059276962
      ],
      [
        "▁because",
        -7.141990645888532
      ],
      [
        "▁down",
        -7.154566689575391
      ],
      [
        "▁into",
        -7.167278536317106
      ],
      [
        "▁say",
        -7.169602327756353
      ],
      [
        "g",
        -7.169887602555425
      ],
      [
        "▁also",
        -7.178890040941022
      ],
      [
        "▁us",
        -7.184539428705076
      ],
      [
        "▁way",
        -7.194263737593664
      ],
      [
        "▁okay",
        -7.20388489523539
      ],
      [
        "▁yes",
        -7.208005836451227
      ],
      [
        "ies",
        -7.215953364178198
      ],
      [
        "▁only",
        -7.223797072857856
      ],
      [
        "▁take",
        -7.225667914654503
      ],
      [
        "▁our",
        -7.2277889591620195
      ],
      [
        "c",
        -7.230300192585222
      ],
      [
        "▁why",
        -7.233430624175444
      ],
      [
        "▁little",
        -7.241872471448797
      ],
      [
        "▁after",
        -7.2522451681166
      ],
      [
        "▁man",
        -7.264720736918417
      ],
      [
        "▁these",
        -7.265080527787164
      ],
      [
        "▁any",
        -7.275488704165831
      ],
      [
        "in",
        -7.289921493169647
      ],
      [
        "▁make",
        -7.314249952561148
      ],
      [
        "▁new",
        -7.321072354853836
      ],
      [
        "▁really",
        -7.328069763095717
      ],
      [
        "]",
        -7.37606753840106
      ],
      [
        "[",
        -7.376986187030754
      ],
      [
        "▁need",
        -7.414465994773208
      ],
      [
        "▁than",
        -7.419865473443656
      ],
      [
        "▁put",
        -7.42966846191584
      ],
      [
        "▁something",
        -7.46090299792592
      ],
      [
        "▁tell",
        -7.461415444200037
      ],
      [
        "▁much",
        -7.485840179962365
      ],
      [
        "▁too",
        -7.502927552079697
      ],
      [
        "_",
        -7.514837777465482
      ],
      [
        "▁off",
        -7.514910985099766
      ],
      [
        "▁should",
        -7.523547603240502
      ],
      [
        "gonna",
        -7.528530043130376
      ],
      [
        "▁mean",
        -7.530932222012199
      ],
      [
        "u",
        -7.540984512131001
      ],
      [
        "▁before",
        -7.549487055925914
      ],
      [
        "▁work",
        -7.552764470003693
      ],
      [
        "▁made",
        -7.555837863142358
      ],
      [
        "▁never",
        -7.579620530186618
      ],
      [
        "▁many",
        -7.587082644382779
      ],
      [
        "▁even",
        -7.599550079102842
      ],
      [
        "▁day",
        -7.602446411377365
      ],
      [
        "▁didn",
        -7.603013774163752
      ],
      [
        "▁may",
        -7.60517247941706
      ],
      [
        "▁most",
        -7.605497785451753
      ],
      [
        "▁again",
        -7.610102193823391
      ],
      [
        "▁name",
        -7.623592267316017
      ],
      [
        "▁great",
        -7.632469682456977
      ],
      [
        "p",
        -7.63435653043976
      ],
      [
        "▁life",
        -7.654588045830103
      ],
      [
        "▁love",
        -7.667721159778827
      ],
      [
        "▁those",
        -7.672963902121627
      ],
      [
        "|",
        -7.676154276244043
      ],
      [
        "▁three",
        -7.678958065635314
      ],
      [
        "▁uh",
        -7.679430176165951
      ],
      [
        "▁give",
        -7.689276065754816
      ],
      [
        "▁through",
        -7.696106172335496
      ],
      [
        "▁still",
        -7.697105026290524
      ],
      [
        "▁part",
        -7.70497779357906
      ],
      [
        "▁long",
        -7.708314440597867
      ],
      [
        "the",
        -7.721499459464651
      ],
      [
        "▁world",
        -7.723458959663818
      ],
      [
        "f",
        -7.726462149417554
      ],
      [
        "▁am",
        -7.726690368255509
      ],
      [
        "▁years",
        -7.7307431086676015
      ],
      [
        "▁thing",
        -7.731979351190386
      ],
      [
        "“",
        -7.734281330824229
      ],
      [
        "”",
        -7.744699620196334
      ],
      [
        "▁thought",
        -7.760771904642114
      ],
      [
        "▁help",
        -7.763082322910673
      ],
      [
        "▁last",
        -7.775086617107268
      ],
      [
        "▁things",
        -7.775931970949509
      ],
      [
        "th",
        -7.780560090425679
      ],
      [
        "▁away",
        -7.79633803452049
      ],
      [
        "▁went",
        -7.797957000873877
      ],
      [
        "▁old",
        -7.801743815525102
      ],
      [
        "▁place",
        -7.803388284495126
      ],
      [
        "▁came",
        -7.809414974913199
      ],
      [
        "▁home",
        -7.812804167146025
      ],
      [
        "▁must",
        -7.818043078233236
      ],
      [
        "▁play",
        -7.824724472052107
      ],
      [
        "▁used",
        -7.833125396558659
      ],
      [
        "▁called",
        -7.834750358389961
      ],
      [
        "▁being",
        -7.858513881265193
      ],
      [
        "▁such",
        -7.864632056644419
      ],
      [
        "▁doing",
        -7.866933299883
      ],
      [
        "▁house",
        -7.870218479469259
      ],
      [
        "▁find",
        -7.887364350320741
      ],
      [
        "▁does",
        -7.892998153997272
      ],
      [
        "▁same",
        -7.907412064400662
      ],
      [
        "▁city",
        -7.929529849342929
      ],
      [
        "▁sure",
        -7.934056449862068
      ],
      [
        "an",
        -7.935335165381911
      ],
      [
        "▁found",
        -7.941435531458341
      ],
      [
        "▁won",
        -7.942763001847752
      ],
      [
        "▁night",
        -7.949653719465779
      ],
      [
        "▁another",
        -7.957006229847464
      ],
      [
        "▁mr",
        -7.965162624515182
      ],
      [
        "▁kind",
        -7.971862901283696
      ],
      [
        "▁erm",
        -7.97682748431277
      ],
      [
        "▁own",
        -7.980733220407107
      ],
      [
        "▁might",
        -7.993985411649835
      ],
      [
        "▁talk",
        -7.999387891791221
      ],
      [
        "▁show",
        -8.006354559129017
      ],
      [
        "▁school",
        -8.010721049400036
      ],
      [
        "▁call",
        -8.012723193618685
      ],
      [
        "▁every",
        -8.014281725934088
      ],
      [
        "▁thank",
        -8.0172636352333
      ],
      [
        "▁around",
        -8.039080998625286
      ],
      [
        "▁please",
        -8.042891403906847
      ],
      [
        "▁under",
        -8.048793707965821
      ],
      [
        "k",
        -8.049762665113583
      ],
      [
        "▁lot",
        -8.051125529360501
      ],
      [
        "▁end",
        -8.05685790727044
      ],
      [
        "▁always",
        -8.057116456542627
      ],
      [
        "▁live",
        -8.057820942156766
      ],
      [
        "▁while",
        -8.060794939989622
      ],
      [
        "▁god",
        -8.065802405793095
      ],
      [
        "▁anything",
        -8.068896128234432
      ],
      [
        "▁number",
        -8.070929628708505
      ],
      [
        "▁use",
        -8.074720927322469
      ],
      [
        "▁hey",
        -8.07844442353485
      ],
      [
        "▁keep",
        -8.079871160325588
      ],
      [
        "▁big",
        -8.084352270734572
      ],
      [
        "▁better",
        -8.085308417647601
      ],
      [
        "▁nothing",
        -8.089837836660337
      ],
      [
        "▁left",
        -8.09486589035487
      ],
      [
        "▁money",
        -8.099217662528662
      ],
      [
        "&",
        -8.104572066998774
      ],
      [
        "▁year",
        -8.106823251395703
      ],
      [
        "▁united",
        -8.116613894277142
      ],
      [
        "able",
        -8.121492273001193
      ],
      [
        "–",
        -8.135921923532834
      ],
      [
        "▁sir",
        -8.136339938268957
      ],
      [
        "▁between",
        -8.13677296471129
      ],
      [
        "▁states",
        -8.13863073401647
      ],
      [
        "▁second",
        -8.141377969658913
      ],
      [
        "w",
        -8.158593247678203
      ],
      [
        "▁told",
        -8.161411728821173
      ],
      [
        "▁change",
        -8.161441096946414
      ],
      [
        "▁different",
        -8.16516755575316
      ],
      [
        "▁next",
        -8.167009128961405
      ],
      [
        "▁high",
        -8.173395651890251
      ],
      [
        "▁water",
        -8.179644521079744
      ],
      [
        "b",
        -8.183196221367533
      ],
      [
        "▁sorry",
        -8.18478612594014
      ],
      [
        "▁done",
        -8.187295897341478
      ],
      [
        "▁both",
        -8.187347175300951
      ],
      [
        "▁father",
        -8.19097194116457
      ],
      [
        "▁state",
        -8.193604647298297
      ],
      [
        "▁open",
        -8.197656116227877
      ],
      [
        "▁men",
        -8.219960558484557
      ],
      [
        "▁guy",
        -8.221631794083494
      ],
      [
        "▁each",
        -8.226877539173069
      ],
      [
        "▁ever",
        -8.229462320465712
      ],
      [
        "amp",
        -8.23369245035222
      ],
      [
        "▁course",
        -8.234172971743057
      ],
      [
        "▁four",
        -8.235023403359444
      ],
      [
        "▁known",
        -8.235482671305125
      ],
      [
        "▁head",
        -8.235814820456211
      ],
      [
        "▁took",
        -8.236458050669404
      ],
      [
        "▁car",
        -8.23822385496536
      ],
      [
        "al",
        -8.238977317889056
      ],
      [
        "▁best",
        -8.239631233612863
      ],
      [
        "▁point",
        -8.241581259906935
      ],
      [
        "▁during",
        -8.246375210512246
      ],
      [
        "▁once",
        -8.24848712132774
      ],
      [
        "▁actually",
        -8.249909238736066
      ],
      [
        "▁stop",
        -8.253546159338118
      ],
      [
        "▁later",
        -8.254345352682682
      ],
      [
        "man",
        -8.254628626311439
      ],
      [
        "♪",
        -8.257004896355568
      ],
      [
        "▁until",
        -8.26494229520653
      ],
      [
        "’",
        -8.265953844693938
      ],
      [
        "▁since",
        -8.269685622100162
      ],
      [
        "▁war",
        -8.270070511555362
      ],
      [
        "▁mother",
        -8.276287127341305
      ],
      [
        "v",
        -8.283554763262096
      ],
      [
        "est",
        -8.28386392479171
      ],
      [
        "x",
        -8.285484942030713
      ],
      [
        "▁start",
        -8.287948584828102
      ],
      [
        "▁everything",
        -8.301703768001957
      ],
      [
        "▁american",
        -8.306696383213062
      ],
      [
        "▁king",
        -8.308753467106817
      ],
      [
        "▁saw",
        -8.316955583330994
      ],
      [
        "▁small",
        -8.3204912317409
      ],
      [
        "▁feel",
        -8.325977252819657
      ],
      [
        "▁doesn",
        -8.326040545914582
      ],
      [
        "us",
        -8.330285229508055
      ],
      [
        "▁mm",
        -8.335522766234059
      ],
      [
        "▁wait",
        -8.33715412937356
      ],
      [
        "▁girl",
        -8.346759954041056
      ],
      [
        "▁hand",
        -8.356649748145154
      ],
      [
        "▁maybe",
        -8.364313108609458
      ],
      [
        "▁family",
        -8.372005080767424
      ],
      [
        "▁stay",
        -8.378070054441935
      ],
      [
        "▁far",
        -8.380790798697468
      ],
      [
        "▁leave",
        -8.380942813655556
      ],
      [
        "nough",
        -8.381368748016891
      ],
      [
        "▁move",
        -8.383555451917513
      ],
      [
        "▁order",
        -8.38435238122686
      ],
      [
        "ever",
        -8.388698238241002
      ],
      [
        "▁today",
        -8.38959992187366
      ],
      [
        "and",
        -8.391484982652102
      ],
      [
        "ness",
        -8.39402595336215
      ],
      [
        "▁case",
        -8.395096052538523
      ],
      [
        "▁nice",
        -8.399178602267526
      ],
      [
        "▁hard",
        -8.400351338677382
      ],
      [
        "▁against",
        -8.403195528202104
      ],
      [
        "▁five",
        -8.404900423414448
      ],
      [
        "▁bit",
        -8.407589513266265
      ],
      [
        "▁else",
        -8.408240746213306
      ],
      [
        "▁without",
        -8.411356797564581
      ],
      [
        "▁boy",
        -8.412399400466379
      ],
      [
        "ity",
        -8.413975857674064
      ],
      [
        "▁line",
        -8.416939631610662
      ],
      [
        "▁room",
        -8.422865639578758
      ],
      [
        "▁son",
        -8.425938716977342
      ],
      [
        "▁together",
        -8.428766636048849
      ],
      [
        "▁young",
        -8.437007671082368
      ],
      [
        "▁problem",
        -8.445340952409259
      ],
      [
        "▁quite",
        -8.452122624175681
      ],
      [
        "▁few",
        -8.453471693341179
      ],
      [
        "▁became",
        -8.457285261609481
      ],
      [
        "▁seen",
        -8.46030440875795
      ],
      [
        "▁bad",
        -8.46089390616255
      ],
      [
        "▁believe",
        -8.461583953929278
      ],
      [
        "▁though",
        -8.465024849277196
      ],
      [
        "▁face",
        -8.468493960966143
      ],
      [
        "▁side",
        -8.470322601689574
      ],
      [
        "▁week",
        -8.477552674495632
      ],
      [
        "▁set",
        -8.481814081235305
      ],
      [
        "▁remember",
        -8.483421493112687
      ],
      [
        "▁coming",
        -8.486860046083908
      ],
      [
        "▁person",
        -8.488640098268318
      ],
      [
        "▁minute",
        -8.493634074080246
      ],
      [
        "▁group",
        -8.494269496942119
      ],
      [
        "▁isn",
        -8.494443363216234
      ],
      [
        "▁children",
        -8.495088193036628
      ],
      [
        "▁hear",
        -8.495454689188245
      ],
      [
        "/",
        -8.496859399834436
      ],
      [
        "▁ask",
        -8.498788713960446
      ],
      [
        "▁looking",
        -8.504902957102578
      ],
      [
        "getting",
        -8.507479943262549
      ],
      [
        "ember",
        -8.508148748283691
      ],
      [
        "▁idea",
        -8.512751538287644
      ],
      [
        "▁mind",
        -8.513974481701132
      ],
      [
        "▁death",
        -8.516414947406485
      ],
      [
        "▁died",
        -8.51760281241022
      ],
      [
        "*",
        -8.521892392466373
      ],
      [
        "▁woman",
        -8.527140896443143
      ],
      [
        "▁try",
        -8.528232648201666
      ],
      [
        "▁morning",
        -8.530626572768591
      ],
      [
        "▁game",
        -8.532843730020904
      ],
      [
        "▁yet",
        -8.532906707660974
      ],
      [
        "▁care",
        -8.534380907002111
      ],
      [
        "▁north",
        -8.547749625521487
      ],
      [
        "▁whole",
        -8.548752578338833
      ],
      [
        "▁happened",
        -8.549955459843213
      ],
      [
        "▁book",
        -8.552304212858408
      ],
      [
        "▁john",
        -8.555882175957521
      ],
      [
        "▁country",
        -8.569362874738175
      ],
      [
        "▁universit",
        -8.571517747864448
      ],
      [
        "you",
        -8.576710489980853
      ],
      [
        "▁county",
        -8.576933234448681
      ],
      [
        "▁says",
        -8.578848562385897
      ],
      [
        "▁question",
        -8.585057363159876
      ],
      [
        "▁south",
        -8.585420068884817
      ],
      [
        "▁friend",
        -8.586142603163319
      ],
      [
        "▁having",
        -8.586386200201693
      ],
      [
        "▁form",
        -8.58710568205083
      ],
      [
        "▁brother",
        -8.58870985791722
      ],
      [
        "▁large",
        -8.59261508677573
      ],
      [
        "▁music",
        -8.593570737301963
      ],
      [
        "▁asked",
        -8.594032775250778
      ],
      [
        "▁miss",
        -8.59620117424544
      ],
      [
        "▁town",
        -8.596248748594832
      ],
      [
        "▁real",
        -8.598987551634405
      ],
      [
        "▁shall",
        -8.601797040920435
      ],
      [
        "▁eyes",
        -8.605441971226448
      ],
      [
        "himself",
        -8.606457460793074
      ],
      [
        "▁half",
        -8.607755413562781
      ],
      [
        "▁turn",
        -8.609905174066181
      ],
      [
        "▁bring",
        -8.612020849547369
      ],
      [
        "▁gave",
        -8.619599295916164
      ],
      [
        "already",
        -8.625609082382532
      ],
      [
        "▁understand",
        -8.630892170739491
      ],
      [
        "▁light",
        -8.634327755628396
      ],
      [
        "▁dead",
        -8.635317999432644
      ],
      [
        "▁upon",
        -8.635858511805454
      ],
      [
        "▁movie",
        -8.63676921377757
      ],
      [
        "▁general",
        -8.63692734434138
      ],
      [
        "▁important",
        -8.637455378516377
      ],
      [
        "▁days",
        -8.639003964462482
      ],
      [
        "▁run",
        -8.639972534224347
      ],
      [
        "▁seem",
        -8.640122324464075
      ],
      [
        "▁national",
        -8.6406901711117
      ],
      [
        "to",
        -8.645414836311135
      ],
      [
        "▁wrong",
        -8.65075918260612
      ],
      [
        "▁sort",
        -8.654154643016957
      ],
      [
        "▁women",
        -8.65510352532975
      ],
      [
        "▁system",
        -8.655311335956835
      ],
      [
        "▁knew",
        -8.655587193478501
      ],
      [
        "heard",
        -8.655842953106191
      ],
      [
        "▁white",
        -8.665109692795237
      ],
      [
        "▁president",
        -8.666627822252973
      ],
      [
        "▁de",
        -8.670308442761808
      ],
      [
        "self",
        -8.672456477431172
      ],
      [
        "▁team",
        -8.673076024926438
      ],
      [
        "▁job",
        -8.673438640388902
      ],
      [
        "▁fine",
        -8.67511535993453
      ],
      [
        "▁full",
        -8.679295588320855
      ],
      [
        "▁born",
        -8.679349302806285
      ],
      [
        "▁times",
        -8.681815912233757
      ],
      [
        "▁someone",
        -8.68389007568764
      ],
      [
        "▁soon",
        -8.685965227247376
      ],
      [
        "▁near",
        -8.687758931885014
      ],
      [
        "▁certain",
        -8.68987712921976
      ],
      [
        "▁saying",
        -8.68999541863643
      ],
      [
        "▁talking",
        -8.690863900743329
      ],
      [
        "▁along",
        -8.698942592505873
      ],
      [
        "▁round",
        -8.700453914848172
      ],
      [
        "▁began",
        -8.703180885078648
      ],
      [
        "▁main",
        -8.704984776942357
      ],
      [
        "▁heart",
        -8.705861763723103
      ],
      [
        "▁trying",
        -8.70616432045913
      ],
      [
        "▁hold",
        -8.706867571094087
      ],
      [
        "▁word",
        -8.712161185028572
      ],
      [
        "▁black",
        -8.715695783914306
      ],
      [
        "▁moment",
        -8.71710967368439
      ],
      [
        "▁eat",
        -8.71909930914168
      ],
      [
        "▁often",
        -8.720272507988938
      ],
      [
        "▁station",
        -8.722157178157135
      ],
      [
        "▁pretty",
        -8.724492839277994
      ],
      [
        "▁six",
        -8.724818829143572
      ],
      [
        "▁power",
        -8.725349367456426
      ],
      [
        "▁release",
        -8.725733630688453
      ],
      [
        "▁probabl",
        -8.726261005626984
      ],
      [
        "or",
        -8.730492406119316
      ],
      [
        "▁fire",
        -8.73089828116122
      ],
      [
        "▁government",
        -8.731042278474995
      ],
      [
        "▁party",
        -8.732021835553933
      ],
      [
        "▁started",
        -8.732413952687551
      ],
      [
        "▁matter",
        -8.736157066639018
      ],
      [
        "no",
        -8.736586433972388
      ],
      [
        "▁door",
        -8.73678304353934
      ],
      [
        "▁gone",
        -8.74311254120049
      ],
      [
        "▁wanna",
        -8.746473992443061
      ],
      [
        "▁act",
        -8.747643859805748
      ],
      [
        "▁wife",
        -8.749905529037015
      ],
      [
        "▁fact",
        -8.756515139599806
      ],
      [
        "land",
        -8.75652482255715
      ],
      [
        "▁pay",
        -8.76109483945119
      ],
      [
        "▁read",
        -8.761714663030292
      ],
      [
        "le",
        -8.762513994909781
      ],
      [
        "▁early",
        -8.769894103620565
      ],
      [
        "▁story",
        -8.779822836722246
      ],
      [
        "▁dad",
        -8.781639907093545
      ],
      [
        "▁kill",
        -8.783782799369465
      ],
      [
        "▁listen",
        -8.783961875627327
      ],
      [
        "▁service",
        -8.7842707827092
      ],
      [
        "▁red",
        -8.785141809933005
      ],
      [
        "▁business",
        -8.78805186377679
      ],
      [
        "▁record",
        -8.790945214101608
      ],
      [
        "#",
        -8.794237307617651
      ],
      [
        "▁drink",
        -8.797579077854099
      ],
      [
        "▁goes",
        -8.801293590242274
      ],
      [
        "▁ready",
        -8.802273494899453
      ],
      [
        "▁human",
        -8.804867000043693
      ],
      [
        "▁means",
        -8.80652068434146
      ],
      [
        "▁un",
        -8.80744287150473
      ],
      [
        "▁true",
        -8.809630686094406
      ],
      [
        "▁history",
        -8.810313224148125
      ],
      [
        "▁lost",
        -8.811415330397402
      ],
      [
        "▁company",
        -8.814854814859004
      ],
      [
        "▁late",
        -8.81489763885212
      ],
      [
        "▁b",
        -8.81535984908707
      ],
      [
        "wanted",
        -8.815851804361346
      ],
      [
        "▁short",
        -8.81855378732487
      ],
      [
        "▁making",
        -8.82316155921652
      ],
      [
        "▁baby",
        -8.826214213682483
      ],
      [
        "what",
        -8.826574910614246
      ],
      [
        "▁hello",
        -8.828231765289917
      ],
      [
        "▁air",
        -8.833083076557049
      ],
      [
        "▁area",
        -8.83310707078025
      ],
      [
        "▁almost",
        -8.834206116459164
      ],
      [
        "▁english",
        -8.837020148637613
      ],
      [
        "▁example",
        -8.837895335336842
      ],
      [
        "▁watch",
        -8.838682176894409
      ],
      [
        "▁blood",
        -8.840269424446424
      ],
      [
        "▁island",
        -8.842883051650762
      ],
      [
        "▁sometimes",
        -8.84801029105805
      ],
      [
        "▁age",
        -8.859418020041046
      ],
      [
        "▁close",
        -8.861666634350176
      ],
      [
        "▁film",
        -8.865404527615915
      ],
      [
        "▁become",
        -8.867641883628437
      ],
      [
        "▁yourself",
        -8.874380883304642
      ],
      [
        "▁sit",
        -8.875755436591607
      ],
      [
        "▁sea",
        -8.876472574306808
      ],
      [
        "▁million",
        -8.877115687002366
      ],
      [
        "▁present",
        -8.878587261291877
      ],
      [
        "▁top",
        -8.881284429421662
      ],
      [
        "▁haven",
        -8.882582287668743
      ],
      [
        "▁daughter",
        -8.884432368405841
      ],
      [
        "▁wasn",
        -8.88488719679339
      ],
      [
        "▁hope",
        -8.884971596319868
      ],
      [
        "▁wouldn",
        -8.886379171955639
      ],
      [
        "▁working",
        -8.88824645728203
      ],
      [
        "▁ok",
        -8.898744527462846
      ],
      [
        "▁reason",
        -8.899028587011689
      ],
      [
        "▁building",
        -8.904781568316789
      ],
      [
        "▁usual",
        -8.905209895047655
      ],
      [
        "▁france",
        -8.90536597364294
      ],
      [
        "▁rest",
        -8.906174810981716
      ],
      [
        "▁body",
        -8.907662632592425
      ],
      [
        "▁march",
        -8.908928782171733
      ],
      [
        "▁district",
        -8.914403527067353
      ],
      [
        "▁land",
        -8.917916989416884
      ],
      [
        "▁given",
        -8.918110690100612
      ],
      [
        "▁ago",
        -8.91851058016412
      ],
      [
        "▁hi",
        -8.921441879469466
      ],
      [
        "▁hands",
        -8.9278151719488
      ],
      [
        "▁happy",
        -8.93108700185461
      ],
      [
        "▁free",
        -8.932734529358058
      ],
      [
        "it",
        -8.933737477791208
      ],
      [
        "▁stuff",
        -8.948831213629454
      ],
      [
        "▁york",
        -8.951586472961814
      ],
      [
        "▁child",
        -8.952016368987007
      ],
      [
        "▁meet",
        -8.952256233722377
      ],
      [
        "▁myself",
        -8.953780224149694
      ],
      [
        "▁brought",
        -8.955763945134105
      ],
      [
        "▁guess",
        -8.956966133725917
      ],
      [
        "▁west",
        -8.95779233178557
      ],
      [
        "▁several",
        -8.961090961384771
      ],
      [
        "▁food",
        -8.975589751391528
      ],
      [
        "born",
        -8.975923272384872
      ],
      [
        "▁term",
        -8.977083072687009
      ],
      [
        "▁behind",
        -8.977866004291624
      ],
      [
        "▁thanks",
        -8.977956275282956
      ],
      [
        "▁least",
        -8.97924047217567
      ],
      [
        "▁friends",
        -8.980475465854934
      ],
      [
        "▁quick",
        -8.980871243041618
      ],
      [
        "ce",
        -8.980964160639765
      ],
      [
        "▁song",
        -8.983991255667906
      ],
      [
        "▁captain",
        -8.98414802914659
      ],
      [
        "▁killed",
        -8.986217742622088
      ],
      [
        "▁language",
        -8.987375764300428
      ],
      [
        "▁serie",
        -8.988171457666137
      ],
      [
        "▁ten",
        -8.997206189668045
      ],
      [
        "um",
        -8.99752098056678
      ],
      [
        "▁taking",
        -8.99974708751099
      ],
      [
        "▁januar",
        -9.00101992374331
      ],
      [
        "▁public",
        -9.002192917519126
      ],
      [
        "married",
        -9.002291527613362
      ],
      [
        "▁river",
        -9.00287404991586
      ],
      [
        "▁rather",
        -9.003212666271699
      ],
      [
        "▁taken",
        -9.00400201723022
      ],
      [
        "▁either",
        -9.00459439615182
      ],
      [
        "▁office",
        -9.005645644062145
      ],
      [
        "▁force",
        -9.009468544829629
      ],
      [
        "▁alright",
        -9.009788486370237
      ],
      [
        "▁court",
        -9.01158388889191
      ],
      [
        "▁mrs",
        -9.011762311638297
      ],
      [
        "▁front",
        -9.012024783082545
      ],
      [
        "▁answer",
        -9.018110819048744
      ],
      [
        "▁paper",
        -9.01882010324696
      ],
      [
        "▁single",
        -9.022486860379878
      ],
      [
        "▁award",
        -9.023555538019531
      ],
      [
        "▁words",
        -9.0272471316695
      ],
      [
        "▁huh",
        -9.033559655096102
      ],
      [
        "▁poor",
        -9.034402005608973
      ],
      [
        "▁road",
        -9.038320592972164
      ],
      [
        "▁allow",
        -9.039356619382472
      ],
      [
        "$",
        -9.039371464337115
      ],
      [
        "▁pick",
        -9.039810691164316
      ],
      [
        "▁piece",
        -9.0404669693041
      ],
      [
        "▁common",
        -9.042113771594456
      ],
      [
        "▁alone",
        -9.042421290647576
      ],
      [
        "▁cause",
        -9.044462347004142
      ],
      [
        "▁beautiful",
        -9.045277157356496
      ],
      [
        "▁voice",
        -9.0474276633307
      ],
      [
        "do",
        -9.047505474823438
      ],
      [
        "▁fight",
        -9.052396090397878
      ],
      [
        "▁park",
        -9.054011021448646
      ],
      [
        "▁living",
        -9.054739154822643
      ],
      [
        "▁support",
        -9.057195371794856
      ],
      [
        "▁fall",
        -9.059334945149772
      ],
      [
        "▁less",
        -9.060513699797472
      ],
      [
        "▁wish",
        -9.060726005480198
      ],
      [
        "he",
        -9.063112280627395
      ],
      [
        "▁check",
        -9.064494020222956
      ],
      [
        "▁mom",
        -9.068576875749535
      ],
      [
        "z",
        -9.069390307064694
      ],
      [
        "▁perhaps",
        -9.07005949849686
      ],
      [
        "▁couldn",
        -9.070963915630935
      ],
      [
        "▁cut",
        -9.071797640586489
      ],
      [
        "▁player",
        -9.074380888256146
      ],
      [
        "▁everyone",
        -9.076188571064412
      ],
      [
        "▁clear",
        -9.07692682759253
      ],
      [
        "▁church",
        -9.07701919265612
      ],
      [
        "▁plan",
        -9.078109163276157
      ],
      [
        "▁third",
        -9.081657130725905
      ],
      [
        "▁attack",
        -9.083671260821683
      ],
      [
        "▁um",
        -9.087467593715504
      ],
      [
        "▁sister",
        -9.090785329194578
      ],
      [
        "▁hundred",
        -9.09192901791031
      ],
      [
        "▁dear",
        -9.094543285742736
      ],
      [
        "▁sound",
        -9.094988952572574
      ],
      [
        "▁lady",
        -9.09570656874141
      ],
      [
        "▁ha",
        -9.09578590816395
      ],
      [
        "▁stand",
        -9.096798102263286
      ],
      [
        "▁hit",
        -9.097901192261798
      ],
      [
        "▁local",
        -9.097950992053768
      ],
      [
        "▁walk",
        -9.098190102997044
      ],
      [
        "we",
        -9.099972922385906
      ],
      [
        "▁album",
        -9.10294793231824
      ],
      [
        "▁save",
        -9.104233939900812
      ],
      [
        "%",
        -9.107307403869676
      ],
      [
        "▁happen",
        -9.108721924186952
      ],
      [
        "▁doctor",
        -9.111434359784024
      ],
      [
        "▁british",
        -9.115719109905395
      ],
      [
        "▁street",
        -9.117152599741877
      ],
      [
        "▁special",
        -9.118115013724776
      ],
      [
        "▁law",
        -9.118605587450446
      ],
      [
        "▁include",
        -9.11870706050092
      ],
      [
        "▁east",
        -9.121301075560076
      ],
      [
        "▁inside",
        -9.1217768160465
      ],
      [
        "▁eight",
        -9.124489156877528
      ],
      [
        "▁deal",
        -9.125061398893624
      ],
      [
        "▁police",
        -9.12602793088694
      ],
      [
        "▁speak",
        -9.127064736674242
      ],
      [
        "▁sent",
        -9.129359108004122
      ],
      [
        "▁sleep",
        -9.136124869346109
      ],
      [
        "▁bed",
        -9.137032966933145
      ],
      [
        "▁thinking",
        -9.140748599113063
      ],
      [
        "ally",
        -9.143700788005816
      ],
      [
        "turned",
        -9.144898106838546
      ],
      [
        "▁seven",
        -9.145322505260213
      ],
      [
        "▁reach",
        -9.147647203582284
      ],
      [
        "▁following",
        -9.147890432320033
      ],
      [
        "▁comes",
        -9.148875225947858
      ],
      [
        "▁original",
        -9.149118782186305
      ],
      [
        "▁buy",
        -9.149705332876646
      ],
      [
        "▁region",
        -9.150717585314894
      ],
      [
        "▁past",
        -9.151359205536345
      ],
      [
        "▁consider",
        -9.154501096415522
      ],
      [
        "▁ship",
        -9.154588269069674
      ],
      [
        "▁result",
        -9.156821297719937
      ],
      [
        "▁exactly",
        -9.159950514569864
      ],
      [
        "▁french",
        -9.160247017621622
      ],
      [
        "▁playing",
        -9.161749290479069
      ],
      [
        "▁held",
        -9.162622106262845
      ],
      [
        "▁population",
        -9.163176626801851
      ],
      [
        "▁german",
        -9.164380565686264
      ],
      [
        "▁send",
        -9.164894021205992
      ],
      [
        "▁major",
        -9.165671415229369
      ],
      [
        "▁continue",
        -9.16725590051053
      ],
      [
        "across",
        -9.168042724079092
      ],
      [
        "▁sept",
        -9.169020799424716
      ],
      [
        "ation",
        -9.169042768956476
      ],
      [
        "▁club",
        -9.169623826160509
      ],
      [
        "▁outside",
        -9.169816864317596
      ],
      [
        "▁band",
        -9.17000801387008
      ],
      [
        "▁college",
        -9.17094387306711
      ],
      [
        "▁built",
        -9.171636800658431
      ],
      [
        "▁write",
        -9.172767062882327
      ],
      [
        "▁dr",
        -9.173264145596178
      ],
      [
        "▁season",
        -9.175574733664709
      ],
      [
        "▁return",
        -9.181526930538698
      ],
      [
        "▁list",
        -9.181883724125802
      ],
      [
        "▁twenty",
        -9.182497905210337
      ],
      [
        "▁looks",
        -9.182529234891463
      ],
      [
        "up",
        -9.185394821117573
      ],
      [
        "more",
        -9.18578518229651
      ],
      [
        "▁green",
        -9.188041380014308
      ],
      [
        "gotta",
        -9.190623316409251
      ],
      [
        "▁die",
        -9.191119503390428
      ],
      [
        "▁blue",
        -9.194238521158011
      ],
      [
        "▁dark",
        -9.19500231320388
      ],
      [
        "▁possible",
        -9.196053119276062
      ],
      [
        "▁department",
        -9.196314206765258
      ],
      [
        "▁cos",
        -9.197805126789676
      ],
      [
        "▁whatever",
        -9.197899130786723
      ],
      [
        "▁remain",
        -9.198257231062282
      ],
      [
        "▁everybody",
        -9.201652883926302
      ],
      [
        "by",
        -9.203303505393992
      ],
      [
        "▁month",
        -9.205800683840486
      ],
      [
        "▁anyone",
        -9.207179395647128
      ],
      [
        "▁tomorrow",
        -9.207521796512896
      ],
      [
        "▁la",
        -9.210392674240794
      ],
      [
        "▁makes",
        -9.211399170014628
      ],
      [
        "▁member",
        -9.211582824999285
      ],
      [
        "▁video",
        -9.212312768189218
      ],
      [
        "▁cost",
        -9.214069624218304
      ],
      [
        "▁chance",
        -9.21614023841984
      ],
      [
        "▁character",
        -9.2163105450579
      ],
      [
        "▁whether",
        -9.218262349410043
      ],
      [
        "▁football",
        -9.21878271294211
      ],
      [
        "▁design",
        -9.219359723443072
      ],
      [
        "▁includin",
        -9.219484549232613
      ],
      [
        "▁mine",
        -9.2238163210742
      ],
      [
        "▁rule",
        -9.224829711747528
      ],
      [
        "huh",
        -9.225194578653603
      ],
      [
        "▁phone",
        -9.225219961935773
      ],
      [
        "tried",
        -9.225895750112194
      ],
      [
        "▁couple",
        -9.226515769484044
      ],
      [
        "pril",
        -9.22665173637452
      ],
      [
        "▁control",
        -9.229976837993062
      ],
      [
        "▁earth",
        -9.232806691851309
      ],
      [
        "▁anyway",
        -9.233466116730929
      ],
      [
        "▁hair",
        -9.23611717890132
      ],
      [
        "▁easy",
        -9.236342938263345
      ],
      [
        "▁london",
        -9.237969805797125
      ],
      [
        "▁fuck",
        -9.239118466085296
      ],
      [
        "▁gold",
        -9.239405974535115
      ],
      [
        "▁ground",
        -9.239929533502991
      ],
      [
        "▁level",
        -9.241318301648466
      ],
      [
        "▁bird",
        -9.241702432516076
      ],
      [
        "▁rock",
        -9.242810068359471
      ],
      [
        "▁thousand",
        -9.246493422808673
      ],
      [
        "▁shit",
        -9.248224981681783
      ],
      [
        "▁break",
        -9.250726309290188
      ],
      [
        "▁written",
        -9.250782334133842
      ],
      [
        "▁among",
        -9.25181307240707
      ],
      [
        "▁felt",
        -9.25206391053452
      ],
      [
        "▁career",
        -9.253041328485798
      ],
      [
        "▁cold",
        -9.253168837772714
      ],
      [
        "▁village",
        -9.255031242825314
      ],
      [
        "▁june",
        -9.25721354565692
      ],
      [
        "▁mov",
        -9.257458578659946
      ],
      [
        "▁england",
        -9.257561160074935
      ],
      [
        "▁sense",
        -9.2579918175426
      ],
      [
        "▁till",
        -9.258799176140654
      ],
      [
        "▁peter",
        -9.26107103228987
      ],
      [
        "ment",
        -9.264948098836086
      ],
      [
        "aught",
        -9.269315489648632
      ],
      [
        "▁particular",
        -9.270846772086756
      ],
      [
        "▁august",
        -9.272018345900138
      ],
      [
        "▁hell",
        -9.273821040239016
      ],
      [
        "—",
        -9.275724345213511
      ],
      [
        "▁army",
        -9.275991044644122
      ],
      [
        "▁information",
        -9.27671223473844
      ],
      [
        "▁former",
        -9.277947665097784
      ],
      [
        "▁husband",
        -9.2800450590006
      ],
      [
        "▁trouble",
        -9.28098986680004
      ],
      [
        "▁centur",
        -9.281643896554158
      ],
      [
        "▁equal",
        -9.282160525909037
      ],
      [
        "▁instead",
        -9.2830082476428
      ],
      [
        "▁fair",
        -9.28609686065189
      ],
      [
        "▁master",
        -9.291917201619412
      ],
      [
        "▁current",
        -9.292454246817384
      ],
      [
        "▁throw",
        -9.292746833318866
      ],
      [
        "▁field",
        -9.29684712318839
      ],
      [
        "▁lord",
        -9.29754038223708
      ],
      [
        "▁based",
        -9.298906268716646
      ],
      [
        "▁event",
        -9.299171637015888
      ],
      [
        "▁role",
        -9.299286355064536
      ],
      [
        "▁jul",
        -9.30050784644784
      ],
      [
        "▁dog",
        -9.301753809649544
      ],
      [
        "▁television",
        -9.306966463045391
      ],
      [
        "▁nov",
        -9.310185150736956
      ],
      [
        "▁somebody",
        -9.312300277051616
      ],
      [
        "▁issue",
        -9.313069583377064
      ],
      [
        "▁members",
        -9.313182786493329
      ],
      [
        "▁ran",
        -9.313887524505706
      ],
      [
        "▁shot",
        -9.314523650662862
      ],
      [
        "▁america",
        -9.315184135292082
      ],
      [
        "▁report",
        -9.31533168729721
      ],
      [
        "▁octob",
        -9.316348223490078
      ],
      [
        "that",
        -9.317095454986507
      ],
      [
        "▁hurt",
        -9.317611242686116
      ],
      [
        "▁george",
        -9.3187618627769
      ],
      [
        "▁hot",
        -9.319712140848589
      ],
      [
        "▁cannot",
        -9.320895352742696
      ],
      [
        "ic",
        -9.321235937133029
      ],
      [
        "out",
        -9.322050586585595
      ],
      [
        "▁space",
        -9.3227198524705
      ],
      [
        "▁commune",
        -9.326798468410558
      ],
      [
        "▁hours",
        -9.328988127773854
      ],
      [
        "▁follow",
        -9.33051833756782
      ],
      [
        "▁december",
        -9.333841253676304
      ],
      [
        "▁wrote",
        -9.334707289334943
      ],
      [
        "▁position",
        -9.336742573167868
      ],
      [
        "▁receive",
        -9.341770177590842
      ],
      [
        "▁hour",
        -9.342547566710984
      ],
      [
        "▁james",
        -9.343329471503042
      ],
      [
        "ten",
        -9.3436655387051
      ],
      [
        "▁program",
        -9.343892341593405
      ],
      [
        "▁experience",
        -9.34431207842072
      ],
      [
        "▁table",
        -9.34549256217857
      ],
      [
        "▁feet",
        -9.347635676530404
      ],
      [
        "▁fell",
        -9.348626668968503
      ],
      [
        "▁boys",
        -9.349465284632911
      ],
      [
        "▁pull",
        -9.349623558557132
      ],
      [
        "▁communit",
        -9.351441582085188
      ],
      [
        "▁drive",
        -9.35253011506578
      ],
      [
        "▁shut",
        -9.35318753116358
      ],
      [
        "▁clean",
        -9.353862147951569
      ],
      [
        "▁art",
        -9.35398265094056
      ],
      [
        "▁worry",
        -9.354019916558585
      ],
      [
        "▁games",
        -9.354164641302225
      ],
      [
        "▁fun",
        -9.355366506762651
      ],
      [
        "▁truth",
        -9.355690687945057
      ],
      [
        "▁sun",
        -9.3560482921685
      ],
      [
        "▁international",
        -9.356502288467148
      ],
      [
        "▁figure",
        -9.358882055653478
      ],
      [
        "ary",
        -9.358975951689729
      ],
      [
        "▁although",
        -9.359397561315577
      ],
      [
        "▁cross",
        -9.36137743376146
      ],
      [
        "▁cup",
        -9.362101403043372
      ],
      [
        "▁picture",
        -9.363875508320575
      ],
      [
        "▁promise",
        -9.36501233487851
      ],
      [
        "▁febr",
        -9.366717263434513
      ],
      [
        "▁win",
        -9.366940169143824
      ],
      [
        "▁tonight",
        -9.367744004444308
      ],
      [
        "but",
        -9.368894892365624
      ],
      [
        "▁strong",
        -9.369346075818155
      ],
      [
        "▁lay",
        -9.376034354017778
      ],
      [
        "▁daddy",
        -9.376549417677158
      ],
      [
        "▁met",
        -9.379469939803965
      ],
      [
        "▁touch",
        -9.380102913411797
      ],
      [
        "men",
        -9.383538591037148
      ],
      [
        "▁view",
        -9.3839600524084
      ],
      [
        "▁middle",
        -9.38497407760872
      ],
      [
        "▁tree",
        -9.385822724101155
      ],
      [
        "▁league",
        -9.386300647240509
      ],
      [
        "looked",
        -9.38659194503991
      ],
      [
        "▁longer",
        -9.387333431556907
      ],
      [
        "within",
        -9.387762415540816
      ],
      [
        "▁letter",
        -9.389761163767655
      ],
      [
        "ves",
        -9.389972974888366
      ],
      [
        "▁seat",
        -9.390012448937709
      ],
      [
        "▁offer",
        -9.39045206666134
      ],
      [
        "▁nine",
        -9.391170329361932
      ],
      [
        "▁supposed",
        -9.392378617521985
      ],
      [
        "▁due",
        -9.397124467868306
      ],
      [
        "▁cover",
        -9.397162097822427
      ],
      [
        "▁province",
        -9.397949995540095
      ],
      [
        "▁agree",
        -9.398837317785098
      ],
      [
        "▁san",
        -9.401606181708733
      ],
      [
        "▁kids",
        -9.403338034210204
      ],
      [
        "▁meeting",
        -9.405636355405676
      ],
      [
        "▁fast",
        -9.4073171963329
      ],
      [
        "▁co",
        -9.408117902202417
      ],
      [
        "▁afraid",
        -9.40824259821972
      ],
      [
        "▁horse",
        -9.409419059453125
      ],
      [
        "▁aren",
        -9.410443795046035
      ],
      [
        "▁interest",
        -9.417713514580548
      ],
      [
        "▁forget",
        -9.41818925119936
      ],
      [
        "▁excuse",
        -9.418555922180648
      ],
      [
        "▁per",
        -9.41863973987573
      ],
      [
        "kept",
        -9.421108338809573
      ],
      [
        "▁lives",
        -9.42400670082105
      ],
      [
        "▁type",
        -9.424357986531358
      ],
      [
        "▁sign",
        -9.425679080967578
      ],
      [
        "uar",
        -9.42585269793488
      ],
      [
        "▁learn",
        -9.426363040193957
      ],
      [
        "▁running",
        -9.426805994191772
      ],
      [
        "▁square",
        -9.42776595743708
      ],
      [
        "time",
        -9.429003051937547
      ],
      [
        "▁above",
        -9.4323660884096
      ],
      [
        "▁summer",
        -9.43268072533504
      ],
      [
        "ar",
        -9.4327272638681
      ],
      [
        "▁fucking",
        -9.434559162948698
      ],
      [
        "▁union",
        -9.435034033349632
      ],
      [
        "▁period",
        -9.435954514599915
      ],
      [
        "how",
        -9.437040696614009
      ],
      [
        "▁trust",
        -9.438851965388244
      ],
      [
        "▁ball",
        -9.440637065523894
      ],
      [
        "▁low",
        -9.440884169391447
      ],
      [
        "▁class",
        -9.44175882924688
      ],
      [
        "▁news",
        -9.443407673101504
      ],
      [
        "▁color",
        -9.449245176951145
      ],
      [
        "▁popular",
        -9.452190967656168
      ],
      [
        "▁science",
        -9.453811737769191
      ],
      [
        "well",
        -9.45658014711294
      ],
      [
        "▁wonder",
        -9.456697102433864
      ],
      [
        "▁lead",
        -9.457439989632965
      ],
      [
        "▁share",
        -9.457563300173016
      ],
      [
        "▁value",
        -9.458020336382193
      ],
      [
        "using",
        -9.459194199162727
      ],
      [
        "▁count",
        -9.4592397259759
      ],
      [
        "▁produce",
        -9.45998763216978
      ],
      [
        "▁center",
        -9.462416014927674
      ],
      [
        "▁further",
        -9.463386160394675
      ],
      [
        "▁works",
        -9.463752038937642
      ],
      [
        "▁test",
        -9.464154720006846
      ],
      [
        "▁queen",
        -9.474793799492785
      ],
      [
        "▁waiting",
        -9.479203758769811
      ],
      [
        "▁countr",
        -9.48210671767518
      ],
      [
        "▁match",
        -9.483361744079538
      ],
      [
        "▁murder",
        -9.484065056667962
      ],
      [
        "▁action",
        -9.48540814078368
      ],
      [
        "▁themsel",
        -9.487560754296153
      ],
      [
        "▁mhm",
        -9.487628047751992
      ],
      [
        "▁natural",
        -9.488274174987692
      ],
      [
        "▁mommy",
        -9.490839170023165
      ],
      [
        "▁girls",
        -9.492560789174892
      ],
      [
        "▁honey",
        -9.49310301120175
      ],
      [
        "▁push",
        -9.494179964232288
      ],
      [
        "▁title",
        -9.495051345402784
      ],
      [
        "▁star",
        -9.496900226622063
      ],
      [
        "▁study",
        -9.49828338244375
      ],
      [
        "▁visit",
        -9.49919892549046
      ],
      [
        "▁pound",
        -9.499507767607165
      ],
      [
        "▁hospital",
        -9.500701123190074
      ],
      [
        "▁according",
        -9.502381399290588
      ],
      [
        "▁societ",
        -9.50358358515718
      ],
      [
        "▁accept",
        -9.505243575905292
      ],
      [
        "▁ring",
        -9.50534969533448
      ],
      [
        "▁project",
        -9.507020912095182
      ],
      [
        "▁enter",
        -9.507802081558625
      ],
      [
        "▁draw",
        -9.509189608807723
      ],
      [
        "▁page",
        -9.51134423013048
      ],
      [
        "▁dance",
        -9.51148693565912
      ],
      [
        "▁kid",
        -9.51173160527949
      ],
      [
        "▁famous",
        -9.512341923093196
      ],
      [
        "▁personal",
        -9.512863907146452
      ],
      [
        "▁j",
        -9.51340418215008
      ],
      [
        "▁date",
        -9.5144577535267
      ],
      [
        "▁created",
        -9.514730385302588
      ],
      [
        "▁eye",
        -9.515268876548994
      ],
      [
        "▁difficult",
        -9.51768253312611
      ],
      [
        "one",
        -9.518071013962595
      ],
      [
        "▁funny",
        -9.51859916801001
      ],
      [
        "▁feeling",
        -9.519825160669182
      ],
      [
        "less",
        -9.519943985302683
      ],
      [
        "▁dream",
        -9.522311203322076
      ],
      [
        "▁bill",
        -9.52319333552106
      ],
      [
        "▁social",
        -9.523965499917043
      ],
      [
        "▁evening",
        -9.524351434902892
      ],
      [
        "if",
        -9.526132375075685
      ],
      [
        "▁future",
        -9.526345816479497
      ],
      [
        "▁sing",
        -9.53141875655048
      ],
      [
        "▁ma",
        -9.532979101407928
      ],
      [
        "day",
        -9.535999869065334
      ],
      [
        "▁capital",
        -9.53695871422908
      ],
      [
        "▁amount",
        -9.536965598874396
      ],
      [
        "▁gun",
        -9.539636934332163
      ],
      [
        "▁central",
        -9.539681739607037
      ],
      [
        "▁normal",
        -9.541044027794902
      ],
      [
        "▁careful",
        -9.541399939737374
      ],
      [
        "▁train",
        -9.543829845882032
      ],
      [
        "▁official",
        -9.5444288979834
      ],
      [
        "▁indian",
        -9.545200919444378
      ],
      [
        "whose",
        -9.545421214998644
      ],
      [
        "▁publish",
        -9.55014525694175
      ],
      [
        "▁mark",
        -9.551125125093176
      ],
      [
        "▁minister",
        -9.55200518748737
      ],
      [
        "▁appear",
        -9.552474294096106
      ],
      [
        "▁final",
        -9.55248112214444
      ],
      [
        "stood",
        -9.552593138144154
      ],
      [
        "▁wind",
        -9.553340375848444
      ],
      [
        "▁michael",
        -9.553963101034
      ],
      [
        "▁box",
        -9.5556942186954
      ],
      [
        "▁david",
        -9.556093751499866
      ],
      [
        "▁direct",
        -9.557318563259216
      ],
      [
        "▁post",
        -9.55803083407595
      ],
      [
        "▁japan",
        -9.558585455211462
      ],
      [
        "▁hate",
        -9.5588144766724
      ],
      [
        "▁sweet",
        -9.55883289061316
      ],
      [
        "▁feature",
        -9.558947915115407
      ],
      [
        "▁cool",
        -9.559973888719858
      ],
      [
        "▁step",
        -9.56169757595998
      ],
      [
        "▁board",
        -9.562117143495623
      ],
      [
        "▁served",
        -9.562525393770752
      ],
      [
        "▁chief",
        -9.564550028722046
      ],
      [
        "ley",
        -9.565311030026862
      ],
      [
        "▁jack",
        -9.565482531219068
      ],
      [
        "▁effect",
        -9.56593463249182
      ],
      [
        "▁crie",
        -9.565961009201176
      ],
      [
        "▁fear",
        -9.566072355883072
      ],
      [
        "▁decided",
        -9.566317559775255
      ],
      [
        "▁similar",
        -9.566841449327187
      ],
      [
        "▁market",
        -9.567874039230327
      ],
      [
        "▁worth",
        -9.568073971125903
      ],
      [
        "▁wants",
        -9.571821949445225
      ],
      [
        "▁led",
        -9.573876709318764
      ],
      [
        "▁flower",
        -9.575119043448352
      ],
      [
        "▁sat",
        -9.575685110412632
      ],
      [
        "▁enjoy",
        -9.578138360380668
      ],
      [
        "▁bear",
        -9.580979469929655
      ],
      [
        "▁passed",
        -9.581342587837844
      ],
      [
        "▁beginning",
        -9.58583515764607
      ],
      [
        "▁provide",
        -9.586525834331953
      ],
      [
        "▁quiet",
        -9.586778377809548
      ],
      [
        "▁modern",
        -9.586920813393396
      ],
      [
        "▁dress",
        -9.587751143980752
      ],
      [
        "▁teacher",
        -9.588012988668076
      ],
      [
        "▁finally",
        -9.589104029061826
      ],
      [
        "▁forest",
        -9.58933743501914
      ],
      [
        "▁wow",
        -9.58992252736909
      ],
      [
        "▁bigge",
        -9.59100092536365
      ],
      [
        "▁ahead",
        -9.591773112981071
      ],
      [
        "▁crazy",
        -9.592538332123802
      ],
      [
        "▁sell",
        -9.594738248932895
      ],
      [
        "▁india",
        -9.594783773070237
      ],
      [
        "▁hill",
        -9.59590896240582
      ],
      [
        "▁fish",
        -9.596403206975616
      ],
      [
        "ard",
        -9.59709183572633
      ],
      [
        "▁nobody",
        -9.59762437731412
      ],
      [
        "▁laugh",
        -9.598459409854556
      ],
      [
        "▁battle",
        -9.598980145756858
      ],
      [
        "▁pass",
        -9.599579588879797
      ],
      [
        "ism",
        -9.60105141387755
      ],
      [
        "▁process",
        -9.605096406300891
      ],
      [
        "▁straight",
        -9.609429291742252
      ],
      [
        "▁condition",
        -9.609438331028969
      ],
      [
        "▁telling",
        -9.60989580914435
      ],
      [
        "▁complete",
        -9.610333008858849
      ],
      [
        "▁ye",
        -9.610991252392246
      ],
      [
        "▁suppose",
        -9.61249823511299
      ],
      [
        "▁ca",
        -9.614910812697278
      ],
      [
        "▁parents",
        -9.617203760566603
      ],
      [
        "▁political",
        -9.619212283257964
      ],
      [
        "▁unit",
        -9.620754827847536
      ],
      [
        "▁returned",
        -9.621612063719464
      ],
      [
        "▁followed",
        -9.62181069146121
      ],
      [
        "▁subject",
        -9.62184780867059
      ],
      [
        "▁floor",
        -9.622247022564707
      ],
      [
        "▁books",
        -9.622663508153154
      ],
      [
        "speaking",
        -9.623277886512293
      ],
      [
        "▁rose",
        -9.624326635313306
      ],
      [
        "▁total",
        -9.624624237460276
      ],
      [
        "▁animals",
        -9.62588167602047
      ],
      [
        "▁kingdom",
        -9.626166411376548
      ],
      [
        "▁soft",
        -9.626891946421251
      ],
      [
        "▁interesting",
        -9.628094642138702
      ],
      [
        "▁specie",
        -9.62870190671692
      ],
      [
        "seemed",
        -9.628861376217088
      ],
      [
        "▁japanese",
        -9.629585656822488
      ],
      [
        "▁officer",
        -9.630339014885145
      ],
      [
        "▁simple",
        -9.63171263365005
      ],
      [
        "▁expect",
        -9.632514217112735
      ],
      [
        "▁especially",
        -9.63275893245411
      ],
      [
        "▁health",
        -9.633642445594862
      ],
      [
        "▁wall",
        -9.633732851375854
      ],
      [
        "paid",
        -9.634350747527437
      ],
      [
        "giving",
        -9.63539131615612
      ],
      [
        "▁cook",
        -9.635457560663674
      ],
      [
        "months",
        -9.635680783061416
      ],
      [
        "▁paul",
        -9.636723672010504
      ],
      [
        "linois",
        -9.638124724747072
      ],
      [
        "▁germany",
        -9.638943339987662
      ],
      [
        "▁henry",
        -9.639064020888362
      ],
      [
        "▁computer",
        -9.6394886762035
      ],
      [
        "▁prince",
        -9.639851564880855
      ],
      [
        "▁protect",
        -9.64172418001754
      ],
      [
        "▁hall",
        -9.644633732106865
      ],
      [
        "▁version",
        -9.645841074095468
      ],
      [
        "▁situation",
        -9.647168676223403
      ],
      [
        "▁lose",
        -9.64727271956088
      ],
      [
        "▁welcome",
        -9.647693425873127
      ],
      [
        "▁development",
        -9.650537657209592
      ],
      [
        "▁mouth",
        -9.651019180719452
      ],
      [
        "▁contain",
        -9.651137746046274
      ],
      [
        "▁professional",
        -9.65140772074871
      ],
      [
        "▁council",
        -9.65165004919913
      ],
      [
        "▁sitting",
        -9.65175974224405
      ],
      [
        "▁mention",
        -9.655696483844082
      ],
      [
        "▁basic",
        -9.655946833970557
      ],
      [
        "▁non",
        -9.656050356188985
      ],
      [
        "▁leaving",
        -9.657120583483293
      ],
      [
        "▁strange",
        -9.657323148424528
      ],
      [
        "▁writing",
        -9.658218601424494
      ],
      [
        "▁bar",
        -9.659803101723767
      ],
      [
        "▁forward",
        -9.661067133327284
      ],
      [
        "▁nor",
        -9.662063376699717
      ],
      [
        "ch",
        -9.664104958215336
      ],
      [
        "▁education",
        -9.664271474553722
      ],
      [
        "▁nature",
        -9.665937654748136
      ],
      [
        "▁anybody",
        -9.666619535275832
      ],
      [
        "▁size",
        -9.668033755023211
      ],
      [
        "▁virginia",
        -9.6682472465686
      ],
      [
        "▁spend",
        -9.668604279102109
      ],
      [
        "▁store",
        -9.669986849572794
      ],
      [
        "▁difference",
        -9.67071589114097
      ],
      [
        "▁safe",
        -9.672024337673037
      ],
      [
        "▁indeed",
        -9.67510786701612
      ],
      [
        "▁except",
        -9.676471054296089
      ],
      [
        "▁catch",
        -9.677072720465812
      ],
      [
        "▁arm",
        -9.677098621067303
      ],
      [
        "thus",
        -9.678384571012558
      ],
      [
        "▁director",
        -9.680092512249256
      ],
      [
        "▁radio",
        -9.68153694147376
      ],
      [
        "▁thou",
        -9.683533801419545
      ],
      [
        "▁whom",
        -9.684218798570138
      ],
      [
        "▁al",
        -9.684606873023782
      ],
      [
        "▁glad",
        -9.686477303830223
      ],
      [
        "▁deep",
        -9.68649229380776
      ],
      [
        "▁finished",
        -9.686605003907191
      ],
      [
        "▁cat",
        -9.686654799451338
      ],
      [
        "▁movement",
        -9.687289372352751
      ],
      [
        "▁miles",
        -9.688945207799431
      ],
      [
        "▁scene",
        -9.689234026503158
      ],
      [
        "cause",
        -9.692464308155577
      ],
      [
        "▁actor",
        -9.692878105998536
      ],
      [
        "▁private",
        -9.693109071231373
      ],
      [
        "▁explain",
        -9.693269466805488
      ],
      [
        "▁students",
        -9.69520878774221
      ],
      [
        "▁foot",
        -9.695921727265368
      ],
      [
        "▁stage",
        -9.695946128488933
      ],
      [
        "▁site",
        -9.696156406995224
      ],
      [
        "▁happens",
        -9.696233409298252
      ],
      [
        "▁europe",
        -9.696447285808038
      ],
      [
        "▁decision",
        -9.69683599215487
      ],
      [
        "▁model",
        -9.697330128450584
      ],
      [
        "▁wear",
        -9.698155060783444
      ],
      [
        "▁royal",
        -9.69976456592794
      ],
      [
        "▁price",
        -9.699821278013552
      ],
      [
        "▁secret",
        -9.70010207905339
      ],
      [
        "▁mary",
        -9.700842589424155
      ],
      [
        "▁various",
        -9.70203347786552
      ],
      [
        "▁race",
        -9.702386069640976
      ],
      [
        "▁william",
        -9.704404803676784
      ],
      [
        "ous",
        -9.70595925110997
      ],
      [
        "▁begin",
        -9.707766277008531
      ],
      [
        "▁jump",
        -9.707865918076944
      ],
      [
        "ville",
        -9.708100694939876
      ],
      [
        "▁tv",
        -9.70862935337542
      ],
      [
        "▁bag",
        -9.70889353907
      ],
      [
        "▁division",
        -9.710234185390355
      ],
      [
        "▁uncle",
        -9.71316963250266
      ],
      [
        "▁brown",
        -9.713572071396442
      ],
      [
        "▁raise",
        -9.714249429941646
      ],
      [
        "▁answered",
        -9.714977316382535
      ],
      [
        "▁window",
        -9.71848231097614
      ],
      [
        "yes",
        -9.720312671184557
      ],
      [
        "▁hang",
        -9.720946978134728
      ],
      [
        "▁coast",
        -9.721604207750625
      ],
      [
        "▁championship",
        -9.7220953569504
      ],
      [
        "▁california",
        -9.723810117989936
      ],
      [
        "▁boat",
        -9.7244671332461
      ],
      [
        "▁tea",
        -9.724557768749712
      ],
      [
        "▁bye",
        -9.724822223149456
      ],
      [
        "▁travel",
        -9.725482163608802
      ],
      [
        "▁exist",
        -9.726338358149372
      ],
      [
        "▁perform",
        -9.727049409448489
      ],
      [
        "▁increase",
        -9.72767685768396
      ],
      [
        "▁suggest",
        -9.728380689052363
      ],
      [
        "▁western",
        -9.730106100387973
      ],
      [
        "▁somewhere",
        -9.730319389229363
      ],
      [
        "▁beat",
        -9.731696732292455
      ],
      [
        "▁garden",
        -9.733399258102802
      ],
      [
        "▁leg",
        -9.734338191296628
      ],
      [
        "▁patient",
        -9.736039191423943
      ],
      [
        "▁christian",
        -9.736725029023376
      ],
      [
        "▁product",
        -9.73709058243668
      ],
      [
        "▁dinner",
        -9.73722210963924
      ],
      [
        "▁bridge",
        -9.739600260479442
      ],
      [
        "side",
        -9.739796318843345
      ],
      [
        "of",
        -9.74191364693184
      ],
      [
        "▁stick",
        -9.744214030187509
      ],
      [
        "me",
        -9.745641207038148
      ],
      [
        "▁studie",
        -9.746044357566856
      ],
      [
        "ory",
        -9.746144088418928
      ],
      [
        "ling",
        -9.746951216071244
      ],
      [
        "located",
        -9.747540418447416
      ],
      [
        "▁mad",
        -9.749278323737762
      ],
      [
        "▁perfect",
        -9.75022724618648
      ],
      [
        "▁material",
        -9.75060902135366
      ],
      [
        "▁energy",
        -9.751133196759952
      ],
      [
        "▁ooh",
        -9.753463578833369
      ],
      [
        "j",
        -9.754785090762848
      ],
      [
        "▁rich",
        -9.757037138541577
      ],
      [
        "▁serious",
        -9.757754316792424
      ],
      [
        "▁account",
        -9.7583115128146
      ],
      [
        "▁card",
        -9.758785666078737
      ],
      [
        "abad",
        -9.758881641068566
      ],
      [
        "▁militar",
        -9.759081596411496
      ],
      [
        "▁chair",
        -9.759119167065547
      ],
      [
        "▁lie",
        -9.760024498293584
      ],
      [
        "▁spirit",
        -9.761650701529328
      ],
      [
        "▁sick",
        -9.762341345050478
      ],
      [
        "▁leader",
        -9.76277506186812
      ],
      [
        "▁damn",
        -9.764988608839236
      ],
      [
        "▁trade",
        -9.765103214981073
      ],
      [
        "▁obvious",
        -9.766222052753395
      ],
      [
        "▁sex",
        -9.76915156859999
      ],
      [
        "▁lower",
        -9.773581302329903
      ],
      [
        "▁warm",
        -9.773820025005245
      ],
      [
        "▁ice",
        -9.77584202603492
      ],
      [
        "▁disease",
        -9.776079478633088
      ],
      [
        "▁plus",
        -9.776536157944632
      ],
      [
        "▁clothes",
        -9.776789193978487
      ],
      [
        "▁florid",
        -9.779082804800565
      ],
      [
        "▁key",
        -9.780250644221365
      ],
      [
        "▁blow",
        -9.780634358191818
      ],
      [
        "▁message",
        -9.783098534675066
      ],
      [
        "▁involved",
        -9.783307231932833
      ],
      [
        "▁forgot",
        -9.783618766584048
      ],
      [
        "▁none",
        -9.784969004219782
      ],
      [
        "▁beside",
        -9.785339072336305
      ],
      [
        "▁robert",
        -9.785813393598922
      ],
      [
        "▁immediate",
        -9.78679982086621
      ],
      [
        "▁marriage",
        -9.788703761917546
      ],
      [
        "▁stone",
        -9.789001705178125
      ],
      [
        "age",
        -9.78901244291066
      ],
      [
        "▁regard",
        -9.789591084910626
      ],
      [
        "▁machine",
        -9.790060985101904
      ],
      [
        "▁discover",
        -9.791849449983324
      ],
      [
        "▁wild",
        -9.791990963789557
      ],
      [
        "▁fit",
        -9.793690531373286
      ],
      [
        "▁election",
        -9.79369254516882
      ],
      [
        "▁coach",
        -9.79486767821372
      ],
      [
        "▁shoot",
        -9.79510883451144
      ],
      [
        "▁attention",
        -9.795824521256709
      ],
      [
        "▁destroy",
        -9.797971836123692
      ],
      [
        "▁limit",
        -9.798884784423462
      ],
      [
        "way",
        -9.800456616120275
      ],
      [
        "▁establish",
        -9.801356376755267
      ],
      [
        "▁build",
        -9.802878241381574
      ],
      [
        "▁research",
        -9.804608880583364
      ],
      [
        "▁standing",
        -9.805706452137033
      ],
      [
        "▁nation",
        -9.807231522234527
      ],
      [
        "worked",
        -9.809415188165753
      ],
      [
        "▁dick",
        -9.810437615913616
      ],
      [
        "wood",
        -9.812342612465702
      ],
      [
        "▁kiss",
        -9.812871889304423
      ],
      [
        "▁honest",
        -9.815743255168783
      ],
      [
        "▁ancient",
        -9.81584208995347
      ],
      [
        "▁finish",
        -9.81659843942211
      ],
      [
        "▁peace",
        -9.81882124481082
      ],
      [
        "▁wood",
        -9.819028027109024
      ],
      [
        "▁milk",
        -9.819045989812182
      ],
      [
        "▁grand",
        -9.819102777587291
      ],
      [
        "▁artist",
        -9.821211014491752
      ],
      [
        "▁track",
        -9.821491938052986
      ],
      [
        "▁previous",
        -9.822179693585554
      ],
      [
        "▁respect",
        -9.822508663618958
      ],
      [
        "▁rain",
        -9.822929324131753
      ],
      [
        "▁fail",
        -9.82333243044337
      ],
      [
        "▁soul",
        -9.823787797219818
      ],
      [
        "▁entire",
        -9.825307242957576
      ],
      [
        "▁bank",
        -9.825770809729086
      ],
      [
        "▁spent",
        -9.827623749527625
      ],
      [
        "▁census",
        -9.828798295766184
      ],
      [
        "▁realize",
        -9.830099011332477
      ],
      [
        "▁press",
        -9.83072273510493
      ],
      [
        "▁meant",
        -9.831423519616916
      ],
      [
        "▁command",
        -9.833989371879367
      ],
      [
        "▁bought",
        -9.836559531761177
      ],
      [
        "stopped",
        -9.8372651750707
      ],
      [
        "▁prime",
        -9.838820192978927
      ],
      [
        "▁smile",
        -9.839026341256304
      ],
      [
        "▁animal",
        -9.839427744694866
      ],
      [
        "ance",
        -9.840544690652088
      ],
      [
        "▁describe",
        -9.841271394123172
      ],
      [
        "for",
        -9.84220653948612
      ],
      [
        "▁purpose",
        -9.84304981996942
      ],
      [
        "▁grow",
        -9.843936984851036
      ],
      [
        "▁frank",
        -9.84481561562994
      ],
      [
        "▁episode",
        -9.844947310670054
      ],
      [
        "▁broke",
        -9.846159780059423
      ],
      [
        "like",
        -9.847940429693228
      ],
      [
        "▁grew",
        -9.848921130173656
      ],
      [
        "▁individual",
        -9.849056007134037
      ],
      [
        "▁code",
        -9.84910885370818
      ],
      [
        "▁carry",
        -9.849584316506771
      ],
      [
        "▁claim",
        -9.852480501727936
      ],
      [
        "where",
        -9.854985132746666
      ],
      [
        "▁association",
        -9.85512344742305
      ],
      [
        "all",
        -9.855266677951578
      ],
      [
        "don",
        -9.855836156900118
      ],
      [
        "▁lake",
        -9.856161368881288
      ],
      [
        "▁degree",
        -9.856740575934626
      ],
      [
        "simply",
        -9.857979320954282
      ],
      [
        "▁pain",
        -9.858876948080216
      ],
      [
        "▁sounds",
        -9.859717759130437
      ],
      [
        "▁factor",
        -9.861540755710903
      ],
      [
        "▁source",
        -9.861688205886736
      ],
      [
        "▁vote",
        -9.863058560110035
      ],
      [
        "▁pre",
        -9.865229977866312
      ],
      [
        "▁sold",
        -9.86579988562293
      ],
      [
        "▁speed",
        -9.867324193909315
      ],
      [
        "▁wound",
        -9.867635375928176
      ],
      [
        "▁add",
        -9.867840904168744
      ],
      [
        "▁shouldn",
        -9.868089074934613
      ],
      [
        "▁dollar",
        -9.86854454036551
      ],
      [
        "▁arms",
        -9.868719742731034
      ],
      [
        "▁practice",
        -9.870038807901528
      ],
      [
        "▁production",
        -9.871795587489396
      ],
      [
        "▁stupid",
        -9.872028620484423
      ],
      [
        "▁snow",
        -9.87220434395612
      ],
      [
        "▁separate",
        -9.873874487944487
      ],
      [
        "▁richard",
        -9.87409003848061
      ],
      [
        "▁hurry",
        -9.8748979347033
      ],
      [
        "▁sad",
        -9.876790991004986
      ],
      [
        "▁fellow",
        -9.878546155482873
      ],
      [
        "▁mountain",
        -9.87946537635359
      ],
      [
        "▁terribl",
        -9.879776914760685
      ],
      [
        "below",
        -9.882006744709535
      ],
      [
        "ball",
        -9.882868078288908
      ],
      [
        "▁therefor",
        -9.883037542105637
      ],
      [
        "▁relationship",
        -9.884545450319496
      ],
      [
        "▁influence",
        -9.885469616773293
      ],
      [
        "▁joe",
        -9.88557847232723
      ],
      [
        "go",
        -9.885945187064792
      ],
      [
        "▁charles",
        -9.886137998314627
      ],
      [
        "thirty",
        -9.88614865538237
      ],
      [
        "be",
        -9.886914991981268
      ],
      [
        "▁completely",
        -9.887757860553064
      ],
      [
        "added",
        -9.889514486211176
      ],
      [
        "▁prize",
        -9.889904743151146
      ],
      [
        "▁doubt",
        -9.890475694551284
      ],
      [
        "live",
        -9.891477904807235
      ],
      [
        "▁italian",
        -9.891758208999022
      ],
      [
        "▁wonderful",
        -9.89226555488496
      ],
      [
        "▁network",
        -9.894120737004457
      ],
      [
        "▁represent",
        -9.895591074182168
      ],
      [
        "▁broken",
        -9.896978343304198
      ],
      [
        "▁castle",
        -9.89759075495788
      ],
      [
        "▁female",
        -9.898076247275046
      ],
      [
        "▁search",
        -9.898214239554186
      ],
      [
        "▁politician",
        -9.89826153887318
      ],
      [
        "appeared",
        -9.899053919923958
      ],
      [
        "▁alan",
        -9.899150956200504
      ],
      [
        "▁boss",
        -9.89972159946736
      ],
      [
        "▁northern",
        -9.900433246979652
      ],
      [
        "▁require",
        -9.90079967392156
      ],
      [
        "▁plant",
        -9.902086337015891
      ],
      [
        "▁european",
        -9.902695041753663
      ],
      [
        "▁imagine",
        -9.90316497596347
      ],
      [
        "▁aha",
        -9.905169473568144
      ],
      [
        "▁successful",
        -9.906461847472908
      ],
      [
        "▁higher",
        -9.90668160260171
      ],
      [
        "▁oil",
        -9.906710064792874
      ],
      [
        "▁watching",
        -9.90752817054496
      ],
      [
        "▁risk",
        -9.907823475881584
      ],
      [
        "▁belong",
        -9.909048652312883
      ],
      [
        "▁section",
        -9.909821927431944
      ],
      [
        "▁sudden",
        -9.910308632798008
      ],
      [
        "▁opportunit",
        -9.910840116803984
      ],
      [
        "▁evidence",
        -9.910957100511736
      ],
      [
        "carried",
        -9.911192467446252
      ],
      [
        "▁mum",
        -9.912606849632486
      ],
      [
        "▁media",
        -9.912897339650552
      ],
      [
        "▁join",
        -9.913187685323326
      ],
      [
        "▁professor",
        -9.913930978494903
      ],
      [
        "▁cit",
        -9.916752947347174
      ],
      [
        "▁civil",
        -9.917065149394958
      ],
      [
        "▁included",
        -9.918066873601672
      ],
      [
        "▁takes",
        -9.918249415869536
      ],
      [
        "▁princess",
        -9.919066174521532
      ],
      [
        "▁unless",
        -9.919227743160013
      ],
      [
        "▁distance",
        -9.919536533822784
      ],
      [
        "▁dut",
        -9.922481851145752
      ],
      [
        "▁southern",
        -9.92294425280778
      ],
      [
        "▁rate",
        -9.923800821123624
      ],
      [
        "▁shop",
        -9.925049469803325
      ],
      [
        "▁length",
        -9.926748087729091
      ],
      [
        "▁heavy",
        -9.927430013694336
      ],
      [
        "▁ride",
        -9.928637753099512
      ],
      [
        "▁honor",
        -9.93053529418714
      ],
      [
        "▁coffee",
        -9.930548790895752
      ],
      [
        "▁detail",
        -9.933351842652971
      ],
      [
        "towards",
        -9.934149824036176
      ],
      [
        "▁meaning",
        -9.93442723592764
      ],
      [
        "▁thomas",
        -9.935023262190828
      ],
      [
        "▁empire",
        -9.936478606403746
      ],
      [
        "ought",
        -9.936977568141264
      ],
      [
        "▁christ",
        -9.939732838235145
      ],
      [
        "▁spring",
        -9.939889178252969
      ],
      [
        "▁defeat",
        -9.941056003802434
      ],
      [
        "▁agent",
        -9.94109747924821
      ],
      [
        "▁native",
        -9.941670655250322
      ],
      [
        "▁washington",
        -9.94254689581498
      ],
      [
        "▁spoke",
        -9.94441142590221
      ],
      [
        "▁dry",
        -9.9448434347691
      ],
      [
        "▁joined",
        -9.949680677021876
      ],
      [
        "field",
        -9.949839528068608
      ],
      [
        "▁regular",
        -9.950099428939357
      ],
      [
        "▁hotel",
        -9.950186727585344
      ],
      [
        "▁propert",
        -9.950490415791124
      ],
      [
        "▁double",
        -9.950723711117467
      ],
      [
        "▁china",
        -9.951343006983503
      ],
      [
        "ner",
        -9.951450733209374
      ],
      [
        "▁direction",
        -9.951484800691162
      ],
      [
        "this",
        -9.952940114862944
      ],
      [
        "▁winter",
        -9.953550838842036
      ],
      [
        "▁marry",
        -9.953660815884412
      ],
      [
        "▁storm",
        -9.9552333603331
      ],
      [
        "▁pop",
        -9.956161936474086
      ],
      [
        "night",
        -9.95746292338575
      ],
      [
        "families",
        -9.957603729594936
      ],
      [
        "▁organization",
        -9.957712065342252
      ],
      [
        "▁address",
        -9.958228446860476
      ],
      [
        "▁mistake",
        -9.959075104881384
      ],
      [
        "▁authorit",
        -9.959291911676868
      ],
      [
        "▁fly",
        -9.959611243412608
      ],
      [
        "▁religion",
        -9.96123206159102
      ],
      [
        "▁firm",
        -9.96166072283692
      ],
      [
        "▁birthday",
        -9.96180165290543
      ],
      [
        "year",
        -9.96235577274408
      ],
      [
        "▁jesu",
        -9.963141902212406
      ],
      [
        "▁object",
        -9.963292793893334
      ],
      [
        "▁training",
        -9.964325134256054
      ],
      [
        "▁glass",
        -9.96511098954618
      ],
      [
        "▁proper",
        -9.966560480448964
      ],
      [
        "▁bottom",
        -9.96713473784294
      ],
      [
        "▁happening",
        -9.967859140253042
      ],
      [
        "ship",
        -9.96805578318537
      ],
      [
        "▁studio",
        -9.968119866440617
      ],
      [
        "▁bright",
        -9.96930418051625
      ],
      [
        "▁cry",
        -9.97021094043734
      ],
      [
        "▁data",
        -9.970723068821387
      ],
      [
        "▁drop",
        -9.970837271900889
      ],
      [
        "▁securit",
        -9.97095007374956
      ],
      [
        "▁formula",
        -9.971024169542217
      ],
      [
        "▁loved",
        -9.9711789180698
      ],
      [
        "▁shows",
        -9.971430125140138
      ],
      [
        "▁success",
        -9.971694242791903
      ],
      [
        "▁bus",
        -9.9747145163932
      ],
      [
        "▁structure",
        -9.975362247251647
      ],
      [
        "▁heaven",
        -9.976522897485207
      ],
      [
        "▁brain",
        -9.976688259435234
      ],
      [
        "hat",
        -9.977700185217593
      ],
      [
        "▁yesterday",
        -9.978533946783418
      ],
      [
        "▁port",
        -9.980600643829634
      ],
      [
        "▁centre",
        -9.980850585994318
      ],
      [
        "▁route",
        -9.987816762743368
      ],
      [
        "▁style",
        -9.98810346115074
      ],
      [
        "▁congress",
        -9.988116469725204
      ],
      [
        "▁storie",
        -9.98863853951356
      ],
      [
        "▁sight",
        -9.988708253076275
      ],
      [
        "▁performance",
        -9.990805657249728
      ],
      [
        "▁interested",
        -9.99096521980236
      ],
      [
        "▁huge",
        -9.991996019792342
      ],
      [
        "▁basket",
        -9.992030919457331
      ],
      [
        "▁culture",
        -9.992044931159128
      ],
      [
        "▁moon",
        -9.99247225841602
      ],
      [
        "▁image",
        -9.992537484534983
      ],
      [
        "▁choice",
        -9.99413414679795
      ],
      [
        "▁mid",
        -9.9945054270123
      ],
      [
        "▁palace",
        -9.994788784555766
      ],
      [
        "▁engineer",
        -9.995421288001973
      ],
      [
        "▁available",
        -9.995944158770993
      ],
      [
        "▁review",
        -9.99628652008507
      ],
      [
        "▁africa",
        -9.999942885550093
      ],
      [
        "▁writer",
        -10.000221727121884
      ],
      [
        "▁railway",
        -10.000430749487462
      ],
      [
        "▁base",
        -10.000973756177926
      ],
      [
        "▁charge",
        -10.001284748888626
      ],
      [
        "▁aunt",
        -10.002483675134467
      ],
      [
        "▁fund",
        -10.003239996056577
      ],
      [
        "▁path",
        -10.003965167074703
      ],
      [
        "nearly",
        -10.004210751287369
      ],
      [
        "▁songs",
        -10.00459493411022
      ],
      [
        "▁judge",
        -10.00640959096388
      ],
      [
        "▁da",
        -10.006664849942265
      ],
      [
        "co",
        -10.006761136730384
      ],
      [
        "▁gain",
        -10.009697332232127
      ],
      [
        "▁crew",
        -10.010343764459746
      ],
      [
        "▁edge",
        -10.011400613416296
      ],
      [
        "▁flight",
        -10.01223493666005
      ],
      [
        "▁standard",
        -10.012335388263322
      ],
      [
        "▁australia",
        -10.01431626806368
      ],
      [
        "▁developed",
        -10.01458530891831
      ],
      [
        "▁worse",
        -10.016164615314956
      ],
      [
        "▁scared",
        -10.016347795792765
      ],
      [
        "▁knock",
        -10.01672564829447
      ],
      [
        "▁industr",
        -10.016902778445498
      ],
      [
        "▁host",
        -10.017321403164988
      ],
      [
        "▁serve",
        -10.017691426683124
      ],
      [
        "▁mike",
        -10.018986908544749
      ],
      [
        "signed",
        -10.01904916930475
      ],
      [
        "▁governor",
        -10.019211384947138
      ],
      [
        "▁smell",
        -10.019962440921969
      ],
      [
        "▁eating",
        -10.022504714329369
      ],
      [
        "▁tired",
        -10.022540373110484
      ],
      [
        "▁element",
        -10.023189962358648
      ],
      [
        "▁fourth",
        -10.02336143869945
      ],
      [
        "old",
        -10.024574314226992
      ],
      [
        "▁camp",
        -10.024972948456115
      ],
      [
        "lying",
        -10.02597677219061
      ],
      [
        "▁grant",
        -10.028418176763664
      ],
      [
        "▁engine",
        -10.030675653093756
      ],
      [
        "▁prison",
        -10.03088081435977
      ],
      [
        "▁depend",
        -10.032406391062118
      ],
      [
        "▁slow",
        -10.033691720040638
      ],
      [
        "▁demand",
        -10.034217093540224
      ],
      [
        "▁create",
        -10.037233254106884
      ],
      [
        "▁trees",
        -10.037310598276902
      ],
      [
        "▁chose",
        -10.03888866093997
      ],
      [
        "▁valley",
        -10.039148898525882
      ],
      [
        "▁afternoon",
        -10.04061485775983
      ],
      [
        "▁calm",
        -10.040696882859336
      ],
      [
        "▁larges",
        -10.040923162424958
      ],
      [
        "▁slight",
        -10.041565117544772
      ],
      [
        "▁trip",
        -10.04195777977068
      ],
      [
        "▁di",
        -10.042504076449918
      ],
      [
        "▁technolog",
        -10.042868917597694
      ],
      [
        "▁weren",
        -10.044604768197942
      ],
      [
        "▁hole",
        -10.045528028346286
      ],
      [
        "▁lee",
        -10.045768926971933
      ],
      [
        "▁py",
        -10.046223912687855
      ],
      [
        "▁effort",
        -10.046473717981444
      ],
      [
        "▁yellow",
        -10.049018901139483
      ],
      [
        "panish",
        -10.049631168820287
      ],
      [
        "▁heat",
        -10.051231758679098
      ],
      [
        "▁louis",
        -10.051482463382529
      ],
      [
        "▁score",
        -10.052007716056014
      ],
      [
        "▁contract",
        -10.052143279978106
      ],
      [
        "▁economic",
        -10.052582344018202
      ],
      [
        "▁jo",
        -10.05259488533992
      ],
      [
        "▁showed",
        -10.053681363443074
      ],
      [
        "▁super",
        -10.054602108754343
      ],
      [
        "▁tall",
        -10.05497052882249
      ],
      [
        "▁learned",
        -10.057169281931806
      ],
      [
        "▁scot",
        -10.05782799157075
      ],
      [
        "▁fruit",
        -10.058392511206208
      ],
      [
        "▁angry",
        -10.059413694892443
      ],
      [
        "▁brand",
        -10.059923861216747
      ],
      [
        "▁luck",
        -10.061382989595852
      ],
      [
        "necessary",
        -10.06320341078531
      ],
      [
        "▁catholic",
        -10.063414200312366
      ],
      [
        "▁correct",
        -10.0639795551095
      ],
      [
        "▁toward",
        -10.06463284195436
      ],
      [
        "▁pair",
        -10.06591107296016
      ],
      [
        "▁sky",
        -10.067814245189805
      ],
      [
        "▁method",
        -10.068417230092802
      ],
      [
        "▁earlier",
        -10.068422797305963
      ],
      [
        "▁museum",
        -10.06856495407338
      ],
      [
        "▁silver",
        -10.069696745535444
      ],
      [
        "▁paris",
        -10.07016550720779
      ],
      [
        "▁closed",
        -10.070209212507944
      ],
      [
        "▁notice",
        -10.070863012557602
      ],
      [
        "▁announce",
        -10.070867028750186
      ],
      [
        "▁committee",
        -10.071320672183235
      ],
      [
        "▁burn",
        -10.071751950065412
      ],
      [
        "now",
        -10.0719761239217
      ],
      [
        "▁beach",
        -10.072454086926076
      ],
      [
        "▁wide",
        -10.072481444698308
      ],
      [
        "asking",
        -10.072932485000242
      ],
      [
        "▁roll",
        -10.074307056323164
      ],
      [
        "▁holding",
        -10.076586867253592
      ],
      [
        "▁bob",
        -10.077014585888367
      ],
      [
        "▁dan",
        -10.077867002554026
      ],
      [
        "▁stars",
        -10.07889704746951
      ],
      [
        "▁bay",
        -10.079414158978544
      ],
      [
        "▁policy",
        -10.0800629869885
      ],
      [
        "▁platform",
        -10.08053779961999
      ],
      [
        "▁ho",
        -10.081049608984651
      ],
      [
        "▁gas",
        -10.081965939243988
      ],
      [
        "▁letters",
        -10.08241094882734
      ],
      [
        "▁reading",
        -10.08345866129047
      ],
      [
        "▁escape",
        -10.084103523235356
      ],
      [
        "▁enemy",
        -10.085591812044774
      ],
      [
        "▁tour",
        -10.08586243589981
      ],
      [
        "▁cell",
        -10.086099980807226
      ],
      [
        "▁treat",
        -10.087356965845256
      ],
      [
        "▁gives",
        -10.088026007466905
      ],
      [
        "stairs",
        -10.088098221779465
      ],
      [
        "▁medicine",
        -10.090025750898716
      ],
      [
        "▁beyond",
        -10.091273477153806
      ],
      [
        "▁lawyer",
        -10.091441606159735
      ],
      [
        "▁roman",
        -10.091451754296315
      ],
      [
        "un",
        -10.091957665217302
      ],
      [
        "▁mass",
        -10.093347023121218
      ],
      [
        "▁camera",
        -10.09350660314269
      ],
      [
        "▁corner",
        -10.09370745383919
      ],
      [
        "▁busy",
        -10.094126451111194
      ],
      [
        "▁extra",
        -10.09491151641447
      ],
      [
        "▁fault",
        -10.096799883677845
      ],
      [
        "▁concern",
        -10.096860294592808
      ],
      [
        "▁self",
        -10.097490568611086
      ],
      [
        "▁attempt",
        -10.097589346799838
      ],
      [
        "▁opening",
        -10.097852293171243
      ],
      [
        "▁focus",
        -10.097991428272202
      ],
      [
        "▁fift",
        -10.098369146797758
      ],
      [
        "▁anne",
        -10.099545244271296
      ],
      [
        "▁campaign",
        -10.099545802580376
      ],
      [
        "▁spread",
        -10.100349644214054
      ],
      [
        "▁medical",
        -10.100947376666248
      ],
      [
        "▁specific",
        -10.101314106117812
      ],
      [
        "▁dirt",
        -10.102592119290165
      ],
      [
        "▁elect",
        -10.103621727300704
      ],
      [
        "▁range",
        -10.106349110264595
      ],
      [
        "▁knowledge",
        -10.10675159863304
      ],
      [
        "definitely",
        -10.10684427978071
      ],
      [
        "▁access",
        -10.10859754458243
      ],
      [
        "▁contact",
        -10.110695603017554
      ],
      [
        "▁iron",
        -10.111771778591264
      ],
      [
        "▁wave",
        -10.112022739161803
      ],
      [
        "▁function",
        -10.112465655081984
      ],
      [
        "▁benefit",
        -10.11436346752383
      ],
      [
        "▁canad",
        -10.116902430696143
      ],
      [
        "▁singer",
        -10.118396161866189
      ],
      [
        "▁absolutel",
        -10.11843052339113
      ],
      [
        "▁taste",
        -10.118636450053549
      ],
      [
        "▁weather",
        -10.119419736827886
      ],
      [
        "▁advance",
        -10.120507671366358
      ],
      [
        "▁surface",
        -10.121611154205004
      ],
      [
        "▁quarter",
        -10.121695432511729
      ],
      [
        "▁believed",
        -10.121880819398807
      ],
      [
        "▁opinion",
        -10.122275535468134
      ],
      [
        "▁neither",
        -10.123699619087787
      ],
      [
        "▁fresh",
        -10.123798431934746
      ],
      [
        "▁lad",
        -10.12509545357079
      ],
      [
        "▁minus",
        -10.125770748796851
      ],
      [
        "▁teach",
        -10.126890768951544
      ],
      [
        "▁twelve",
        -10.127210584052616
      ],
      [
        "▁twic",
        -10.128266715599684
      ],
      [
        "▁saint",
        -10.128522244460594
      ],
      [
        "ney",
        -10.12856029579392
      ],
      [
        "▁ali",
        -10.129153391338624
      ],
      [
        "▁planet",
        -10.129382158418508
      ],
      [
        "▁average",
        -10.130840798706345
      ],
      [
        "▁nose",
        -10.13248745282066
      ],
      [
        "▁jim",
        -10.133925361266105
      ],
      [
        "fighting",
        -10.13502834278687
      ],
      [
        "▁festival",
        -10.135541554773113
      ],
      [
        "ural",
        -10.135908702696453
      ],
      [
        "▁ocean",
        -10.13671187387076
      ],
      [
        "▁walking",
        -10.136792586506516
      ],
      [
        "▁eastern",
        -10.136800709422172
      ],
      [
        "▁crime",
        -10.13757374955592
      ],
      [
        "▁fix",
        -10.138229829849198
      ],
      [
        "▁joseph",
        -10.13878819206886
      ],
      [
        "▁republic",
        -10.140644992169882
      ],
      [
        "▁flow",
        -10.140943771649376
      ],
      [
        "why",
        -10.142043013013824
      ],
      [
        "arrived",
        -10.143708099085824
      ],
      [
        "▁ladies",
        -10.147030096481634
      ],
      [
        "▁sail",
        -10.14750966844197
      ],
      [
        "line",
        -10.148732015722976
      ],
      [
        "▁foreign",
        -10.150532972469913
      ],
      [
        "▁manager",
        -10.151406893723356
      ],
      [
        "▁measure",
        -10.151543224459232
      ],
      [
        "who",
        -10.152010046574144
      ],
      [
        "ful",
        -10.152051255498687
      ],
      [
        "▁rise",
        -10.152668471133438
      ],
      [
        "▁constant",
        -10.15288730877672
      ],
      [
        "▁content",
        -10.154335959721257
      ],
      [
        "▁article",
        -10.155067163933028
      ],
      [
        "▁religious",
        -10.15597414038578
      ],
      [
        "not",
        -10.156687465456962
      ],
      [
        "▁newspaper",
        -10.15701628950064
      ],
      [
        "▁paint",
        -10.157231586711228
      ],
      [
        "▁staff",
        -10.157368132973994
      ],
      [
        "ca",
        -10.157408971720267
      ],
      [
        "▁lift",
        -10.157414390667686
      ],
      [
        "tuck",
        -10.158322814091726
      ],
      [
        "▁skin",
        -10.158459376944451
      ],
      [
        "▁shoulder",
        -10.15888042290899
      ],
      [
        "▁giant",
        -10.158948815392126
      ],
      [
        "▁christmas",
        -10.160166759875668
      ],
      [
        "▁forty",
        -10.16119450930812
      ],
      [
        "▁victor",
        -10.16151319852985
      ],
      [
        "ler",
        -10.16154703067814
      ],
      [
        "▁discuss",
        -10.161600428453738
      ],
      [
        "▁competition",
        -10.161956610735256
      ],
      [
        "▁choose",
        -10.162601994704858
      ],
      [
        "there",
        -10.162703008201504
      ],
      [
        "▁driv",
        -10.163441199472755
      ],
      [
        "▁forced",
        -10.166306305304932
      ],
      [
        "▁guard",
        -10.166332879548625
      ],
      [
        "▁forth",
        -10.166755619926814
      ],
      [
        "▁student",
        -10.167675835626383
      ],
      [
        "▁dangerous",
        -10.169693653795406
      ],
      [
        "▁pictures",
        -10.169788301774854
      ],
      [
        "▁wine",
        -10.170787401026324
      ],
      [
        "▁mess",
        -10.171148781447668
      ],
      [
        "eventually",
        -10.172067660503007
      ],
      [
        "▁spot",
        -10.17227869393529
      ],
      [
        "▁loud",
        -10.17431358730826
      ],
      [
        "▁handle",
        -10.174615771369783
      ],
      [
        "é",
        -10.17491087551648
      ],
      [
        "▁ought",
        -10.176247363491122
      ],
      [
        "▁weight",
        -10.17682511786118
      ],
      [
        "ow",
        -10.177584583661364
      ],
      [
        "▁troop",
        -10.178429485854108
      ],
      [
        "▁tony",
        -10.178655232423312
      ],
      [
        "▁traditional",
        -10.179774114522663
      ],
      [
        "▁suffer",
        -10.180902490983025
      ],
      [
        "town",
        -10.181078619072473
      ],
      [
        "rénée",
        -10.182010262902924
      ],
      [
        "▁pocket",
        -10.18258836845324
      ],
      [
        "▁suit",
        -10.183301430244098
      ],
      [
        "▁damage",
        -10.18428070795702
      ],
      [
        "▁smart",
        -10.1846451779965
      ],
      [
        "shire",
        -10.18502149430086
      ],
      [
        "▁loss",
        -10.185228264615205
      ],
      [
        "▁rough",
        -10.185843861871104
      ],
      [
        "▁secretar",
        -10.18631672304679
      ],
      [
        "▁ka",
        -10.186806669932198
      ],
      [
        "▁lucky",
        -10.187167714583236
      ],
      [
        "▁apart",
        -10.187361538438722
      ],
      [
        "covered",
        -10.18745433478409
      ],
      [
        "▁sports",
        -10.18799535453597
      ],
      [
        "▁conference",
        -10.188147780576926
      ],
      [
        "atlantique",
        -10.188782632959256
      ],
      [
        "▁van",
        -10.189187730964925
      ],
      [
        "▁circle",
        -10.189938964496475
      ],
      [
        "▁divide",
        -10.189992533407874
      ],
      [
        "▁resource",
        -10.190387625694546
      ],
      [
        "▁joy",
        -10.19063851672018
      ],
      [
        "▁decide",
        -10.191344794905683
      ],
      [
        "▁fat",
        -10.19267956989724
      ],
      [
        "▁location",
        -10.19290209488342
      ],
      [
        "▁anywhere",
        -10.19595303267242
      ],
      [
        "house",
        -10.196335359411954
      ],
      [
        "▁develop",
        -10.196756483579584
      ],
      [
        "▁waste",
        -10.197439486367983
      ],
      [
        "▁greek",
        -10.197523631849904
      ],
      [
        "▁droppe",
        -10.197596782726093
      ],
      [
        "▁neck",
        -10.198840909101888
      ],
      [
        "▁pressure",
        -10.198999293141252
      ],
      [
        "▁recognize",
        -10.199172913495318
      ],
      [
        "▁hasn",
        -10.199215567174504
      ],
      [
        "▁memory",
        -10.199651034072058
      ],
      [
        "▁legal",
        -10.200087033609083
      ],
      [
        "she",
        -10.200938271449555
      ],
      [
        "ial",
        -10.20286162859452
      ],
      [
        "▁plays",
        -10.202952268444868
      ],
      [
        "▁disappear",
        -10.203555216691475
      ],
      [
        "▁accident",
        -10.204445256178603
      ],
      [
        "▁speech",
        -10.204866589276424
      ],
      [
        "▁soldiers",
        -10.20525305994988
      ],
      [
        "chines",
        -10.206243024530178
      ],
      [
        "▁proud",
        -10.206807628002789
      ],
      [
        "▁victim",
        -10.208184468293606
      ],
      [
        "▁guest",
        -10.20948073844973
      ],
      [
        "▁wake",
        -10.209858627258662
      ],
      [
        "▁iran",
        -10.210876068658816
      ],
      [
        "▁golden",
        -10.210971506141156
      ],
      [
        "▁physical",
        -10.211203967919214
      ],
      [
        "▁gentlemen",
        -10.212748554606462
      ],
      [
        "ng",
        -10.21573712443439
      ],
      [
        "▁emperor",
        -10.216030148157833
      ],
      [
        "▁metal",
        -10.21662479321295
      ],
      [
        "▁tape",
        -10.216910006866575
      ],
      [
        "▁worker",
        -10.218899023912735
      ],
      [
        "▁growing",
        -10.220620606474782
      ],
      [
        "▁federal",
        -10.222283511951265
      ],
      [
        "▁relative",
        -10.222536473356053
      ],
      [
        "▁hop",
        -10.223180046020786
      ],
      [
        "▁remove",
        -10.223198823385088
      ],
      [
        "▁slowly",
        -10.225411174613043
      ],
      [
        "▁tower",
        -10.226146826933425
      ],
      [
        "▁ill",
        -10.226184010659964
      ],
      [
        "▁electric",
        -10.226695957415195
      ],
      [
        "▁bitch",
        -10.227036311247051
      ],
      [
        "▁birth",
        -10.227162640971496
      ],
      [
        "▁ray",
        -10.227617166152733
      ],
      [
        "▁positive",
        -10.228497560607776
      ],
      [
        "▁wedding",
        -10.228552769437131
      ],
      [
        "▁greater",
        -10.229774463275785
      ],
      [
        "▁deliver",
        -10.229779298429987
      ],
      [
        "▁credit",
        -10.230271670784983
      ],
      [
        "▁academ",
        -10.234216422216983
      ],
      [
        "▁russian",
        -10.234397000711366
      ],
      [
        "▁author",
        -10.235613397241874
      ],
      [
        "▁fashion",
        -10.236065956703982
      ],
      [
        "▁smith",
        -10.236456422638597
      ],
      [
        "▁desire",
        -10.236571419797658
      ],
      [
        "▁mission",
        -10.237070270641318
      ],
      [
        "▁universe",
        -10.237529461710569
      ],
      [
        "▁block",
        -10.239775264457574
      ],
      [
        "▁bell",
        -10.240050907616098
      ],
      [
        "▁municipalit",
        -10.240445511115514
      ],
      [
        "▁plants",
        -10.2430684997123
      ],
      [
        "▁darling",
        -10.243298651990004
      ],
      [
        "▁statement",
        -10.244350441614696
      ],
      [
        "walked",
        -10.244681258256753
      ],
      [
        "▁easily",
        -10.244691248180873
      ],
      [
        "▁male",
        -10.245299483652722
      ],
      [
        "off",
        -10.246712890473733
      ],
      [
        "▁apparent",
        -10.2472719084594
      ],
      [
        "▁text",
        -10.247953232766893
      ],
      [
        "ford",
        -10.24860409629293
      ],
      [
        "▁channel",
        -10.248640773517597
      ],
      [
        "ham",
        -10.248756991431351
      ],
      [
        "▁hide",
        -10.249434695477357
      ],
      [
        "▁percent",
        -10.251873745490446
      ],
      [
        "▁independent",
        -10.251876439931351
      ],
      [
        "my",
        -10.251989329468858
      ],
      [
        "▁pleasure",
        -10.252036479292784
      ],
      [
        "▁martin",
        -10.252725766349498
      ],
      [
        "▁holy",
        -10.253225042338482
      ],
      [
        "▁older",
        -10.253257765457333
      ],
      [
        "▁introduce",
        -10.253411247403903
      ],
      [
        "▁dogs",
        -10.253570870461164
      ],
      [
        "▁thy",
        -10.255679915043904
      ],
      [
        "▁negative",
        -10.256142981317556
      ],
      [
        "▁magazine",
        -10.256670778914811
      ],
      [
        "▁bottle",
        -10.25723895554808
      ],
      [
        "▁chapter",
        -10.257906300177734
      ],
      [
        "▁flat",
        -10.259567189868498
      ],
      [
        "▁settle",
        -10.26137341062185
      ],
      [
        "▁sub",
        -10.262436208421333
      ],
      [
        "▁border",
        -10.264154273021102
      ],
      [
        "▁lack",
        -10.264552685320911
      ],
      [
        "▁appearance",
        -10.264764020540245
      ],
      [
        "▁apple",
        -10.265691259303566
      ],
      [
        "▁zero",
        -10.26604778356842
      ],
      [
        "see",
        -10.26981762804748
      ],
      [
        "▁challenge",
        -10.270537864784549
      ],
      [
        "▁signal",
        -10.27068983154281
      ],
      [
        "▁capture",
        -10.27103037781572
      ],
      [
        "▁killing",
        -10.271113919127906
      ],
      [
        "▁laid",
        -10.271439697669278
      ],
      [
        "▁justice",
        -10.272707793923512
      ],
      [
        "▁lock",
        -10.27467469246114
      ],
      [
        "▁names",
        -10.274685809298894
      ],
      [
        "▁jackson",
        -10.275255280357625
      ],
      [
        "sleep",
        -10.277158042933705
      ],
      [
        "▁yo",
        -10.278085796190826
      ],
      [
        "▁plane",
        -10.278729879113916
      ],
      [
        "her",
        -10.279510796183096
      ],
      [
        "▁affair",
        -10.279595426865292
      ],
      [
        "let",
        -10.279646694215838
      ],
      [
        "▁root",
        -10.281212875166986
      ],
      [
        "▁youth",
        -10.28182591897932
      ],
      [
        "▁mate",
        -10.281967188441945
      ],
      [
        "▁majest",
        -10.282114019971214
      ],
      [
        "▁partner",
        -10.284217048742256
      ],
      [
        "▁afterward",
        -10.285411089052516
      ],
      [
        "▁powerful",
        -10.285957616654294
      ],
      [
        "▁tax",
        -10.285998684160203
      ],
      [
        "▁republican",
        -10.287351644031167
      ],
      [
        "▁kitchen",
        -10.287535743497184
      ],
      [
        "▁african",
        -10.288012815052513
      ],
      [
        "▁cast",
        -10.288213861911586
      ],
      [
        "▁tournament",
        -10.28905106684429
      ],
      [
        "▁truck",
        -10.289213083524206
      ],
      [
        "▁clearly",
        -10.289908105421825
      ],
      [
        "▁strength",
        -10.290488952964251
      ],
      [
        "▁avoid",
        -10.290710969457727
      ],
      [
        "▁maintain",
        -10.292016802793894
      ],
      [
        "yep",
        -10.292266913809048
      ],
      [
        "companie",
        -10.292528756778736
      ],
      [
        "▁grown",
        -10.292969477575529
      ],
      [
        "totally",
        -10.293883625145416
      ],
      [
        "▁empty",
        -10.294449406583285
      ],
      [
        "▁reveal",
        -10.294458968451352
      ],
      [
        "▁qualit",
        -10.294570933536049
      ],
      [
        "▁surprise",
        -10.295618495831611
      ],
      [
        "▁evil",
        -10.296366732580989
      ],
      [
        "▁smoke",
        -10.298029968466595
      ],
      [
        "▁parliament",
        -10.298754829126413
      ],
      [
        "▁southwestern",
        -10.300125296556317
      ],
      [
        "▁lieutenant",
        -10.30067909479294
      ],
      [
        "▁plate",
        -10.301383971418314
      ],
      [
        "▁refer",
        -10.301965427226456
      ],
      [
        "▁replie",
        -10.302012071356966
      ],
      [
        "ur",
        -10.30218949702195
      ],
      [
        "▁grey",
        -10.302343500738072
      ],
      [
        "▁kick",
        -10.30238380097054
      ],
      [
        "▁wheel",
        -10.302762647351964
      ],
      [
        "▁impossibl",
        -10.302763183747135
      ],
      [
        "▁se",
        -10.303406537788398
      ],
      [
        "▁actress",
        -10.303426045433396
      ],
      [
        "▁texa",
        -10.304040926636418
      ],
      [
        "▁leaves",
        -10.304083567514976
      ],
      [
        "▁shout",
        -10.30422254963146
      ],
      [
        "▁bath",
        -10.304394825177368
      ],
      [
        "▁worried",
        -10.30506040381751
      ],
      [
        "▁operation",
        -10.305550221132004
      ],
      [
        "▁trial",
        -10.305703951619847
      ],
      [
        "▁addition",
        -10.30662854964546
      ],
      [
        "▁ex",
        -10.308241435057194
      ],
      [
        "▁express",
        -10.308280043514568
      ],
      [
        "▁colour",
        -10.308435348564444
      ],
      [
        "yeh",
        -10.308456225754991
      ],
      [
        "▁eggs",
        -10.308549989471562
      ],
      [
        "▁crowd",
        -10.309137980988485
      ],
      [
        "▁temperature",
        -10.30964932070808
      ],
      [
        "▁request",
        -10.30966533705618
      ],
      [
        "▁devil",
        -10.311619378649867
      ],
      [
        "▁danger",
        -10.31176754765109
      ],
      [
        "▁hid",
        -10.312814997361992
      ],
      [
        "▁rush",
        -10.313087406707918
      ],
      [
        "▁audience",
        -10.313560621686566
      ],
      [
        "▁fool",
        -10.315103867932764
      ],
      [
        "▁anti",
        -10.315211937589297
      ],
      [
        "▁seek",
        -10.315319476229645
      ],
      [
        "▁sam",
        -10.315714472914593
      ],
      [
        "▁adult",
        -10.31676450333412
      ],
      [
        "▁airport",
        -10.317442801364294
      ],
      [
        "▁spain",
        -10.317646794491475
      ],
      [
        "▁approach",
        -10.319027244389927
      ],
      [
        "▁shape",
        -10.319441777424792
      ],
      [
        "▁load",
        -10.319523742608713
      ],
      [
        "▁dreams",
        -10.319827868630751
      ],
      [
        "▁forgive",
        -10.31999098172054
      ],
      [
        "▁beaut",
        -10.320268242857942
      ],
      [
        "▁plain",
        -10.320784485696915
      ],
      [
        "▁suddenl",
        -10.321232043599297
      ],
      [
        "▁significant",
        -10.321696957211376
      ],
      [
        "▁launch",
        -10.323195001060764
      ],
      [
        "▁chicago",
        -10.323490857523646
      ],
      [
        "▁ju",
        -10.324375401849796
      ],
      [
        "▁commander",
        -10.325369906961182
      ],
      [
        "▁flying",
        -10.327046070370653
      ],
      [
        "▁faith",
        -10.32795779626986
      ],
      [
        "▁manner",
        -10.3295932250963
      ],
      [
        "▁pen",
        -10.33005507209858
      ],
      [
        "▁cash",
        -10.33015717468016
      ],
      [
        "▁aware",
        -10.330550547047974
      ],
      [
        "▁scale",
        -10.330764741153816
      ],
      [
        "▁collection",
        -10.33100942232312
      ],
      [
        "▁switch",
        -10.33118395324949
      ],
      [
        "▁weird",
        -10.331633809622138
      ],
      [
        "wearing",
        -10.332224925946512
      ],
      [
        "crying",
        -10.332534485938606
      ],
      [
        "▁scientist",
        -10.33292824049093
      ],
      [
        "▁hook",
        -10.3338068585043
      ],
      [
        "▁sake",
        -10.334217915471928
      ],
      [
        "▁joke",
        -10.334837281846085
      ],
      [
        "▁consist",
        -10.335131206170312
      ],
      [
        "▁jimm",
        -10.3371634141393
      ],
      [
        "▁stole",
        -10.337214648405688
      ],
      [
        "▁leading",
        -10.33728869695894
      ],
      [
        "ez",
        -10.33806191495347
      ],
      [
        "▁target",
        -10.338482079451063
      ],
      [
        "▁journey",
        -10.338858036291242
      ],
      [
        "▁related",
        -10.34116534162317
      ],
      [
        "▁honour",
        -10.34124609614372
      ],
      [
        "▁brief",
        -10.342029037185249
      ],
      [
        "▁soldier",
        -10.343767098271815
      ],
      [
        "▁construction",
        -10.345299621181669
      ],
      [
        "▁ear",
        -10.346090317405851
      ],
      [
        "▁opera",
        -10.347118179323695
      ],
      [
        "▁teeth",
        -10.347566766197774
      ],
      [
        "▁sunday",
        -10.34956780862286
      ],
      [
        "▁officers",
        -10.34997860916604
      ],
      [
        "▁management",
        -10.3502710003567
      ],
      [
        "▁prevent",
        -10.350733641074012
      ],
      [
        "▁replaced",
        -10.35264575965365
      ],
      [
        "▁mountains",
        -10.353092952101637
      ],
      [
        "▁breath",
        -10.354630670300416
      ],
      [
        "▁otherwise",
        -10.35494864591948
      ],
      [
        "▁fill",
        -10.35531506128785
      ],
      [
        "▁financial",
        -10.3554334501377
      ],
      [
        "▁sharp",
        -10.355662651038925
      ],
      [
        "▁bread",
        -10.356043754423098
      ],
      [
        "▁drew",
        -10.356242834799572
      ],
      [
        "▁amazing",
        -10.356982426207272
      ],
      [
        "▁environment",
        -10.357725395139717
      ],
      [
        "▁rid",
        -10.35870418885506
      ],
      [
        "▁los",
        -10.359259915779614
      ],
      [
        "▁orange",
        -10.359525829633368
      ],
      [
        "ware",
        -10.359980049859576
      ],
      [
        "▁pure",
        -10.360437202998495
      ],
      [
        "▁reported",
        -10.361082817617714
      ],
      [
        "▁cars",
        -10.36150536528017
      ],
      [
        "▁silence",
        -10.361512155039833
      ],
      [
        "▁breakfast",
        -10.362074690139288
      ],
      [
        "filled",
        -10.362194666521969
      ],
      [
        "▁map",
        -10.362512529666931
      ],
      [
        "▁reform",
        -10.36262084096138
      ],
      [
        "▁cancer",
        -10.36416322390224
      ],
      [
        "▁ghost",
        -10.364668243692922
      ],
      [
        "▁temple",
        -10.364831751470982
      ],
      [
        "▁rare",
        -10.36503125044543
      ],
      [
        "▁initial",
        -10.366293462729416
      ],
      [
        "▁select",
        -10.367123074021762
      ],
      [
        "▁farm",
        -10.367709540862418
      ],
      [
        "▁solution",
        -10.36778851525968
      ],
      [
        "▁madam",
        -10.368369730807297
      ],
      [
        "▁teams",
        -10.368954356933012
      ],
      [
        "▁lots",
        -10.370522791931773
      ],
      [
        "▁lunch",
        -10.37129686415214
      ],
      [
        "▁conversation",
        -10.371306078506128
      ],
      [
        "q",
        -10.371401377844377
      ],
      [
        "▁poet",
        -10.372206574372871
      ],
      [
        "▁speaker",
        -10.373309526556364
      ],
      [
        "▁active",
        -10.374333104521028
      ],
      [
        "▁climb",
        -10.377112497625443
      ],
      [
        "▁types",
        -10.377928423657444
      ],
      [
        "▁learning",
        -10.378088901209168
      ],
      [
        "▁dare",
        -10.378168804948814
      ],
      [
        "▁placed",
        -10.37817747069453
      ],
      [
        "▁split",
        -10.378317098307017
      ],
      [
        "▁throat",
        -10.381011659247022
      ],
      [
        "▁worst",
        -10.381019098384936
      ],
      [
        "▁treatment",
        -10.381307549169172
      ],
      [
        "▁tool",
        -10.381651468891643
      ],
      [
        "▁prove",
        -10.383742614368405
      ],
      [
        "▁lies",
        -10.38393949208774
      ],
      [
        "▁sleeping",
        -10.384296228898826
      ],
      [
        "▁becoming",
        -10.38464292122065
      ],
      [
        "▁button",
        -10.385594003819184
      ],
      [
        "▁priest",
        -10.386164112255372
      ],
      [
        "▁librar",
        -10.386406131029917
      ],
      [
        "▁painting",
        -10.386721569986449
      ],
      [
        "‘",
        -10.387377153250622
      ],
      [
        "▁tail",
        -10.388931574766776
      ],
      [
        "▁interview",
        -10.389471880768482
      ],
      [
        "▁coat",
        -10.389553455774749
      ],
      [
        "recently",
        -10.390607650880444
      ],
      [
        "▁roof",
        -10.39068737423506
      ],
      [
        "département",
        -10.391530844126343
      ],
      [
        "▁ba",
        -10.392068203957416
      ],
      [
        "▁teaching",
        -10.39303868759196
      ],
      [
        "▁branch",
        -10.39360141937929
      ],
      [
        "expected",
        -10.393811074684493
      ],
      [
        "▁multiple",
        -10.393897746286466
      ],
      [
        "▁directly",
        -10.394286418926011
      ],
      [
        "▁dude",
        -10.39480851098414
      ],
      [
        "▁concerned",
        -10.396099847194504
      ],
      [
        "▁scott",
        -10.396942674512932
      ],
      [
        "▁display",
        -10.397827705745057
      ],
      [
        "▁easie",
        -10.399320546462524
      ],
      [
        "▁holiday",
        -10.399512392631658
      ],
      [
        "▁burie",
        -10.400214366420144
      ],
      [
        "xico",
        -10.400993476325002
      ],
      [
        "▁etc",
        -10.401692429566454
      ],
      [
        "▁daniel",
        -10.4018115210177
      ],
      [
        "▁frog",
        -10.403141252592745
      ],
      [
        "▁awful",
        -10.403650333304803
      ],
      [
        "▁shoes",
        -10.404103864028851
      ],
      [
        "▁reaction",
        -10.404167207580787
      ],
      [
        "▁brave",
        -10.405459586469512
      ],
      [
        "▁mama",
        -10.405693785520606
      ],
      [
        "▁mon",
        -10.405729116494133
      ],
      [
        "▁surprised",
        -10.40639877973128
      ],
      [
        "▁salt",
        -10.406761829007348
      ],
      [
        "▁origin",
        -10.407104210579716
      ],
      [
        "▁survive",
        -10.407237523267352
      ],
      [
        "▁crown",
        -10.407609527592411
      ],
      [
        "▁blind",
        -10.408088344599378
      ],
      [
        "▁le",
        -10.409317801499093
      ],
      [
        "▁rank",
        -10.40958546794324
      ],
      [
        "▁effective",
        -10.4105384043961
      ],
      [
        "▁indiana",
        -10.410755101226346
      ],
      [
        "sigh",
        -10.41107280643564
      ],
      [
        "▁possibl",
        -10.411150639901928
      ],
      [
        "▁injur",
        -10.411392085843929
      ],
      [
        "▁historical",
        -10.41148815629914
      ],
      [
        "▁dragon",
        -10.412511535329076
      ],
      [
        "▁angel",
        -10.412562434022457
      ],
      [
        "laugh",
        -10.413345839702764
      ],
      [
        "▁forever",
        -10.413811198941309
      ],
      [
        "▁rapid",
        -10.414340534557368
      ],
      [
        "▁mayor",
        -10.414987467925034
      ],
      [
        "▁favorite",
        -10.415216222034836
      ],
      [
        "ended",
        -10.415843625722424
      ],
      [
        "they",
        -10.416045763325677
      ],
      [
        "▁ticket",
        -10.4168333649721
      ],
      [
        "▁constitution",
        -10.417255443932442
      ],
      [
        "▁receiv",
        -10.418478530652482
      ],
      [
        "yeah",
        -10.41885160430988
      ],
      [
        "▁vi",
        -10.418872547315878
      ],
      [
        "▁soviet",
        -10.418918813972269
      ],
      [
        "▁finding",
        -10.418938412532215
      ],
      [
        "▁desert",
        -10.41958809587187
      ],
      [
        "▁crash",
        -10.422102616855554
      ],
      [
        "▁hungr",
        -10.422164180886735
      ],
      [
        "▁steal",
        -10.422900699827656
      ],
      [
        "▁sword",
        -10.423094039210142
      ],
      [
        "clock",
        -10.423824327233111
      ],
      [
        "▁cow",
        -10.42417724335368
      ],
      [
        "▁belief",
        -10.424220997789355
      ],
      [
        "▁iowa",
        -10.425432151977216
      ],
      [
        "▁attend",
        -10.427117277294794
      ],
      [
        "▁drama",
        -10.427531450392204
      ],
      [
        "▁vice",
        -10.427532677069443
      ],
      [
        "▁comment",
        -10.427797852346554
      ],
      [
        "▁institute",
        -10.427847679687783
      ],
      [
        "▁sides",
        -10.428847150515058
      ],
      [
        "▁operate",
        -10.429034754611711
      ],
      [
        "▁planning",
        -10.429742528760377
      ],
      [
        "▁creature",
        -10.430159868202324
      ],
      [
        "▁pirate",
        -10.430951235453035
      ],
      [
        "▁prepared",
        -10.431341661871333
      ],
      [
        "▁ships",
        -10.431886345636848
      ],
      [
        "▁windows",
        -10.433440100847898
      ],
      [
        "▁producer",
        -10.433895580081863
      ],
      [
        "▁musical",
        -10.434099483300102
      ],
      [
        "▁typical",
        -10.435672179313626
      ],
      [
        "▁remind",
        -10.436003001061737
      ],
      [
        "▁string",
        -10.436218194508209
      ],
      [
        "▁actual",
        -10.437473465496344
      ],
      [
        "▁broad",
        -10.43817777697208
      ],
      [
        "▁chicken",
        -10.439538730415528
      ],
      [
        "with",
        -10.440456199987022
      ],
      [
        "▁sentence",
        -10.440853882625852
      ],
      [
        "▁tight",
        -10.440862394973468
      ],
      [
        "▁connection",
        -10.442125912039955
      ],
      [
        "▁meat",
        -10.442448657226247
      ],
      [
        "▁territor",
        -10.442722648737526
      ],
      [
        "▁refuse",
        -10.444728732637683
      ],
      [
        "▁carter",
        -10.445440435852484
      ],
      [
        "▁drug",
        -10.4457300750366
      ],
      [
        "▁politic",
        -10.446814550222951
      ],
      [
        "▁pro",
        -10.446862731493216
      ],
      [
        "▁finger",
        -10.447613324049662
      ],
      [
        "▁seriously",
        -10.448376606058186
      ],
      [
        "▁sugar",
        -10.449847707660911
      ],
      [
        "▁bang",
        -10.450443912144223
      ],
      [
        "▁mac",
        -10.45047260406698
      ],
      [
        "▁safety",
        -10.451067011582708
      ],
      [
        "▁mo",
        -10.451629838677412
      ],
      [
        "▁rabbit",
        -10.452615597996878
      ],
      [
        "▁gay",
        -10.45267608389896
      ],
      [
        "▁complex",
        -10.453141010438564
      ],
      [
        "threw",
        -10.45379290599675
      ],
      [
        "▁succeed",
        -10.454319693945823
      ],
      [
        "while",
        -10.454627650141376
      ],
      [
        "▁novel",
        -10.455013208494629
      ],
      [
        "▁suspect",
        -10.456538276079728
      ],
      [
        "▁shift",
        -10.45817422106776
      ],
      [
        "▁chocolate",
        -10.458972662187588
      ],
      [
        "▁starr",
        -10.45954094911511
      ],
      [
        "▁nineteen",
        -10.460230091660035
      ],
      [
        "▁conduct",
        -10.460477248759537
      ],
      [
        "water",
        -10.4605809130156
      ],
      [
        "▁cheap",
        -10.461725415312364
      ],
      [
        "▁mc",
        -10.462193950814877
      ],
      [
        "appointed",
        -10.463388480456238
      ],
      [
        "▁cap",
        -10.464729863696569
      ],
      [
        "▁duke",
        -10.464878627672585
      ],
      [
        "▁pack",
        -10.465414474147234
      ],
      [
        "▁goal",
        -10.46606487715035
      ],
      [
        "▁admit",
        -10.467117920993218
      ],
      [
        "▁sweetie",
        -10.467305737730737
      ],
      [
        "▁aye",
        -10.46779238171806
      ],
      [
        "▁absolute",
        -10.468733467329866
      ],
      [
        "▁killer",
        -10.468959524729613
      ],
      [
        "▁strike",
        -10.469609497927028
      ],
      [
        "▁max",
        -10.470467053079608
      ],
      [
        "▁onto",
        -10.470750394442042
      ],
      [
        "founded",
        -10.470918080920269
      ],
      [
        "▁ab",
        -10.471144615807038
      ],
      [
        "▁favor",
        -10.471372095612423
      ],
      [
        "▁generation",
        -10.47142132840385
      ],
      [
        "▁nav",
        -10.471516270319054
      ],
      [
        "law",
        -10.471989977476536
      ],
      [
        "laughter",
        -10.47342620322302
      ],
      [
        "▁application",
        -10.47351024835789
      ],
      [
        "▁horses",
        -10.475848639395752
      ],
      [
        "▁print",
        -10.475868717702928
      ],
      [
        "▁communication",
        -10.476449083023525
      ],
      [
        "▁quit",
        -10.476619546918656
      ],
      [
        "▁nick",
        -10.476737529420316
      ],
      [
        "▁sexual",
        -10.477317377938004
      ],
      [
        "▁egg",
        -10.478105003705446
      ],
      [
        "▁prisoner",
        -10.478371934890085
      ],
      [
        "▁friday",
        -10.478402313881055
      ],
      [
        "▁argument",
        -10.47844784792408
      ],
      [
        "▁recent",
        -10.479493640432027
      ],
      [
        "▁client",
        -10.480312488485731
      ],
      [
        "▁occur",
        -10.481168500288728
      ],
      [
        "▁upper",
        -10.481474779534537
      ],
      [
        "▁turning",
        -10.481557037504531
      ],
      [
        "▁losing",
        -10.482125531649787
      ],
      [
        "▁democratic",
        -10.482819522506135
      ],
      [
        "▁link",
        -10.483229872237407
      ],
      [
        "▁fifth",
        -10.484444521289973
      ],
      [
        "▁shirt",
        -10.484879571139675
      ],
      [
        "▁drunk",
        -10.485277485908044
      ],
      [
        "▁medal",
        -10.485322443988933
      ],
      [
        "▁row",
        -10.486053143897404
      ],
      [
        "▁driver",
        -10.486701110536051
      ],
      [
        "▁alex",
        -10.487175373485735
      ],
      [
        "▁nurse",
        -10.487699576622378
      ],
      [
        "▁duck",
        -10.488429320593715
      ],
      [
        "▁stock",
        -10.488988466283072
      ],
      [
        "▁odd",
        -10.489307790126066
      ],
      [
        "▁climate",
        -10.489864522030686
      ],
      [
        "▁rat",
        -10.489871052703457
      ],
      [
        "everywhere",
        -10.49006691367268
      ],
      [
        "▁blame",
        -10.490283666677191
      ],
      [
        "▁chart",
        -10.49031232360309
      ],
      [
        "▁becomes",
        -10.491911891116732
      ],
      [
        "▁saturday",
        -10.493522400433186
      ],
      [
        "▁tongue",
        -10.493833309485884
      ],
      [
        "▁jail",
        -10.493977877751306
      ],
      [
        "▁struck",
        -10.494673282250597
      ],
      [
        "▁file",
        -10.495492550383531
      ],
      [
        "▁pattern",
        -10.4958843846598
      ],
      [
        "▁reduce",
        -10.4963810307395
      ],
      [
        "▁item",
        -10.496834385632097
      ],
      [
        "▁bat",
        -10.498521042375454
      ],
      [
        "▁goodbye",
        -10.498865778107206
      ],
      [
        "▁pope",
        -10.50008888289676
      ],
      [
        "▁commission",
        -10.500551421138333
      ],
      [
        "▁knee",
        -10.501883259590462
      ],
      [
        "just",
        -10.502245835734607
      ],
      [
        "▁tie",
        -10.504165527989407
      ],
      [
        "▁tale",
        -10.504894677837823
      ],
      [
        "▁kennedy",
        -10.50608089697711
      ],
      [
        "▁bomb",
        -10.506084990640254
      ],
      [
        "▁gift",
        -10.506347184918267
      ],
      [
        "angeles",
        -10.50779721753091
      ],
      [
        "▁wa",
        -10.50840016398238
      ],
      [
        "▁debut",
        -10.508947651616204
      ],
      [
        "ka",
        -10.509848711538154
      ],
      [
        "▁mount",
        -10.51050693611536
      ],
      [
        "▁bush",
        -10.51091057147289
      ],
      [
        "▁graduate",
        -10.511351219603569
      ],
      [
        "▁task",
        -10.513318821652195
      ],
      [
        "▁cake",
        -10.515766960083624
      ],
      [
        "▁senator",
        -10.515767798164749
      ],
      [
        "▁responsibl",
        -10.515824771184452
      ],
      [
        "▁settlement",
        -10.51614257879156
      ],
      [
        "▁lips",
        -10.51662539868013
      ],
      [
        "▁fox",
        -10.517208826294354
      ],
      [
        "▁tend",
        -10.51749935997826
      ],
      [
        "▁transport",
        -10.517561833898233
      ],
      [
        "▁adam",
        -10.520208609591528
      ],
      [
        "▁feed",
        -10.520579568112586
      ],
      [
        "▁pretend",
        -10.52116003323466
      ],
      [
        "▁instant",
        -10.521259912982728
      ],
      [
        "▁grave",
        -10.521704798616902
      ],
      [
        "▁commercial",
        -10.521920949105676
      ],
      [
        "▁shore",
        -10.522220516120363
      ],
      [
        "▁drawing",
        -10.52266632604896
      ],
      [
        "▁shock",
        -10.522758172351054
      ],
      [
        "▁fifteen",
        -10.523932225474296
      ],
      [
        "▁managed",
        -10.525385080494138
      ],
      [
        "▁cloud",
        -10.526742793135274
      ],
      [
        "▁fixed",
        -10.527645391558735
      ],
      [
        "▁laughing",
        -10.528907223367476
      ],
      [
        "▁swear",
        -10.52907293663785
      ],
      [
        "▁appeal",
        -10.52918385869903
      ],
      [
        "▁principle",
        -10.529250582162923
      ],
      [
        "▁despite",
        -10.52925059502638
      ],
      [
        "▁grandma",
        -10.529314857454644
      ],
      [
        "▁instance",
        -10.529687778789338
      ],
      [
        "▁knight",
        -10.52973177618652
      ],
      [
        "▁ears",
        -10.531158300407142
      ],
      [
        "▁practical",
        -10.531199969584527
      ],
      [
        "▁abilit",
        -10.532711748431648
      ],
      [
        "▁bow",
        -10.53284924628136
      ],
      [
        "▁additional",
        -10.533458058370824
      ],
      [
        "▁gather",
        -10.53346837871085
      ],
      [
        "dying",
        -10.533627087200228
      ],
      [
        "▁tommy",
        -10.533900452703444
      ],
      [
        "▁flash",
        -10.534360530281456
      ],
      [
        "▁calls",
        -10.534444670729696
      ],
      [
        "▁uses",
        -10.53505612347732
      ],
      [
        "▁expression",
        -10.536491938231856
      ],
      [
        "▁musician",
        -10.53738577214686
      ],
      [
        "▁opposite",
        -10.538388149828972
      ],
      [
        "▁winner",
        -10.538924330432025
      ],
      [
        "▁background",
        -10.539143749086136
      ],
      [
        "▁canadian",
        -10.539575894987582
      ],
      [
        "bodies",
        -10.539841205115634
      ],
      [
        "▁harr",
        -10.54025625650906
      ],
      [
        "▁willing",
        -10.540258105158282
      ],
      [
        "scottish",
        -10.54170929660292
      ],
      [
        "▁arts",
        -10.541906327814637
      ],
      [
        "▁pan",
        -10.542011008128236
      ],
      [
        "▁unfortunate",
        -10.542520650919316
      ],
      [
        "▁q",
        -10.543808832052097
      ],
      [
        "▁bowl",
        -10.545037268892184
      ],
      [
        "▁freedom",
        -10.54536980504392
      ],
      [
        "ge",
        -10.546378991796615
      ],
      [
        "▁variet",
        -10.546876379067202
      ],
      [
        "ul",
        -10.547081218554933
      ],
      [
        "▁engage",
        -10.547774972999765
      ],
      [
        "▁laws",
        -10.549157645736456
      ],
      [
        "▁stream",
        -10.549181787397355
      ],
      [
        "▁responsibilit",
        -10.54980683494571
      ],
      [
        "▁drugs",
        -10.551094899539894
      ],
      [
        "▁slave",
        -10.551103555317235
      ],
      [
        "▁jane",
        -10.55120934396059
      ],
      [
        "▁silent",
        -10.551460015832014
      ],
      [
        "▁reference",
        -10.552318713849044
      ],
      [
        "▁exchange",
        -10.552351376510549
      ],
      [
        "▁chemical",
        -10.553662758066167
      ],
      [
        "chuckles",
        -10.553702271861164
      ],
      [
        "▁rome",
        -10.553704350977952
      ],
      [
        "▁senior",
        -10.555166839038248
      ],
      [
        "▁servant",
        -10.555216323205975
      ],
      [
        "▁tough",
        -10.555238517732809
      ],
      [
        "▁sport",
        -10.556817078692722
      ],
      [
        "▁steel",
        -10.557055640288862
      ],
      [
        "▁chain",
        -10.55767250827179
      ],
      [
        "▁hire",
        -10.557715029776295
      ],
      [
        "▁sergeant",
        -10.558331360287823
      ],
      [
        "com",
        -10.558388931556474
      ],
      [
        "ung",
        -10.559516154735562
      ],
      [
        "za",
        -10.559948004654917
      ],
      [
        "▁km",
        -10.560398302920335
      ],
      [
        "can",
        -10.560408963001183
      ],
      [
        "▁wo",
        -10.560795368192192
      ],
      [
        "▁solve",
        -10.56135197183971
      ],
      [
        "▁vehicle",
        -10.56198129264448
      ],
      [
        "▁highway",
        -10.562059101831622
      ],
      [
        "▁screen",
        -10.56241469016458
      ],
      [
        "▁colonel",
        -10.562462134388376
      ],
      [
        "▁shake",
        -10.562466129179644
      ],
      [
        "▁response",
        -10.562842134587642
      ],
      [
        "▁critic",
        -10.563229238458469
      ],
      [
        "▁produc",
        -10.564299763023758
      ],
      [
        "▁understood",
        -10.565064660420628
      ],
      [
        "▁gentleman",
        -10.565660090140176
      ],
      [
        "spoken",
        -10.565767466431524
      ],
      [
        "▁advantage",
        -10.566117907708673
      ],
      [
        "▁laura",
        -10.566242570572966
      ],
      [
        "▁maria",
        -10.566612152642875
      ],
      [
        "tic",
        -10.566790682611613
      ],
      [
        "▁uk",
        -10.567187691260337
      ],
      [
        "▁cop",
        -10.567630994969504
      ],
      [
        "▁orchestra",
        -10.56766232185822
      ],
      [
        "▁shooting",
        -10.568164013740583
      ],
      [
        "que",
        -10.568413491334836
      ],
      [
        "▁trick",
        -10.56882301601292
      ],
      [
        "▁loose",
        -10.569236637688622
      ],
      [
        "▁thick",
        -10.570942022536142
      ],
      [
        "▁relax",
        -10.571043922885554
      ],
      [
        "▁criminal",
        -10.571181626294727
      ],
      [
        "▁pete",
        -10.57207163004498
      ],
      [
        "▁advice",
        -10.573644927454442
      ],
      [
        "▁concert",
        -10.573916151390314
      ],
      [
        "▁winning",
        -10.574352156038534
      ],
      [
        "▁asia",
        -10.574424571503084
      ],
      [
        "ities",
        -10.574827485816956
      ],
      [
        "▁legend",
        -10.57597641219772
      ],
      [
        "american",
        -10.576135341927335
      ],
      [
        "▁econom",
        -10.57756616876224
      ],
      [
        "▁assume",
        -10.57775054525356
      ],
      [
        "▁philosoph",
        -10.577755686088452
      ],
      [
        "▁oursel",
        -10.578831092657564
      ],
      [
        "▁magic",
        -10.57913850309182
      ],
      [
        "▁brita",
        -10.579226347559642
      ],
      [
        "▁failure",
        -10.581179574220316
      ],
      [
        "▁bother",
        -10.581698876871991
      ],
      [
        "▁inter",
        -10.582169938668155
      ],
      [
        "▁symbol",
        -10.582259871305858
      ],
      [
        "▁passenger",
        -10.582994381049344
      ],
      [
        "▁witness",
        -10.584815904817937
      ],
      [
        "▁harm",
        -10.58490061259768
      ],
      [
        "▁showing",
        -10.58532284368546
      ],
      [
        "▁copy",
        -10.585414469266636
      ],
      [
        "▁tradition",
        -10.586262851889993
      ],
      [
        "▁hmm",
        -10.586313569244762
      ],
      [
        "▁bubble",
        -10.587031133633516
      ],
      [
        "▁latin",
        -10.587299915601449
      ],
      [
        "les",
        -10.587593848303742
      ],
      [
        "faster",
        -10.587791892052111
      ],
      [
        "▁traffic",
        -10.588038250174856
      ],
      [
        "▁metro",
        -10.588115400255235
      ],
      [
        "▁appreciate",
        -10.588738845005588
      ],
      [
        "▁russia",
        -10.588790193957571
      ],
      [
        "▁occasion",
        -10.588888023789234
      ],
      [
        "▁uniform",
        -10.589261050441523
      ],
      [
        "▁jean",
        -10.589635489320194
      ],
      [
        "▁lesson",
        -10.590104100407784
      ],
      [
        "▁susan",
        -10.590987137040653
      ],
      [
        "▁fingers",
        -10.591110457635848
      ],
      [
        "▁sill",
        -10.592107906237535
      ],
      [
        "▁eleven",
        -10.59434539582242
      ],
      [
        "good",
        -10.59549427821904
      ],
      [
        "▁height",
        -10.595692955910344
      ],
      [
        "▁stranger",
        -10.596695894298778
      ],
      [
        "▁theatre",
        -10.59708063820618
      ],
      [
        "▁recording",
        -10.59724396739382
      ],
      [
        "▁rocks",
        -10.598234787239008
      ],
      [
        "▁weekend",
        -10.599048912771671
      ],
      [
        "ate",
        -10.599375139128378
      ],
      [
        "over",
        -10.600566443902837
      ],
      [
        "▁bastard",
        -10.600621742793365
      ],
      [
        "▁pleased",
        -10.602243412884556
      ],
      [
        "▁matche",
        -10.603344141291837
      ],
      [
        "▁sum",
        -10.603469535331264
      ],
      [
        "▁declare",
        -10.603567932134208
      ],
      [
        "▁grade",
        -10.604248991390458
      ],
      [
        "▁agreement",
        -10.604383497557125
      ],
      [
        "therine",
        -10.604873427171071
      ],
      [
        "▁realit",
        -10.605410543379454
      ],
      [
        "▁pa",
        -10.605563574154925
      ],
      [
        "▁referr",
        -10.605858451204965
      ],
      [
        "▁unlike",
        -10.60631188996492
      ],
      [
        "▁photograph",
        -10.606854994483609
      ],
      [
        "▁billion",
        -10.60704913345755
      ],
      [
        "▁instruction",
        -10.607567428448256
      ],
      [
        "▁affect",
        -10.607638356160823
      ],
      [
        "▁grass",
        -10.607945489952495
      ],
      [
        "when",
        -10.609415898352774
      ],
      [
        "▁lights",
        -10.609430685819548
      ],
      [
        "▁champion",
        -10.609549689896928
      ],
      [
        "▁closer",
        -10.610457713361397
      ],
      [
        "den",
        -10.610873513135806
      ],
      [
        "aged",
        -10.611648642691996
      ],
      [
        "gun",
        -10.612047358592688
      ],
      [
        "▁alcohol",
        -10.612344151140398
      ],
      [
        "▁instrument",
        -10.61410901327747
      ],
      [
        "▁revolution",
        -10.61490430236222
      ],
      [
        "▁restaurant",
        -10.615045176625747
      ],
      [
        "▁useful",
        -10.61547930338212
      ],
      [
        "▁nest",
        -10.616216629967912
      ],
      [
        "▁northwest",
        -10.617340599178371
      ],
      [
        "dancing",
        -10.61739672695414
      ],
      [
        "▁rob",
        -10.617438503798878
      ],
      [
        "▁streets",
        -10.617574621065458
      ],
      [
        "▁budget",
        -10.617650873959391
      ],
      [
        "▁manage",
        -10.617990269801158
      ],
      [
        "▁chairman",
        -10.618422364971892
      ],
      [
        "▁noise",
        -10.618439037146445
      ],
      [
        "▁arrest",
        -10.618562809242947
      ],
      [
        "▁spell",
        -10.619100548041343
      ],
      [
        "▁kidd",
        -10.619359153676143
      ],
      [
        "▁pie",
        -10.620484594121884
      ],
      [
        "▁owner",
        -10.620659307814972
      ],
      [
        "▁australian",
        -10.621415669920529
      ],
      [
        "▁knife",
        -10.623038716223336
      ],
      [
        "▁koh",
        -10.623199905345468
      ],
      [
        "▁pardon",
        -10.623276361310204
      ],
      [
        "▁diet",
        -10.62398391888281
      ],
      [
        "▁turns",
        -10.624355432661192
      ],
      [
        "+",
        -10.624871787911385
      ],
      [
        "▁hanging",
        -10.625122668287077
      ],
      [
        "▁muslim",
        -10.625825365865367
      ],
      [
        "▁achieve",
        -10.626725434503584
      ],
      [
        "▁bound",
        -10.627128853759562
      ],
      [
        "▁progress",
        -10.627468592240204
      ],
      [
        "▁connected",
        -10.627763474770669
      ],
      [
        "▁expensive",
        -10.627895556596645
      ],
      [
        "▁excellent",
        -10.629412222763865
      ],
      [
        "▁frequent",
        -10.62995199549504
      ],
      [
        "▁option",
        -10.630387583360012
      ],
      [
        "▁severe",
        -10.631466191514058
      ],
      [
        "▁runs",
        -10.631980656187546
      ],
      [
        "▁presence",
        -10.632788034162068
      ],
      [
        "▁rail",
        -10.633378479300449
      ],
      [
        "▁argue",
        -10.633509702189617
      ],
      [
        "▁mental",
        -10.634222420540972
      ],
      [
        "▁dutch",
        -10.634241692660202
      ],
      [
        "▁status",
        -10.637216574609734
      ],
      [
        "▁walls",
        -10.637271064720428
      ],
      [
        "▁senate",
        -10.63811774803438
      ],
      [
        "▁internet",
        -10.63815772843538
      ],
      [
        "guilty",
        -10.638194579484676
      ],
      [
        "▁compare",
        -10.63926739906634
      ],
      [
        "▁monster",
        -10.64175145432381
      ],
      [
        "▁faces",
        -10.64222045500009
      ],
      [
        "▁nathan",
        -10.64243310766264
      ],
      [
        "▁user",
        -10.64318537813797
      ],
      [
        "▁setting",
        -10.64334467445143
      ],
      [
        "▁activit",
        -10.6435783613424
      ],
      [
        "▁prior",
        -10.643976698668212
      ],
      [
        "▁rent",
        -10.64451484223686
      ],
      [
        "▁dail",
        -10.644711440623777
      ],
      [
        "▁primar",
        -10.64487852372725
      ],
      [
        "▁guns",
        -10.645683171944462
      ],
      [
        "▁aim",
        -10.646109420675486
      ],
      [
        "▁lion",
        -10.647343110250784
      ],
      [
        "▁comed",
        -10.648757165892878
      ],
      [
        "▁collect",
        -10.651979755853151
      ],
      [
        "▁soil",
        -10.652296975172668
      ],
      [
        "▁batter",
        -10.652439174452972
      ],
      [
        "▁cheer",
        -10.652740241500936
      ],
      [
        "▁carbon",
        -10.653023817818148
      ],
      [
        "▁supreme",
        -10.653198868867737
      ],
      [
        "▁protection",
        -10.653218852644589
      ],
      [
        "▁weak",
        -10.65325261899107
      ],
      [
        "▁steps",
        -10.65359084659385
      ],
      [
        "▁broadcast",
        -10.653887105859289
      ],
      [
        "▁vessel",
        -10.654225506593413
      ],
      [
        "▁cheese",
        -10.654354947936897
      ],
      [
        "▁hearing",
        -10.654672546370334
      ],
      [
        "come",
        -10.655050730049776
      ],
      [
        "▁diamond",
        -10.655263934259768
      ],
      [
        "bye",
        -10.657556103204744
      ],
      [
        "tended",
        -10.657587039057647
      ],
      [
        "▁pig",
        -10.658410924583054
      ],
      [
        "▁volume",
        -10.658420850464694
      ],
      [
        "▁edition",
        -10.658543968271308
      ],
      [
        "▁wings",
        -10.658620128161434
      ],
      [
        "▁hurricane",
        -10.658620815904513
      ],
      [
        "ington",
        -10.658712592965648
      ],
      [
        "▁retire",
        -10.658911165836734
      ],
      [
        "extremely",
        -10.6594949981855
      ],
      [
        "▁bare",
        -10.660572615910423
      ],
      [
        "▁massachusett",
        -10.660818077246308
      ],
      [
        "▁pray",
        -10.660905148716726
      ],
      [
        "▁administration",
        -10.661080370536585
      ],
      [
        "▁piano",
        -10.662135773882662
      ],
      [
        "▁gray",
        -10.66249895595498
      ],
      [
        "▁amendment",
        -10.662679096451498
      ],
      [
        "▁plent",
        -10.66271245796465
      ],
      [
        "right",
        -10.66289550175604
      ],
      [
        "breaking",
        -10.663420065358808
      ],
      [
        "▁propose",
        -10.664366942654468
      ],
      [
        "▁bond",
        -10.66437357856363
      ],
      [
        "▁tone",
        -10.665853633482268
      ],
      [
        "▁pink",
        -10.66608916965179
      ],
      [
        "▁foundation",
        -10.666683543872225
      ],
      [
        "▁bride",
        -10.666781928697691
      ],
      [
        "car",
        -10.666961294010992
      ],
      [
        "▁secure",
        -10.667355746687347
      ],
      [
        "▁idiot",
        -10.667444577467696
      ],
      [
        "▁perfectly",
        -10.667457392066618
      ],
      [
        "entirely",
        -10.667696908981837
      ],
      [
        "▁chris",
        -10.667877124724708
      ],
      [
        "▁con",
        -10.668451968439314
      ],
      [
        "down",
        -10.668647805582268
      ],
      [
        "▁carolina",
        -10.669044635766134
      ],
      [
        "wa",
        -10.671759607715924
      ],
      [
        "▁kansa",
        -10.672239172378497
      ],
      [
        "▁spare",
        -10.67332495061336
      ],
      [
        "▁draft",
        -10.673403094762564
      ],
      [
        "▁heads",
        -10.67389124009587
      ],
      [
        "▁tears",
        -10.674097428693583
      ],
      [
        "ization",
        -10.674395163345274
      ],
      [
        "▁narrow",
        -10.67443345110607
      ],
      [
        "▁encourage",
        -10.676095908768673
      ],
      [
        "▁innocent",
        -10.676130047881966
      ],
      [
        "▁atlanti",
        -10.676760174717264
      ],
      [
        "▁sarah",
        -10.676844291957291
      ],
      [
        "▁programme",
        -10.67718518304932
      ],
      [
        "▁ninet",
        -10.67922573955754
      ],
      [
        "noticed",
        -10.679382695792686
      ],
      [
        "▁shame",
        -10.679614164097757
      ],
      [
        "▁expert",
        -10.680340089916813
      ],
      [
        "▁michigan",
        -10.680340569932682
      ],
      [
        "▁flew",
        -10.681644445612424
      ],
      [
        "▁afford",
        -10.681645059315876
      ],
      [
        "▁stretch",
        -10.682197399477989
      ],
      [
        "▁andrew",
        -10.683160262764028
      ],
      [
        "▁flag",
        -10.683524240551291
      ],
      [
        "▁cream",
        -10.684761489598282
      ],
      [
        "▁fan",
        -10.686702601239103
      ],
      [
        "▁cousin",
        -10.686981461169864
      ],
      [
        "▁shark",
        -10.68751485970815
      ],
      [
        "▁proof",
        -10.688168212899852
      ],
      [
        "▁executive",
        -10.68817260680649
      ],
      [
        "▁bab",
        -10.688337753952696
      ],
      [
        "▁steve",
        -10.689298337374993
      ],
      [
        "▁planne",
        -10.690893395580764
      ],
      [
        "falling",
        -10.691157847862424
      ],
      [
        "▁mail",
        -10.691211719685825
      ],
      [
        "▁nervous",
        -10.691521073497006
      ],
      [
        "▁pet",
        -10.692135835904985
      ],
      [
        "▁expand",
        -10.692326197192235
      ],
      [
        "hockey",
        -10.692860082086872
      ],
      [
        "▁estate",
        -10.69308708928784
      ],
      [
        "▁wise",
        -10.693196182316388
      ],
      [
        "▁upset",
        -10.694562386489178
      ],
      [
        "▁circumstance",
        -10.695649575813505
      ],
      [
        "ou",
        -10.695764467082643
      ],
      [
        "▁sheep",
        -10.695909152003807
      ],
      [
        "▁boston",
        -10.696315325329726
      ],
      [
        "▁lo",
        -10.696389448467473
      ],
      [
        "▁edward",
        -10.697114856380882
      ],
      [
        "room",
        -10.697657656928849
      ],
      [
        "▁recover",
        -10.698080120932072
      ],
      [
        "▁chase",
        -10.698247888939097
      ],
      [
        "▁treasure",
        -10.698363512310204
      ],
      [
        "▁experiment",
        -10.699000281719872
      ],
      [
        "▁basi",
        -10.699212609345723
      ],
      [
        "▁cookie",
        -10.699867298788591
      ],
      [
        "▁owe",
        -10.700382999912996
      ],
      [
        "▁sixt",
        -10.700934477167872
      ],
      [
        "▁regional",
        -10.701323168508628
      ],
      [
        "▁excited",
        -10.701387465179536
      ],
      [
        "▁hunt",
        -10.701747386838251
      ],
      [
        "▁whenever",
        -10.7018369061217
      ],
      [
        "▁dave",
        -10.702522780843996
      ],
      [
        "addon",
        -10.70272217781103
      ],
      [
        "▁eric",
        -10.702916962674864
      ],
      [
        "▁beer",
        -10.704044599047986
      ],
      [
        "▁literature",
        -10.70415058098004
      ],
      [
        "▁unique",
        -10.704193573286894
      ],
      [
        "▁apartment",
        -10.70430834672374
      ],
      [
        "▁rescue",
        -10.70513245005101
      ],
      [
        "▁wi",
        -10.705420624062526
      ],
      [
        "▁connect",
        -10.705461471392224
      ],
      [
        "▁deput",
        -10.70586459350871
      ],
      [
        "▁improve",
        -10.707142453043009
      ],
      [
        "cc",
        -10.707753967277515
      ],
      [
        "▁trace",
        -10.708114044054822
      ],
      [
        "comfortable",
        -10.708719398394395
      ],
      [
        "▁ohio",
        -10.709971212511704
      ],
      [
        "▁critical",
        -10.710025503714022
      ],
      [
        "listening",
        -10.710047121829618
      ],
      [
        "▁budd",
        -10.71050746225961
      ],
      [
        "▁guide",
        -10.7110773752535
      ],
      [
        "▁turkey",
        -10.711110095155188
      ],
      [
        "▁violence",
        -10.711403627054423
      ],
      [
        "▁obtain",
        -10.71220288040822
      ],
      [
        "▁hans",
        -10.713580367438304
      ],
      [
        "▁meal",
        -10.713927430091452
      ],
      [
        "wide",
        -10.714076804026949
      ],
      [
        "▁changing",
        -10.714096274874624
      ],
      [
        "▁bull",
        -10.714306481969594
      ],
      [
        "▁nan",
        -10.715024930899624
      ],
      [
        "▁mirror",
        -10.71559328194887
      ],
      [
        "▁tiger",
        -10.71718151739802
      ],
      [
        "▁bishop",
        -10.71732393782042
      ],
      [
        "▁fortune",
        -10.717503618682002
      ],
      [
        "▁thin",
        -10.71757280516448
      ],
      [
        "▁combination",
        -10.717928599990874
      ],
      [
        "▁asian",
        -10.718032879871412
      ],
      [
        "▁latter",
        -10.718507786187224
      ],
      [
        "▁olympics",
        -10.720358494583856
      ],
      [
        "hand",
        -10.720710080612758
      ],
      [
        "▁hung",
        -10.72171536952795
      ],
      [
        "▁stan",
        -10.722545572208642
      ],
      [
        "▁scientific",
        -10.72335733919506
      ],
      [
        "led",
        -10.72338734835152
      ],
      [
        "▁assistant",
        -10.72347115390886
      ],
      [
        "▁annual",
        -10.724022093462848
      ],
      [
        "▁pacific",
        -10.724102987301944
      ],
      [
        "▁drove",
        -10.72455231524586
      ],
      [
        "▁understanding",
        -10.72469494975486
      ],
      [
        "▁clever",
        -10.724922927015982
      ],
      [
        "▁struggle",
        -10.72500622957598
      ],
      [
        "▁crack",
        -10.725979811269417
      ],
      [
        "legs",
        -10.726007444053415
      ],
      [
        "▁cycle",
        -10.7270149529754
      ],
      [
        "▁majorit",
        -10.727064790230616
      ],
      [
        "▁insurance",
        -10.727207210292352
      ],
      [
        "▁elder",
        -10.727918941466257
      ],
      [
        "▁cricket",
        -10.728155366939498
      ],
      [
        "▁zone",
        -10.729106294705282
      ],
      [
        "gilu",
        -10.730120874278608
      ],
      [
        "▁kentuck",
        -10.730126595072392
      ],
      [
        "most",
        -10.730168192468556
      ],
      [
        "▁fur",
        -10.7303614989986
      ],
      [
        "▁arrange",
        -10.73097954921068
      ],
      [
        "▁classe",
        -10.73151165564212
      ],
      [
        "▁growth",
        -10.731725270764487
      ],
      [
        "▁fame",
        -10.732198334779367
      ],
      [
        "▁ruin",
        -10.732239298056337
      ],
      [
        "▁entertainment",
        -10.73280106517132
      ],
      [
        "▁joint",
        -10.733912404512605
      ],
      [
        "▁global",
        -10.73428511388718
      ],
      [
        "▁confirm",
        -10.73446093388354
      ],
      [
        "▁fancy",
        -10.734820428230822
      ],
      [
        "▁plot",
        -10.735098532346132
      ],
      [
        "▁label",
        -10.735311037345715
      ],
      [
        "▁clock",
        -10.735777510635078
      ],
      [
        "elves",
        -10.73592047786353
      ],
      [
        "▁potential",
        -10.73596343127915
      ],
      [
        "▁categor",
        -10.7372771062897
      ],
      [
        "▁facilit",
        -10.737427634628078
      ],
      [
        "▁supply",
        -10.737503497892018
      ],
      [
        "▁photo",
        -10.738064318036336
      ],
      [
        "▁website",
        -10.738887850526146
      ],
      [
        "▁feelings",
        -10.738907852751762
      ],
      [
        "▁concept",
        -10.739010807895658
      ],
      [
        "▁operations",
        -10.739562711350391
      ],
      [
        "▁boom",
        -10.739601405899837
      ],
      [
        "▁via",
        -10.73977728667035
      ],
      [
        "▁applie",
        -10.739903392378316
      ],
      [
        "▁jobs",
        -10.740175983989058
      ],
      [
        "▁grace",
        -10.740237285945856
      ],
      [
        "▁gate",
        -10.741189469230502
      ],
      [
        "▁controll",
        -10.741370662788938
      ],
      [
        "▁jones",
        -10.741385686807972
      ],
      [
        "▁define",
        -10.742395723100111
      ],
      [
        "▁float",
        -10.74244412216175
      ],
      [
        "▁involve",
        -10.743379595747108
      ],
      [
        "▁pennsylvania",
        -10.74340322845671
      ],
      [
        "▁approve",
        -10.74340527707606
      ],
      [
        "▁mixed",
        -10.74377154249506
      ],
      [
        "▁unknown",
        -10.74466611495654
      ],
      [
        "▁matters",
        -10.744871519105136
      ],
      [
        "▁labour",
        -10.746338053395316
      ],
      [
        "▁compete",
        -10.746706890207223
      ],
      [
        "▁independenc",
        -10.747225742942724
      ],
      [
        "▁ugl",
        -10.747445236619493
      ],
      [
        "▁agency",
        -10.747478656162334
      ],
      [
        "▁williams",
        -10.74779624174938
      ],
      [
        "▁lover",
        -10.7483575499587
      ],
      [
        "▁vector",
        -10.748370979193062
      ],
      [
        "▁mix",
        -10.749097502605691
      ],
      [
        "▁tha",
        -10.749432874383132
      ],
      [
        "▁johnson",
        -10.749464381494192
      ],
      [
        "▁wend",
        -10.750052947375274
      ],
      [
        "▁composer",
        -10.750305649773235
      ],
      [
        "▁pilot",
        -10.750760253979935
      ],
      [
        "▁conscious",
        -10.751242593832664
      ],
      [
        "▁palm",
        -10.751419396114882
      ],
      [
        "cut",
        -10.75198439142277
      ],
      [
        "▁mere",
        -10.752779962748546
      ],
      [
        "▁worship",
        -10.75288596547134
      ],
      [
        "▁emil",
        -10.752907946736777
      ],
      [
        "}",
        -10.753721001048834
      ],
      [
        "▁ireland",
        -10.753746411180618
      ],
      [
        "▁pleasant",
        -10.753840992670163
      ],
      [
        "▁associated",
        -10.754076368338024
      ],
      [
        "▁chest",
        -10.754147722649064
      ],
      [
        "▁witch",
        -10.754694370669291
      ],
      [
        "▁acid",
        -10.75594107087299
      ],
      [
        "▁juice",
        -10.75727007577533
      ],
      [
        "▁weapon",
        -10.757360576965482
      ],
      [
        "▁conflict",
        -10.758019388246998
      ],
      [
        "▁minor",
        -10.758397968998883
      ],
      [
        "king",
        -10.75962397922368
      ],
      [
        "▁shakespeare",
        -10.759756598710014
      ],
      [
        "▁ar",
        -10.760798890421915
      ],
      [
        "▁ceremon",
        -10.761254397869898
      ],
      [
        "then",
        -10.761312534652069
      ],
      [
        "▁motion",
        -10.761344837253574
      ],
      [
        "idney",
        -10.761878426064108
      ],
      [
        "▁balls",
        -10.76224912429766
      ],
      [
        "▁moral",
        -10.762567589514436
      ],
      [
        "▁dozen",
        -10.76277414470606
      ],
      [
        "port",
        -10.763436022296863
      ],
      [
        "▁divorce",
        -10.764677288655756
      ],
      [
        "▁detective",
        -10.764759033439958
      ],
      [
        "your",
        -10.765050493116476
      ],
      [
        "▁rais",
        -10.7652788577175
      ],
      [
        "aid",
        -10.765696951455311
      ],
      [
        "▁investigation",
        -10.765803131351536
      ],
      [
        "▁riding",
        -10.76626287165718
      ],
      [
        "▁celebrate",
        -10.76706280156725
      ],
      [
        "▁falle",
        -10.767171720697856
      ],
      [
        "▁attitude",
        -10.76765375505
      ],
      [
        "▁motor",
        -10.768117415909874
      ],
      [
        "▁screw",
        -10.76833361800091
      ],
      [
        "▁possibilit",
        -10.768418367427827
      ],
      [
        "▁bullet",
        -10.768732662272098
      ],
      [
        "▁steam",
        -10.7697921429862
      ],
      [
        "▁bunch",
        -10.76997679460839
      ],
      [
        "▁suck",
        -10.77061037161966
      ],
      [
        "▁jersey",
        -10.770687392417
      ],
      [
        "▁plastic",
        -10.772794118819697
      ],
      [
        "uh",
        -10.773169517150256
      ],
      [
        "▁neighbor",
        -10.773429400811091
      ],
      [
        "▁aspect",
        -10.774874494696776
      ],
      [
        "chester",
        -10.774904795503035
      ],
      [
        "▁invited",
        -10.775017758898322
      ],
      [
        "▁attract",
        -10.776960726022518
      ],
      [
        "▁kong",
        -10.777325981682864
      ],
      [
        "▁causes",
        -10.777845972764036
      ],
      [
        "{",
        -10.777927913428364
      ],
      [
        "▁arthur",
        -10.7783399618134
      ],
      [
        "▁activities",
        -10.778775164131035
      ],
      [
        "iel",
        -10.779068169006392
      ],
      [
        "▁prayer",
        -10.77950622666392
      ],
      [
        "▁su",
        -10.780098446858704
      ],
      [
        "▁serving",
        -10.78011156556001
      ],
      [
        "▁khan",
        -10.780850927461511
      ],
      [
        "▁equation",
        -10.780996093671284
      ],
      [
        "▁deck",
        -10.78166747649302
      ],
      [
        "▁bo",
        -10.78304161382703
      ],
      [
        "▁dann",
        -10.783127298101528
      ],
      [
        "▁frighten",
        -10.783403113527996
      ],
      [
        "▁ge",
        -10.783880240588118
      ],
      [
        "▁wire",
        -10.784041738212146
      ],
      [
        "▁chamber",
        -10.785601352529373
      ],
      [
        "▁column",
        -10.785952568548169
      ],
      [
        "▁seed",
        -10.786253534438234
      ],
      [
        "▁core",
        -10.78674857652636
      ],
      [
        "▁stomach",
        -10.787159347874418
      ],
      [
        "▁ordinary",
        -10.788511978662417
      ],
      [
        "▁tied",
        -10.78908355564737
      ],
      [
        "▁balance",
        -10.78909878107433
      ],
      [
        "▁anna",
        -10.789412281133954
      ],
      [
        "▁institution",
        -10.789587365232226
      ],
      [
        "▁pal",
        -10.790782697334066
      ],
      [
        "▁statistic",
        -10.791007740321607
      ],
      [
        "passing",
        -10.79102253230548
      ],
      [
        "▁baseball",
        -10.792015546637089
      ],
      [
        "▁bite",
        -10.79271676382792
      ],
      [
        "▁description",
        -10.793409198782854
      ],
      [
        "door",
        -10.794006287879782
      ],
      [
        "our",
        -10.795101451533291
      ],
      [
        "▁shin",
        -10.79512725665496
      ],
      [
        "▁heavi",
        -10.795432830399662
      ],
      [
        "▁glance",
        -10.797305107345483
      ],
      [
        "▁boyfriend",
        -10.79897638376313
      ],
      [
        "▁sheet",
        -10.799112758570828
      ],
      [
        "▁arrested",
        -10.801146234633864
      ],
      [
        "▁delay",
        -10.801288361371222
      ],
      [
        "▁korea",
        -10.802169431534177
      ],
      [
        "▁continu",
        -10.802178036481973
      ],
      [
        "▁billy",
        -10.80250021876645
      ],
      [
        "▁apply",
        -10.802531447217437
      ],
      [
        "which",
        -10.80284027155929
      ],
      [
        "hmm",
        -10.802869437846477
      ],
      [
        "▁remembered",
        -10.803034664540238
      ],
      [
        "▁defend",
        -10.804393312394131
      ],
      [
        "per",
        -10.804612959819613
      ],
      [
        "▁handsome",
        -10.804661783387363
      ],
      [
        "ent",
        -10.805302398621428
      ],
      [
        "▁exercise",
        -10.805442222720938
      ],
      [
        "▁fate",
        -10.805465958938964
      ],
      [
        "▁familiar",
        -10.805880028062234
      ],
      [
        "▁vision",
        -10.80605324033213
      ],
      [
        "online",
        -10.806570506192523
      ],
      [
        "▁environmental",
        -10.806607095359537
      ],
      [
        "▁coal",
        -10.806955008054
      ],
      [
        "▁assembly",
        -10.806995854357274
      ],
      [
        "▁alice",
        -10.80741502793576
      ],
      [
        "▁eaten",
        -10.807794739238634
      ],
      [
        "▁girlfriend",
        -10.807990849691596
      ],
      [
        "▁sale",
        -10.808150731334138
      ],
      [
        "▁remark",
        -10.808868702516996
      ],
      [
        "▁monday",
        -10.80916692338975
      ],
      [
        "▁slep",
        -10.809709701287668
      ],
      [
        "carrying",
        -10.809909992445707
      ],
      [
        "music",
        -10.809990253283663
      ],
      [
        "▁ken",
        -10.810523947642226
      ],
      [
        "▁suffering",
        -10.81149267765328
      ],
      [
        "▁powers",
        -10.81192604255108
      ],
      [
        "▁resident",
        -10.812559118467355
      ],
      [
        "back",
        -10.812584153237257
      ],
      [
        "▁peak",
        -10.812922828506704
      ],
      [
        "▁butter",
        -10.813239065363051
      ],
      [
        "▁wealth",
        -10.813524621898116
      ],
      [
        "▁whisper",
        -10.813971652990183
      ],
      [
        "▁surround",
        -10.814214696768786
      ],
      [
        "▁sh",
        -10.81427354155649
      ],
      [
        "art",
        -10.815947398483647
      ],
      [
        "▁protest",
        -10.81604617747725
      ],
      [
        "▁era",
        -10.816335203264057
      ],
      [
        "ja",
        -10.816889526058098
      ],
      [
        "▁determined",
        -10.817079713583643
      ],
      [
        "▁indicate",
        -10.817799860247348
      ],
      [
        "▁impact",
        -10.817906005780111
      ],
      [
        "▁weapons",
        -10.81822051753969
      ],
      [
        "▁existence",
        -10.81853303364289
      ],
      [
        "▁deserve",
        -10.819284388313246
      ],
      [
        "▁pipe",
        -10.819297089075064
      ],
      [
        "▁emergency",
        -10.819561801564838
      ],
      [
        "▁fo",
        -10.81992016119999
      ],
      [
        "▁kim",
        -10.820989560663705
      ],
      [
        "▁oak",
        -10.821849232871331
      ],
      [
        "▁pour",
        -10.822801251257811
      ],
      [
        "▁reserve",
        -10.82380546798064
      ],
      [
        "▁strateg",
        -10.82434490422943
      ],
      [
        "▁ryan",
        -10.824919856195486
      ],
      [
        "▁zigg",
        -10.825025309176391
      ],
      [
        "▁railroad",
        -10.826048916600143
      ],
      [
        "▁curious",
        -10.826979488899948
      ],
      [
        "▁elizabeth",
        -10.82719557207092
      ],
      [
        "▁meter",
        -10.82721941829696
      ],
      [
        "gu",
        -10.82795218822697
      ],
      [
        "▁goddess",
        -10.82821603679681
      ],
      [
        "▁rice",
        -10.828419415449408
      ],
      [
        "▁pee",
        -10.828606933193765
      ],
      [
        "▁brilliant",
        -10.82895533036044
      ],
      [
        "▁customer",
        -10.82937398580404
      ],
      [
        "berg",
        -10.830217351744396
      ],
      [
        "▁rear",
        -10.831186878345852
      ],
      [
        "▁dumb",
        -10.831759487890531
      ],
      [
        "ble",
        -10.83219556075153
      ],
      [
        "▁inform",
        -10.832242614803915
      ],
      [
        "▁net",
        -10.832418198434064
      ],
      [
        "▁wondering",
        -10.832423437064527
      ],
      [
        "▁passage",
        -10.83299036916702
      ],
      [
        "▁admiral",
        -10.83332353425358
      ],
      [
        "▁roger",
        -10.834393852765327
      ],
      [
        "▁wales",
        -10.834923344057092
      ],
      [
        "▁promote",
        -10.83497101863286
      ],
      [
        "▁treated",
        -10.835467813297257
      ],
      [
        "▁peasant",
        -10.837253502755049
      ],
      [
        "han",
        -10.837734139643429
      ],
      [
        "▁mill",
        -10.838116623299705
      ],
      [
        "▁sevent",
        -10.83885338616669
      ],
      [
        "▁jill",
        -10.839494769086052
      ],
      [
        "▁repeat",
        -10.839640632002451
      ],
      [
        "▁favour",
        -10.840851813908788
      ],
      [
        "▁garage",
        -10.841167281666738
      ],
      [
        "mouth",
        -10.841367900042172
      ],
      [
        "▁beth",
        -10.84141291740392
      ],
      [
        "ok",
        -10.841426259861034
      ],
      [
        "▁pakistan",
        -10.842111999327155
      ],
      [
        "▁beast",
        -10.842403737952614
      ],
      [
        "▁papa",
        -10.843572088439544
      ],
      [
        "book",
        -10.84383216839661
      ],
      [
        "▁cheat",
        -10.844144482075816
      ],
      [
        "▁investment",
        -10.844659332998305
      ],
      [
        "▁increasing",
        -10.844766154762532
      ],
      [
        "▁lincoln",
        -10.84476616925946
      ],
      [
        "▁twist",
        -10.845312424936267
      ],
      [
        "▁simon",
        -10.845532870399484
      ],
      [
        "▁hunter",
        -10.845578812644725
      ],
      [
        "▁holly",
        -10.84570071471437
      ],
      [
        "▁matt",
        -10.845907312419609
      ],
      [
        "▁talent",
        -10.84648802732344
      ],
      [
        "▁courage",
        -10.84686222621546
      ],
      [
        "some",
        -10.847023796856217
      ],
      [
        "▁dramatic",
        -10.84731450464178
      ],
      [
        "stan",
        -10.847975363367386
      ],
      [
        "▁theater",
        -10.848562164803145
      ],
      [
        "▁happiness",
        -10.848795313544686
      ],
      [
        "▁dean",
        -10.849205888691618
      ],
      [
        "▁labor",
        -10.84959454982194
      ],
      [
        "▁benea",
        -10.84964658570699
      ],
      [
        "▁respond",
        -10.850723018522476
      ],
      [
        "▁du",
        -10.850775443344055
      ],
      [
        "▁error",
        -10.85097734094743
      ],
      [
        "▁unusual",
        -10.851001835581046
      ],
      [
        "▁fed",
        -10.851033619702315
      ],
      [
        "▁vietnam",
        -10.851213994186182
      ],
      [
        "screaming",
        -10.85211576415719
      ],
      [
        "▁fir",
        -10.852309297088022
      ],
      [
        "▁desperate",
        -10.853135796461832
      ],
      [
        "dish",
        -10.853555543617071
      ],
      [
        "▁counter",
        -10.854318272696696
      ],
      [
        "▁polish",
        -10.854353213046563
      ],
      [
        "▁frame",
        -10.854994899520186
      ],
      [
        "▁debt",
        -10.854998568510815
      ],
      [
        "pp",
        -10.855388703170096
      ],
      [
        "▁wrestling",
        -10.85539778648018
      ],
      [
        "▁solid",
        -10.856117205492446
      ],
      [
        "▁bitter",
        -10.856381000100736
      ],
      [
        "▁cock",
        -10.856401286858976
      ],
      [
        "▁mood",
        -10.856506635611613
      ],
      [
        "▁threat",
        -10.85758056411307
      ],
      [
        "▁technique",
        -10.857589442373207
      ],
      [
        "▁cultural",
        -10.85785583392787
      ],
      [
        "▁aside",
        -10.858040992875878
      ],
      [
        "▁robin",
        -10.858196479762327
      ],
      [
        "▁insist",
        -10.858279118301612
      ],
      [
        "▁dealing",
        -10.858965793474225
      ],
      [
        "▁poison",
        -10.859576958989669
      ],
      [
        "sixth",
        -10.85961480000993
      ],
      [
        "will",
        -10.859722254564236
      ],
      [
        "▁conservative",
        -10.859807249703325
      ],
      [
        "▁merry",
        -10.859991623759845
      ],
      [
        "literally",
        -10.860153497419194
      ],
      [
        "▁symptom",
        -10.86091003765284
      ],
      [
        "▁zealand",
        -10.860923632974178
      ],
      [
        "▁discussion",
        -10.861030155987155
      ],
      [
        "▁defense",
        -10.86123927707625
      ],
      [
        "▁corporation",
        -10.861583636776173
      ],
      [
        "▁reflect",
        -10.861797779482968
      ],
      [
        "▁sample",
        -10.862030298580471
      ],
      [
        "chi",
        -10.8629653285903
      ],
      [
        "▁discovery",
        -10.86317207413645
      ],
      [
        "▁principal",
        -10.863780083031624
      ],
      [
        "▁mile",
        -10.864232275702353
      ],
      [
        "▁figures",
        -10.864494576089673
      ],
      [
        "▁reward",
        -10.86467726426664
      ],
      [
        "▁jewis",
        -10.865285271421945
      ],
      [
        "▁mar",
        -10.8658547662407
      ],
      [
        "▁grab",
        -10.866606646418711
      ],
      [
        "▁flood",
        -10.86756153011336
      ],
      [
        "▁reign",
        -10.867591784552657
      ],
      [
        "▁enem",
        -10.867838283229496
      ],
      [
        "▁bi",
        -10.869225814950989
      ],
      [
        "▁estimate",
        -10.869848723894428
      ],
      [
        "▁classic",
        -10.86991860109374
      ],
      [
        "▁alarm",
        -10.870689610754413
      ],
      [
        "▁industrial",
        -10.870961285703943
      ],
      [
        "▁overall",
        -10.87105505850366
      ],
      [
        "▁alternative",
        -10.87131558483727
      ],
      [
        "▁exact",
        -10.871354023748625
      ],
      [
        "▁crop",
        -10.87135697462865
      ],
      [
        "▁hidden",
        -10.87136684926287
      ],
      [
        "▁rising",
        -10.872329822061351
      ],
      [
        "▁schedule",
        -10.872874940807296
      ],
      [
        "▁false",
        -10.873386569513984
      ],
      [
        "▁snake",
        -10.87354992583836
      ],
      [
        "▁gang",
        -10.873611350287357
      ],
      [
        "▁hills",
        -10.874158965618292
      ],
      [
        "▁amy",
        -10.874456652221454
      ],
      [
        "▁dawn",
        -10.874602541175864
      ],
      [
        "▁funeral",
        -10.874770314001108
      ],
      [
        "▁loan",
        -10.87477929723774
      ],
      [
        "ter",
        -10.875393298722711
      ],
      [
        "▁woods",
        -10.87700008725056
      ],
      [
        "▁shadow",
        -10.877275678754614
      ],
      [
        "▁construct",
        -10.877423834917694
      ],
      [
        "wise",
        -10.877543952484023
      ],
      [
        "▁expedition",
        -10.87769842900826
      ],
      [
        "▁leap",
        -10.877799418586676
      ],
      [
        "▁cent",
        -10.877925563414042
      ],
      [
        "▁occasional",
        -10.877987341072537
      ],
      [
        "▁rope",
        -10.877995623433224
      ],
      [
        "▁prepare",
        -10.878053996216956
      ],
      [
        "▁technical",
        -10.878386738344386
      ],
      [
        "▁hunting",
        -10.87839681217744
      ],
      [
        "▁yard",
        -10.880546217354414
      ],
      [
        "▁coin",
        -10.88070176328292
      ],
      [
        "▁analysi",
        -10.88073630798493
      ],
      [
        "▁communist",
        -10.88087796199736
      ],
      [
        "here",
        -10.881345299919133
      ],
      [
        "▁revenge",
        -10.8814505302587
      ],
      [
        "missed",
        -10.881782451952738
      ],
      [
        "▁component",
        -10.881902728182164
      ],
      [
        "▁combine",
        -10.8822413103217
      ],
      [
        "▁trail",
        -10.8832405650953
      ],
      [
        "lin",
        -10.884330790666295
      ],
      [
        "▁stadium",
        -10.884480269114416
      ],
      [
        "▁convention",
        -10.885154202460928
      ],
      [
        "▁mobile",
        -10.885621480571242
      ],
      [
        "▁suicide",
        -10.885748617843264
      ],
      [
        "based",
        -10.887195503115088
      ],
      [
        "▁merchant",
        -10.88727877608821
      ],
      [
        "▁helen",
        -10.887564542282956
      ],
      [
        "▁sales",
        -10.888940678426014
      ],
      [
        "▁license",
        -10.889184288254334
      ],
      [
        "▁romantic",
        -10.889989992503551
      ],
      [
        "▁approximate",
        -10.891318689077266
      ],
      [
        "▁colon",
        -10.891326775980811
      ],
      [
        "▁decade",
        -10.891365168620084
      ],
      [
        "▁profit",
        -10.891483823891935
      ],
      [
        "earned",
        -10.89161166955382
      ],
      [
        "▁visitor",
        -10.891975583024465
      ],
      [
        "ke",
        -10.892195745487609
      ],
      [
        "▁convert",
        -10.893332449001807
      ],
      [
        "▁proceed",
        -10.893848800972664
      ],
      [
        "▁oxford",
        -10.893899408083694
      ],
      [
        "▁cheek",
        -10.894137718702998
      ],
      [
        "ugh",
        -10.89422174141557
      ],
      [
        "unable",
        -10.894673786637906
      ],
      [
        "▁scarce",
        -10.894828203443804
      ],
      [
        "▁wore",
        -10.895037033009825
      ],
      [
        "▁egypt",
        -10.89621885682645
      ],
      [
        "▁jacob",
        -10.896500634848618
      ],
      [
        "▁glasse",
        -10.898041701562772
      ],
      [
        "▁cute",
        -10.89842192931366
      ],
      [
        "▁formation",
        -10.89888880107896
      ],
      [
        "▁procedure",
        -10.899040677787529
      ],
      [
        "▁seal",
        -10.8995085502805
      ],
      [
        "▁irish",
        -10.899690886686257
      ],
      [
        "▁alexander",
        -10.899706186456442
      ],
      [
        "▁incident",
        -10.90161524324061
      ],
      [
        "▁identit",
        -10.901663514677336
      ],
      [
        "▁scheme",
        -10.901666512407834
      ],
      [
        "▁creat",
        -10.90188979735552
      ],
      [
        "▁passion",
        -10.90189468231886
      ],
      [
        "▁comfort",
        -10.902122804175516
      ],
      [
        "▁leaders",
        -10.903177347047766
      ],
      [
        "▁violent",
        -10.903185756046842
      ],
      [
        "▁creation",
        -10.90423422134732
      ],
      [
        "▁copie",
        -10.904568256318962
      ],
      [
        "▁compound",
        -10.90513882176358
      ],
      [
        "▁shook",
        -10.905798511110731
      ],
      [
        "▁knowing",
        -10.906784558247525
      ],
      [
        "▁fishing",
        -10.907621933399746
      ],
      [
        "▁jr",
        -10.908439922764206
      ],
      [
        "▁underground",
        -10.9087008827303
      ],
      [
        "▁wolf",
        -10.908827712221026
      ],
      [
        "▁pale",
        -10.908937155723583
      ],
      [
        "▁tear",
        -10.90950884808668
      ],
      [
        "▁tube",
        -10.91083734241749
      ],
      [
        "▁walter",
        -10.912331644149862
      ],
      [
        "new",
        -10.912608322920356
      ],
      [
        "▁observe",
        -10.91302861301662
      ],
      [
        "▁pot",
        -10.913609619079736
      ],
      [
        "▁brian",
        -10.914612170586103
      ],
      [
        "▁fleet",
        -10.915447481724575
      ],
      [
        "rasmus",
        -10.916053441080525
      ],
      [
        "▁anger",
        -10.91622075408814
      ],
      [
        "half",
        -10.91654586818776
      ],
      [
        "▁dynast",
        -10.917359762118329
      ],
      [
        "▁habit",
        -10.91801040140385
      ],
      [
        "▁fred",
        -10.91816636080672
      ],
      [
        "▁li",
        -10.918724774959085
      ],
      [
        "▁santa",
        -10.918792227649451
      ],
      [
        "life",
        -10.91900374354891
      ],
      [
        "▁nerve",
        -10.919810646423342
      ],
      [
        "▁clause",
        -10.919939063196558
      ],
      [
        "▁fuel",
        -10.9209324959868
      ],
      [
        "▁extreme",
        -10.922031866325328
      ],
      [
        "▁burning",
        -10.922324100223278
      ],
      [
        "▁miller",
        -10.923534213996348
      ],
      [
        "▁dust",
        -10.92387922164582
      ],
      [
        "five",
        -10.923912002497264
      ],
      [
        "▁prefer",
        -10.924904274710972
      ],
      [
        "▁ladder",
        -10.925260258844684
      ],
      [
        "▁romaniz",
        -10.926254330880962
      ],
      [
        "▁entrance",
        -10.926891366055791
      ],
      [
        "▁swimming",
        -10.927441592353578
      ],
      [
        "▁citizens",
        -10.927712273606982
      ],
      [
        "▁horrible",
        -10.927944183836988
      ],
      [
        "▁threaten",
        -10.928015213863585
      ],
      [
        "▁chemist",
        -10.928025691681684
      ],
      [
        "star",
        -10.928170668968413
      ],
      [
        "ver",
        -10.928328936521684
      ],
      [
        "▁fairy",
        -10.929735493892288
      ],
      [
        "board",
        -10.930848301383453
      ],
      [
        "▁cape",
        -10.931334644018584
      ],
      [
        "also",
        -10.931345998503996
      ],
      [
        "▁ross",
        -10.931395587820068
      ],
      [
        "▁calva",
        -10.931623656617091
      ],
      [
        "▁superior",
        -10.931686055965548
      ],
      [
        "con",
        -10.9320469591035
      ],
      [
        "▁participate",
        -10.932902181571396
      ],
      [
        "zed",
        -10.933272446693923
      ],
      [
        "armed",
        -10.933615841217344
      ],
      [
        "▁korean",
        -10.933801451278732
      ],
      [
        "▁buying",
        -10.934172492420483
      ],
      [
        "▁faint",
        -10.934305782254848
      ],
      [
        "▁johnn",
        -10.935190187947596
      ],
      [
        "lng",
        -10.935535007058856
      ],
      [
        "▁committed",
        -10.935781027382616
      ],
      [
        "▁device",
        -10.935977099790392
      ],
      [
        "▁tune",
        -10.936827789962395
      ],
      [
        "▁jenn",
        -10.93684572946309
      ],
      [
        "▁numerous",
        -10.936940457090149
      ],
      [
        "▁pity",
        -10.93713796337037
      ],
      [
        "▁evolution",
        -10.93715014974237
      ],
      [
        "▁jew",
        -10.937595662288018
      ],
      [
        "▁excit",
        -10.938442303736174
      ],
      [
        "▁web",
        -10.940111147794308
      ],
      [
        "▁memorial",
        -10.940248649722838
      ],
      [
        "▁exception",
        -10.94027412900987
      ],
      [
        "▁sigh",
        -10.9411375445855
      ],
      [
        "▁tank",
        -10.941708899002316
      ],
      [
        "▁lou",
        -10.941754278187164
      ],
      [
        "▁ridiculous",
        -10.941758741004836
      ],
      [
        "▁horror",
        -10.942105136559652
      ],
      [
        "▁clark",
        -10.94314963713763
      ],
      [
        "stone",
        -10.94443831428994
      ],
      [
        "▁cabin",
        -10.944602710009214
      ],
      [
        "was",
        -10.944836553961744
      ],
      [
        "▁tag",
        -10.945877571733527
      ],
      [
        "▁dis",
        -10.94631411204087
      ],
      [
        "▁ministr",
        -10.946659286140063
      ],
      [
        "▁complicated",
        -10.946754556207374
      ],
      [
        "▁arrow",
        -10.947187830520228
      ],
      [
        "woman",
        -10.947270642946132
      ],
      [
        "¶",
        -10.947770075447416
      ],
      [
        "▁micro",
        -10.949091584273653
      ],
      [
        "▁healthy",
        -10.950132482531457
      ],
      [
        "▁basse",
        -10.951131100621886
      ],
      [
        "▁domestic",
        -10.95132664469048
      ],
      [
        "▁envelope",
        -10.951406439128595
      ],
      [
        "▁earn",
        -10.951726518485142
      ],
      [
        "▁trains",
        -10.95194777630483
      ],
      [
        "needed",
        -10.952642759753108
      ],
      [
        "▁liquid",
        -10.952667972803429
      ],
      [
        "▁seasons",
        -10.953857346279406
      ],
      [
[...]
