{
  "version": "1.0",
  "truncation": null,
  "padding": null,
  "added_tokens": [
    {
      "id": 0,
      "content": "<pad>",
      "single_word": false,
      "lstrip": false,
      "rstrip": false,
      "normalized": false,
      "special": true
    },
    {
      "id": 1,
      "content": "</s>",
      "single_word": false,
      "lstrip": false,
      "rstrip": false,
      "normalized": false,
      "special": true
    },
    {
      "id": 2,
      "content": "<unk>",
      "single_word": false,
      "lstrip": false,
      "rstrip": false,
      "normalized": false,
      "special": true
    }
  ],
  "normalizer": {
    "type": "Sequence",
    "normalizers": [
      {
        "type": "Nmt"
      },
      {
        "type": "NFKC"
      },
      {
        "type": "Replace",
        "pattern": {
          "Regex": " {2,}"
        },
        "content": " "
      },
      {
        "type": "Lowercase"
      }
    ]
  },
  "pre_tokenizer": {
    "type": "Sequence",
    "pretokenizers": [
      {
        "type": "Metaspace",
        "replacement": "▁",
        "add_prefix_space": true
      },
      {
        "type": "Digits",
        "individual_digits": true
      },
      {
        "type": "Punctuation",
        "behavior": "Isolated"
      }
    ]
  },
  "post_processor": {
    "type": "TemplateProcessing",
    "single": [
      {
        "Sequence": {
          "id": "A",
          "type_id": 0
        }
      },
      {
        "SpecialToken": {
          "id": "</s>",
          "type_id": 0
        }
      }
    ],
    "pair": [
      {
        "Sequence": {
          "id": "A",
          "type_id": 0
        }
      },
      {
        "Sequence": {
          "id": "B",
          "type_id": 1
        }
      }
    ],
    "special_tokens": {
      "</s>": {
        "id": "</s>",
        "ids": [
          1
        ],
        "tokens": [
          "</s>"
        ]
      }
    }
  },
  "decoder": {
    "type": "Metaspace",
    "replacement": "▁",
    "add_prefix_space": true
  },
  "model": {
    "type": "Unigram",
    "unk_id": 2,
    "vocab": [
      [
        "<pad>",
        0.0
      ],
      [
        "</s>",
        0.0
      ],
      [
        "<unk>",
        0.0
      ],
      [
        "▁",
        -2.417461477705107
      ],
      [
        ".",
        -2.9410012874012956
      ],
      [
        "s",
        -3.296299666817541
      ],
      [
        ",",
        -3.339667450856883
      ],
      [
        "▁the",
        -3.5283616004890828
      ],
      [
        "a",
        -3.8787109373637794
      ],
      [
        "'",
        -3.9147663755120288
      ],
      [
        "i",
        -3.941457476225896
      ],
      [
        "▁and",
        -4.265721204007017
      ],
      [
        "▁to",
        -4.285413526209137
      ],
      [
        "▁of",
        -4.360120653427369
      ],
      [
        "▁you",
        -4.410981759410786
      ],
      [
        "t",
        -4.499618899514786
      ],
      [
        "▁in",
        -4.5409821281015095
      ],
      [
        "-",
        -4.645032245254955
      ],
      [
        "▁it",
        -4.667601029183228
      ],
      [
        "?",
        -4.683211025234474
      ],
      [
        "▁that",
        -4.839347698486083
      ],
      [
        "e",
        -4.907983429098033
      ],
      [
        "d",
        -4.961865909433758
      ],
      [
        "▁is",
        -4.973054142822944
      ],
      [
        "y",
        -4.984380216946693
      ],
      [
        "ed",
        -5.014929184306652
      ],
      [
        "\"",
        -5.083613196327201
      ],
      [
        "▁was",
        -5.211084739096524
      ],
      [
        "▁he",
        -5.24125109578952
      ],
      [
        "1",
        -5.311945342474395
      ],
      [
        "ing",
        -5.320611763369742
      ],
      [
        "▁for",
        -5.422217374204898
      ],
      [
        "m",
        -5.4255629141861395
      ],
      [
        "0",
        -5.45533900632123
      ],
      [
        "!",
        -5.512301588511837
      ],
      [
        "▁on",
        -5.514094420696589
      ],
      [
        "▁we",
        -5.57036056803266
      ],
      [
        "▁this",
        -5.641077592956542
      ],
      [
        "n",
        -5.660949774104296
      ],
      [
        "▁with",
        -5.662549960006793
      ],
      [
        "▁what",
        -5.701838526553379
      ],
      [
        "▁be",
        -5.710300354573317
      ],
      [
        "re",
        -5.733495037236169
      ],
      [
        "2",
        -5.74071836204906
      ],
      [
        "o",
        -5.775378877741204
      ],
      [
        "▁as",
        -5.77790636914264
      ],
      [
        "ly",
        -5.7862719244919205
      ],
      [
        "▁have",
        -5.801193087489903
      ],
      [
        "▁are",
        -5.801309645620799
      ],
      [
        "▁me",
        -5.8762971922338085
      ],
      [
        "▁not",
        -5.879459111342417
      ],
      [
        "er",
        -5.897208477154946
      ],
      [
        "r",
        -5.897636546339957
      ],
      [
        "▁but",
        -5.911411916319707
      ],
      [
        "▁they",
        -5.935782556753427
      ],
      [
        "▁do",
        -5.943109287976791
      ],
      [
        "▁at",
        -5.9458341927942495
      ],
      [
        "▁so",
        -5.954124016511781
      ],
      [
        "9",
        -5.975676804933366
      ],
      [
        "▁his",
        -6.058170489511824
      ],
      [
        "▁there",
        -6.087510123690397
      ],
      [
        "▁no",
        -6.088654374761862
      ],
      [
        "▁can",
        -6.1047506177728845
      ],
      [
        "h",
        -6.107632263291119
      ],
      [
        "▁all",
        -6.119341583591776
      ],
      [
        "▁she",
        -6.129598645327709
      ],
      [
        "▁my",
        -6.167136246291584
      ],
      [
        "▁one",
        -6.1828216516779655
      ],
      [
        "l",
        -6.202886985259884
      ],
      [
        "▁by",
        -6.220777058118145
      ],
      [
        "▁from",
        -6.222842765646384
      ],
      [
        "▁know",
        -6.24053792923868
      ],
      [
        "▁your",
        -6.245573212429289
      ],
      [
        ")",
        -6.251765926476963
      ],
      [
        "(",
        -6.253648236410184
      ],
      [
        "▁her",
        -6.271549212766526
      ],
      [
        "▁like",
        -6.321000776719883
      ],
      [
        "▁had",
        -6.344009838587461
      ],
      [
        "▁don",
        -6.34441313671404
      ],
      [
        "▁an",
        -6.374796185549316
      ],
      [
        "g",
        -6.407348678181551
      ],
      [
        "▁if",
        -6.415897004972253
      ],
      [
        "ll",
        -6.417629911224463
      ],
      [
        "c",
        -6.430306735738766
      ],
      [
        "▁up",
        -6.440592205424741
      ],
      [
        "▁out",
        -6.445741499254735
      ],
      [
        "▁or",
        -6.447910787778893
      ],
      [
        "▁just",
        -6.467739981020015
      ],
      [
        "▁him",
        -6.470081449235879
      ],
      [
        "▁about",
        -6.473663440987657
      ],
      [
        "in",
        -6.4894361547692
      ],
      [
        "▁go",
        -6.49871886295184
      ],
      [
        "▁were",
        -6.499729198472222
      ],
      [
        "on",
        -6.516471128551963
      ],
      [
        "▁get",
        -6.518786161554647
      ],
      [
        "ve",
        -6.537588555673267
      ],
      [
        "▁here",
        -6.543259197574857
      ],
      [
        "3",
        -6.567485441328188
      ],
      [
        "p",
        -6.569619310392362
      ],
      [
        "8",
        -6.583164351438132
      ],
      [
        "5",
        -6.5857441658321125
      ],
      [
        ";",
        -6.5883738177328794
      ],
      [
        "▁when",
        -6.604693133785682
      ],
      [
        "▁who",
        -6.60485699078875
      ],
      [
        "▁well",
        -6.620257310352098
      ],
      [
        ":",
        -6.638199417304103
      ],
      [
        "▁now",
        -6.642699269062769
      ],
      [
        "▁right",
        -6.64426031000524
      ],
      [
        "4",
        -6.662818871794048
      ],
      [
        "▁how",
        -6.696238688939459
      ],
      [
        "▁yeah",
        -6.698062142501911
      ],
      [
        "u",
        -6.698408607876374
      ],
      [
        "▁will",
        -6.701073326121856
      ],
      [
        "▁oh",
        -6.701360389739518
      ],
      [
        "6",
        -6.738027397989713
      ],
      [
        "7",
        -6.748864743835181
      ],
      [
        "▁see",
        -6.75995334087353
      ],
      [
        "▁which",
        -6.767555111142993
      ],
      [
        "▁would",
        -6.773932294407485
      ],
      [
        "▁think",
        -6.812650685887641
      ],
      [
        "▁has",
        -6.812759911210618
      ],
      [
        "f",
        -6.817523523235323
      ],
      [
        "▁some",
        -6.847182914325744
      ],
      [
        "▁time",
        -6.862386203434445
      ],
      [
        "▁them",
        -6.86373796841232
      ],
      [
        "▁said",
        -6.864334725825032
      ],
      [
        "▁then",
        -6.865055575284957
      ],
      [
        "=",
        -6.868451726759197
      ],
      [
        "▁want",
        -6.87465630465096
      ],
      [
        "`",
        -6.875559606844368
      ],
      [
        "▁come",
        -6.879102210361353
      ],
      [
        "▁got",
        -6.882024671315364
      ],
      [
        "▁did",
        -6.890027785273611
      ],
      [
        "▁been",
        -6.942436033242661
      ],
      [
        "an",
        -6.942823325048028
      ],
      [
        "k",
        -6.948373194477632
      ],
      [
        "▁good",
        -6.955771350681687
      ],
      [
        "▁their",
        -6.957988528965888
      ],
      [
        "b",
        -6.970893901580883
      ],
      [
        "▁where",
        -6.97908731553942
      ],
      [
        "▁people",
        -6.993883943493566
      ],
      [
        "▁more",
        -7.002456353035679
      ],
      [
        "▁other",
        -7.046199384657546
      ],
      [
        "▁going",
        -7.049352868345867
      ],
      [
        "▁very",
        -7.077497104606422
      ],
      [
        "▁two",
        -7.087255922188708
      ],
      [
        "▁over",
        -7.088615122464891
      ],
      [
        "al",
        -7.106520020081202
      ],
      [
        "▁let",
        -7.127503782921787
      ],
      [
        "th",
        -7.128173110171158
      ],
      [
        "▁back",
        -7.131611425580942
      ],
      [
        "▁look",
        -7.138448554168617
      ],
      [
        "▁first",
        -7.153501297771198
      ],
      [
        "▁could",
        -7.162979594678916
      ],
      [
        "▁down",
        -7.212021757997924
      ],
      [
        "▁because",
        -7.214481911838369
      ],
      [
        "ies",
        -7.217657830958981
      ],
      [
        "▁man",
        -7.2345352595359
      ],
      [
        "▁into",
        -7.235225398635993
      ],
      [
        "▁say",
        -7.236550273329643
      ],
      [
        "▁us",
        -7.236592111760027
      ],
      [
        "▁also",
        -7.251429124129888
      ],
      [
        "▁way",
        -7.272876388803654
      ],
      [
        "▁okay",
        -7.276402519625792
      ],
      [
        "▁yes",
        -7.2807792475326
      ],
      [
        "▁take",
        -7.292233002853251
      ],
      [
        "▁only",
        -7.294852914863267
      ],
      [
        "v",
        -7.294986993635696
      ],
      [
        "▁why",
        -7.306518570212143
      ],
      [
        "▁our",
        -7.309856615943572
      ],
      [
        "▁little",
        -7.314365109109987
      ],
      [
        "▁after",
        -7.323677201055384
      ],
      [
        "▁these",
        -7.342900951745628
      ],
      [
        "▁any",
        -7.348643659691566
      ],
      [
        "▁new",
        -7.353419499747899
      ],
      [
        "w",
        -7.374596387597741
      ],
      [
        "▁make",
        -7.376528845942298
      ],
      [
        "▁really",
        -7.40002284097536
      ],
      [
        "▁need",
        -7.437108315120023
      ],
      [
        "or",
        -7.44070055590624
      ],
      [
        "le",
        -7.446750233197443
      ],
      [
        "]",
        -7.448545651820616
      ],
      [
        "[",
        -7.449464300450311
      ],
      [
        "▁put",
        -7.470232169691521
      ],
      [
        "▁than",
        -7.488271929421076
      ],
      [
        "▁something",
        -7.533384036467408
      ],
      [
        "▁tell",
        -7.534464906954701
      ],
      [
        "▁much",
        -7.557710048267866
      ],
      [
        "▁off",
        -7.578620520605398
      ],
      [
        "_",
        -7.587315890885039
      ],
      [
        "▁should",
        -7.592666345617996
      ],
      [
        "▁mean",
        -7.599439872593862
      ],
      [
        "gonna",
        -7.601019885433676
      ],
      [
        "▁work",
        -7.604101529765018
      ],
      [
        "it",
        -7.605075129155624
      ],
      [
        "▁too",
        -7.609911194579864
      ],
      [
        "▁before",
        -7.62129682439042
      ],
      [
        "▁made",
        -7.625789948246048
      ],
      [
        "the",
        -7.639341138922175
      ],
      [
        "▁never",
        -7.647125302550954
      ],
      [
        "▁am",
        -7.648386338434996
      ],
      [
        "▁day",
        -7.6566531848837425
      ],
      [
        "▁many",
        -7.661038436721505
      ],
      [
        "▁may",
        -7.668406036925758
      ],
      [
        "▁even",
        -7.671059970304269
      ],
      [
        "▁most",
        -7.678623268146763
      ],
      [
        "▁didn",
        -7.6786676660304
      ],
      [
        "▁again",
        -7.682149758163748
      ],
      [
        "x",
        -7.685260525028719
      ],
      [
        "▁name",
        -7.68673872736043
      ],
      [
        "▁great",
        -7.697536316973109
      ],
      [
        "▁life",
        -7.700969310303636
      ],
      [
        "▁love",
        -7.732113267527719
      ],
      [
        "▁those",
        -7.744258435799832
      ],
      [
        "|",
        -7.7486323896636
      ],
      [
        "▁three",
        -7.7502590638873485
      ],
      [
        "▁uh",
        -7.753098938509034
      ],
      [
        "▁give",
        -7.7566173580096756
      ],
      [
        "▁part",
        -7.766975411918978
      ],
      [
        "▁through",
        -7.769163457589004
      ],
      [
        "▁still",
        -7.771036275182414
      ],
      [
        "▁long",
        -7.773649850381998
      ],
      [
        "▁world",
        -7.794537975730986
      ],
      [
        "▁thing",
        -7.799787878286448
      ],
      [
        "ic",
        -7.800034809719207
      ],
      [
        "ar",
        -7.802769889510895
      ],
      [
        "▁help",
        -7.805975192041478
      ],
      [
        "▁years",
        -7.806564971564812
      ],
      [
        "“",
        -7.806759444243786
      ],
      [
        "▁home",
        -7.808743144125589
      ],
      [
        "▁thought",
        -7.8171475242327375
      ],
      [
        "”",
        -7.817177733615891
      ],
      [
        "▁last",
        -7.844387109379193
      ],
      [
        "ation",
        -7.846096648440245
      ],
      [
        "▁must",
        -7.847482197248148
      ],
      [
        "▁play",
        -7.850172259510808
      ],
      [
        "▁things",
        -7.852555384755464
      ],
      [
        "▁came",
        -7.858408680798124
      ],
      [
        "▁went",
        -7.867177398660141
      ],
      [
        "▁away",
        -7.867239478531937
      ],
      [
        "▁place",
        -7.867580936392397
      ],
      [
        "ch",
        -7.8694976786690685
      ],
      [
        "▁old",
        -7.875918816769463
      ],
      [
        "man",
        -7.889194817968654
      ],
      [
        "est",
        -7.901645218921027
      ],
      [
        "▁used",
        -7.907566280988924
      ],
      [
        "▁called",
        -7.907628049714674
      ],
      [
        "us",
        -7.908754661485725
      ],
      [
        "able",
        -7.929565081061144
      ],
      [
        "▁house",
        -7.933052171066622
      ],
      [
        "▁such",
        -7.9351092231406
      ],
      [
        "▁being",
        -7.937505725367572
      ],
      [
        "to",
        -7.942008176398334
      ],
      [
        "▁doing",
        -7.945347997457537
      ],
      [
        "▁de",
        -7.953993791364244
      ],
      [
        "▁find",
        -7.959278014736835
      ],
      [
        "▁does",
        -7.964199138959945
      ],
      [
        "▁same",
        -7.980057747489424
      ],
      [
        "▁won",
        -7.993524539033686
      ],
      [
        "▁un",
        -7.999653504756585
      ],
      [
        "▁city",
        -8.000405882828769
      ],
      [
        "▁sure",
        -8.006343929561083
      ],
      [
        "▁night",
        -8.008135941156311
      ],
      [
        "▁kind",
        -8.008789630017684
      ],
      [
        "▁found",
        -8.00998592507567
      ],
      [
        "▁another",
        -8.028672691015867
      ],
      [
        "▁end",
        -8.0298517361391
      ],
      [
        "▁mr",
        -8.032738001457306
      ],
      [
        "▁car",
        -8.03373536870962
      ],
      [
        "▁erm",
        -8.051037800890755
      ],
      [
        "▁under",
        -8.054589783841756
      ],
      [
        "▁talk",
        -8.055560278761225
      ],
      [
        "z",
        -8.059057958726939
      ],
      [
        "▁show",
        -8.060015021432257
      ],
      [
        "▁own",
        -8.060440389500737
      ],
      [
        "▁might",
        -8.065032234887251
      ],
      [
        "▁call",
        -8.0691936567681
      ],
      [
        "▁thank",
        -8.072239058335057
      ],
      [
        "▁school",
        -8.07653516168821
      ],
      [
        "▁every",
        -8.086471015088483
      ],
      [
        "▁god",
        -8.088067365789515
      ],
      [
        "▁guy",
        -8.104768520329218
      ],
      [
        "▁keep",
        -8.106492091331509
      ],
      [
        "▁lot",
        -8.109885159829469
      ],
      [
        "▁around",
        -8.110479778479064
      ],
      [
        "▁live",
        -8.111538549754195
      ],
      [
        "▁please",
        -8.114793353665865
      ],
      [
        "▁always",
        -8.128771695148128
      ],
      [
        "ter",
        -8.130158444693777
      ],
      [
        "▁while",
        -8.133492836213017
      ],
      [
        "amp",
        -8.139777285619317
      ],
      [
        "▁anything",
        -8.14073312844729
      ],
      [
        "▁big",
        -8.14130372280072
      ],
      [
        "▁number",
        -8.144066727232572
      ],
      [
        "▁better",
        -8.15679295915058
      ],
      [
        "▁hey",
        -8.15685958733043
      ],
      [
        "▁use",
        -8.157601444092126
      ],
      [
        "▁left",
        -8.158831353413978
      ],
      [
        "ity",
        -8.162270625173651
      ],
      [
        "▁nothing",
        -8.162384203602349
      ],
      [
        "▁year",
        -8.16801806427216
      ],
      [
        "▁money",
        -8.170768414744996
      ],
      [
        "&",
        -8.17705018041833
      ],
      [
        "no",
        -8.18628053857315
      ],
      [
        "▁second",
        -8.18763583536729
      ],
      [
        "▁united",
        -8.188391784798407
      ],
      [
        "▁head",
        -8.193395068720715
      ],
      [
        "▁war",
        -8.201934390584052
      ],
      [
        "ment",
        -8.203062887029391
      ],
      [
        "▁water",
        -8.203495539049444
      ],
      [
        "▁sir",
        -8.206758798703797
      ],
      [
        "▁states",
        -8.20717091422527
      ],
      [
        "–",
        -8.20840003695239
      ],
      [
        "▁between",
        -8.20840003952828
      ],
      [
        "▁different",
        -8.220034483480568
      ],
      [
        "ce",
        -8.225807293037825
      ],
      [
        "▁change",
        -8.233258460451403
      ],
      [
        "▁told",
        -8.233692239282442
      ],
      [
        "▁point",
        -8.234968194766186
      ],
      [
        "▁next",
        -8.238740533276598
      ],
      [
        "and",
        -8.23992542589911
      ],
      [
        "▁high",
        -8.24433336214973
      ],
      [
        "▁sorry",
        -8.255975533341283
      ],
      [
        "▁both",
        -8.255995669462106
      ],
      [
        "▁state",
        -8.262703866385289
      ],
      [
        "▁father",
        -8.265550747267442
      ],
      [
        "land",
        -8.270146267870143
      ],
      [
        "▁open",
        -8.27165146332073
      ],
      [
        "▁hand",
        -8.274986255874165
      ],
      [
        "ness",
        -8.27536282783889
      ],
      [
        "um",
        -8.276589085227611
      ],
      [
        "▁done",
        -8.280724806383134
      ],
      [
        "▁men",
        -8.282048084951395
      ],
      [
        "ever",
        -8.288656764788847
      ],
      [
        "▁best",
        -8.295533125157933
      ],
      [
        "▁each",
        -8.296584509764124
      ],
      [
        "▁ever",
        -8.301933678332395
      ],
      [
        "▁stop",
        -8.302426632262941
      ],
      [
        "▁four",
        -8.308147177195698
      ],
      [
        "▁course",
        -8.309468182394308
      ],
      [
        "▁took",
        -8.312094012468965
      ],
      [
        "▁start",
        -8.317748646751363
      ],
      [
        "▁during",
        -8.318831050008075
      ],
      [
        "▁since",
        -8.320719724916065
      ],
      [
        "▁known",
        -8.321244113196153
      ],
      [
        "▁actually",
        -8.321782942975647
      ],
      [
        "▁once",
        -8.32194034701085
      ],
      [
        "▁later",
        -8.323768928567366
      ],
      [
        "♪",
        -8.329485613318173
      ],
      [
        "▁king",
        -8.336094332720771
      ],
      [
        "▁until",
        -8.33652428596739
      ],
      [
        "do",
        -8.336549851485385
      ],
      [
        "’",
        -8.338431958113494
      ],
      [
        "ul",
        -8.34431559468194
      ],
      [
        "▁con",
        -8.344362479296667
      ],
      [
        "▁mother",
        -8.345554349650293
      ],
      [
        "▁mm",
        -8.350038840976707
      ],
      [
        "co",
        -8.35395588510081
      ],
      [
        "he",
        -8.365509673884294
      ],
      [
        "▁everything",
        -8.372805863973548
      ],
      [
        "▁saw",
        -8.376006997062992
      ],
      [
        "▁wait",
        -8.377929464409275
      ],
      [
        "▁american",
        -8.380091667941812
      ],
      [
        "▁hard",
        -8.38479117407296
      ],
      [
        "▁small",
        -8.391760587297963
      ],
      [
        "▁feel",
        -8.393101770266805
      ],
      [
        "▁doesn",
        -8.400209395049597
      ],
      [
        "▁girl",
        -8.40975110960749
      ],
      [
        "▁bit",
        -8.419071905975315
      ],
      [
        "▁order",
        -8.425735995621965
      ],
      [
        "▁far",
        -8.429563869884074
      ],
      [
        "▁maybe",
        -8.435282560155159
      ],
      [
        "nough",
        -8.439467564605621
      ],
      [
        "▁line",
        -8.44049365692429
      ],
      [
        "un",
        -8.442195630776707
      ],
      [
        "▁family",
        -8.4433650022239
      ],
      [
        "▁boy",
        -8.444684247687656
      ],
      [
        "▁move",
        -8.44788691569477
      ],
      [
        "▁leave",
        -8.448030754774281
      ],
      [
        "▁stay",
        -8.44892216239176
      ],
      [
        "▁young",
        -8.460148651489142
      ],
      [
        "▁today",
        -8.462219061477754
      ],
      [
        "▁nice",
        -8.467792529430396
      ],
      [
        "up",
        -8.468879322436642
      ],
      [
        "▁bad",
        -8.47115973188101
      ],
      [
        "▁la",
        -8.47261022745006
      ],
      [
        "▁case",
        -8.473659697584884
      ],
      [
        "▁against",
        -8.475659296619638
      ],
      [
        "▁set",
        -8.475902503443226
      ],
      [
        "▁face",
        -8.476263096533552
      ],
      [
        "▁five",
        -8.477846781011444
      ],
      [
        "▁else",
        -8.479967228890274
      ],
      [
        "▁without",
        -8.482299614732325
      ],
      [
        "▁son",
        -8.483856589428042
      ],
      [
        "▁room",
        -8.488240520566723
      ],
      [
        "▁ha",
        -8.491204598808942
      ],
      [
        "▁together",
        -8.501341973160333
      ],
      [
        "▁problem",
        -8.509810055973814
      ],
      [
        "ur",
        -8.514193658589932
      ],
      [
        "▁believe",
        -8.518403279272027
      ],
      [
        "▁side",
        -8.51924591115336
      ],
      [
        "be",
        -8.519707552046997
      ],
      [
        "ary",
        -8.521374590666642
      ],
      [
        "▁quite",
        -8.523899477737274
      ],
      [
        "if",
        -8.525330799120386
      ],
      [
        "▁few",
        -8.525734767766272
      ],
      [
        "ent",
        -8.52722295667289
      ],
      [
        "▁became",
        -8.529461716399348
      ],
      [
        "▁mind",
        -8.529475839130289
      ],
      [
        "▁week",
        -8.530440259999498
      ],
      [
        "me",
        -8.533605091844324
      ],
      [
        "▁though",
        -8.536336746082247
      ],
      [
        "▁seen",
        -8.542900878869254
      ],
      [
        "ember",
        -8.544327240122106
      ],
      [
        "▁person",
        -8.547600587188654
      ],
      [
        "▁north",
        -8.548011778786643
      ],
      [
        "▁real",
        -8.55144667362216
      ],
      [
        "▁care",
        -8.552444598089938
      ],
      [
        "▁town",
        -8.552882872748535
      ],
      [
        "▁remember",
        -8.554799522001405
      ],
      [
        "▁hear",
        -8.556586794611592
      ],
      [
        "▁coming",
        -8.562543446382001
      ],
      [
        "▁b",
        -8.563761842444945
      ],
      [
        "▁group",
        -8.565592202203899
      ],
      [
        "▁minute",
        -8.566154049064806
      ],
      [
        "▁co",
        -8.567126859736518
      ],
      [
        "▁children",
        -8.567623364710247
      ],
      [
        "/",
        -8.569337513253993
      ],
      [
        "▁ask",
        -8.5710490857819
      ],
      [
        "▁light",
        -8.575399322068888
      ],
      [
        "▁ma",
        -8.577566899261694
      ],
      [
        "▁idea",
        -8.579942783096717
      ],
      [
        "▁looking",
        -8.580540349744494
      ],
      [
        "getting",
        -8.581754414585118
      ],
      [
        "▁book",
        -8.582911835771988
      ],
      [
        "▁death",
        -8.587368425148775
      ],
      [
        "*",
        -8.59437050588593
      ],
      [
        "▁died",
        -8.595454796302416
      ],
      [
        "ge",
        -8.59638655068408
      ],
      [
        "▁game",
        -8.59972280029534
      ],
      [
        "▁woman",
        -8.599782167228437
      ],
      [
        "▁try",
        -8.601575569350514
      ],
      [
        "▁morning",
        -8.601781832508633
      ],
      [
        "▁whole",
        -8.603188177590095
      ],
      [
        "▁john",
        -8.605635043295832
      ],
      [
        "▁yet",
        -8.60571522354173
      ],
      [
        "you",
        -8.606205705419184
      ],
      [
        "▁bring",
        -8.608231699732494
      ],
      [
        "▁turn",
        -8.612988331476863
      ],
      [
        "▁run",
        -8.614825053280624
      ],
      [
        "less",
        -8.62148139176764
      ],
      [
        "▁south",
        -8.621880653144823
      ],
      [
        "▁happened",
        -8.622579420085316
      ],
      [
        "▁question",
        -8.623344182039403
      ],
      [
        "age",
        -8.624550735211116
      ],
      [
        "▁isn",
        -8.625916944956318
      ],
      [
        "▁shall",
        -8.63579553929442
      ],
      [
        "ke",
        -8.635814272757225
      ],
      [
        "▁country",
        -8.640317339997088
      ],
      [
        "▁universit",
        -8.643361243206364
      ],
      [
        "▁brother",
        -8.648348587337512
      ],
      [
        "▁county",
        -8.649359221444879
      ],
      [
        "ate",
        -8.6501015005564
      ],
      [
        "▁friend",
        -8.654444808818564
      ],
      [
        "▁sort",
        -8.656824358647071
      ],
      [
        "▁large",
        -8.659111345053685
      ],
      [
        "▁having",
        -8.659961833563534
      ],
      [
        "▁main",
        -8.661401929762768
      ],
      [
        "▁door",
        -8.66270173070148
      ],
      [
        "▁power",
        -8.6632040008772
      ],
      [
        "▁music",
        -8.665506706582502
      ],
      [
        "▁asked",
        -8.666501422404416
      ],
      [
        "▁says",
        -8.669382595572532
      ],
      [
        "▁miss",
        -8.671217559221141
      ],
      [
        "ling",
        -8.674454942685223
      ],
      [
        "▁ca",
        -8.674776130289649
      ],
      [
        "▁heart",
        -8.674783456758831
      ],
      [
        "▁half",
        -8.675580930334856
      ],
      [
        "▁dead",
        -8.676126937433366
      ],
      [
        "himself",
        -8.677682182218073
      ],
      [
        "▁eyes",
        -8.677728024300423
      ],
      [
        "▁national",
        -8.682194950344414
      ],
      [
        "▁seem",
        -8.68623504000643
      ],
      [
        "tic",
        -8.686957404758212
      ],
      [
        "▁gave",
        -8.690573677877893
      ],
      [
        "▁form",
        -8.693116736008335
      ],
      [
        "▁black",
        -8.694185593460926
      ],
      [
        "▁general",
        -8.694517771026359
      ],
      [
        "▁system",
        -8.695231154276586
      ],
      [
        "▁hi",
        -8.695968531581194
      ],
      [
        "already",
        -8.698076425778432
      ],
      [
        "▁understand",
        -8.699959321164748
      ],
      [
        "▁red",
        -8.702053994321888
      ],
      [
        "▁movie",
        -8.706995624711166
      ],
      [
        "▁important",
        -8.708783272838136
      ],
      [
        "ten",
        -8.709155757269915
      ],
      [
        "▁upon",
        -8.709212732188735
      ],
      [
        "▁per",
        -8.712103631724913
      ],
      [
        "▁team",
        -8.717651879789628
      ],
      [
        "▁di",
        -8.7177269043261
      ],
      [
        "▁wrong",
        -8.719298430515629
      ],
      [
        "we",
        -8.720396697622194
      ],
      [
        "▁days",
        -8.72156606859508
      ],
      [
        "▁women",
        -8.724799596735005
      ],
      [
        "▁fire",
        -8.725394951578455
      ],
      [
        "▁knew",
        -8.728076089157579
      ],
      [
        "ful",
        -8.729820212377746
      ],
      [
        "▁white",
        -8.731622792970434
      ],
      [
        "▁full",
        -8.732825875969827
      ],
      [
        "self",
        -8.73432296705699
      ],
      [
        "▁president",
        -8.739146519265024
      ],
      [
        "▁fine",
        -8.740426422414757
      ],
      [
        "▁job",
        -8.740469211328975
      ],
      [
        "▁release",
        -8.7421457336313
      ],
      [
        "▁hold",
        -8.74529341211356
      ],
      [
        "▁born",
        -8.754299310027832
      ],
      [
        "▁someone",
        -8.755814366883254
      ],
      [
        "ance",
        -8.75595021453606
      ],
      [
        "▁air",
        -8.757510697845102
      ],
      [
        "go",
        -8.75844680985009
      ],
      [
        "▁round",
        -8.75932095989727
      ],
      [
        "▁near",
        -8.76038004054128
      ],
      [
        "▁sea",
        -8.761747535570866
      ],
      [
        "heard",
        -8.762743339856206
      ],
      [
        "▁certain",
        -8.763743178085264
      ],
      [
        "▁talking",
        -8.763954744515988
      ],
      [
        "▁saying",
        -8.765118436676673
      ],
      [
        "▁soon",
        -8.768727265704278
      ],
      [
        "▁bo",
        -8.769291509530936
      ],
      [
        "▁along",
        -8.770401490508434
      ],
      [
        "▁eat",
        -8.774307724690683
      ],
      [
        "▁began",
        -8.777061999057882
      ],
      [
        "▁pay",
        -8.777076125597283
      ],
      [
        "▁times",
        -8.778359180488614
      ],
      [
        "▁six",
        -8.77914689870271
      ],
      [
        "▁trying",
        -8.779424953871992
      ],
      [
        "▁land",
        -8.782687237726664
      ],
      [
        "▁word",
        -8.785544473158943
      ],
      [
        "▁moment",
        -8.789719137961503
      ],
      [
        "▁station",
        -8.792536309275508
      ],
      [
        "ous",
        -8.794185865911357
      ],
      [
        "▁pretty",
        -8.79596927018526
      ],
      [
        "▁often",
        -8.797312025480842
      ],
      [
        "▁probabl",
        -8.797934301204638
      ],
      [
        "▁government",
        -8.798329061406578
      ],
      [
        "▁record",
        -8.800938725618792
      ],
      [
        "▁film",
        -8.801853677563383
      ],
      [
        "▁short",
        -8.801971686830184
      ],
      [
        "▁matter",
        -8.80249894271265
      ],
      [
        "▁party",
        -8.80275999364008
      ],
      [
        "▁started",
        -8.805733363246663
      ],
      [
        "▁close",
        -8.810520494979734
      ],
      [
        "les",
        -8.810862314346718
      ],
      [
        "▁gone",
        -8.813579400112863
      ],
      [
        "▁act",
        -8.814017902394536
      ],
      [
        "▁fact",
        -8.816273558796489
      ],
      [
        "▁wanna",
        -8.818206294325439
      ],
      [
        "▁story",
        -8.81997940448438
      ],
      [
        "▁wife",
        -8.82315585985923
      ],
      [
        "▁listen",
        -8.823598754233235
      ],
      [
        "▁dis",
        -8.826467982315922
      ],
      [
        "▁ka",
        -8.826745600698096
      ],
      [
        "ated",
        -8.826802296336027
      ],
      [
        "▁mo",
        -8.828576274568054
      ],
      [
        "▁read",
        -8.839391141809372
      ],
      [
        "▁early",
        -8.841839043138993
      ],
      [
        "▁dad",
        -8.843856471230154
      ],
      [
        "▁hope",
        -8.844243866208066
      ],
      [
        "▁kill",
        -8.849164186106847
      ],
      [
        "▁dr",
        -8.853413767586156
      ],
      [
        "▁court",
        -8.853682038992623
      ],
      [
        "ism",
        -8.854228486288745
      ],
      [
        "▁baby",
        -8.854608744355325
      ],
      [
        "▁service",
        -8.855404065420258
      ],
      [
        "▁ten",
        -8.85698753664973
      ],
      [
        "▁watch",
        -8.857603133697284
      ],
      [
        "▁business",
        -8.859580446126191
      ],
      [
        "▁human",
        -8.86478981354125
      ],
      [
        "by",
        -8.865494174861624
      ],
      [
        "#",
        -8.866715421037208
      ],
      [
        "▁drink",
        -8.869297282482925
      ],
      [
        "▁free",
        -8.87120260201524
      ],
      [
        "▁ready",
        -8.873889862736853
      ],
      [
        "▁goes",
        -8.874665245988943
      ],
      [
        "é",
        -8.876359851013383
      ],
      [
        "▁true",
        -8.87971125317328
      ],
      [
        "▁ho",
        -8.88032091565153
      ],
      [
        "what",
        -8.880435303909229
      ],
      [
        "▁history",
        -8.880733917331227
      ],
      [
        "▁lost",
        -8.883059291873877
      ],
      [
        "ally",
        -8.884791590268723
      ],
      [
        "ca",
        -8.884987340538823
      ],
      [
        "▁company",
        -8.88714875603088
      ],
      [
        "▁blood",
        -8.888324408544175
      ],
      [
        "▁means",
        -8.895434747008315
      ],
      [
        "▁rest",
        -8.895746833128996
      ],
      [
        "▁making",
        -8.896206139297593
      ],
      [
        "▁sit",
        -8.901451579375221
      ],
      [
        "▁hello",
        -8.90182442529219
      ],
      [
        "▁island",
        -8.905516243664673
      ],
      [
        "▁almost",
        -8.905845193283763
      ],
      [
        "▁mar",
        -8.907105753114777
      ],
      [
        "▁english",
        -8.909537326697748
      ],
      [
        "▁late",
        -8.90959402370742
      ],
      [
        "▁example",
        -8.909767399135461
      ],
      [
        "▁age",
        -8.913571145419224
      ],
      [
        "ang",
        -8.914156663799801
      ],
      [
        "ley",
        -8.914605586875691
      ],
      [
        "▁sometimes",
        -8.915084401188196
      ],
      [
        "▁france",
        -8.915524632837382
      ],
      [
        "one",
        -8.916046797873205
      ],
      [
        "wanted",
        -8.91847665604578
      ],
      [
        "j",
        -8.91944786597037
      ],
      [
        "▁reason",
        -8.923575521253703
      ],
      [
        "▁present",
        -8.927313270908492
      ],
      [
        "▁million",
        -8.92891174080393
      ],
      [
        "▁become",
        -8.93594758858766
      ],
      [
        "per",
        -8.93795515269964
      ],
      [
        "▁pick",
        -8.943870417387206
      ],
      [
        "▁yourself",
        -8.946207495996514
      ],
      [
        "▁al",
        -8.95113160076432
      ],
      [
        "▁daughter",
        -8.955664231081073
      ],
      [
        "den",
        -8.95569858967788
      ],
      [
        "▁allow",
        -8.959756502932263
      ],
      [
        "▁working",
        -8.96044191499151
      ],
      [
        "▁body",
        -8.96256931657119
      ],
      [
        "▁ago",
        -8.963887009940958
      ],
      [
        "▁west",
        -8.96499396808018
      ],
      [
        "▁march",
        -8.966109708373459
      ],
      [
        "▁ba",
        -8.967351470841415
      ],
      [
        "▁area",
        -8.969921006515136
      ],
      [
        "▁ok",
        -8.971761527353749
      ],
      [
        "▁wouldn",
        -8.97186940012499
      ],
      [
        "ow",
        -8.971964148968667
      ],
      [
        "▁usual",
        -8.975687767183377
      ],
      [
        "ver",
        -8.975755973344672
      ],
      [
        "▁cl",
        -8.978871590308888
      ],
      [
        "▁building",
        -8.9789156072185
      ],
      [
        "▁road",
        -8.981318189932887
      ],
      [
        "▁top",
        -8.981454898932569
      ],
      [
        "men",
        -8.981922581677887
      ],
      [
        "out",
        -8.984942415177873
      ],
      [
        "▁district",
        -8.985578679193981
      ],
      [
        "▁haven",
        -8.98965550268251
      ],
      [
        "▁river",
        -8.991293860424573
      ],
      [
        "▁term",
        -8.99378650848129
      ],
      [
        "▁given",
        -8.995483255454015
      ],
      [
        "▁food",
        -8.99608367738461
      ],
      [
        "▁child",
        -8.997516409553533
      ],
      [
        "way",
        -8.99776627724475
      ],
      [
        "ner",
        -8.998979644687534
      ],
      [
        "▁happy",
        -9.000398626135807
      ],
      [
        "lin",
        -9.001395710725783
      ],
      [
        "▁hands",
        -9.007258024895886
      ],
      [
        "▁pa",
        -9.008131336140364
      ],
      [
        "▁york",
        -9.008623761774736
      ],
      [
        "ard",
        -9.010057523999448
      ],
      [
        "▁cut",
        -9.010638432256966
      ],
      [
        "▁stand",
        -9.01507776860108
      ],
      [
        "▁fight",
        -9.016280083850488
      ],
      [
        "▁stuff",
        -9.020357751342598
      ],
      [
        "born",
        -9.0225733042442
      ],
      [
        "▁hit",
        -9.022590621892473
      ],
      [
        "▁meet",
        -9.02424066007968
      ],
      [
        "▁wasn",
        -9.025018277647334
      ],
      [
        "▁myself",
        -9.026111905694968
      ],
      [
        "ng",
        -9.02762286683561
      ],
      [
        "▁brought",
        -9.027755137446048
      ],
      [
        "▁guess",
        -9.028238672881107
      ],
      [
        "▁thanks",
        -9.028512061592068
      ],
      [
        "▁doctor",
        -9.028994802817806
      ],
      [
        "▁park",
        -9.033032419273091
      ],
      [
        "▁several",
        -9.033201912571716
      ],
      [
        "▁front",
        -9.033237072882546
      ],
      [
        "led",
        -9.038272575676253
      ],
      [
        "▁pre",
        -9.03833532821654
      ],
      [
        "▁quick",
        -9.040730964671784
      ],
      [
        "gu",
        -9.044940359043828
      ],
      [
        "▁deal",
        -9.048183571340536
      ],
      [
        "▁behind",
        -9.049248341259652
      ],
      [
        "▁song",
        -9.050335072759736
      ],
      [
        "▁support",
        -9.050766161426916
      ],
      [
        "▁least",
        -9.05080212617709
      ],
      [
        "▁captain",
        -9.053809470640598
      ],
      [
        "▁bar",
        -9.054939916073453
      ],
      [
        "▁walk",
        -9.05700124443629
      ],
      [
        "▁language",
        -9.057371591652728
      ],
      [
        "▁killed",
        -9.059033755147617
      ],
      [
        "▁serie",
        -9.059277113307612
      ],
      [
        "▁friends",
        -9.059813605366433
      ],
      [
        "▁past",
        -9.0626826263037
      ],
      [
        "▁reach",
        -9.066320856340234
      ],
      [
        "tion",
        -9.06734132749932
      ],
      [
        "▁januar",
        -9.069686692945115
      ],
      [
        "▁taking",
        -9.070213958555945
      ],
      [
        "▁season",
        -9.071294191608931
      ],
      [
        "married",
        -9.073828701655149
      ],
      [
        "▁rather",
        -9.074887936519762
      ],
      [
        "▁office",
        -9.075022079435543
      ],
      [
        "▁public",
        -9.07506055123254
      ],
      [
        "▁either",
        -9.075900189186092
      ],
      [
        "▁common",
        -9.077458436756094
      ],
      [
        "▁force",
        -9.078561421108368
      ],
      [
        "▁single",
        -9.0801132215699
      ],
      [
        "▁paper",
        -9.08020135018212
      ],
      [
        "que",
        -9.08029436260644
      ],
      [
        "▁alright",
        -9.081697147553092
      ],
      [
        "▁clear",
        -9.083799135458296
      ],
      [
        "▁taken",
        -9.085080333267133
      ],
      [
        "mer",
        -9.088612640831078
      ],
      [
        "▁answer",
        -9.089619078863633
      ],
      [
        "▁plan",
        -9.089664986026577
      ],
      [
        "▁eight",
        -9.09023968553046
      ],
      [
        "▁law",
        -9.092042991839744
      ],
      [
        "▁design",
        -9.092549888459695
      ],
      [
        "▁ship",
        -9.092991970010582
      ],
      [
        "▁mrs",
        -9.09469809147802
      ],
      [
        "▁check",
        -9.09542189955976
      ],
      [
        "▁sp",
        -9.096501403965153
      ],
      [
        "▁award",
        -9.096524071188368
      ],
      [
        "▁band",
        -9.100386338170704
      ],
      [
        "▁voice",
        -9.10222981396107
      ],
      [
        "▁words",
        -9.103559226059971
      ],
      [
        "▁poor",
        -9.103898625469808
      ],
      [
        "▁church",
        -9.107536526471376
      ],
      [
        "▁sleep",
        -9.10840372675802
      ],
      [
        "▁huh",
        -9.108475337666697
      ],
      [
        "$",
        -9.111849577756672
      ],
      [
        "▁alone",
        -9.11266456859164
      ],
      [
        "▁cause",
        -9.11319218723981
      ],
      [
        "▁green",
        -9.11351040414329
      ],
      [
        "▁special",
        -9.115560529368889
      ],
      [
        "▁beautiful",
        -9.116166639155336
      ],
      [
        "▁living",
        -9.117791610128958
      ],
      [
        "▁fall",
        -9.118261981516897
      ],
      [
        "▁east",
        -9.119358479547676
      ],
      [
        "▁po",
        -9.119674654407438
      ],
      [
        "▁piece",
        -9.119978259364022
      ],
      [
        "ka",
        -9.120872840838524
      ],
      [
        "▁mom",
        -9.121081404060757
      ],
      [
        "▁dear",
        -9.121348595400873
      ],
      [
        "ical",
        -9.122429742062383
      ],
      [
        "time",
        -9.122470411877648
      ],
      [
        "▁se",
        -9.123098822276292
      ],
      [
        "▁wish",
        -9.132205645173215
      ],
      [
        "▁attack",
        -9.137496532943176
      ],
      [
        "▁san",
        -9.142307256658572
      ],
      [
        "▁perhaps",
        -9.142601142438451
      ],
      [
        "▁sound",
        -9.14491742423451
      ],
      [
        "▁bed",
        -9.145139446312932
      ],
      [
        "▁everyone",
        -9.147336873953174
      ],
      [
        "▁lady",
        -9.148012288041585
      ],
      [
        "▁third",
        -9.149148336453194
      ],
      [
        "▁player",
        -9.14928304984626
      ],
      [
        "▁street",
        -9.151058253483882
      ],
      [
        "▁hundred",
        -9.152503355361986
      ],
      [
        "▁couldn",
        -9.155056697815048
      ],
      [
        "▁less",
        -9.155941962617288
      ],
      [
        "▁local",
        -9.160444808414326
      ],
      [
        "▁sister",
        -9.162075562675415
      ],
      [
        "▁fr",
        -9.164740203791595
      ],
      [
        "▁album",
        -9.17347081393292
      ],
      [
        "▁die",
        -9.1747608273411
      ],
      [
        "pp",
        -9.175294321318525
      ],
      [
        "▁happen",
        -9.175515325963596
      ],
      [
        "▁win",
        -9.17627142717555
      ],
      [
        "▁sent",
        -9.17771865111299
      ],
      [
        "▁ab",
        -9.177993382439595
      ],
      [
        "con",
        -9.17911867946707
      ],
      [
        "%",
        -9.179785517289233
      ],
      [
        "ves",
        -9.181527680077672
      ],
      [
        "line",
        -9.181562442460068
      ],
      [
        "▁ex",
        -9.182701751760169
      ],
      [
        "ven",
        -9.186541073655189
      ],
      [
        "▁fuck",
        -9.187226845687466
      ],
      [
        "▁include",
        -9.18788733266081
      ],
      [
        "▁british",
        -9.188241886506963
      ],
      [
        "▁sun",
        -9.19098748626018
      ],
      [
        "▁blue",
        -9.191972618667888
      ],
      [
        "▁da",
        -9.194977031207706
      ],
      [
        "▁inside",
        -9.196091043072313
      ],
      [
        "▁police",
        -9.19686794103869
      ],
      [
        "▁speak",
        -9.197043088913476
      ],
      [
        "▁pro",
        -9.197106468831826
      ],
      [
        "▁buy",
        -9.197475169288142
      ],
      [
        "▁german",
        -9.19862819567335
      ],
      [
        "▁star",
        -9.205952625535236
      ],
      [
        "▁seven",
        -9.209898967683229
      ],
      [
        "▁chance",
        -9.210312925101352
      ],
      [
        "▁outside",
        -9.210938576428362
      ],
      [
        "▁save",
        -9.211556996494888
      ],
      [
        "more",
        -9.212926750996523
      ],
      [
        "▁break",
        -9.21444998150169
      ],
      [
        "▁mine",
        -9.214482423974433
      ],
      [
        "▁month",
        -9.216095785547743
      ],
      [
        "▁sept",
        -9.216198603754204
      ],
      [
        "▁vi",
        -9.216423090154525
      ],
      [
        "▁jul",
        -9.21722343350672
      ],
      [
        "▁cost",
        -9.217365368364066
      ],
      [
        "across",
        -9.21800129328294
      ],
      [
        "▁thinking",
        -9.21824263258107
      ],
      [
        "▁figure",
        -9.21856952799874
      ],
      [
        "▁following",
        -9.220841277504608
      ],
      [
        "▁region",
        -9.22143266745567
      ],
      [
        "▁major",
        -9.221766027752842
      ],
      [
        "▁original",
        -9.22240059814085
      ],
      [
        "▁art",
        -9.224079263579087
      ],
      [
        "▁um",
        -9.224088679758395
      ],
      [
        "▁send",
        -9.225448142159012
      ],
      [
        "▁football",
        -9.225813799161976
      ],
      [
        "▁cat",
        -9.225896136981516
      ],
      [
        "▁character",
        -9.226342345819717
      ],
      [
        "ger",
        -9.226785905372896
      ],
      [
        "▁consider",
        -9.226979135998777
      ],
      [
        "aught",
        -9.22729586444849
      ],
      [
        "▁club",
        -9.227584765398198
      ],
      [
        "▁held",
        -9.227778453790956
      ],
      [
        "turned",
        -9.228265875427695
      ],
      [
        "▁result",
        -9.228792058317396
      ],
      [
        "▁french",
        -9.230014610623073
      ],
      [
        "ial",
        -9.230055648955611
      ],
      [
        "▁cos",
        -9.230548289265748
      ],
      [
        "▁exactly",
        -9.231170662380109
      ],
      [
        "▁ran",
        -9.233512911664263
      ],
      [
        "▁playing",
        -9.234384551611502
      ],
      [
        "▁population",
        -9.234881577764993
      ],
      [
        "▁table",
        -9.240532601025611
      ],
      [
        "▁lord",
        -9.242153397167026
      ],
      [
        "▁built",
        -9.24219488807118
      ],
      [
        "▁write",
        -9.242547302416105
      ],
      [
        "▁college",
        -9.243421836675434
      ],
      [
        "▁gold",
        -9.2434516527476
      ],
      [
        "▁rock",
        -9.245426770998687
      ],
      [
        "well",
        -9.246153241436108
      ],
      [
        "▁hair",
        -9.246732313176883
      ],
      [
        "▁list",
        -9.249021245600446
      ],
      [
        "▁ground",
        -9.2503185085075
      ],
      [
        "gra",
        -9.251284001238831
      ],
      [
        "▁dark",
        -9.252584986099508
      ],
      [
        "▁twenty",
        -9.25267534803979
      ],
      [
        "▁return",
        -9.252814109620113
      ],
      [
        "▁pe",
        -9.252860856517444
      ],
      [
        "ship",
        -9.253169819274872
      ],
      [
        "ex",
        -9.25358398290101
      ],
      [
        "▁touch",
        -9.254908122316316
      ],
      [
        "han",
        -9.256679567499988
      ],
      [
        "ped",
        -9.256840763686624
      ],
      [
        "gen",
        -9.25956050251511
      ],
      [
        "▁j",
        -9.259842761616175
      ],
      [
        "▁master",
        -9.260332388352293
      ],
      [
        "▁continue",
        -9.261555400688655
      ],
      [
        "▁remain",
        -9.26560020097614
      ],
      [
        "▁comes",
        -9.266412394803035
      ],
      [
        "ber",
        -9.267120761287396
      ],
      [
        "▁department",
        -9.26769034152939
      ],
      [
        "▁wi",
        -9.268532302838338
      ],
      [
        "▁possible",
        -9.26858780339168
      ],
      [
        "▁whatever",
        -9.26911491855317
      ],
      [
        "▁trouble",
        -9.270812218006402
      ],
      [
        "▁everybody",
        -9.272112209423824
      ],
      [
        "▁bear",
        -9.27226501936656
      ],
      [
        "▁video",
        -9.272410509789148
      ],
      [
        "▁report",
        -9.27246497566686
      ],
      [
        "gotta",
        -9.274647816534
      ],
      [
        "▁fun",
        -9.274739764728611
      ],
      [
        "our",
        -9.275302560409177
      ],
      [
        "ja",
        -9.278460367650943
      ],
      [
        "▁tomorrow",
        -9.27892841206431
      ],
      [
        "▁anyone",
        -9.279441840977125
      ],
      [
        "ham",
        -9.279582353660498
      ],
      [
        "▁member",
        -9.279807869537606
      ],
      [
        "▁jo",
        -9.280838781815827
      ],
      [
        "▁village",
        -9.281227208831934
      ],
      [
        "▁hurt",
        -9.28354294815254
      ],
      [
        "▁control",
        -9.285652132633109
      ],
      [
        "▁bird",
        -9.285967378293066
      ],
      [
        "▁earth",
        -9.286923420381097
      ],
      [
        "▁whether",
        -9.28928423826509
      ],
      [
        "ence",
        -9.289946150076624
      ],
      [
        "▁includin",
        -9.292059535519307
      ],
      [
        "▁looks",
        -9.294764843230324
      ],
      [
        "let",
        -9.295153698736632
      ],
      [
        "huh",
        -9.2960892923331
      ],
      [
        "▁rule",
        -9.296744996395642
      ],
      [
        "▁phone",
        -9.298172682307634
      ],
      [
        "▁couple",
        -9.299096041892511
      ],
      [
        "pril",
        -9.299501883558792
      ],
      [
        "▁program",
        -9.299727622418878
      ],
      [
        "▁space",
        -9.301393465013536
      ],
      [
        "▁shit",
        -9.30322248389115
      ],
      [
        "▁anyway",
        -9.305715646597443
      ],
      [
        "for",
        -9.30644205473682
      ],
      [
        "▁london",
        -9.307449109782889
      ],
      [
        "▁easy",
        -9.307486326821028
      ],
      [
        "▁till",
        -9.308913553025242
      ],
      [
        "▁makes",
        -9.309557337078411
      ],
      [
        "▁cross",
        -9.30984812663037
      ],
      [
        "bb",
        -9.310832266440348
      ],
      [
        "all",
        -9.311080148227806
      ],
      [
        "▁level",
        -9.31376436519445
      ],
      [
        "▁ja",
        -9.31737507486785
      ],
      [
        "▁met",
        -9.317713404575526
      ],
      [
        "▁leg",
        -9.317889931633331
      ],
      [
        "▁thousand",
        -9.317985252248883
      ],
      [
        "kin",
        -9.318191275335396
      ],
      [
        "▁mark",
        -9.319540160546708
      ],
      [
        "▁train",
        -9.319768556407173
      ],
      [
        "▁post",
        -9.32167278995716
      ],
      [
        "▁among",
        -9.321762908874444
      ],
      [
        "▁sign",
        -9.322495803231508
      ],
      [
        "▁felt",
        -9.322853171591596
      ],
      [
        "▁written",
        -9.323258343630588
      ],
      [
        "▁fell",
        -9.32362045065679
      ],
      [
        "▁hot",
        -9.324012458610955
      ],
      [
        "▁june",
        -9.325359476402811
      ],
      [
        "▁cup",
        -9.326207860336048
      ],
      [
        "▁cold",
        -9.32697518324762
      ],
      [
        "▁sense",
        -9.327896235359852
      ],
      [
        "▁nov",
        -9.32820032417493
      ],
      [
        "▁career",
        -9.32873086913801
      ],
      [
        "▁england",
        -9.32928960256118
      ],
      [
        "▁peter",
        -9.330497237062524
      ],
      [
        "com",
        -9.331039425056062
      ],
      [
        "▁august",
        -9.331073998573649
      ],
      [
        "▁shut",
        -9.333176355773574
      ],
      [
        "ler",
        -9.333826928430408
      ],
      [
        "▁fair",
        -9.33483737404035
      ],
      [
        "▁box",
        -9.335783205121622
      ],
      [
        "▁gu",
        -9.337465979101507
      ],
      [
        "▁hell",
        -9.338026479561002
      ],
      [
        "day",
        -9.338747731763728
      ],
      [
        "ating",
        -9.33875090574551
      ],
      [
        "▁view",
        -9.33899466826262
      ],
      [
        "▁particular",
        -9.342762192605074
      ],
      [
        "▁clean",
        -9.344197806370255
      ],
      [
        "tried",
        -9.344863477646626
      ],
      [
        "—",
        -9.348202458633068
      ],
      [
        "▁information",
        -9.348327008882997
      ],
      [
        "▁shot",
        -9.34841147823838
      ],
      [
        "▁fa",
        -9.348537250050086
      ],
      [
        "uk",
        -9.349133993847886
      ],
      [
        "▁centur",
        -9.349495543985736
      ],
      [
        "▁army",
        -9.349811641935943
      ],
      [
        "▁worry",
        -9.350250272506742
      ],
      [
        "▁husband",
        -9.350250813346296
      ],
      [
        "▁cover",
        -9.353166272793782
      ],
      [
        "▁equal",
        -9.353678413091805
      ],
      [
        "▁former",
        -9.354585455640516
      ],
      [
        "▁dog",
        -9.355671142437076
      ],
      [
        "▁instead",
        -9.357210393898608
      ],
      [
        "▁hill",
        -9.3581983791982
      ],
      [
        "che",
        -9.358703645728063
      ],
      [
        "▁event",
        -9.362066480728906
      ],
      [
        "▁throw",
        -9.363419596205556
      ],
      [
        "▁strong",
        -9.363427169326616
      ],
      [
        "ok",
        -9.367316829352614
      ],
      [
        "▁current",
        -9.36740968933926
      ],
      [
        "za",
        -9.367555714745492
      ],
      [
        "qui",
        -9.369036648956634
      ],
      [
        "ory",
        -9.370294758729294
      ],
      [
        "▁sub",
        -9.37101955419828
      ],
      [
        "▁mov",
        -9.371375574990289
      ],
      [
        "▁role",
        -9.371946714337906
      ],
      [
        "but",
        -9.37211044803491
      ],
      [
        "king",
        -9.372710587588177
      ],
      [
        "▁based",
        -9.37312042232249
      ],
      [
        "▁wind",
        -9.374531766538656
      ],
      [
        "mp",
        -9.376614004598586
      ],
      [
        "ster",
        -9.378494152657602
      ],
      [
        "▁issue",
        -9.378603038693672
      ],
      [
        "▁television",
        -9.378671059959704
      ],
      [
        "▁produce",
        -9.379992337472125
      ],
      [
        "▁field",
        -9.382577912166422
      ],
      [
        "▁america",
        -9.382961777942636
      ],
      [
        "▁somebody",
        -9.38374091813896
      ],
      [
        "▁fast",
        -9.384401577318012
      ],
      [
        "▁ball",
        -9.384737273509185
      ],
      [
        "▁hour",
        -9.386207988194906
      ],
      [
        "▁george",
        -9.387849939089635
      ],
      [
        "▁octob",
        -9.388889271235298
      ],
      [
        "▁members",
        -9.390660669033286
      ],
      [
        "▁drive",
        -9.390802335928129
      ],
      [
        "ator",
        -9.391508476134735
      ],
      [
        "▁cannot",
        -9.39286776935925
      ],
      [
        "▁truth",
        -9.393732586156808
      ],
      [
        "wa",
        -9.394828366368875
      ],
      [
        "▁pull",
        -9.395074069971368
      ],
      [
        "that",
        -9.395351126493765
      ],
      [
        "▁color",
        -9.397036871039084
      ],
      [
        "▁commune",
        -9.3993362217996
      ],
      [
        "▁follow",
        -9.400483861759511
      ],
      [
        "▁receive",
        -9.40241801177184
      ],
      [
        "▁wrote",
        -9.404304635797118
      ],
      [
        "▁december",
        -9.406460629839348
      ],
      [
        "▁hours",
        -9.406523387150989
      ],
      [
        "side",
        -9.40836556972825
      ],
      [
        "▁crie",
        -9.412050730323127
      ],
      [
        "lan",
        -9.413129507496375
      ],
      [
        "▁james",
        -9.413809829375564
      ],
      [
        "▁international",
        -9.41444717500341
      ],
      [
        "▁experience",
        -9.4147954594383
      ],
      [
        "▁dream",
        -9.41531809268706
      ],
      [
        "ping",
        -9.4170765601402
      ],
      [
        "▁nor",
        -9.418959130483962
      ],
      [
        "▁feet",
        -9.419831577606914
      ],
      [
        "▁li",
        -9.421378638032849
      ],
      [
        "▁sha",
        -9.42231780080478
      ],
      [
        "▁communit",
        -9.42323158783039
      ],
      [
        "ach",
        -9.42353134366323
      ],
      [
        "▁je",
        -9.424784188701068
      ],
      [
        "▁position",
        -9.42613418998658
      ],
      [
        "▁pass",
        -9.426596838822508
      ],
      [
        "▁boys",
        -9.426678473200806
      ],
      [
        "▁aren",
        -9.428710699517378
      ],
      [
        "▁although",
        -9.429151489899434
      ],
      [
        "▁draw",
        -9.42969433512148
      ],
      [
        "how",
        -9.429810012706586
      ],
      [
        "▁lu",
        -9.431502825473
      ],
      [
        "▁picture",
        -9.431563696891368
      ],
      [
        "▁wood",
        -9.43298486065926
      ],
      [
        "ious",
        -9.434900288292289
      ],
      [
        "▁promise",
        -9.435734868849911
      ],
      [
        "▁games",
        -9.436060412559286
      ],
      [
        "▁dance",
        -9.436821436111728
      ],
      [
        "▁dress",
        -9.4380965609411
      ],
      [
        "▁due",
        -9.438536436161783
      ],
      [
        "▁tonight",
        -9.440190340436466
      ],
      [
        "▁seat",
        -9.441889055388266
      ],
      [
        "▁ring",
        -9.44247140053458
      ],
      [
        "▁period",
        -9.443275793690932
      ],
      [
        "▁febr",
        -9.443375624365371
      ],
      [
        "▁news",
        -9.444129893913033
      ],
      [
        "▁super",
        -9.444946344511848
      ],
      [
        "▁tree",
        -9.4454338565751
      ],
      [
        "▁queen",
        -9.446594262976888
      ],
      [
        "▁daddy",
        -9.447118554481504
      ],
      [
        "▁middle",
        -9.44778960486888
      ],
      [
        "cu",
        -9.448131985705013
      ],
      [
        "▁process",
        -9.449701345658855
      ],
      [
        "▁sat",
        -9.452663167140155
      ],
      [
        "▁sing",
        -9.454556544992707
      ],
      [
        "▁league",
        -9.456104432139966
      ],
      [
        "▁letter",
        -9.458056012826551
      ],
      [
        "▁class",
        -9.458295439571495
      ],
      [
        "ze",
        -9.461250724565286
      ],
      [
        "kept",
        -9.461569657015088
      ],
      [
        "using",
        -9.46161425388296
      ],
      [
        "▁nine",
        -9.465330315699308
      ],
      [
        "▁supposed",
        -9.465505632091288
      ],
      [
        "▁ar",
        -9.466897734340376
      ],
      [
        "▁longer",
        -9.46734033423685
      ],
      [
        "▁province",
        -9.469871336083743
      ],
      [
        "▁horse",
        -9.46999835319838
      ],
      [
        "of",
        -9.470916112766384
      ],
      [
        "▁offer",
        -9.471000990345113
      ],
      [
        "▁agree",
        -9.47107342910438
      ],
      [
        "▁type",
        -9.473175527146784
      ],
      [
        "▁cr",
        -9.475267016015716
      ],
      [
        "▁forget",
        -9.47599479969016
      ],
      [
        "▁meeting",
        -9.47755787541056
      ],
      [
        "▁kids",
        -9.47792009697033
      ],
      [
        "▁learn",
        -9.47842134152576
      ],
      [
        "▁afraid",
        -9.479933318101082
      ],
      [
        "ade",
        -9.4799980036917
      ],
      [
        "▁eye",
        -9.480374398578856
      ],
      [
        "▁project",
        -9.48071642424004
      ],
      [
        "len",
        -9.483658921562084
      ],
      [
        "▁lay",
        -9.484015257823174
      ],
      [
        "▁pan",
        -9.484804030959875
      ],
      [
        "▁low",
        -9.487166734751876
      ],
      [
        "▁interest",
        -9.48744488200506
      ],
      [
        "▁excuse",
        -9.487743907015073
      ],
      [
        "gan",
        -9.487837058918204
      ],
      [
        "▁honey",
        -9.487851056449772
      ],
      [
        "▁running",
        -9.48936428016172
      ],
      [
        "▁trust",
        -9.490861765318677
      ],
      [
        "ward",
        -9.491825372829496
      ],
      [
        "don",
        -9.492875322209969
      ],
      [
        "▁count",
        -9.492908715556496
      ],
      [
        "▁union",
        -9.493067153353056
      ],
      [
        "▁ye",
        -9.493918867127327
      ],
      [
        "uc",
        -9.494995472285888
      ],
      [
        "▁test",
        -9.496413729905424
      ],
      [
        "▁square",
        -9.496413848321414
      ],
      [
        "▁share",
        -9.499200311606344
      ],
      [
        "looked",
        -9.500791065130429
      ],
      [
        "stan",
        -9.501465890762889
      ],
      [
        "▁summer",
        -9.502010181070329
      ],
      [
        "▁key",
        -9.502528433004676
      ],
      [
        "▁above",
        -9.504349951270772
      ],
      [
        "▁hu",
        -9.5046574580141
      ],
      [
        "▁fucking",
        -9.507074666478388
      ],
      [
        "▁wall",
        -9.507348219315997
      ],
      [
        "▁popular",
        -9.507562864078295
      ],
      [
        "▁publish",
        -9.508337591225072
      ],
      [
        "▁capital",
        -9.508339808379764
      ],
      [
        "▁battle",
        -9.508374207745256
      ],
      [
        "tri",
        -9.508967904897936
      ],
      [
        "▁fear",
        -9.510253894825633
      ],
      [
        "▁gun",
        -9.5103070032825
      ],
      [
        "▁match",
        -9.511220466043046
      ],
      [
        "her",
        -9.511281983842782
      ],
      [
        "▁social",
        -9.512774350317171
      ],
      [
        "▁lives",
        -9.519370214816163
      ],
      [
        "▁push",
        -9.521472498430722
      ],
      [
        "▁accept",
        -9.52285573880813
      ],
      [
        "▁science",
        -9.52447371865134
      ],
      [
        "old",
        -9.524565744890443
      ],
      [
        "chi",
        -9.524616957473764
      ],
      [
        "▁wonder",
        -9.525226465218363
      ],
      [
        "▁ga",
        -9.526105741362072
      ],
      [
        "▁center",
        -9.527159131585652
      ],
      [
        "▁natural",
        -9.527749717056238
      ],
      [
        "▁value",
        -9.528584870772118
      ],
      [
        "▁further",
        -9.53511918312978
      ],
      [
        "cent",
        -9.53548649543522
      ],
      [
        "▁hospital",
        -9.536748591413218
      ],
      [
        "▁hall",
        -9.540258060029906
      ],
      [
        "▁leader",
        -9.542830060633763
      ],
      [
        "▁le",
        -9.543494710779122
      ],
      [
        "▁final",
        -9.544174654866488
      ],
      [
        "▁lead",
        -9.546635431363116
      ],
      [
        "▁catch",
        -9.547011889177488
      ],
      [
        "▁arm",
        -9.54744370762571
      ],
      [
        "▁education",
        -9.550010742992512
      ],
      [
        "▁pi",
        -9.550277547405011
      ],
      [
        "▁du",
        -9.550972707918364
      ],
      [
        "▁action",
        -9.55196379765676
      ],
      [
        "▁cap",
        -9.55234784733124
      ],
      [
        "▁waiting",
        -9.552528184528416
      ],
      [
        "my",
        -9.55304675104573
      ],
      [
        "▁murder",
        -9.553091583939224
      ],
      [
        "▁cool",
        -9.554584676048984
      ],
      [
        "▁paul",
        -9.554840712051002
      ],
      [
        "▁themsel",
        -9.556292051336111
      ],
      [
        "▁deep",
        -9.55644744031592
      ],
      [
        "▁bill",
        -9.556800239889236
      ],
      [
        "ure",
        -9.55732347197748
      ],
      [
        "rap",
        -9.558855527096949
      ],
      [
        "▁mhm",
        -9.560146765828058
      ],
      [
        "▁page",
        -9.560506717860678
      ],
      [
        "▁title",
        -9.560950240968136
      ],
      [
        "▁provide",
        -9.560978003111549
      ],
      [
        "▁visit",
        -9.561257094329198
      ],
      [
        "nes",
        -9.561811913008045
      ],
      [
        "▁bank",
        -9.561977579665312
      ],
      [
        "▁works",
        -9.56200401119988
      ],
      [
        "▁mommy",
        -9.562761988674447
      ],
      [
        "▁imp",
        -9.563748592701891
      ],
      [
        "▁sweet",
        -9.564992202816097
      ],
      [
        "▁enter",
        -9.565609285211975
      ],
      [
        "uar",
        -9.566563799680509
      ],
      [
        "▁foot",
        -9.567200247023344
      ],
      [
        "ung",
        -9.56736770356101
      ],
      [
        "▁study",
        -9.569761185623252
      ],
      [
        "▁kid",
        -9.572497834256271
      ],
      [
        "▁personal",
        -9.572601093744668
      ],
      [
        "▁step",
        -9.57304890342191
      ],
      [
        "▁according",
        -9.573486506848624
      ],
      [
        "▁pound",
        -9.573596402098149
      ],
      [
        "▁societ",
        -9.575360277915689
      ],
      [
        "▁girls",
        -9.57581842318358
      ],
      [
        "▁worth",
        -9.576000043638402
      ],
      [
        "▁port",
        -9.576299593549583
      ],
      [
        "ran",
        -9.576711772430691
      ],
      [
        "ez",
        -9.57770468403087
      ],
      [
        "▁mad",
        -9.577904899893788
      ],
      [
        "▁search",
        -9.579733413510674
      ],
      [
        "ros",
        -9.580552869770935
      ],
      [
        "▁board",
        -9.58268963527614
      ],
      [
        "ο",
        -9.583084360999257
      ],
      [
        "▁famous",
        -9.58309305769718
      ],
      [
        "can",
        -9.586138803961443
      ],
      [
        "stood",
        -9.5862315616553
      ],
      [
        "▁created",
        -9.58722230320447
      ],
      [
        "▁feeling",
        -9.588771918228028
      ],
      [
        "▁difficult",
        -9.589225915923812
      ],
      [
        "▁chief",
        -9.589879607789374
      ],
      [
        "ric",
        -9.59004117052998
      ],
      [
        "▁funny",
        -9.5900665305201
      ],
      [
        "▁su",
        -9.590199641678897
      ],
      [
        "▁jack",
        -9.590717343142574
      ],
      [
        "mar",
        -9.590894554409855
      ],
      [
        "ju",
        -9.592667725227107
      ],
      [
        "▁date",
        -9.594561609510595
      ],
      [
        "▁normal",
        -9.596265976686988
      ],
      [
        "▁future",
        -9.597901160336924
      ],
      [
        "▁evening",
        -9.599154279514568
      ],
      [
        "▁secret",
        -9.599272676805668
      ],
      [
        "▁card",
        -9.599375641284484
      ],
      [
        "▁central",
        -9.599619872393966
      ],
      [
        "▁fish",
        -9.601865231289356
      ],
      [
        "▁countr",
        -9.603713848317527
      ],
      [
        "off",
        -9.603760109936678
      ],
      [
        "▁direct",
        -9.603920471356126
      ],
      [
        "▁ju",
        -9.603985264250518
      ],
      [
        "▁boat",
        -9.605055598127883
      ],
      [
        "▁stage",
        -9.605066947074471
      ],
      [
        "ize",
        -9.606339532174037
      ],
      [
        "bu",
        -9.608227581504565
      ],
      [
        "▁grand",
        -9.608384916810031
      ],
      [
        "▁rose",
        -9.60931533179718
      ],
      [
        "▁amount",
        -9.609636726047924
      ],
      [
        "▁glad",
        -9.610591739764612
      ],
      [
        "▁cor",
        -9.610644260460992
      ],
      [
        "▁raise",
        -9.611109584497116
      ],
      [
        "▁market",
        -9.611204442484766
      ],
      [
        "she",
        -9.613367700204872
      ],
      [
        "▁careful",
        -9.61421939302658
      ],
      [
        "▁enjoy",
        -9.614632256323894
      ],
      [
        "▁official",
        -9.614633461353078
      ],
      [
        "▁tea",
        -9.616076236637046
      ],
      [
        "▁travel",
        -9.617302299104695
      ],
      [
        "▁indian",
        -9.617520524156228
      ],
      [
        "▁effect",
        -9.619958776964712
      ],
      [
        "hal",
        -9.621730056112892
      ],
      [
        "giving",
        -9.621779972166305
      ],
      [
        "▁kiss",
        -9.62189735459065
      ],
      [
        "end",
        -9.622399787377308
      ],
      [
        "▁safe",
        -9.623484858407444
      ],
      [
        "▁appear",
        -9.623599432807511
      ],
      [
        "▁minister",
        -9.624517280460733
      ],
      [
        "▁track",
        -9.62556017745962
      ],
      [
        "▁wa",
        -9.625929423615595
      ],
      [
        "▁david",
        -9.62627084847916
      ],
      [
        "▁michael",
        -9.626563925037662
      ],
      [
        "▁contain",
        -9.627200336699463
      ],
      [
        "▁feature",
        -9.627451893421782
      ],
      [
        "ring",
        -9.628466160934252
      ],
      [
        "▁japan",
        -9.629022715518436
      ],
      [
        "▁bag",
        -9.63229232056795
      ],
      [
        "▁condition",
        -9.632594187453371
      ],
      [
        "▁christian",
        -9.633387044649396
      ],
      [
        "▁inter",
        -9.633442357156987
      ],
      [
        "car",
        -9.634194463332598
      ],
      [
        "▁served",
        -9.63618827444975
      ],
      [
        "▁ver",
        -9.637173835405118
      ],
      [
        "▁decided",
        -9.637230827102927
      ],
      [
        "▁similar",
        -9.638046779151823
      ],
      [
        "zi",
        -9.638362497661568
      ],
      [
        "▁cha",
        -9.639010292060506
      ],
      [
        "ville",
        -9.639356438132824
      ],
      [
        "▁bell",
        -9.639745352799356
      ],
      [
        "▁fl",
        -9.640640202947932
      ],
      [
        "▁modern",
        -9.642612861352172
      ],
      [
        "▁coast",
        -9.643727022932236
      ],
      [
        "▁straight",
        -9.644418405928947
      ],
      [
        "▁tri",
        -9.645546545735549
      ],
      [
        "▁unit",
        -9.647275396659037
      ],
      [
        "▁hate",
        -9.647494095722552
      ],
      [
        "whose",
        -9.647609409930848
      ],
      [
        "▁trade",
        -9.647831155191444
      ],
      [
        "▁rich",
        -9.64784325786193
      ],
      [
        "▁floor",
        -9.648364427444918
      ],
      [
        "▁flower",
        -9.650323850695765
      ],
      [
        "▁prince",
        -9.65045462567573
      ],
      [
        "▁subject",
        -9.650885485525231
      ],
      [
        "▁frank",
        -9.650966307345696
      ],
      [
        "▁sell",
        -9.651207257619454
      ],
      [
        "▁va",
        -9.652361611897645
      ],
      [
        "q",
        -9.652920526635551
      ],
      [
        "▁passed",
        -9.65479093041616
      ],
      [
        "▁lose",
        -9.65502069974188
      ],
      [
        "air",
        -9.656592719324667
      ],
      [
        "▁forest",
        -9.656718284552255
      ],
      [
        "▁complete",
        -9.656988144045725
      ],
      [
        "▁beginning",
        -9.657381612618678
      ],
      [
        "▁quiet",
        -9.657390361658145
      ],
      [
        "▁wow",
        -9.65883441280581
      ],
      [
        "▁soft",
        -9.65901901433336
      ],
      [
        "▁cook",
        -9.659650032165416
      ],
      [
        "▁teacher",
        -9.660112749781604
      ],
      [
        "yes",
        -9.661143875211136
      ],
      [
        "▁finally",
        -9.661867048276791
      ],
      [
        "▁crazy",
        -9.663890442106297
      ],
      [
        "ck",
        -9.664110301658084
      ],
      [
        "▁india",
        -9.664673802087831
      ],
      [
        "▁ahead",
        -9.665035396431074
      ],
      [
        "lor",
        -9.66555196123634
      ],
      [
        "▁protect",
        -9.665702734263869
      ],
      [
        "▁nobody",
        -9.66804401271649
      ],
      [
        "▁robert",
        -9.668597020068397
      ],
      [
        "▁laugh",
        -9.669478013625213
      ],
      [
        "ong",
        -9.66970845763908
      ],
      [
        "▁books",
        -9.67056331338025
      ],
      [
        "▁council",
        -9.67139804849199
      ],
      [
        "▁mu",
        -9.672078615682905
      ],
      [
        "▁wear",
        -9.672189964817786
      ],
      [
        "▁sick",
        -9.676146808316131
      ],
      [
        "▁total",
        -9.67726144813826
      ],
      [
        "▁fo",
        -9.678061652011683
      ],
      [
        "▁product",
        -9.678114119760483
      ],
      [
        "▁stone",
        -9.67866069508286
      ],
      [
        "▁wh",
        -9.679843268583223
      ],
      [
        "▁director",
        -9.680003029660622
      ],
      [
        "▁fit",
        -9.680719658006584
      ],
      [
        "▁suppose",
        -9.68246350608603
      ],
      [
        "jo",
        -9.682696265447245
      ],
      [
        "▁bi",
        -9.683064522284042
      ],
      [
        "▁stick",
        -9.683966732032314
      ],
      [
        "▁telling",
        -9.684127384517542
      ],
      [
        "ice",
        -9.684550210778468
      ],
      [
        "▁expect",
        -9.686318964747285
      ],
      [
        "▁pen",
        -9.688607526997751
      ],
      [
        "▁political",
        -9.689801187087586
      ],
      [
        "▁development",
        -9.69061496342838
      ],
      [
        "▁parents",
        -9.690700521052008
      ],
      [
        "gar",
        -9.691487479856614
      ],
      [
        "▁mouth",
        -9.691710124387708
      ],
      [
        "tur",
        -9.692197313073883
      ],
      [
        "▁returned",
        -9.69457307102968
      ],
      [
        "▁followed",
        -9.694601393446735
      ],
      [
        "▁ko",
        -9.69496214553434
      ],
      [
        "▁computer",
        -9.695959090346566
      ],
      [
        "▁gr",
        -9.695960692028514
      ],
      [
        "▁roll",
        -9.6960928985005
      ],
      [
        "ji",
        -9.696260840884712
      ],
      [
        "▁kingdom",
        -9.697264321482413
      ],
      [
        "▁race",
        -9.697357790237788
      ],
      [
        "van",
        -9.698216871158175
      ],
      [
        "ack",
        -9.699586204872745
      ],
      [
        "▁simple",
        -9.70010228184412
      ],
      [
        "▁officer",
        -9.70011475428475
      ],
      [
        "▁especially",
        -9.701036926921098
      ],
      [
        "▁interesting",
        -9.70127495224198
      ],
      [
        "▁burn",
        -9.701739352531211
      ],
      [
        "▁animals",
        -9.702021115892649
      ],
      [
        "▁japanese",
        -9.702133304372444
      ],
      [
        "speaking",
        -9.702764958257386
      ],
      [
        "ple",
        -9.703024290945107
      ],
      [
        "▁beat",
        -9.703100455194226
      ],
      [
        "▁specie",
        -9.703129297195192
      ],
      [
        "▁health",
        -9.703962902009746
      ],
      [
        "vin",
        -9.704798589366712
      ],
      [
        "▁fi",
        -9.7058114377115
      ],
      [
        "ble",
        -9.70667409833148
      ],
      [
        "▁henry",
        -9.706881974985274
      ],
      [
        "▁scene",
        -9.706921751778658
      ],
      [
        "▁royal",
        -9.706941685619846
      ],
      [
        "▁radio",
        -9.708286650465649
      ],
      [
        "act",
        -9.708867909393426
      ],
      [
        "▁jump",
        -9.70901181228584
      ],
      [
        "paid",
        -9.709485399840394
      ],
      [
        "▁dan",
        -9.709520811140056
      ],
      [
        "▁hang",
        -9.710463052966688
      ],
      [
        "linois",
        -9.711118616467369
      ],
      [
        "▁perform",
        -9.711707909833745
      ],
      [
        "▁bridge",
        -9.71218515665424
      ],
      [
        "▁germany",
        -9.712429969882836
      ],
      [
        "▁bigge",
        -9.712989693040353
      ],
      [
        "▁garden",
        -9.713844255856785
      ],
      [
        "▁wants",
        -9.714541632355036
      ],
      [
        "▁respect",
        -9.714687385222517
      ],
      [
        "▁welcome",
        -9.714721304540069
      ],
      [
        "▁mid",
        -9.715221774973434
      ],
      [
        "seemed",
        -9.716032154628357
      ],
      [
        "▁private",
        -9.718672670090914
      ],
      [
        "▁situation",
        -9.719647778589133
      ],
      [
        "▁damn",
        -9.721013854533574
      ],
      [
        "ail",
        -9.721847489361874
      ],
      [
        "▁professional",
        -9.722082709550026
      ],
      [
        "▁sitting",
        -9.72277426329571
      ],
      [
        "▁fellow",
        -9.72280785416924
      ],
      [
        "▁rain",
        -9.722973389369969
      ],
      [
        "▁version",
        -9.723605255618116
      ],
      [
        "▁strange",
        -9.725876024503904
      ],
      [
        "▁store",
        -9.726078916769556
      ],
      [
        "▁mention",
        -9.726160294095193
      ],
      [
        "uff",
        -9.72722017876178
      ],
      [
        "▁model",
        -9.72829636576108
      ],
      [
        "▁leaving",
        -9.728609532710202
      ],
      [
        "▁bro",
        -9.730096192057776
      ],
      [
        "▁non",
        -9.730958350964976
      ],
      [
        "zed",
        -9.731540742445258
      ],
      [
        "abad",
        -9.732835750960673
      ],
      [
        "▁size",
        -9.733692261631964
      ],
      [
        "ball",
        -9.734051313339798
      ],
      [
        "▁blow",
        -9.734412747377162
      ],
      [
        "▁writing",
        -9.73458876138953
      ],
      [
        "▁nature",
        -9.734622882529663
      ],
      [
        "▁led",
        -9.73470731456485
      ],
      [
        "▁spend",
        -9.734721142984338
      ],
      [
        "▁begin",
        -9.735720233785834
      ],
      [
        "▁forward",
        -9.736151165686213
      ],
      [
        "▁anybody",
        -9.738734467380704
      ],
      [
        "cc",
        -9.740232284977608
      ],
      [
        "▁virginia",
        -9.740785744848129
      ],
      [
        "thus",
        -9.741010359004733
      ],
      [
        "▁except",
        -9.741161323152571
      ],
      [
        "▁difference",
        -9.74328401274501
      ],
      [
        "▁add",
        -9.744153982040496
      ],
      [
        "▁basic",
        -9.744383054061467
      ],
      [
        "▁indeed",
        -9.744736429506766
      ],
      [
        "▁tax",
        -9.745847782238863
      ],
      [
        "▁cur",
        -9.745897790178118
      ],
      [
        "ram",
        -9.747354001007256
      ],
      [
        "▁shoot",
        -9.749318735539507
      ],
      [
        "▁van",
        -9.751031698343
      ],
      [
        "ide",
        -9.751744822354258
      ],
      [
        "▁bur",
        -9.75188298642342
      ],
      [
        "har",
        -9.751938267640256
      ],
      [
        "▁lo",
        -9.752639728711024
      ],
      [
        "▁sh",
        -9.753360167114351
      ],
      [
        "▁brown",
        -9.754901140347016
      ],
      [
        "▁finished",
        -9.755037398980456
      ],
      [
        "located",
        -9.755230288292427
      ],
      [
        "▁site",
        -9.756884008732182
      ],
      [
        "ney",
        -9.75709103624906
      ],
      [
        "lar",
        -9.758500652603388
      ],
      [
        "▁movement",
        -9.759991806215652
      ],
      [
        "▁miles",
        -9.761550699444983
      ],
      [
        "▁perfect",
        -9.762050362794014
      ],
      [
        "▁explain",
        -9.76234250202244
      ],
      [
        "dic",
        -9.76311661868277
      ],
      [
        "cause",
        -9.763638387048251
      ],
      [
        "▁actor",
        -9.763707634638113
      ],
      [
        "▁account",
        -9.764199474435042
      ],
      [
        "▁thou",
        -9.764773557960185
      ],
      [
        "ture",
        -9.765420867376598
      ],
      [
        "cle",
        -9.76584953792798
      ],
      [
        "ral",
        -9.766121495299451
      ],
      [
        "wood",
        -9.767059041922954
      ],
      [
        "▁europe",
        -9.76724471233627
      ],
      [
        "▁decision",
        -9.768264022595826
      ],
      [
        "▁students",
        -9.768740161401242
      ],
      [
        "▁che",
        -9.769168726227852
      ],
      [
        "▁plant",
        -9.76925540604346
      ],
      [
        "board",
        -9.769886065483188
      ],
      [
        "▁price",
        -9.770522157107102
      ],
      [
        "▁suggest",
        -9.7708504912076
      ],
      [
        "▁represent",
        -9.770969756380255
      ],
      [
        "eli",
        -9.771287836782214
      ],
      [
        "▁limit",
        -9.772471211213531
      ],
      [
        "▁mary",
        -9.772645301303813
      ],
      [
        "▁william",
        -9.772721044899985
      ],
      [
        "▁wild",
        -9.773489564976424
      ],
      [
        "▁bon",
        -9.774002256666025
      ],
      [
        "▁cal",
        -9.77449561124718
      ],
      [
        "▁various",
        -9.774517319246772
      ],
      [
        "▁har",
        -9.775124194660815
      ],
      [
        "field",
        -9.775746186468512
      ],
      [
        "▁uncle",
        -9.775943531996964
      ],
      [
        "▁happens",
        -9.776839872063784
      ],
      [
        "val",
        -9.77727559434496
      ],
      [
        "▁mc",
        -9.777801886946484
      ],
      [
        "▁vote",
        -9.778503607496395
      ],
      [
        "▁lake",
        -9.7791478558936
      ],
      [
        "▁belong",
        -9.779172563227757
      ],
      [
        "▁division",
        -9.780888357666978
      ],
      [
        "▁exist",
        -9.782314933574678
      ],
      [
        "yard",
        -9.782828378031937
      ],
      [
        "▁window",
        -9.785287604798018
      ],
      [
        "▁machine",
        -9.785870462448608
      ],
      [
        "▁whom",
        -9.787256226892488
      ],
      [
        "▁answered",
        -9.787924886312698
      ],
      [
        "▁lie",
        -9.789931522526288
      ],
      [
        "▁tv",
        -9.7905746831779
      ],
      [
        "▁com",
        -9.791263254087085
      ],
      [
        "je",
        -9.791771983325734
      ],
      [
        "▁block",
        -9.792822458593792
      ],
      [
        "▁destroy",
        -9.793488768308212
      ],
      [
        "▁championship",
        -9.794610576423132
      ],
      [
        "▁scot",
        -9.795386329717372
      ],
      [
        "▁california",
        -9.7956195613198
      ],
      [
        "▁sad",
        -9.79671034568742
      ],
      [
        "▁comp",
        -9.797268570688752
      ],
      [
        "ban",
        -9.79883007961731
      ],
      [
        "▁increase",
        -9.799895642491872
      ],
      [
        "ski",
        -9.80024242104301
      ],
      [
        "▁somewhere",
        -9.80086847270763
      ],
      [
        "▁build",
        -9.801439414939807
      ],
      [
        "tru",
        -9.802029598396349
      ],
      [
        "▁doubt",
        -9.802040856782092
      ],
      [
        "▁ru",
        -9.802152505327172
      ],
      [
        "▁pop",
        -9.803861163574616
      ],
      [
        "▁sam",
        -9.80401951043343
      ],
      [
        "▁spring",
        -9.804353299712002
      ],
      [
        "▁research",
        -9.805198099529353
      ],
      [
        "▁material",
        -9.805266338215542
      ],
      [
        "▁coach",
        -9.80530074248897
      ],
      [
        "▁warm",
        -9.805747616751107
      ],
      [
        "months",
        -9.807691126415229
      ],
      [
        "▁patient",
        -9.807897142606866
      ],
      [
        "▁dinner",
        -9.80850582315519
      ],
      [
        "▁fail",
        -9.8089775410257
      ],
      [
        "▁western",
        -9.809176734518086
      ],
      [
        "▁charge",
        -9.809198986336751
      ],
      [
        "▁chair",
        -9.810390120516487
      ],
      [
        "ou",
        -9.811900504873412
      ],
      [
        "▁command",
        -9.812232366530536
      ],
      [
        "pos",
        -9.813860407202291
      ],
      [
        "▁bra",
        -9.814620376449737
      ],
      [
        "like",
        -9.815079336256655
      ],
      [
        "▁judge",
        -9.815171985737418
      ],
      [
        "▁discover",
        -9.815456323518417
      ],
      [
        "▁finish",
        -9.815951663101888
      ],
      [
        "▁claim",
        -9.815983342100129
      ],
      [
        "▁richard",
        -9.816250280919396
      ],
      [
        "▁sex",
        -9.816308931668718
      ],
      [
        "▁dick",
        -9.816709663778424
      ],
      [
        "▁studie",
        -9.8172540639826
      ],
      [
        "▁press",
        -9.817338025948546
      ],
      [
        "▁sch",
        -9.81918664853988
      ],
      [
        "▁ice",
        -9.820905858330946
      ],
      [
        "▁announce",
        -9.821243390065622
      ],
      [
        "▁mis",
        -9.82126230837372
      ],
      [
        "▁energy",
        -9.821552958834138
      ],
      [
        "▁grow",
        -9.82212246636965
      ],
      [
        "ists",
        -9.823019580286584
      ],
      [
        "▁ooh",
        -9.823780058400024
      ],
      [
        "▁describe",
        -9.824842443850123
      ],
      [
        "ium",
        -9.82601615528226
      ],
      [
        "ford",
        -9.827797008488526
      ],
      [
        "▁spirit",
        -9.829206896252384
      ],
      [
        "▁militar",
        -9.829246563601616
      ],
      [
        "▁serious",
        -9.829484305439204
      ],
      [
        "▁base",
        -9.830924793618026
      ],
      [
        "row",
        -9.83319363719584
      ],
      [
        "▁cit",
        -9.834331206630328
      ],
      [
        "▁pain",
        -9.835640154195548
      ],
      [
        "▁obvious",
        -9.838109608853
      ],
      [
        "▁camp",
        -9.838415893197787
      ],
      [
        "pur",
        -9.839097607760989
      ],
      [
        "over",
        -9.839121897417408
      ],
      [
        "ought",
        -9.839372683545427
      ],
      [
        "▁media",
        -9.840429185408311
      ],
      [
        "▁elect",
        -9.840594470633054
      ],
      [
        "▁bu",
        -9.843898728692334
      ],
      [
        "kan",
        -9.843916930843164
      ],
      [
        "zz",
        -9.844779526948011
      ],
      [
        "▁charles",
        -9.844830395271584
      ],
      [
        "▁plus",
        -9.845120609015986
      ],
      [
        "log",
        -9.845376512211423
      ],
      [
        "▁none",
        -9.845450730851333
      ],
      [
        "▁lower",
        -9.845606177077986
      ],
      [
        "▁clothes",
        -9.845932208038365
      ],
      [
        "▁civil",
        -9.846701429556026
      ],
      [
        "▁mac",
        -9.847160272319638
      ],
      [
        "▁disease",
        -9.84817728572073
      ],
      [
        "▁broke",
        -9.848542179989805
      ],
      [
        "▁py",
        -9.848565748112314
      ],
      [
        "▁florid",
        -9.851570361129223
      ],
      [
        "qua",
        -9.852079444929505
      ],
      [
        "▁message",
        -9.855101336591982
      ],
      [
        "▁forgot",
        -9.855435604567363
      ],
      [
        "▁involved",
        -9.856256162589576
      ],
      [
        "▁beside",
        -9.857939378383673
      ],
      [
        "▁success",
        -9.857985978599093
      ],
      [
        "▁ph",
        -9.85800288619996
      ],
      [
        "▁immediate",
        -9.858346384774164
      ],
      [
        "pro",
        -9.858969785685542
      ],
      [
        "▁marriage",
        -9.859482774640654
      ],
      [
        "▁regard",
        -9.859553063663842
      ],
      [
        "▁snow",
        -9.860359806265212
      ],
      [
        "hir",
        -9.864412518475588
      ],
      [
        "ku",
        -9.864880321798438
      ],
      [
        "▁election",
        -9.866692624712716
      ],
      [
        "art",
        -9.866920554753603
      ],
      [
        "▁attention",
        -9.86747461021261
      ],
      [
        "hat",
        -9.868630572706676
      ],
      [
        "▁establish",
        -9.869491504374498
      ],
      [
        "▁standing",
        -9.870935611202547
      ],
      [
        "▁peace",
        -9.87199419143311
      ],
      [
        "▁prime",
        -9.87417264686151
      ],
      [
        "night",
        -9.874777130777748
      ],
      [
        "▁princess",
        -9.874931556975891
      ],
      [
        "▁mistake",
        -9.87787417708673
      ],
      [
        "▁fe",
        -9.87862626542942
      ],
      [
        "▁nation",
        -9.880444667804964
      ],
      [
        "▁speed",
        -9.882594931191688
      ],
      [
        "▁brain",
        -9.885531606200404
      ],
      [
        "▁drop",
        -9.886215074760145
      ],
      [
        "within",
        -9.886394770363026
      ],
      [
        "til",
        -9.886403919604774
      ],
      [
        "ative",
        -9.886487046224184
      ],
      [
        "▁serve",
        -9.886770417000896
      ],
      [
        "▁honest",
        -9.887158133743648
      ],
      [
        "▁heavy",
        -9.887160192617962
      ],
      [
        "ā",
        -9.88831980680486
      ],
      [
        "▁cell",
        -9.888320495965962
      ],
      [
        "▁ancient",
        -9.888323492648276
      ],
      [
        "▁milk",
        -9.88842669801787
      ],
      [
        "not",
        -9.888574759676937
      ],
      [
        "▁artist",
        -9.889073242196485
      ],
      [
        "nic",
        -9.89146803312673
      ],
      [
        "▁previous",
        -9.893012031022678
      ],
      [
        "vis",
        -9.894133065694536
      ],
      [
        "▁honor",
        -9.894331429685405
      ],
      [
        "▁address",
        -9.895374533532284
      ],
      [
        "▁mon",
        -9.896855140178568
      ],
      [
        "▁professor",
        -9.897726107924347
      ],
      [
        "▁entire",
        -9.898701813919232
      ],
      [
        "▁gas",
        -9.9004185294653
      ],
      [
        "▁spent",
        -9.90055542956809
      ],
      [
        "▁mountain",
        -9.901008054198224
      ],
      [
        "▁census",
        -9.901276433175813
      ],
      [
        "▁purpose",
        -9.901276455478804
      ],
      [
        "ker",
        -9.901637503781917
      ],
      [
        "where",
        -9.901714916084757
      ],
      [
        "▁realize",
        -9.90297170491947
      ],
      [
        "ions",
        -9.903804923689314
      ],
      [
        "▁author",
        -9.90406251698537
      ],
      [
        "▁cast",
        -9.90441319001837
      ],
      [
        "▁animal",
        -9.90485686001437
      ],
      [
        "▁soul",
        -9.906108660015558
      ],
      [
        "▁double",
        -9.907225973254128
      ],
      [
        "▁christ",
        -9.90784129636572
      ],
      [
        "▁bought",
        -9.908717673402046
      ],
      [
        "now",
        -9.908978019610998
      ],
      [
        "▁bye",
        -9.909143232483078
      ],
      [
        "▁choice",
        -9.909675287001797
      ],
      [
        "▁bal",
        -9.909962655415807
      ],
      [
        "▁smile",
        -9.911572366691091
      ],
      [
        "▁code",
        -9.911969801933914
      ],
      [
        "stopped",
        -9.91270159688052
      ],
      [
        "▁ride",
        -9.91310657207681
      ],
      [
        "▁factor",
        -9.91483163221801
      ],
      [
        "▁episode",
        -9.915605009239147
      ],
      [
        "▁carry",
        -9.915909289989813
      ],
      [
        "▁sold",
        -9.916357115224226
      ],
      [
        "▁dar",
        -9.916563311920696
      ],
      [
        "▁bus",
        -9.91779784226154
      ],
      [
        "▁bat",
        -9.918444213661218
      ],
      [
        "▁spot",
        -9.918863048698237
      ],
      [
        "▁guard",
        -9.919593439774076
      ],
      [
        "▁grew",
        -9.919659406708096
      ],
      [
        "▁require",
        -9.920152750741105
      ],
      [
        "▁individual",
        -9.920427198324813
      ],
      [
        "▁suit",
        -9.923647273088315
      ],
      [
        "▁app",
        -9.925841952290384
      ],
      [
        "▁association",
        -9.926487822317972
      ],
      [
        "▁degree",
        -9.926488109780973
      ],
      [
        "▁fan",
        -9.927875952914974
      ],
      [
        "simply",
        -9.92895897872274
      ],
      [
        "▁cop",
        -9.929437585062807
      ],
      [
        "▁meaning",
        -9.929458543197171
      ],
      [
        "▁separate",
        -9.929978032543303
      ],
      [
        "▁source",
        -9.930146878265536
      ],
      [
        "▁anti",
        -9.930230762392348
      ],
      [
        "var",
        -9.932159892369013
      ],
      [
        "house",
        -9.933071041429947
      ],
      [
        "▁oil",
        -9.933901201107457
      ],
      [
        "▁boss",
        -9.935331771416124
      ],
      [
        "rom",
        -9.936090772275596
      ],
      [
        "▁wound",
        -9.936263193222658
      ],
      [
        "stairs",
        -9.937509244606732
      ],
      [
        "▁dollar",
        -9.937536308691794
      ],
      [
        "▁shop",
        -9.937713381107589
      ],
      [
        "▁meant",
        -9.938031359783082
      ],
      [
        "▁sounds",
        -9.939362728481722
      ],
      [
        "worked",
        -9.93944036247263
      ],
      [
        "▁practice",
        -9.940094006088524
      ],
      [
        "▁attempt",
        -9.940166157609024
      ],
      [
        "▁yo",
        -9.940427488161228
      ],
      [
        "▁production",
        -9.941485182846304
      ],
      [
        "▁stupid",
        -9.942419646298363
      ],
      [
        "ken",
        -9.9448763075467
      ],
      [
        "▁castle",
        -9.945889784210324
      ],
      [
        "▁approach",
        -9.947373105355256
      ],
      [
        "▁hurry",
        -9.947373191864722
      ],
      [
        "▁influence",
        -9.947641158539176
      ],
      [
        "appeared",
        -9.948340732517943
      ],
      [
        "▁style",
        -9.950889951312105
      ],
      [
        "▁arms",
        -9.950965393371964
      ],
      [
        "▁crime",
        -9.951113342567435
      ],
      [
        "ix",
        -9.951210189699667
      ],
      [
        "▁mum",
        -9.95185825957252
      ],
      [
        "▁fly",
        -9.952473611466734
      ],
      [
        "▁terribl",
        -9.953203470118687
      ],
      [
        "▁prize",
        -9.95375717145071
      ],
      [
        "lie",
        -9.954652201025617
      ],
      [
        "▁tall",
        -9.955398248886038
      ],
      [
        "▁therefor",
        -9.955722896701293
      ],
      [
        "pec",
        -9.955937682675202
      ],
      [
        "▁relationship",
        -9.95613265018713
      ],
      [
        "▁shouldn",
        -9.95741955945208
      ],
      [
        "thirty",
        -9.958610130493906
      ],
      [
        "▁completely",
        -9.96029498578908
      ],
      [
        "ural",
        -9.9603002846037
      ],
      [
        "laughter",
        -9.9605156766784
      ],
      [
        "▁dry",
        -9.960734720188894
      ],
      [
        "▁brand",
        -9.960982431113475
      ],
      [
        "▁italian",
        -9.961144190678446
      ],
      [
        "▁length",
        -9.961152427959544
      ],
      [
        "▁southern",
        -9.961175391175402
      ],
      [
        "work",
        -9.963220511924897
      ],
      [
        "▁wide",
        -9.963569115921
      ],
      [
        "▁wonderful",
        -9.963895180835571
      ],
      [
        "▁network",
        -9.964953132035976
      ],
      [
        "▁cry",
        -9.965946375949631
      ],
      [
        "▁joe",
        -9.96608044664549
      ],
      [
        "▁create",
        -9.966113449581751
      ],
      [
        "aid",
        -9.96665971130033
      ],
      [
        "▁spoke",
        -9.966812860681795
      ],
      [
        "▁female",
        -9.967437172289422
      ],
      [
        "▁politician",
        -9.96877794950867
      ],
      [
        "▁roman",
        -9.968832973062796
      ],
      [
        "▁broken",
        -9.968842423681222
      ],
      [
        "▁winter",
        -9.969418980641851
      ],
      [
        "▁ali",
        -9.97009580663268
      ],
      [
        "mic",
        -9.97074807934748
      ],
      [
        "▁aha",
        -9.970764287617529
      ],
      [
        "added",
        -9.97103902597906
      ],
      [
        "▁european",
        -9.97122645566715
      ],
      [
        "▁northern",
        -9.97128942863194
      ],
      [
        "▁section",
        -9.973963447720443
      ],
      [
        "ities",
        -9.974086164588533
      ],
      [
        "nam",
        -9.974485354627555
      ],
      [
        "▁alan",
        -9.97559170213141
      ],
      [
        "▁bri",
        -9.975796541534006
      ],
      [
        "ugh",
        -9.976619821386466
      ],
      [
        "below",
        -9.976795080076435
      ],
      [
        "▁risk",
        -9.977661733747226
      ],
      [
        "▁bright",
        -9.978070411788256
      ],
      [
        "ction",
        -9.978320346149612
      ],
      [
        "▁gar",
        -9.978419973268547
      ],
      [
        "▁saint",
        -9.9787417519034
      ],
      [
        "▁contract",
        -9.978925173070714
      ],
      [
        "▁successful",
        -9.979084559945544
      ],
      [
        "▁watching",
        -9.982439531706827
      ],
      [
        "▁evidence",
        -9.982752653589218
      ],
      [
        "▁opportunit",
        -9.982752653682263
      ],
      [
        "▁governor",
        -9.982770660579272
      ],
      [
        "▁join",
        -9.985763090733418
      ],
      [
        "year",
        -9.98592484722365
      ],
      [
        "rick",
        -9.98658650761302
      ],
      [
        "▁higher",
        -9.987017914539454
      ],
      [
        "wan",
        -9.987196509936808
      ],
      [
        "▁jesu",
        -9.987288486010804
      ],
      [
        "▁formula",
        -9.987781039680716
      ],
      [
        "▁dut",
        -9.987983941989384
      ],
      [
        "▁mass",
        -9.98853569712288
      ],
      [
        "▁rec",
        -9.989139126439184
      ],
      [
        "▁distance",
        -9.989210094358333
      ],
      [
        "▁object",
        -9.989823043460394
      ],
      [
        "▁unless",
        -9.990625778367502
      ],
      [
        "sigh",
        -9.992660191631042
      ],
      [
        "cro",
        -9.992891426385132
      ],
      [
        "▁fu",
        -9.99295681341652
      ],
      [
        "▁included",
        -9.993090365660056
      ],
      [
        "par",
        -9.99392115876622
      ],
      [
        "carried",
        -9.993950004104793
      ],
      [
        "▁lee",
        -9.995479220122862
      ],
      [
        "▁path",
        -9.996412675011026
      ],
      [
        "▁sudden",
        -9.996416120686732
      ],
      [
        "▁imagine",
        -9.9974424708346
      ],
      [
        "▁para",
        -9.998039149854373
      ],
      [
        "▁host",
        -10.000134372447786
      ],
      [
        "▁mal",
        -10.000586122273027
      ],
      [
        "▁coffee",
        -10.00092318599104
      ],
      [
        "▁review",
        -10.001027679165087
      ],
      [
        "signed",
        -10.001699370273691
      ],
      [
        "▁regular",
        -10.002254161175443
      ],
      [
        "▁image",
        -10.002272526532783
      ],
      [
        "▁corner",
        -10.00265775256254
      ],
      [
        "▁bomb",
        -10.003608983783522
      ],
      [
        "pol",
        -10.004208445693957
      ],
      [
        "▁detail",
        -10.004865037452417
      ],
      [
        "▁thomas",
        -10.004972555883125
      ],
      [
        "mal",
        -10.006269960473745
      ],
      [
        "▁empire",
        -10.007493597499256
      ],
      [
        "▁gain",
        -10.00767789768086
      ],
      [
        "ight",
        -10.008583087906016
      ],
      [
        "▁sight",
        -10.008966888850924
      ],
      [
        "▁qu",
        -10.009473704475138
      ],
      [
        "cher",
        -10.00974472596123
      ],
      [
        "▁method",
        -10.011457770113914
      ],
      [
        "▁agent",
        -10.011808504508984
      ],
      [
        "▁washington",
        -10.012795424368406
      ],
      [
        "▁defeat",
        -10.012858524810316
      ],
      [
        "▁china",
        -10.014080365306786
      ],
      [
        "▁native",
        -10.01447340664371
      ],
      [
        "▁text",
        -10.015578253101502
      ],
      [
        "▁storm",
        -10.017140803856874
      ],
      [
        "▁fund",
        -10.01767405377648
      ],
      [
        "▁bull",
        -10.019708331142592
      ],
      [
        "▁q",
        -10.020257072053996
      ],
      [
        "▁hop",
        -10.020755742489868
      ],
      [
        "▁hotel",
        -10.021320842805569
      ],
      [
        "▁direction",
        -10.021698394824456
      ],
      [
        "▁cho",
        -10.021777822972185
      ],
      [
        "▁joined",
        -10.022449635085865
      ],
      [
        "▁tra",
        -10.024065806045124
      ],
      [
        "▁extra",
        -10.024153537541135
      ],
      [
        "families",
        -10.024781833750865
      ],
      [
        "▁knock",
        -10.025016325760618
      ],
      [
        "▁marry",
        -10.026257585990546
      ],
      [
        "▁propert",
        -10.02637082169208
      ],
      [
        "▁bay",
        -10.026682463387235
      ],
      [
        "uck",
        -10.0269887322129
      ],
      [
        "▁goal",
        -10.027047372246113
      ],
      [
        "live",
        -10.027598374195406
      ],
      [
        "char",
        -10.028721782093946
      ],
      [
        "▁organization",
        -10.03017716788057
      ],
      [
        "hol",
        -10.03040166183127
      ],
      [
        "▁technolog",
        -10.031513184957031
      ],
      [
        "▁develop",
        -10.03264699742162
      ],
      [
        "▁religion",
        -10.032862008361349
      ],
      [
        "ries",
        -10.033599678156312
      ],
      [
        "▁data",
        -10.03364032519531
      ],
      [
        "see",
        -10.034036634396005
      ],
      [
        "▁partner",
        -10.034061459891351
      ],
      [
        "▁birthday",
        -10.034292768414105
      ],
      [
        "▁takes",
        -10.034511729594444
      ],
      [
        "▁trip",
        -10.034899595415704
      ],
      [
        "▁firm",
        -10.034924186981664
      ],
      [
        "▁sal",
        -10.034975849624526
      ],
      [
        "▁proper",
        -10.035587455095198
      ],
      [
        "this",
        -10.0369233149852
      ],
      [
        "▁bottom",
        -10.03692722210528
      ],
      [
        "ette",
        -10.038218027107508
      ],
      [
        "▁farm",
        -10.03822056605062
      ],
      [
        "▁securit",
        -10.03828922583918
      ],
      [
        "▁route",
        -10.038516340750704
      ],
      [
        "pla",
        -10.03916698767313
      ],
      [
        "dish",
        -10.03919240748115
      ],
      [
        "▁studio",
        -10.03965560713908
      ],
      [
        "▁training",
        -10.04009167737151
      ],
      [
        "▁moon",
        -10.04063451783341
      ],
      [
        "▁glass",
        -10.04081672130833
      ],
      [
        "▁attend",
        -10.041630214368602
      ],
      [
        "▁happening",
        -10.04171153207886
      ],
      [
        "▁function",
        -10.04384168401167
      ],
      [
        "▁bob",
        -10.044272565763524
      ],
      [
        "▁authorit",
        -10.044632437725
      ],
      [
        "▁structure",
        -10.0451070578528
      ],
      [
        "▁heaven",
        -10.045372376189984
      ],
      [
        "bra",
        -10.04575839792896
      ],
      [
        "rig",
        -10.046990472014151
      ],
      [
        "rum",
        -10.047839292105936
      ],
      [
        "▁industr",
        -10.04907819571105
      ],
      [
        "▁yesterday",
        -10.049222755943614
      ],
      [
        "▁centre",
        -10.0497107233101
      ],
      [
        "towards",
        -10.050004683907853
      ],
      [
        "▁standard",
        -10.050956847947646
      ],
      [
        "▁storie",
        -10.052193516147998
      ],
      [
        "▁male",
        -10.052379545211355
      ],
      [
        "az",
        -10.053084108308736
      ],
      [
        "▁cre",
        -10.053493371641135
      ],
      [
        "bar",
        -10.0535772632512
      ],
      [
        "▁skin",
        -10.05387075824346
      ],
      [
        "▁iron",
        -10.054899197351816
      ],
      [
        "▁loved",
        -10.055380871751249
      ],
      [
        "▁luck",
        -10.055491590137503
      ],
      [
        "stra",
        -10.05644878338673
      ],
      [
        "back",
        -10.057872964518268
      ],
      [
        "lying",
        -10.058744813685037
      ],
      [
        "▁congress",
        -10.058843957526848
      ],
      [
        "jan",
        -10.059766535547489
      ],
      [
        "▁basket",
        -10.060280406493051
      ],
      [
        "▁culture",
        -10.060315037404248
      ],
      [
        "clo",
        -10.061836798604254
      ],
      [
        "▁performance",
        -10.061893453634216
      ],
      [
        "▁quarter",
        -10.063063793928524
      ],
      [
        "nor",
        -10.06318686745642
      ],
      [
        "▁pal",
        -10.063397164645728
      ],
      [
        "▁interested",
        -10.063862539873648
      ],
      [
        "▁lock",
        -10.063922912327104
      ],
      [
        "lam",
        -10.063980282532128
      ],
      [
        "▁ocean",
        -10.064460197073211
      ],
      [
        "▁focus",
        -10.065903067509227
      ],
      [
        "▁economic",
        -10.066174259754668
      ],
      [
        "▁huge",
        -10.066764968160312
      ],
      [
        "▁engineer",
        -10.067216778586491
      ],
      [
        "▁available",
        -10.06725328871526
      ],
      [
        "▁palace",
        -10.06730313366666
      ],
      [
        "▁worse",
        -10.067303392677733
      ],
      [
        "ace",
        -10.06742955557409
      ],
      [
        "▁print",
        -10.067765407894765
      ],
      [
        "nder",
        -10.068510114268346
      ],
      [
        "▁beach",
        -10.068936041936851
      ],
      [
        "▁africa",
        -10.069267995200043
      ],
      [
        "▁correct",
        -10.070274878262031
      ],
      [
        "▁wave",
        -10.070318966573536
      ],
      [
        "pir",
        -10.07083549379363
      ],
      [
        "nearly",
        -10.071772743476568
      ],
      [
        "▁tour",
        -10.071906596586803
      ],
      [
        "▁writer",
        -10.072086600926005
      ],
      [
        "▁songs",
        -10.07237540236174
      ],
      [
        "qu",
        -10.072432844577907
      ],
      [
        "▁railway",
        -10.072941135638915
      ],
      [
        "▁victor",
        -10.073910586361496
      ],
      [
        "▁ge",
        -10.074866774405226
      ],
      [
        "▁rate",
        -10.07617935440215
      ],
      [
        "▁apple",
        -10.076425724179549
      ],
      [
        "▁shows",
        -10.078162238184728
      ],
      [
        "▁advance",
        -10.078513130619909
      ],
      [
        "▁foreign",
        -10.07851331697831
      ],
      [
        "cha",
        -10.079044052162192
      ],
      [
        "mor",
        -10.080539434066509
      ],
      [
        "▁wo",
        -10.080944909170574
      ],
      [
        "▁edge",
        -10.08117320036111
      ],
      [
        "▁hole",
        -10.081353669599649
      ],
      [
        "▁flight",
        -10.081502188270244
      ],
      [
        "▁kick",
        -10.081592897348424
      ],
      [
        "▁divide",
        -10.082640963004328
      ],
      [
        "▁australia",
        -10.083596322377144
      ],
      [
        "▁crew",
        -10.083607395577026
      ],
      [
        "▁developed",
        -10.084127363767765
      ],
      [
        "▁mike",
        -10.084536468560332
      ],
      [
        "vic",
        -10.08513122998894
      ],
      [
        "mil",
        -10.088462324520544
      ],
      [
        "top",
        -10.089398872348845
      ],
      [
        "▁specific",
        -10.089919235489727
      ],
      [
        "▁tired",
        -10.089920040304015
      ],
      [
        "▁smell",
        -10.090058250617322
      ],
      [
        "▁scared",
        -10.09097521634472
      ],
      [
        "port",
        -10.091478641979382
      ],
      [
        "▁settle",
        -10.091945187641318
      ],
      [
        "▁trans",
        -10.092475645706482
      ],
      [
        "▁slow",
        -10.092509595627504
      ],
      [
        "▁toward",
        -10.092677513567695
      ],
      [
        "▁element",
        -10.094207795613194
      ],
      [
        "▁fruit",
        -10.094211357555729
      ],
      [
        "▁pin",
        -10.094445214191982
      ],
      [
        "▁kh",
        -10.094608221530798
      ],
      [
        "▁fourth",
        -10.09482768915318
      ],
      [
        "▁eating",
        -10.095187307814694
      ],
      [
        "▁depend",
        -10.097189425685828
      ],
      [
        "town",
        -10.097226518020507
      ],
      [
        "late",
        -10.09782875388314
      ],
      [
        "▁aunt",
        -10.097957810602376
      ],
      [
        "▁fat",
        -10.099031362648187
      ],
      [
        "bel",
        -10.099886389021188
      ],
      [
        "▁prison",
        -10.100127197291211
      ],
      [
        "▁paris",
        -10.100492747664354
      ],
      [
        "▁pet",
        -10.100837164799474
      ],
      [
        "rie",
        -10.101770785457568
      ],
      [
        "ale",
        -10.103198624058624
      ],
      [
        "▁par",
        -10.103608680027564
      ],
      [
        "▁grant",
        -10.103618375409084
      ],
      [
        "▁engine",
        -10.10417295399295
      ],
      [
        "▁constant",
        -10.104325786830191
      ],
      [
        "▁bab",
        -10.104404646235793
      ],
      [
        "▁pack",
        -10.105603132827456
      ],
      [
        "▁accident",
        -10.105774469801514
      ],
      [
        "▁demand",
        -10.10580759355646
      ],
      [
        "▁br",
        -10.10726399681683
      ],
      [
        "ches",
        -10.10727939724493
      ],
      [
        "▁notice",
        -10.107972943970408
      ],
      [
        "▁min",
        -10.108208556617726
      ],
      [
        "▁teach",
        -10.108810718627922
      ],
      [
        "head",
        -10.109424386954938
      ],
      [
        "▁sar",
        -10.109493285152212
      ],
      [
        "phil",
        -10.11010990494645
      ],
      [
        "▁treat",
        -10.110326822344064
      ],
      [
        "▁chose",
        -10.11049846027528
      ],
      [
        "▁trees",
        -10.110516263916974
      ],
      [
        "▁fift",
        -10.111119733149891
      ],
      [
        "▁tape",
        -10.111325794874611
      ],
      [
        "▁valley",
        -10.111736289715225
      ],
      [
        "▁escape",
        -10.112057381662604
      ],
      [
        "bas",
        -10.112330417056086
      ],
      [
        "▁afternoon",
        -10.113080797852488
      ],
      [
        "▁ray",
        -10.113637538587076
      ],
      [
        "▁singer",
        -10.113735909883296
      ],
      [
        "panish",
        -10.114466350838017
      ],
      [
        "▁slight",
        -10.11627652703606
      ],
      [
        "▁novel",
        -10.116292905971992
      ],
      [
        "come",
        -10.117294293472437
      ],
      [
        "necessary",
        -10.117816008630816
      ],
      [
        "▁score",
        -10.118058805929063
      ],
      [
        "▁effort",
        -10.118951814438027
      ],
      [
        "▁yellow",
        -10.118999780381106
      ],
      [
        "▁content",
        -10.11908065538449
      ],
      [
        "▁calm",
        -10.119217065167632
      ],
      [
        "▁louis",
        -10.119345718283858
      ],
      [
        "▁anne",
        -10.11940046499607
      ],
      [
        "▁frog",
        -10.120602812556664
      ],
      [
        "sur",
        -10.120979562599832
      ],
      [
        "▁fix",
        -10.121756207728136
      ],
      [
        "ola",
        -10.12338274627723
      ],
      [
        "▁kar",
        -10.124460016184706
      ],
      [
        "▁larges",
        -10.12533289730098
      ],
      [
        "ible",
        -10.126049975607636
      ],
      [
        "who",
        -10.12633748212376
      ],
      [
        "shire",
        -10.12825238394411
      ],
      [
        "▁showed",
        -10.128865472560856
      ],
      [
        "▁fill",
        -10.129222178571046
      ],
      [
        "▁joy",
        -10.129780550535784
      ],
      [
        "▁learned",
        -10.130366249805402
      ],
      [
        "law",
        -10.130382507697128
      ],
      [
        "▁pat",
        -10.13056131328574
      ],
      [
        "▁angry",
        -10.130819075006835
      ],
      [
        "▁truck",
        -10.130838122144162
      ],
      [
        "ux",
        -10.131048599699811
      ],
      [
        "▁access",
        -10.131100828438305
      ],
      [
        "berg",
        -10.1311325213699
      ],
      [
        "lim",
        -10.13253775331126
      ],
      [
        "▁sky",
        -10.132839596886503
      ],
      [
        "▁dev",
        -10.133002512454272
      ],
      [
        "▁catholic",
        -10.133800017659134
      ],
      [
        "rib",
        -10.133913305620538
      ],
      [
        "▁remove",
        -10.136894745304708
      ],
      [
        "▁silver",
        -10.136896773983352
      ],
      [
        "▁grave",
        -10.137347515087422
      ],
      [
        "▁adam",
        -10.13758939021007
      ],
      [
        "▁fresh",
        -10.138309256483954
      ],
      [
        "▁pair",
        -10.138664001855162
      ],
      [
        "▁mess",
        -10.139069005248173
      ],
      [
        "▁museum",
        -10.139801748567542
      ],
      [
        "▁earlier",
        -10.14057266224678
      ],
      [
        "stor",
        -10.141608331911062
      ],
      [
        "▁lad",
        -10.14208634329214
      ],
      [
        "▁heat",
        -10.143189172655408
      ],
      [
        "▁wake",
        -10.143270879925415
      ],
      [
        "cia",
        -10.1434861242803
      ],
      [
        "▁photo",
        -10.144378729745515
      ],
      [
        "light",
        -10.144823473622523
      ],
      [
        "▁closed",
        -10.145074473505309
      ],
      [
        "▁committee",
        -10.146512935418132
      ],
      [
        "▁holding",
        -10.147842164167292
      ],
      [
        "▁self",
        -10.148597322430014
      ],
      [
        "▁campaign",
        -10.148871753269882
      ],
      [
        "aff",
        -10.15156516271822
      ],
      [
        "▁platform",
        -10.151913617007922
      ],
      [
        "▁policy",
        -10.152676594094444
      ],
      [
        "▁cow",
        -10.15327984230651
      ],
      [
        "▁chi",
        -10.155004930156927
      ],
      [
        "▁planet",
        -10.155263052968802
      ],
      [
        "syria",
        -10.155913102347665
      ],
      [
        "right",
        -10.156017301346882
      ],
      [
        "▁enemy",
        -10.1565656598969
      ],
      [
        "▁reading",
        -10.158199449926224
      ],
      [
        "▁busy",
        -10.1584115781177
      ],
      [
        "rat",
        -10.159044284931916
      ],
      [
        "▁hide",
        -10.15917003046082
      ],
      [
        "▁taste",
        -10.159610446496682
      ],
      [
        "▁smart",
        -10.16017881460119
      ],
      [
        "▁spread",
        -10.160533103449657
      ],
      [
        "ified",
        -10.1605421319036
      ],
      [
        "▁medicine",
        -10.161095036769222
      ],
      [
        "▁prove",
        -10.16162258647437
      ],
      [
        "▁beyond",
        -10.162639530419202
      ],
      [
        "▁lawyer",
        -10.162690825503716
      ],
      [
        "▁camera",
        -10.163621174778513
      ],
      [
        "▁letters",
        -10.163778227571854
      ],
      [
        "▁disappear",
        -10.164203779958408
      ],
      [
        "cor",
        -10.165096546088066
      ],
      [
        "▁absolutel",
        -10.166803598039914
      ],
      [
        "ock",
        -10.167155877811975
      ],
      [
        "▁fault",
        -10.16731127073475
      ],
      [
        "▁range",
        -10.16758973878989
      ],
      [
        "▁rep",
        -10.167701346557262
      ],
      [
        "▁concern",
        -10.168283378760275
      ],
      [
        "tel",
        -10.16853738430142
      ],
      [
        "▁medical",
        -10.170586022949625
      ],
      [
        "▁ku",
        -10.170737791275489
      ],
      [
        "▁dirt",
        -10.172046679578736
      ],
      [
        "▁opening",
        -10.17212170612352
      ],
      [
        "▁rid",
        -10.17294302458908
      ],
      [
        "▁birth",
        -10.173430697081756
      ],
      [
        "▁wheel",
        -10.17496359473048
      ],
      [
        "▁channel",
        -10.175030059302884
      ],
      [
        "▁handle",
        -10.177422422270862
      ],
      [
        "▁weren",
        -10.17744990689078
      ],
      [
        "▁knowledge",
        -10.178150929959326
      ],
      [
        "▁link",
        -10.178744050099318
      ],
      [
        "definitely",
        -10.17893708282388
      ],
      [
        "▁bl",
        -10.179190710910962
      ],
      [
        "▁nav",
        -10.1793717795926
      ],
      [
        "▁jim",
        -10.179676274167594
      ],
      [
        "▁contact",
        -10.181289507319832
      ],
      [
        "tuck",
        -10.181458126116556
      ],
      [
        "room",
        -10.18201916112912
      ],
      [
        "▁disc",
        -10.183876904244665
      ],
      [
        "▁tre",
        -10.18439731536948
      ],
      [
        "ome",
        -10.184540020527802
      ],
      [
        "iel",
        -10.185995645480052
      ],
      [
        "▁benefit",
        -10.185998977972798
      ],
      [
        "▁neck",
        -10.186168921821691
      ],
      [
        "then",
        -10.187333505794255
      ],
      [
        "▁fool",
        -10.187638027642286
      ],
      [
        "▁stars",
        -10.188557267759553
      ],
      [
        "▁pig",
        -10.189401846683898
      ],
      [
        "there",
        -10.18974382696529
      ],
      [
        "▁weather",
        -10.190826888945908
      ],
      [
        "▁canad",
        -10.191580489049194
      ],
      [
        "▁neither",
        -10.1923231564942
      ],
      [
        "▁surface",
        -10.19234128594545
      ],
      [
        "▁mor",
        -10.193236276974552
      ],
      [
        "▁sail",
        -10.193408420470238
      ],
      [
        "▁nan",
        -10.193597894077396
      ],
      [
        "▁opinion",
        -10.193910472937882
      ],
      [
        "▁minus",
        -10.194367278793186
      ],
      [
        "zar",
        -10.194542576955785
      ],
      [
        "▁staff",
        -10.195548657604842
      ],
      [
        "▁sharp",
        -10.195823736178266
      ],
      [
        "ware",
        -10.196249669192678
      ],
      [
        "roo",
        -10.196781461561416
      ],
      [
        "some",
        -10.196998027763954
      ],
      [
        "lk",
        -10.19733492935788
      ],
      [
        "chan",
        -10.198437246820454
      ],
      [
        "▁twelve",
        -10.198687514798731
      ],
      [
        "▁ag",
        -10.198730128681609
      ],
      [
        "▁twic",
        -10.199086609504567
      ],
      [
        "▁believed",
        -10.20095165103341
      ],
      [
        "▁average",
        -10.20188676588888
      ],
      [
        "por",
        -10.203098334602512
      ],
      [
        "▁joseph",
        -10.205093336929208
      ],
      [
        "bre",
        -10.205779351238805
      ],
      [
        "▁flow",
        -10.206356250283497
      ],
      [
        "▁festival",
        -10.206700349297895
      ],
      [
        "ther",
        -10.206783934291856
      ],
      [
        "covered",
        -10.20699246813574
      ],
      [
        "▁gives",
        -10.207153797296826
      ],
      [
        "aud",
        -10.207456153621044
      ],
      [
        "gon",
        -10.207689205867265
      ],
      [
        "asking",
        -10.208053113821958
      ],
      [
        "▁express",
        -10.208171391395698
      ],
      [
        "why",
        -10.208271214219227
      ],
      [
        "ü",
        -10.20831065352064
      ],
      [
        "▁troop",
        -10.209935195360403
      ],
      [
        "▁republic",
        -10.210537282693553
      ],
      [
        "▁nose",
        -10.21130041071441
      ],
      [
        "los",
        -10.212207764575105
      ],
      [
        "▁walking",
        -10.212537515314269
      ],
      [
        "▁angel",
        -10.21326465781905
      ],
      [
        "▁rat",
        -10.214613179886356
      ],
      [
        "▁sports",
        -10.215434337944655
      ],
      [
        "rate",
        -10.215758025184371
      ],
      [
        "▁plain",
        -10.21666764539109
      ],
      [
        "▁measure",
        -10.21672369892664
      ],
      [
        "▁traditional",
        -10.21691570833874
      ],
      [
        "▁ladies",
        -10.217250405953967
      ],
      [
        "▁mission",
        -10.21831651669757
      ],
      [
        "▁pictures",
        -10.219179683589385
      ],
      [
        "▁dam",
        -10.220113054465353
      ],
      [
        "á",
        -10.220138268159271
      ],
      [
        "▁map",
        -10.220343670074795
      ],
      [
        "war",
        -10.220345058307728
      ],
      [
        "▁gene",
        -10.220562435741236
      ],
      [
        "▁speech",
        -10.221291407261551
      ],
      [
        "with",
        -10.221787074224096
      ],
      [
        "rou",
        -10.222383096896774
      ],
      [
        "▁manager",
        -10.22305246874269
      ],
      [
        "▁driv",
        -10.223411097724965
      ],
      [
        "▁religious",
        -10.224557961174298
      ],
      [
        "▁article",
        -10.226204446653666
      ],
      [
        "▁giant",
        -10.22648113986035
      ],
      [
        "nce",
        -10.226988438386703
      ],
      [
        "▁screen",
        -10.228083346108177
      ],
      [
        "▁newspaper",
        -10.2294840892522
      ],
      [
        "▁paint",
        -10.229954518185258
      ],
      [
        "▁rank",
        -10.230211254000931
      ],
      [
        "▁shape",
        -10.230876158195487
      ],
      [
        "▁resource",
        -10.23113153267181
      ],
      [
        "▁christmas",
        -10.231136189272233
      ],
      [
        "▁discuss",
        -10.232467187054612
      ],
      [
        "▁eastern",
        -10.2324695112639
      ],
      [
        "▁choose",
        -10.23279851437574
      ],
      [
        "ual",
        -10.233006512965046
      ],
      [
        "▁weight",
        -10.233389755551464
      ],
      [
        "arrived",
        -10.233567448843754
      ],
      [
        "▁student",
        -10.23367762989124
      ],
      [
        "try",
        -10.233748931170457
      ],
      [
        "▁pocket",
        -10.234434656874898
      ],
      [
        "▁competition",
        -10.234435906307
      ],
      [
        "▁forty",
        -10.235520466619686
      ],
      [
        "fighting",
        -10.236687277031418
      ],
      [
        "▁operation",
        -10.239230245958169
      ],
      [
        "▁damage",
        -10.240861099356753
      ],
      [
        "▁dangerous",
        -10.241209225381915
      ],
      [
        "▁loud",
        -10.242000840221788
      ],
      [
        "cal",
        -10.242620343500132
      ],
      [
        "eventually",
        -10.242748455489616
      ],
      [
        "▁forced",
        -10.24369303556656
      ],
      [
        "▁origin",
        -10.243736823199232
      ],
      [
        "▁refer",
        -10.245404052854658
      ],
      [
        "burg",
        -10.245532308767192
      ],
      [
        "▁brief",
        -10.246093515894222
      ],
      [
        "▁lift",
        -10.24618029494631
      ],
      [
        "▁legal",
        -10.246862669038904
      ],
      [
        "▁shoulder",
        -10.248466212057991
      ],
      [
        "▁smith",
        -10.248756476826392
      ],
      [
        "chines",
        -10.2490217298946
      ],
      [
        "▁capture",
        -10.24962686656374
      ],
      [
        "ole",
        -10.249702336677757
      ],
      [
        "rag",
        -10.249704333116568
      ],
      [
        "▁suffer",
        -10.251297127436889
      ],
      [
        "▁plate",
        -10.251770510268411
      ],
      [
        "▁flat",
        -10.252018924355248
      ],
      [
        "▁tony",
        -10.252185680307718
      ],
      [
        "▁wine",
        -10.253418176044416
      ],
      [
        "rénée",
        -10.254485376650928
      ],
      [
        "▁rough",
        -10.254488315138254
      ],
      [
        "▁ram",
        -10.254909456661224
      ],
      [
        "▁ill",
        -10.257319395890978
      ],
      [
        "▁lucky",
        -10.257801321341166
      ],
      [
        "▁circle",
        -10.257866625257108
      ],
      [
        "▁conference",
        -10.259561528513297
      ],
      [
        "▁symbol",
        -10.259566468424612
      ],
      [
        "▁launch",
        -10.259568331570453
      ],
      [
        "▁loss",
        -10.260077835632153
      ],
      [
        "▁electric",
        -10.26030452723029
      ],
      [
        "door",
        -10.260333566036408
      ],
      [
        "▁dun",
        -10.260931602554315
      ],
      [
        "▁apart",
        -10.260963999314344
      ],
      [
        "▁decide",
        -10.261142647771509
      ],
      [
        "atlantique",
        -10.26125931946227
      ],
      [
        "▁location",
        -10.261310867990325
      ],
      [
        "▁rise",
        -10.261327569106882
      ],
      [
        "▁ki",
        -10.261465969816124
      ],
      [
        "▁col",
        -10.262287741438763
      ],
      [
        "▁greek",
        -10.2630586689937
      ],
      [
        "▁secretar",
        -10.263686178533574
      ],
      [
        "▁dragon",
        -10.265420252188637
      ],
      [
        "▁academ",
        -10.265523706282472
      ],
      [
        "▁recognize",
        -10.266326055223493
      ],
      [
        "▁victim",
        -10.266370167841597
      ],
      [
        "▁deliver",
        -10.266578990935404
      ],
      [
        "▁anywhere",
        -10.267324503900047
      ],
      [
        "▁def",
        -10.267524338667457
      ],
      [
        "▁connect",
        -10.267924912612411
      ],
      [
        "▁majest",
        -10.26817674842736
      ],
      [
        "▁pressure",
        -10.26819721126325
      ],
      [
        "▁mill",
        -10.26829710150963
      ],
      [
        "low",
        -10.268422008219783
      ],
      [
        "ington",
        -10.269431952946588
      ],
      [
        "▁credit",
        -10.269807498561708
      ],
      [
        "▁memory",
        -10.26984705492464
      ],
      [
        "ctor",
        -10.27018662529315
      ],
      [
        "▁jimm",
        -10.270630388980871
      ],
      [
        "▁ought",
        -10.271220298146112
      ],
      [
        "ization",
        -10.27214098535929
      ],
      [
        "▁bath",
        -10.272605392568613
      ],
      [
        "▁metal",
        -10.273308131483422
      ],
      [
        "ston",
        -10.275625935021363
      ],
      [
        "▁negative",
        -10.2766705850704
      ],
      [
        "▁federal",
        -10.276674257970578
      ],
      [
        "▁golden",
        -10.27675480116578
      ],
      [
        "▁thy",
        -10.277399113163316
      ],
      [
        "▁duck",
        -10.277600175720025
      ],
      [
        "▁soldiers",
        -10.277914731516546
      ],
      [
        "▁proud",
        -10.278427265098363
      ],
      [
        "▁zero",
        -10.278638011522348
      ],
      [
        "▁stock",
        -10.279495194075285
      ],
      [
        "rod",
        -10.27954124725439
      ],
      [
        "ants",
        -10.280096275958549
      ],
      [
        "▁mate",
        -10.281690963756892
      ],
      [
        "▁forth",
        -10.28210562850337
      ],
      [
        "▁iran",
        -10.282171512942185
      ],
      [
        "▁martin",
        -10.282257968885316
      ],
      [
        "kat",
        -10.28270188536757
      ],
      [
        "▁physical",
        -10.282767095365497
      ],
      [
        "▁guest",
        -10.282846331367637
      ],
      [
        "mus",
        -10.28292054438158
      ],
      [
        "gun",
        -10.283021937453054
      ],
      [
        "▁gentlemen",
        -10.283652636206734
      ],
      [
        "▁ac",
        -10.283910110207358
      ],
      [
        "cut",
        -10.284336003434731
      ],
      [
        "ology",
        -10.284351393959309
      ],
      [
        "▁poet",
        -10.28545742283984
      ],
      [
        "▁waste",
        -10.285980298459698
      ],
      [
        "▁emperor",
        -10.28707831226508
      ],
      [
        "down",
        -10.288320488938528
      ],
      [
        "▁broadcast",
        -10.288844406332643
      ],
      [
        "▁droppe",
        -10.28894459588296
      ],
      [
        "▁growing",
        -10.28960425760123
      ],
      [
        "▁gre",
        -10.290110105212293
      ],
      [
        "▁owner",
        -10.290135913766257
      ],
      [
        "▁lion",
        -10.290507971457728
      ],
      [
        "▁tail",
        -10.291604647750049
      ],
      [
        "ö",
        -10.292323069102853
      ],
      [
        "▁relative",
        -10.294092930174957
      ],
      [
        "vor",
        -10.294140170795927
      ],
      [
        "▁dec",
        -10.294433861687825
      ],
      [
        "▁basi",
        -10.295016198393466
      ],
      [
        "▁tower",
        -10.295016495767369
      ],
      [
        "▁file",
        -10.295452597808612
      ],
      [
        "▁challenge",
        -10.296827955111487
      ],
      [
        "▁breath",
        -10.29710945734658
      ],
      [
        "▁positive",
        -10.297595492902518
      ],
      [
        "▁magic",
        -10.297776622160256
      ],
      [
        "▁slowly",
        -10.297870260770797
      ],
      [
        "▁wedding",
        -10.29938659702587
      ],
      [
        "his",
        -10.300422818306725
      ],
      [
        "í",
        -10.301125940574966
      ],
      [
        "▁desire",
        -10.301220907483865
      ],
      [
        "▁russian",
        -10.30177839568064
      ],
      [
        "▁primar",
        -10.30301856040714
      ],
      [
        "▁comment",
        -10.3034481088961
      ],
      [
        "▁pretend",
        -10.305091180877689
      ],
      [
        "▁ke",
        -10.30525972067983
      ],
      [
        "▁worker",
        -10.305288461306851
      ],
      [
        "rus",
        -10.30544588887969
      ],
      [
        "▁crowd",
        -10.306713789030454
      ],
      [
        "bla",
        -10.30761321908621
      ],
      [
        "▁vo",
        -10.30782281365488
      ],
      [
        "▁champion",
        -10.308129236458129
      ],
      [
        "▁bottle",
        -10.30830191509768
      ],
      [
        "▁texa",
        -10.308329204621888
      ],
      [
        "▁fashion",
        -10.308720160703556
      ],
      [
        "▁sim",
        -10.309074153083298
      ],
      [
        "▁universe",
        -10.31001247758218
      ],
      [
        "▁municipalit",
        -10.310391147066143
      ],
      [
        "▁switch",
        -10.311793246328548
      ],
      [
        "ically",
        -10.31200121932982
      ],
      [
        "▁hook",
        -10.312279712877448
      ],
      [
        "▁ste",
        -10.312759692157588
      ],
      [
        "▁fer",
        -10.313140592521204
      ],
      [
        "▁rush",
        -10.31322937311126
      ],
      [
        "▁bitch",
        -10.313806300577255
      ],
      [
        "▁darling",
        -10.313978331313836
      ],
      [
        "▁finger",
        -10.31477599180558
      ],
      [
        "▁bang",
        -10.31573653756146
      ],
      [
        "▁statement",
        -10.315742144750462
      ],
      [
        "▁forgive",
        -10.31696934929089
      ],
      [
        "▁easily",
        -10.317169965868649
      ],
      [
        "▁lack",
        -10.317940687308496
      ],
      [
        "▁pl",
        -10.318008540918012
      ],
      [
        "▁ear",
        -10.318483780259209
      ],
      [
        "mate",
        -10.318535479496262
      ],
      [
        "▁apparent",
        -10.318967754279257
      ],
      [
        "▁chart",
        -10.319645162656492
      ],
      [
        "▁slave",
        -10.319874063355153
      ],
      [
        "▁colour",
        -10.320517253790577
      ],
      [
        "▁pleasure",
        -10.3207694340342
      ],
      [
        "▁border",
        -10.320769763125757
      ],
      [
        "▁der",
        -10.32093145170154
      ],
      [
        "▁greater",
        -10.32103306491928
      ],
      [
        "org",
        -10.322245438268183
      ],
      [
        "▁independent",
        -10.3225744782733
      ],
      [
        "▁percent",
        -10.324587513517631
      ],
      [
        "▁hasn",
        -10.325187649543462
      ],
      [
        "▁adult",
        -10.326195919789058
      ],
      [
        "▁collect",
        -10.326452564347274
      ],
      [
        "chu",
        -10.32701443097041
      ],
      [
        "▁max",
        -10.32753575544357
      ],
      [
        "▁magazine",
        -10.328009273667709
      ],
      [
        "▁chapter",
        -10.328203892696166
      ],
      [
        "▁grown",
        -10.32877055772739
      ],
      [
        "ike",
        -10.329116642517524
      ],
      [
        "▁introduce",
        -10.32952964563907
      ],
      [
        "place",
        -10.330045751410417
      ],
      [
        "ular",
        -10.33055628360963
      ],
      [
        "▁holy",
        -10.330828465280344
      ],
      [
        "▁smoke",
        -10.331655853477455
      ],
      [
        "▁gift",
        -10.331660140746642
      ],
      [
        "▁bread",
        -10.332031395868336
      ],
      [
        "book",
        -10.33236065339593
      ],
      [
        "▁bow",
        -10.332582598930536
      ],
      [
        "▁plants",
        -10.333447238592065
      ],
      [
        "▁cash",
        -10.33351956111583
      ],
      [
        "▁prevent",
        -10.33361286881394
      ],
      [
        "▁feed",
        -10.333629618414683
      ],
      [
        "dale",
        -10.335192982128476
      ],
      [
        "▁plays",
        -10.33612087199046
      ],
      [
        "raw",
        -10.336667748334753
      ],
      [
        "▁gather",
        -10.337275336380312
      ],
      [
        "▁appearance",
        -10.337454390547132
      ],
      [
        "▁laid",
        -10.338305903097112
      ],
      [
        "▁hid",
        -10.338783331307951
      ],
      [
        "▁older",
        -10.338925531224666
      ],
      [
        "▁sake",
        -10.339361209910733
      ],
      [
        "▁dogs",
        -10.340224246093817
      ],
      [
        "gged",
        -10.34102256568418
      ],
      [
        "▁dare",
        -10.341812538771787
      ],
      [
        "▁signal",
        -10.341931146434138
      ],
      [
        "▁cheer",
        -10.342617690664651
      ],
      [
        "▁reform",
        -10.342941960217315
      ],
      [
        "hand",
        -10.343699415748024
      ],
      [
        "form",
        -10.343709436366456
      ],
      [
        "▁killing",
        -10.344250323387588
      ],
      [
        "▁names",
        -10.345490272112295
      ],
      [
        "▁root",
        -10.345584549025231
      ],
      [
        "yeh",
        -10.34596732068402
      ],
      [
        "▁jackson",
        -10.346458779993748
      ],
      [
        "ick",
        -10.346673127223172
      ],
      [
        "del",
        -10.346934196803607
      ],
      [
        "ense",
        -10.347303501155924
      ],
      [
        "nnie",
        -10.347314350311567
      ],
      [
        "walked",
        -10.349643788704295
      ],
      [
        "sleep",
        -10.34970471344794
      ],
      [
        "▁grey",
        -10.349967907523038
      ],
      [
        "▁affair",
        -10.350055292484836
      ],
      [
        "▁joke",
        -10.35037589625168
      ],
      [
        "▁chat",
        -10.35108909109901
      ],
      [
        "stone",
        -10.351351956176355
      ],
      [
        "▁parliament",
        -10.351659831986844
      ],
      [
        "▁sword",
        -10.352119807644112
      ],
      [
        "companie",
        -10.352258791206594
      ],
      [
        "▁buck",
        -10.352337279624264
      ],
      [
        "▁shin",
        -10.354004525176386
      ],
      [
        "▁fin",
        -10.354201650936592
      ],
      [
        "nate",
        -10.354329249534942
      ],
      [
        "▁afterward",
        -10.355321140209462
      ],
      [
        "▁pot",
        -10.3553927422529
      ],
      [
        "mel",
        -10.355599177302
      ],
      [
        "▁interview",
        -10.35567105935808
      ],
      [
        "▁powerful",
        -10.356525157627946
      ],
      [
        "▁multi",
        -10.35657576166991
      ],
      [
        "▁justice",
        -10.357600977971476
      ],
      [
        "▁bush",
        -10.357808008482412
      ],
      [
        "▁african",
        -10.358556477891668
      ],
      [
        "▁receiv",
        -10.358646937995342
      ],
      [
        "▁trick",
        -10.359149545965746
      ],
      [
        "▁kitchen",
        -10.359391158180884
      ],
      [
        "▁etc",
        -10.359612941612326
      ],
      [
        "▁republican",
        -10.360565260560335
      ],
      [
        "▁select",
        -10.36059557302092
      ],
      [
        "▁barr",
        -10.36098980163568
      ],
      [
        "▁strength",
        -10.36122799399856
      ],
      [
        "▁tournament",
        -10.36125336341161
      ],
      [
        "▁drunk",
        -10.361615835735677
      ],
      [
        "▁clearly",
        -10.362933425752216
      ],
      [
        "▁maintain",
        -10.363134991934448
      ],
      [
        "▁librar",
        -10.36314355672469
      ],
      [
        "▁avoid",
        -10.363478099569814
      ],
      [
        "▁qualit",
        -10.363791514244944
      ],
      [
        "▁evil",
        -10.363883124256349
      ],
      [
        "▁cu",
        -10.364174942985136
      ],
      [
        "▁eggs",
        -10.364956985826192
      ],
      [
        "▁empty",
        -10.36501640200919
      ],
      [
        "▁surprise",
        -10.365585339441434
      ],
      [
        "▁bother",
        -10.365730095393712
      ],
      [
        "▁reveal",
        -10.366924833433632
      ],
      [
        "▁weird",
        -10.366966892636484
      ],
      [
        "bil",
        -10.367037166177528
      ],
      [
        "mont",
        -10.367639992520196
      ],
      [
        "bert",
        -10.367943067494462
      ],
      [
        "▁sil",
        -10.36803147351734
      ],
      [
        "istic",
        -10.368438209050066
      ],
      [
        "totally",
        -10.369027276177968
      ],
      [
        "▁shout",
        -10.369053747420638
      ],
      [
        "▁easie",
        -10.369136180161632
      ],
      [
        "▁lieutenant",
        -10.37068735134642
      ],
      [
        "▁sum",
        -10.37072723357429
      ],
      [
        "phone",
        -10.371097853159071
      ],
      [
        "▁suddenl",
        -10.371540753937651
      ],
      [
        "▁faith",
        -10.372470605418142
      ],
      [
        "▁impossibl",
        -10.372585627174823
      ],
      [
        "▁southwestern",
        -10.372628820739024
      ],
      [
        "▁devil",
        -10.372634555140152
      ],
      [
        "die",
        -10.372829277115818
      ],
      [
        "▁rot",
        -10.37309413151226
      ],
      [
        "star",
        -10.373468361915444
      ],
      [
        "rang",
        -10.373832900594778
      ],
      [
        "pool",
        -10.374053056218306
      ],
      [
        "▁chicken",
        -10.374497659484112
      ],
      [
        "▁split",
        -10.374501612549736
      ],
      [
        "▁actress",
        -10.374508407545814
      ],
      [
        "▁replie",
        -10.374583742720803
      ],
      [
        "pan",
        -10.37583233822738
      ],
      [
        "▁addition",
        -10.376003590562735
      ],
      [
        "▁trial",
        -10.376435133227416
      ],
      [
        "▁worried",
        -10.37776485228149
      ],
      [
        "▁scale",
        -10.378523709728167
      ],
      [
        "▁audience",
        -10.380211415786
      ],
      [
        "▁plane",
        -10.381140848223191
      ],
      [
        "▁tight",
        -10.381568782453687
      ],
      [
        "▁temperature",
        -10.38212751609047
      ],
      [
        "▁request",
        -10.382127523967192
      ],
      [
        "rop",
        -10.383510659341216
      ],
      [
        "▁danger",
        -10.384109734954158
      ],
      [
        "vision",
        -10.384414363554914
      ],
      [
        "▁consist",
        -10.38770378642796
      ],
      [
        "▁beaut",
        -10.387924904952062
      ],
      [
        "▁rob",
        -10.387973337501585
      ],
      [
        "▁spain",
        -10.388015317403411
      ],
      [
        "mark",
        -10.39004872543029
      ],
      [
        "▁airport",
        -10.390055392711169
      ],
      [
        "nish",
        -10.390728876127715
      ],
      [
        "nut",
        -10.391193165076256
      ],
      [
        "▁chicago",
        -10.391761026467634
      ],
      [
        "yep",
        -10.39240806298282
      ],
      [
        "get",
        -10.39322701350824
      ],
      [
        "▁significant",
        -10.393698906186012
      ],
      [
        "▁del",
        -10.393717036189615
      ],
      [
        "run",
        -10.394494436306832
      ],
      [
        "▁defend",
        -10.394568137568644
      ],
      [
        "wearing",
        -10.394648972352012
      ],
      [
        "lid",
        -10.396212156357011
      ],
      [
        "▁chain",
        -10.39713603876912
      ],
      [
        "▁flying",
        -10.397721629877442
      ],
      [
        "▁commander",
        -10.398678002065742
      ],
      [
        "pul",
        -10.39899390371542
      ],
      [
        "▁territor",
        -10.399540367827347
      ],
      [
        "▁brave",
        -10.399742103865728
      ],
      [
        "▁priest",
        -10.39987586098667
      ],
      [
        "▁rome",
        -10.400933589046256
      ],
      [
        "▁manner",
        -10.401058389722504
      ],
      [
        "aki",
        -10.40111734188693
      ],
      [
        "▁remind",
        -10.40149032569908
      ],
      [
        "gate",
        -10.40164648047842
      ],
      [
        "▁leaves",
        -10.401885198376654
      ],
      [
        "▁lunch",
        -10.40347340511184
      ],
      [
        "▁collection",
        -10.403796222485957
      ],
      [
        "▁aware",
        -10.404033236289925
      ],
      [
        "▁philosoph",
        -10.40459353980932
      ],
      [
        "▁scientist",
        -10.405406364882891
      ],
      [
        "▁complex",
        -10.405407202094771
      ],
      [
        "▁tar",
        -10.406659378240963
      ],
      [
        "bot",
        -10.40735748613703
      ],
      [
        "mble",
        -10.40883269886723
      ],
      [
        "▁leading",
        -10.409126741607205
      ],
      [
        "▁journey",
        -10.409339551271172
      ],
      [
        "▁target",
        -10.409374009375064
      ],
      [
        "▁roof",
        -10.409456053328189
      ],
      [
        "▁stole",
        -10.409849522475422
      ],
      [
        "▁soldier",
        -10.40997941813082
      ],
      [
        "take",
        -10.410193135374795
      ],
      [
        "col",
        -10.410243041976806
      ],
      [
        "▁ken",
        -10.411265811264428
      ],
      [
        "▁climb",
        -10.411313095936933
      ],
      [
        "▁drew",
        -10.41137643708926
      ],
      [
        "▁thick",
        -10.411505653542836
      ],
      [
        "▁steal",
        -10.412469521736067
      ],
      [
        "cap",
        -10.4127067386542
      ],
      [
        "▁dreams",
        -10.412918336157524
      ],
      [
        "▁shock",
        -10.4134601790018
      ],
      [
        "▁initial",
        -10.413550152663174
      ],
      [
        "▁row",
        -10.413787288955778
      ],
      [
        "abilit",
        -10.413990955320358
      ],
      [
        "elle",
        -10.414822325000546
      ],
      [
        "nov",
        -10.415464857053138
      ],
      [
        "▁related",
        -10.416226093051796
      ],
      [
        "▁alcohol",
        -10.417252576779248
      ],
      [
        "▁teeth",
        -10.41725394866842
      ],
      [
        "▁construction",
        -10.417319985464673
      ],
      [
        "▁jane",
        -10.417341069541022
      ],
      [
        "▁device",
        -10.417343456255525
      ],
      [
        "▁sunday",
        -10.41756001124913
      ],
      [
        "crying",
        -10.417974761250267
      ],
      [
        "▁crash",
        -10.419272744656308
      ],
      [
        "▁reduce",
        -10.419440269464085
      ],
      [
        "▁recover",
        -10.419446171030016
      ],
      [
        "▁injur",
        -10.419801008599435
      ],
      [
        "▁fox",
        -10.42020135758473
      ],
      [
        "▁conversation",
        -10.421232608719771
      ],
      [
        "▁management",
        -10.421445045739462
      ],
      [
        "▁owe",
        -10.42183473014149
      ],
      [
        "▁pie",
        -10.422252321418782
      ],
      [
        "laugh",
        -10.423549265647267
      ],
      [
        "▁coat",
        -10.423571816855322
      ],
      [
        "izing",
        -10.42435087970568
      ],
      [
        "▁drama",
        -10.424673726240584
      ],
      [
        "▁otherwise",
        -10.4257798496837
      ],
      [
        "▁replaced",
        -10.426941549933735
      ],
      [
        "▁financial",
        -10.42723260976974
      ],
      [
        "▁amazing",
        -10.42723657753072
      ],
      [
        "▁flash",
        -10.427375251623442
      ],
      [
        "pen",
        -10.427817173038868
      ],
      [
        "▁environment",
        -10.428049463748335
      ],
      [
        "▁bowl",
        -10.428914668162442
      ],
      [
        "▁orange",
        -10.429322393121875
      ],
      [
        "▁mountains",
        -10.42972560226012
      ],
      [
        "▁scott",
        -10.429983753586828
      ],
      [
        "▁pu",
        -10.430322728434517
      ],
      [
        "▁photograph",
        -10.431252787513564
      ],
      [
        "▁instrument",
        -10.431252927198637
      ],
      [
        "▁silence",
        -10.431348465500133
      ],
      [
        "▁officers",
        -10.431734411745817
      ],
      [
        "▁moral",
        -10.432434291901124
      ],
      [
        "▁pure",
        -10.433077901074435
      ],
      [
        "▁ghost",
        -10.433268856918666
      ],
      [
        "▁breakfast",
        -10.433297321407874
      ],
      [
        "▁honour",
        -10.433614976468329
      ],
      [
        "▁meat",
        -10.434749707243196
      ],
      [
        "▁cancer",
        -10.435692696799936
      ],
      [
        "▁temple",
        -10.43602532567684
      ],
      [
        "▁pee",
        -10.436186129055814
      ],
      [
        "▁reported",
        -10.43650626048866
      ],
      [
        "utter",
        -10.436946282224287
      ],
      [
        "tting",
        -10.437372022223656
      ],
      [
        "▁medal",
        -10.437858170854325
      ],
      [
        "▁rare",
        -10.438001153705578
      ],
      [
        "▁madam",
        -10.438119762056855
      ],
      [
        "dar",
        -10.439199940414111
      ],
      [
        "▁continu",
        -10.43946519747228
      ],
      [
        "▁solution",
        -10.442039296427703
      ],
      [
        "filled",
        -10.442133990441524
      ],
      [
        "hood",
        -10.443799445558518
      ],
      [
        "▁document",
        -10.443861325156137
      ],
      [
        "▁youth",
        -10.444193882415505
      ],
      [
        "lab",
        -10.4444715504964
      ],
      [
        "lav",
        -10.445010906845244
      ],
      [
        "▁gal",
        -10.445297197493936
      ],
      [
        "▁critic",
        -10.44531759211446
      ],
      [
        "▁strike",
        -10.44546801039074
      ],
      [
        "▁multiple",
        -10.44551814906391
      ],
      [
        "script",
        -10.44556101602251
      ],
      [
        "▁motor",
        -10.445653654205728
      ],
      [
        "▁alex",
        -10.446108269515182
      ],
      [
        "bro",
        -10.446632966700752
      ],
      [
        "▁mama",
        -10.44688419079095
      ],
      [
        "▁speaker",
        -10.447022022750367
      ],
      [
        "▁blind",
        -10.447521725340916
      ],
      [
        "▁load",
        -10.447624531029067
      ],
      [
        "▁vice",
        -10.447671916051585
      ],
      [
        "sky",
        -10.448184377580414
      ],
      [
        "uch",
        -10.448283603703612
      ],
      [
        "▁broad",
        -10.44947259809307
      ],
      [
        "▁learning",
        -10.450163312382625
      ],
      [
        "rish",
        -10.450825967478927
      ],
      [
        "▁tim",
        -10.451079974144136
      ],
      [
        "mut",
        -10.451224021385617
      ],
      [
        "▁worst",
        -10.451601379028368
      ],
      [
        "▁throat",
        -10.451655386920477
      ],
      [
        "▁hum",
        -10.451873778064176
      ],
      [
        "rid",
        -10.45258859841143
      ],
      [
        "▁bullet",
        -10.453783430461296
      ],
      [
        "▁treatment",
        -10.454046572396434
      ],
      [
        "▁lit",
        -10.454162412547872
      ],
      [
        "ended",
        -10.455093433542288
      ],
      [
        "zu",
        -10.455236853693863
      ],
      [
        "▁becoming",
        -10.45569725800912
      ],
      [
        "▁knee",
        -10.455776809768254
      ],
      [
        "▁button",
        -10.45742983878944
      ],
      [
        "fla",
        -10.45777430757602
      ],
      [
        "▁painting",
        -10.4578364364712
      ],
      [
        "▁prefer",
        -10.45826905825396
      ],
      [
        "▁colon",
        -10.458488487346926
      ],
      [
        "▁types",
        -10.458804218840228
      ],
      [
        "just",
        -10.458848604275683
      ],
      [
        "‘",
        -10.45985526667018
      ],
      [
        "▁shore",
        -10.460541410224687
      ],
      [
        "▁sleeping",
        -10.46059216723081
      ],
      [
        "▁active",
        -10.461384260010067
      ],
      [
        "▁spin",
        -10.462044890765068
      ],
      [
        "▁skill",
        -10.46223097934151
      ],
      [
        "recently",
        -10.462272741911685
      ],
      [
        "▁desert",
        -10.4623907601888
      ],
      [
        "▁directly",
        -10.463099197334504
      ],
      [
        "blo",
        -10.463415630650676
      ],
      [
        "under",
        -10.463511782970642
      ],
      [
        "▁tool",
        -10.463841488925194
      ],
      [
        "xico",
        -10.463927886627346
      ],
      [
        "▁branch",
        -10.463987907038426
      ],
      [
        "département",
        -10.464008957547849
      ],
      [
        "▁dude",
        -10.464705892488237
      ],
      [
        "▁teams",
        -10.465035670816246
      ],
      [
        "▁pit",
        -10.46562786414643
      ],
      [
        "aka",
        -10.465832880160145
      ],
      [
        "▁placed",
        -10.466318129727432
      ],
      [
        "▁teaching",
        -10.46688447944137
      ],
      [
        "▁opera",
        -10.46742403167142
      ],
      [
        "▁lies",
        -10.468866545861273
      ],
      [
        "▁concerned",
        -10.46889241404154
      ],
      [
        "rio",
        -10.46899016903214
      ],
      [
        "▁mayor",
        -10.469541281587718
      ],
      [
        "▁harr",
        -10.469678146309535
      ],
      [
        "▁econom",
        -10.469848489257584
      ],
      [
        "▁holiday",
        -10.470272289979512
      ],
      [
        "▁display",
        -10.470407195489702
      ],
      [
        "▁drug",
        -10.47050694262074
      ],
      [
        "▁des",
        -10.470647833248629
      ],
      [
        "▁survive",
        -10.470751929832751
      ],
      [
        "▁jud",
        -10.471200997147694
      ],
      [
        "▁daniel",
        -10.472607875174694
      ],
      [
        "expected",
        -10.47383391507226
      ],
      [
        "▁awful",
        -10.474475951405111
      ],
      [
        "▁observe",
        -10.474588541959912
      ],
      [
        "bru",
        -10.474855662113391
      ],
      [
        "ula",
        -10.475006951869656
      ],
      [
        "▁shoes",
        -10.47511989214668
      ],
      [
        "▁los",
        -10.476804646796374
      ],
      [
        "▁reaction",
        -10.476816440184011
      ],
      [
        "▁reg",
        -10.477257769512624
      ],
      [
        "▁crown",
        -10.4788070199506
      ],
      [
        "▁loose",
        -10.47882042490783
      ],
      [
        "▁surprised",
        -10.480159919975376
      ],
      [
        "aged",
        -10.480362330309784
      ],
      [
        "▁tend",
        -10.481249885943406
      ],
      [
        "▁historical",
        -10.48208613064044
      ],
      [
        "▁bastard",
        -10.482918472225762
      ],
      [
        "▁seek",
        -10.48479955849186
      ],
      [
        "▁rapid",
        -10.485071186438423
      ],
      [
        "▁propose",
        -10.485236859368117
      ],
      [
        "▁emb",
        -10.48560658237832
      ],
      [
        "▁possibl",
        -10.48669502957996
      ],
      [
        "▁favorite",
        -10.487199185866226
      ],
      [
        "▁effective",
        -10.488026623209752
      ],
      [
        "▁constitution",
        -10.488729250201835
      ],
      [
        "▁forever",
        -10.489066682047469
      ],
      [
        "▁soviet",
        -10.489300340864869
      ],
      [
        "▁ticket",
        -10.48935336812309
      ],
      [
        "nny",
        -10.489575392074732
      ],
      [
        "yeah",
        -10.49017085945484
      ],
      [
        "▁salt",
        -10.490246088792087
      ],
      [
        "▁indiana",
        -10.490332249684762
      ],
      [
        "▁finding",
        -10.490887392345986
      ],
      [
        "mur",
        -10.49106985288754
      ],
      [
        "▁fur",
        -10.492330128448328
      ],
      [
        "bury",
        -10.49239098125903
      ],
      [
        "▁lots",
        -10.492908601576698
      ],
      [
        "pet",
        -10.492979710543242
      ],
      [
        "▁crack",
        -10.493802962666855
      ],
      [
        "▁sentence",
        -10.493920183792463
      ],
      [
        "▁belief",
        -10.49573002003816
      ],
      [
        "▁operate",
        -10.496524477883195
      ],
      [
        "clock",
        -10.49658139690817
      ],
      [
        "▁hungr",
        -10.497114543612454
      ],
      [
        "▁appeal",
        -10.497887137661056
      ],
      [
        "▁iowa",
        -10.498062105639583
      ],
      [
        "set",
        -10.499139843218718
      ],
      [
        "win",
        -10.50000125824374
      ],
      [
        "▁creature",
        -10.50007893584896
      ],
      [
        "▁pirate",
        -10.500174849896789
      ],
      [
        "▁institute",
        -10.500413350328108
      ],
      [
        "ograph",
        -10.500608259136984
      ],
      [
        "▁prepared",
        -10.502115132011848
      ],
      [
        "▁declare",
        -10.502240381118655
      ],
      [
        "▁planning",
        -10.502261251470436
      ],
      [
        "▁string",
        -10.502296576001951
      ],
      [
        "▁horses",
        -10.502701058014484
      ],
      [
        "▁noise",
        -10.502746864994084
      ],
      [
        "▁susan",
        -10.502878075195031
      ],
      [
        "▁typical",
        -10.504355684957238
      ],
      [
        "▁tie",
        -10.505382969191585
      ],
      [
        "▁burie",
        -10.505511783480504
      ],
      [
        "water",
        -10.506292408659135
      ],
      [
        "hold",
        -10.506584262244498
      ],
      [
        "▁actual",
        -10.508003705047251
      ],
      [
        "part",
        -10.508078592778087
      ],
      [
        "▁inform",
        -10.508085556925472
      ],
      [
        "▁producer",
        -10.508597747757666
      ],
      [
        "▁commercial",
        -10.508697227413087
      ],
      [
        "▁chris",
        -10.509411363997472
      ],
      [
        "▁pra",
        -10.510500899672431
      ],
      [
        "▁musical",
        -10.511500048193229
      ],
      [
        "▁compare",
        -10.511634977677314
      ],
      [
        "bri",
        -10.511899703821983
      ],
      [
        "▁occurr",
        -10.512961956331797
      ],
      [
        "▁budd",
        -10.513041091534634
      ],
      [
        "▁connection",
        -10.513464902435048
      ],
      [
        "they",
        -10.513830201755711
      ],
      [
        "▁tro",
        -10.51505963952533
      ],
      [
        "▁windows",
        -10.515078000819852
      ],
      [
        "▁concert",
        -10.515248684862772
      ],
      [
        "▁grass",
        -10.516166120480287
      ],
      [
        "▁politic",
        -10.516531146579151
      ],
      [
        "was",
        -10.516777404859177
      ],
      [
        "▁shi",
        -10.516947934744325
      ],
      [
        "▁ren",
        -10.517706852554152
      ],
      [
        "▁harm",
        -10.51811324949246
      ],
      [
        "lity",
        -10.518466095007014
      ],
      [
        "▁seriously",
        -10.51919067819475
      ],
      [
        "cop",
        -10.51921478276914
      ],
      [
        "▁experiment",
        -10.519638254085116
      ],
      [
        "▁flo",
        -10.519671029099491
      ],
      [
        "▁sugar",
        -10.519874236692033
      ],
      [
        "▁carter",
        -10.521274798400132
      ],
      [
        "▁safety",
        -10.522027685890208
      ],
      [
        "▁hunt",
        -10.522294158670691
      ],
      [
        "gel",
        -10.522403739698117
      ],
      [
        "cat",
        -10.522839823786828
      ],
      [
        "folk",
        -10.523374568755017
      ],
      [
        "gro",
        -10.52393223573702
      ],
      [
        "▁rabbit",
        -10.524050746453868
      ],
      [
        "▁spell",
        -10.52456509745469
      ],
      [
        "▁cheap",
        -10.525006527439412
      ],
      [
        "▁tough",
        -10.525670899009008
      ],
      [
        "while",
        -10.525895634328542
      ],
      [
        "▁succeed",
        -10.526260822992842
      ],
      [
        "▁shift",
        -10.526278855899644
      ],
      [
        "threw",
        -10.52632388688145
      ],
      [
        "grad",
        -10.526362299886912
      ],
      [
        "▁mob",
        -10.527081717553834
      ],
      [
        "▁egg",
        -10.52729523263831
      ],
      [
        "▁strip",
        -10.527400522471796
      ],
      [
        "▁quit",
        -10.528293305277996
      ],
      [
        "appointed",
        -10.528327226881691
      ],
      [
        "▁chocolate",
        -10.528478111402158
      ],
      [
        "▁suspect",
        -10.528478157455204
      ],
      [
        "▁shake",
        -10.528895876490516
      ],
      [
        "bal",
        -10.529259118832856
      ],
      [
        "▁nineteen",
        -10.530771253386131
      ],
      [
        "▁shirt",
        -10.530800956171404
      ],
      [
        "▁nick",
        -10.531281424419086
      ],
      [
        "▁pr",
        -10.531970476291589
      ],
      [
        "▁gay",
        -10.53218346973643
      ],
      [
        "▁instant",
        -10.533245781416571
      ],
      [
        "▁duke",
        -10.533410151970491
      ],
      [
        "▁aye",
        -10.53429767874572
      ],
      [
        "▁net",
        -10.534868086004678
      ],
      [
        "▁metro",
        -10.534993732561636
      ],
      [
        "▁electron",
        -10.535170621372757
      ],
      [
        "▁generation",
        -10.535188251093071
      ],
      [
        "▁steel",
        -10.535336021648003
      ],
      [
        "zer",
        -10.53600948362915
      ],
      [
        "▁conduct",
        -10.536807647163666
      ],
      [
        "loo",
        -10.537373159729174
      ],
      [
        "pot",
        -10.537531428635363
      ],
      [
        "▁blame",
        -10.53762637923706
      ],
      [
        "▁ships",
        -10.537716717741262
      ],
      [
        "▁sides",
        -10.537751704389391
      ],
      [
        "lay",
        -10.537801728399552
      ],
      [
        "bodies",
        -10.537870145124112
      ],
      [
        "rud",
        -10.53813446755695
      ],
      [
        "▁sweetie",
        -10.53833802536432
      ],
      [
        "▁admit",
        -10.539608903246569
      ],
      [
        "▁micro",
        -10.539931572174584
      ],
      [
        "▁rev",
        -10.540360416205544
      ],
      [
        "rab",
        -10.54118777653537
      ],
      [
        "▁tam",
        -10.5424175472847
      ],
      [
        "founded",
        -10.542549325497088
      ],
      [
        "may",
        -10.542706739388844
      ],
      [
        "▁xi",
        -10.543455254402604
      ],
      [
        "ben",
        -10.543722038883214
      ],
      [
        "▁application",
        -10.544138359880916
      ],
      [
        "▁transport",
        -10.544375938515788
      ],
      [
        "▁nar",
        -10.545751111961884
      ],
      [
        "▁killer",
        -10.545764964529948
      ],
      [
        "ude",
        -10.546005114942052
      ],
      [
        "▁communication",
        -10.546395690338542
      ],
      [
        "▁friday",
        -10.54640235553031
      ],
      [
        "▁sexual",
        -10.54649089827718
      ],
      [
        "▁assume",
        -10.546791804276625
      ],
      [
        "▁nurse",
        -10.547492471085228
      ],
      [
        "lop",
        -10.547746865418391
      ],
      [
        "verse",
        -10.548916582868856
      ],
      [
        "▁jail",
        -10.549149368147395
      ],
      [
        "illa",
        -10.549760671906988
      ],
      [
        "▁fifth",
        -10.55036947848234
      ],
      [
        "▁argument",
        -10.550925859282486
      ],
      [
        "▁roger",
        -10.550928698139568
      ],
      [
        "▁client",
        -10.550943353115423
      ],
      [
        "▁occur",
        -10.551026934397406
      ],
      [
        "profit",
        -10.55124094364172
      ],
      [
        "▁bin",
        -10.551591709789657
      ],
      [
        "▁swear",
        -10.552744092991706
      ],
      [
        "▁losing",
        -10.552799466017465
      ],
      [
        "▁prisoner",
        -10.553012237885522
      ],
      [
        "▁grandma",
        -10.553080191768336
      ],
      [
        "▁mount",
        -10.553302366517892
      ],
      [
        "▁hans",
        -10.553433907670188
      ],
      [
        "▁pray",
        -10.553609733135058
      ],
      [
        "▁recent",
        -10.553955454108928
      ],
      [
        "trac",
        -10.554192231974794
      ],
      [
        "▁upper",
        -10.554606172311344
      ],
      [
        "▁cricket",
        -10.555476430540402
      ],
      [
        "▁democratic",
        -10.556044675017176
      ],
      [
        "shah",
        -10.556871970423838
      ],
      [
        "▁odd",
        -10.558415195334865
      ],
      [
        "▁cars",
        -10.559613489368257
      ],
      [
        "▁turning",
        -10.560127845616543
      ],
      [
        "▁favor",
        -10.560663272336171
      ],
      [
        "▁driver",
        -10.56123063416585
      ],
      [
        "▁pri",
        -10.561335290263862
      ],
      [
        "everywhere",
        -10.562192094105775
      ],
      [
        "▁saturday",
        -10.562341420062978
      ],
      [
        "▁climate",
        -10.562344508191362
      ],
      [
        "▁cousin",
        -10.562347906518246
      ],
      [
        "nel",
        -10.562410075664063
      ],
      [
        "far",
        -10.562584092831882
      ],
      [
        "rich",
        -10.562658440272696
      ],
      [
        "▁trail",
        -10.562841811840368
      ],
      [
        "▁tip",
        -10.563023182120808
      ],
      [
        "▁goodbye",
        -10.563271194508555
      ],
      [
        "▁stretch",
        -10.564640933773113
      ],
      [
        "▁tongue",
        -10.564643204406202
      ],
      [
        "▁eva",
        -10.565529855826297
      ],
      [
        "▁starr",
        -10.565544799738046
      ],
      [
        "▁flag",
        -10.566928782716165
      ],
      [
        "▁struck",
        -10.566944992191136
      ],
      [
        "▁lecture",
        -10.566945208282569
      ],
      [
        "▁pattern",
        -10.5669465443269
      ],
      [
        "uz",
        -10.567028657885864
      ],
      [
        "▁refuse",
        -10.56806395501996
      ],
      [
        "▁counter",
        -10.568249035631286
      ],
      [
        "▁tale",
        -10.568319934518431
      ],
      [
        "good",
        -10.568364006895854
      ],
      [
        "▁commission",
        -10.568842960824858
      ],
      [
        "▁absolute",
        -10.5699410330715
      ],
      [
        "▁twin",
        -10.57040369879617
      ],
      [
        "▁shame",
        -10.570803969747876
      ],
      [
        "atter",
        -10.572220589649088
      ],
      [
        "lica",
        -10.573306870701662
      ],
      [
        "▁representative",
        -10.57400203005027
      ],
      [
        "dying",
        -10.574284827760884
      ],
      [
        "▁pope",
        -10.575477260444757
      ],
      [
        "▁weak",
        -10.575676960558395
      ],
      [
        "ification",
        -10.575893979451916
      ],
      [
        "▁worship",
        -10.576214950105458
      ],
      [
        "▁onto",
        -10.57633866087438
      ],
      [
        "▁item",
        -10.576489789370834
      ],
      [
        "▁grab",
        -10.577572888845944
      ],
      [
        "rim",
        -10.577890974609623
      ],
      [
        "▁rad",
        -10.578152627438708
      ],
      [
        "▁kennedy",
        -10.578559417833134
      ],
      [
        "long",
        -10.578849005041953
      ],
      [
        "▁rail",
        -10.578957914730324
      ],
      [
        "▁cake",
        -10.580092168259934
      ],
      [
        "elli",
        -10.580363205113386
      ],
      [
        "▁screw",
        -10.5808823088996
      ],
      [
        "itz",
        -10.5817683508722
      ],
      [
        "▁debut",
        -10.582086649980532
      ],
      [
        "angeles",
        -10.582983837218247
      ],
      [
        "▁manufactur",
        -10.583223770441752
      ],
      [
        "▁threaten",
        -10.58324167798454
      ],
      [
        "▁stream",
        -10.584134466600196
      ],
      [
        "craft",
        -10.584519511689958
      ],
      [
        "▁cub",
        -10.584774963900994
      ],
      [
        "nik",
        -10.585506397646192
      ],
      [
        "▁chamber",
        -10.58557239588668
      ],
      [
        "▁task",
        -10.585600062521657
      ],
      [
        "▁senator",
        -10.585622741088626
      ],
      [
        "▁becomes",
        -10.586605947492332
      ],
      [
        "▁pun",
        -10.586768350453628
      ],
      [
        "▁ears",
        -10.587734088901634
      ],
      [
        "cus",
        -10.587865493561791
      ],
      [
        "▁responsibl",
        -10.587924129626035
      ],
      [
        "▁relax",
        -10.587924352227889
      ],
      [
        "▁solve",
        -10.587934821855692
      ],
      [
        "▁cloud",
        -10.588000552297046
      ],
      [
        "▁settlement",
        -10.588378222905702
      ],
      [
        "▁theatre",
        -10.588797961936017
      ],
      [
        "▁statistic",
        -10.59028263065562
      ],
      [
        "▁latin",
        -10.59043957213886
      ],
      [
        "ological",
        -10.592386392975088
      ],
      [
        "▁bishop",
        -10.592648459496996
      ],
      [
        "▁corn",
        -10.59298933733268
      ],
      [
        "play",
        -10.593235967704032
      ],
      [
        "ibi",
        -10.594020731321043
      ],
      [
        "pre",
        -10.594634321136498
      ],
      [
        "▁fifteen",
        -10.595067581497162
      ],
      [
        "▁sale",
        -10.595189203623804
      ],
      [
        "▁tommy",
        -10.595258628618929
      ],
      [
        "▁bound",
        -10.59618846398486
      ],
      [
        "▁chase",
        -10.597032612246071
      ],
      [
        "▁managed",
        -10.597556502528676
      ],
      [
        "▁drawing",
        -10.598827299119405
      ],
      [
        "▁principle",
        -10.599772603983949
      ],
      [
        "▁despite",
        -10.599772923383451
      ],
      [
        "▁snake",
        -10.599786633139798
      ],
      [
        "▁drugs",
        -10.600397620309105
      ],
      [
        "▁fixed",
        -10.601090676156296
      ],
      [
        "rank",
        -10.60180012129138
      ],
      [
        "▁advantage",
        -10.602159238661748
      ],
      [
        "▁proceed",
        -10.602167508899578
      ],
      [
        "▁instance",
        -10.602196008510358
      ],
      [
        "▁poly",
        -10.602339546692184
      ],
      [
        "▁knight",
        -10.602376343304712
      ],
      [
        "▁nap",
        -10.602944201997204
      ],
      [
        "▁nat",
        -10.602991955112516
      ],
      [
        "▁laughing",
        -10.603422107293133
      ],
      [
        "▁practical",
        -10.603644736641073
      ],
      [
        "▁div",
        -10.604696913282131
      ],
      [
        "▁neu",
        -10.604824706758848
      ],
      [
        "lum",
        -10.605039711442616
      ],
      [
        "eur",
        -10.605208132304462
      ],
      [
        "▁asia",
        -10.606607859498617
      ],
      [
        "▁bride",
        -10.606626319313596
      ],
      [
        "▁rent",
        -10.60679766235177
      ],
      [
        "▁background",
        -10.607257982451198
      ],
      [
        "▁expression",
        -10.607263099798702
      ],
      [
        "▁winner",
        -10.607523384170012
      ],
      [
        "▁kidd",
        -10.607549544254562
      ],
      [
        "▁cul",
        -10.608765285336316
      ],
      [
        "▁musician",
        -10.60904711289361
      ],
      [
        "▁orchestra",
        -10.609353992563484
      ],
      [
        "▁opposite",
        -10.609372479515402
      ],
      [
        "lton",
        -10.609392660676988
      ],
      [
        "new",
        -10.609425320718827
      ],
      [
        "▁canadian",
        -10.609450388734349
      ],
      [
        "lock",
        -10.609554491182788
      ],
      [
        "pu",
        -10.60978627731649
      ],
      [
        "▁additional",
        -10.609847871765815
      ],
      [
        "▁nest",
        -10.611117729596836
      ],
      [
        "▁sport",
        -10.61168470568339
      ],
      [
        "chuckles",
        -10.6121313673344
      ],
      [
        "hun",
        -10.61221801533366
      ],
      [
        "▁mir",
        -10.612594602621998
      ],
      [
        "▁option",
        -10.61266204944622
      ],
      [
        "▁cock",
        -10.612806966841434
      ],
      [
        "mination",
        -10.613808861743454
      ],
      [
        "▁thin",
        -10.61415225527237
      ],
      [
        "▁unfortunate",
        -10.614178608272551
      ],
      [
        "▁exchange",
        -10.614178833936082
      ],
      [
        "scottish",
        -10.614200237353275
      ],
      [
        "▁freedom",
        -10.614322597795107
      ],
      [
        "▁carbon",
        -10.614529931883489
      ],
      [
        "▁brita",
        -10.614861183762873
      ],
      [
        "▁steam",
        -10.614992020364038
      ],
      [
        "uri",
        -10.61512491179858
      ],
      [
        "▁horn",
        -10.615368349157114
      ],
      [
        "▁controll",
        -10.6162855678159
      ],
      [
        "▁protest",
        -10.616388928450991
      ],
      [
        "tian",
        -10.617412773995367
      ],
      [
        "spoken",
        -10.617806541893184
      ],
      [
        "▁palm",
        -10.617875264989866
      ],
      [
        "▁variet",
        -10.617901303069033
      ],
      [
        "▁maria",
        -10.618530443932782
      ],
      [
        "▁engage",
        -10.618761398116645
      ],
      [
        "▁servant",
        -10.619027470744
      ],
      [
        "▁plot",
        -10.619452380605276
      ],
      [
        "ians",
        -10.620142728198742
      ],
      [
        "▁programme",
        -10.621071538406344
      ],
      [
        "▁responsibilit",
        -10.62146019027342
      ],
      [
        "▁chemical",
        -10.621464480904327
      ],
      [
        "▁laws",
        -10.621600437716353
      ],
      [
        "▁silent",
        -10.62171187281844
      ],
      [
        "▁lips",
        -10.622149869172569
      ],
      [
        "▁kn",
        -10.623055299646191
      ],
      [
        "mov",
        -10.623102866025448
      ],
      [
        "▁height",
        -10.623417439958178
      ],
      [
        "▁achieve",
        -10.623622398617847
      ],
      [
        "▁arrange",
        -10.623716883562372
      ],
      [
        "mode",
        -10.623899468438344
      ],
      [
        "pho",
        -10.625371794692628
      ],
      [
        "american",
        -10.625477375154674
      ],
      [
        "▁employ",
        -10.626013410752012
      ],
      [
        "▁senior",
        -10.626351512137504
      ],
      [
        "bol",
        -10.626559461054391
      ],
      [
        "▁understood",
        -10.627252225847927
      ],
      [
        "oz",
        -10.62728522423854
      ],
      [
        "pel",
        -10.627604003204969
      ],
      [
        "▁mini",
        -10.627790970252487
      ],
      [
        "▁reference",
        -10.628358185484824
      ],
      [
        "▁sergeant",
        -10.628795185453315
      ],
      [
        "▁facilit",
        -10.628795359867848
      ],
      [
        "mine",
        -10.629007977883742
      ],
      [
        "▁billion",
        -10.629509268451384
      ],
      [
        "anne",
        -10.629812506630216
      ],
      [
        "poo",
        -10.631128625937563
      ],
      [
        "▁progress",
        -10.631222999949376
      ],
      [
        "▁vehicle",
        -10.63125221020016
      ],
      [
        "▁deserve",
        -10.63126251069714
      ],
      [
        "▁colonel",
        -10.631283646387793
      ],
      [
        "els",
        -10.631398330818396
      ],
      [
        "cast",
        -10.632541354754204
      ],
      [
        "▁response",
        -10.633715239715844
      ],
      [
        "▁adventure",
        -10.63371524298582
      ],
      [
        "▁winning",
        -10.633850792546529
      ],
      [
        "▁highway",
        -10.635057112945962
      ],
      [
        "▁earn",
        -10.635908000609756
      ],
      [
        "▁jean",
        -10.636120452198872
      ],
      [
        "▁gentleman",
        -10.636423118862089
      ],
      [
        "▁guide",
        -10.637534541400502
      ],
      [
        "▁confirm",
        -10.638659625462662
      ],
      [
        "▁shadow",
        -10.638663588288704
      ],
      [
        "▁laura",
        -10.638701158933737
      ],
      [
        "▁label",
        -10.63977449742884
      ],
      [
        "▁willing",
        -10.64008305262414
      ],
      [
        "▁suck",
        -10.640498120158028
      ],
      [
        "▁shooting",
        -10.640666437015405
      ],
      [
        "mond",
        -10.640976000987164
      ],
      [
        "▁criminal",
        -10.641141019087655
      ],
      [
        "fall",
        -10.642062068002543
      ],
      [
        "▁stan",
        -10.642100983082956
      ],
      [
        "pit",
        -10.642534455029423
      ],
      [
        "▁km",
        -10.642612491160744
      ],
      [
        "▁oursel",
        -10.645482017562175
      ],
      [
        "▁edward",
        -10.645501443885674
      ],
      [
        "press",
        -10.645666432823552
      ],
      [
        "▁advice",
        -10.646122583508523
      ],
      [
        "▁grace",
        -10.646358516395914
      ],
      [
        "▁legend",
        -10.646379260690722
      ],
      [
        "dom",
        -10.648098381279484
      ],
      [
        "bye",
        -10.64812993848768
      ],
      [
        "▁revolution",
        -10.64833273325216
      ],
      [
        "▁plent",
        -10.64890312874372
      ],
      [
        "▁stu",
        -10.649819846270656
      ],
      [
        "▁pete",
        -10.649877236092165
      ],
      [
        "▁dail",
        -10.650784699944346
      ],
      [
        "pat",
        -10.652222006878214
      ],
      [
        "▁russia",
        -10.652717473169442
      ],
      [
        "▁dutch",
        -10.653343195043492
      ],
      [
        "▁passenger",
        -10.653641186188825
      ],
      [
        "▁geograph",
        -10.653714624225216
      ],
      [
        "▁failure",
        -10.653799843929956
      ],
      [
        "▁occasion",
        -10.65394910415182
      ],
      [
        "▁tha",
        -10.654362461583911
      ],
      [
        "sign",
        -10.654639408123773
      ],
      [
        "▁tradition",
        -10.655362098729864
      ],
      [
        "▁witness",
        -10.655798147340874
      ],
      [
        "▁bubble",
        -10.656160865923727
      ],
      [
        "▁protection",
        -10.656319414311945
      ],
      [
        "▁referr",
        -10.65716595329916
      ],
      [
        "▁abilit",
        -10.657689384134647
      ],
      [
        "▁bare",
        -10.657921446703073
      ],
      [
        "▁traffic",
        -10.658685319220083
      ],
      [
        "▁uniform",
        -10.65869486736734
      ],
      [
        "▁arts",
        -10.659404021866884
      ],
      [
        "▁uses",
        -10.65964748499372
      ],
      [
        "bit",
        -10.65967906579479
      ],
      [
        "▁hmm",
        -10.659769170747309
      ],
      [
        "▁matche",
        -10.659888870942847
      ],
      [
        "▁copy",
        -10.660811179162106
      ],
      [
        "▁northwest",
        -10.661168297155797
      ],
      [
        "▁appreciate",
        -10.66121695953746
      ],
      [
        "▁cris",
        -10.661323497166714
      ],
      [
        "een",
        -10.662060796535354
      ],
      [
        "▁wire",
        -10.662219281077324
      ],
      [
        "rilla",
        -10.662617991064312
      ],
      [
        "aging",
        -10.66291843917196
      ],
      [
        "▁eleven",
        -10.66375797522517
      ],
      [
        "▁slipp",
        -10.664165149502711
      ],
      [
        "▁rocks",
        -10.66482231218404
      ],
      [
        "▁calls",
        -10.664878595698152
      ],
      [
        "▁kim",
        -10.666130551819354
      ],
      [
        "▁showing",
        -10.666174331145294
      ],
      [
        "rian",
        -10.666279564188969
      ],
      [
        "▁cheese",
        -10.66631504794547
      ],
      [
        "▁koh",
        -10.66646966704516
      ],
      [
        "▁pardon",
        -10.666476591688005
      ],
      [
        "▁lesson",
        -10.666573291812526
      ],
      [
        "▁gla",
        -10.667906799798947
      ],
      [
        "▁mental",
        -10.668511556604129
      ],
      [
        "when",
        -10.669601266602758
      ],
      [
        "rise",
        -10.66975201369155
      ],
      [
        "▁butter",
        -10.669877813710864
      ],
      [
        "ray",
        -10.670042742128038
      ],
      [
        "▁grade",
        -10.670403856494382
      ],
      [
        "▁weekend",
        -10.671947192344366
      ],
      [
        "therine",
        -10.672514121116471
      ],
      [
        "▁gall",
        -10.67257219809732
      ],
      [
        "▁stranger",
        -10.673311330937842
      ],
      [
        "▁ceremon",
        -10.673972250455826
      ],
      [
        "▁pink",
        -10.674325406398031
      ],
      [
        "▁graduate",
        -10.674512942120128
      ],
      [
        "▁recording",
        -10.674934127626328
      ],
      [
        "ira",
        -10.675877445574482
      ],
      [
        "will",
        -10.677290245997764
      ],
      [
        "▁unlike",
        -10.677391949060214
      ],
      [
        "▁agreement",
        -10.677466105396563
      ],
      [
        "▁witch",
        -10.677603186151456
      ],
      [
        "▁fingers",
        -10.677607210551958
      ],
      [
        "most",
        -10.678071119327251
      ],
      [
        "▁instruction",
        -10.679684413021544
      ],
      [
        "▁affect",
        -10.679784826693528
      ],
      [
        "point",
        -10.68013365926587
      ],
      [
        "▁dig",
        -10.682257419783992
      ],
      [
        "aga",
        -10.682870573893377
      ],
      [
        "▁fred",
        -10.682994655051647
      ],
      [
        "▁diet",
        -10.683760760061658
      ],
      [
        "▁bless",
        -10.684608560208698
      ],
      [
        "▁restaurant",
        -10.686892302573256
      ],
      [
        "▁idiot",
        -10.686893174135848
      ],
      [
        "▁budget",
        -10.68691389515324
      ],
      [
        "lot",
        -10.687468712696324
      ],
      [
        "▁severe",
        -10.68761477775781
      ],
      [
        "▁tang",
        -10.687669381945817
      ],
      [
        "▁chairman",
        -10.687806951326827
      ],
      [
        "▁arrest",
        -10.687989876587284
      ],
      [
        "▁pleased",
        -10.688287071348654
      ],
      [
        "▁useful",
        -10.689001151604142
      ],
      [
        "▁afford",
        -10.689501920638255
      ],
      [
        "dancing",
        -10.689728986670934
      ],
      [
        "hawk",
        -10.690257060432192
      ],
      [
        "▁manage",
        -10.690756463990262
      ],
      [
        "▁noble",
        -10.69096133944863
      ],
      [
        "▁rein",
        -10.69141834951133
      ],
      [
        "▁mix",
        -10.691525057043664
      ],
      [
        "▁knife",
        -10.692109750717128
      ],
      [
        "▁muslim",
        -10.692117166506948
      ],
      [
        "▁register",
        -10.69212944787385
      ],
      [
        "gasp",
        -10.693062335291398
      ],
      [
        "▁australian",
        -10.693200316364194
      ],
      [
        "▁pipe",
        -10.69424609403615
      ],
      [
        "▁closer",
        -10.69430812379711
      ],
      [
        "▁aim",
        -10.69469729443345
      ],
      [
        "▁categor",
        -10.6947258664786
      ],
      [
        "▁define",
        -10.696156018901712
      ],
      [
        "+",
        -10.69734990133094
      ],
      [
        "▁secure",
        -10.697442176504245
      ],
      [
        "▁chip",
        -10.699786336083337
      ],
      [
        "▁expensive",
        -10.699981480629909
      ],
      [
        "▁frequent",
        -10.699981480898575
      ],
      [
        "▁excellent",
        -10.699981498098072
      ],
      [
        "▁hanging",
        -10.69999498187354
      ],
      [
        "▁gran",
        -10.701699739833956
      ],
      [
        "▁connected",
        -10.70236909710114
      ],
      [
        "▁argue",
        -10.702838705360346
      ],
      [
        "▁proof",
        -10.703005056984049
      ],
      [
        "▁planne",
        -10.704188507684986
      ],
      [
        "had",
        -10.704461251510557
      ],
      [
        "ddle",
        -10.704960992022
      ],
      [
        "▁status",
        -10.705265663352783
      ],
      [
        "▁convention",
        -10.705265695249404
      ],
      [
        "▁diamond",
        -10.7052692017222
      ],
      [
        "gli",
        -10.705281344836015
      ],
      [
        "▁presence",
        -10.705283662687052
      ],
      [
        "▁motion",
        -10.70599282818102
      ],
      [
        "▁pour",
        -10.706854338302016
      ],
      [
        "▁prior",
        -10.708124694341976
      ],
      [
        "▁monster",
        -10.708140465541891
      ],
      [
        "▁setting",
        -10.708611128574496
      ],
      [
        "▁dust",
        -10.709016685702208
      ],
      [
        "▁chest",
        -10.7104062333689
      ],
      [
        "▁internet",
        -10.710579863157529
      ],
      [
        "▁rescue",
        -10.710589041888552
      ],
      [
        "▁nathan",
        -10.710684976141485
      ],
      [
        "pin",
        -10.710693514568458
      ],
      [
        "▁senate",
        -10.71087999584936
      ],
      [
        "guilty",
        -10.711606807523978
      ],
      [
        "▁mile",
        -10.711929652167608
      ],
      [
        "▁activit",
        -10.71284316660355
      ],
      [
        "▁steve",
        -10.713151363950148
      ],
      [
        "▁frighten",
        -10.713244276042598
      ],
      [
        "▁regional",
        -10.71411043805622
      ],
      [
        "▁streets",
        -10.714792475292242
      ],
      [
        "tended",
        -10.715780025217336
      ],
      [
        "muni",
        -10.718816921803764
      ],
      [
        "▁dave",
        -10.71902218445592
      ],
      [
        "▁mah",
        -10.720345215634651
      ],
      [
        "ava",
        -10.721431874411188
      ],
      [
        "rak",
        -10.72160218089374
      ],
      [
        "▁turns",
[...]
