{
  "version": "1.0",
  "truncation": null,
  "padding": null,
  "added_tokens": [
    {
      "id": 0,
      "content": "<pad>",
      "single_word": false,
      "lstrip": false,
      "rstrip": false,
      "normalized": false,
      "special": true
    },
    {
      "id": 1,
      "content": "</s>",
      "single_word": false,
      "lstrip": false,
      "rstrip": false,
      "normalized": false,
      "special": true
    },
    {
      "id": 2,
      "content": "<unk>",
      "single_word": false,
      "lstrip": false,
      "rstrip": false,
      "normalized": false,
      "special": true
    },
    {
      "id": 3,
      "content": "<mask>",
      "single_word": false,
      "lstrip": false,
      "rstrip": false,
      "normalized": false,
      "special": true
    }
  ],
  "normalizer": {
    "type": "Sequence",
    "normalizers": [
      {
        "type": "Nmt"
      },
      {
        "type": "NFKC"
      },
      {
        "type": "Replace",
        "pattern": {
          "Regex": " {2,}"
        },
        "content": " "
      },
      {
        "type": "Lowercase"
      }
    ]
  },
  "pre_tokenizer": {
    "type": "Sequence",
    "pretokenizers": [
      {
        "type": "Metaspace",
        "replacement": "▁",
        "add_prefix_space": true
      },
      {
        "type": "Digits",
        "individual_digits": true
      },
      {
        "type": "Punctuation",
        "behavior": "Isolated"
      }
    ]
  },
  "post_processor": {
    "type": "TemplateProcessing",
    "single": [
      {
        "Sequence": {
          "id": "A",
          "type_id": 0
        }
      },
      {
        "SpecialToken": {
          "id": "</s>",
          "type_id": 0
        }
      }
    ],
    "pair": [
      {
        "Sequence": {
          "id": "A",
          "type_id": 0
        }
      },
      {
        "Sequence": {
          "id": "B",
          "type_id": 1
        }
      }
    ],
    "special_tokens": {
      "</s>": {
        "id": "</s>",
        "ids": [
          1
        ],
        "tokens": [
          "</s>"
        ]
      }
    }
  },
  "decoder": {
    "type": "Metaspace",
    "replacement": "▁",
    "add_prefix_space": true
  },
  "model": {
    "type": "Unigram",
    "unk_id": 2,
    "vocab": [
      [
        "<pad>",
        0.0
      ],
      [
        "</s>",
        0.0
      ],
      [
        "<unk>",
        0.0
      ],
      [
        "<mask>",
        0.0
      ],
      [
        "▁",
        -2.3977781605987083
      ],
      [
        ".",
        -2.8983711080125953
      ],
      [
        ",",
        -3.313507699464786
      ],
      [
        "s",
        -3.5012967761235316
      ],
      [
        "▁the",
        -3.505314463155969
      ],
      [
        "a",
        -3.769304454295568
      ],
      [
        "'",
        -3.8609264112140895
      ],
      [
        "i",
        -3.950285529439629
      ],
      [
        "▁and",
        -4.244391716884765
      ],
      [
        "▁to",
        -4.248031431850004
      ],
      [
        "t",
        -4.3047715165250615
      ],
      [
        "▁of",
        -4.32778105378258
      ],
      [
        "▁you",
        -4.342600369504325
      ],
      [
        "▁in",
        -4.523105269307463
      ],
      [
        "?",
        -4.6210984686354895
      ],
      [
        "-",
        -4.626830097664445
      ],
      [
        "▁it",
        -4.628529735567287
      ],
      [
        "▁that",
        -4.810360051343906
      ],
      [
        "d",
        -4.824745909936386
      ],
      [
        "e",
        -4.8827163052500815
      ],
      [
        "▁is",
        -4.9432701124252745
      ],
      [
        "\"",
        -5.043860077909585
      ],
      [
        "▁was",
        -5.151305502597488
      ],
      [
        "1",
        -5.206312828330427
      ],
      [
        "▁he",
        -5.223075562398536
      ],
      [
        "o",
        -5.296915463442739
      ],
      [
        "0",
        -5.337295302986924
      ],
      [
        "▁for",
        -5.376896980570589
      ],
      [
        "!",
        -5.44680119665038
      ],
      [
        "▁on",
        -5.462655022608219
      ],
      [
        "m",
        -5.504869584477049
      ],
      [
        "▁we",
        -5.5129136632102895
      ],
      [
        "y",
        -5.56199933575577
      ],
      [
        "▁this",
        -5.609706642324893
      ],
      [
        "h",
        -5.614396980312868
      ],
      [
        "2",
        -5.62879515802447
      ],
      [
        "▁with",
        -5.642513513905239
      ],
      [
        "▁what",
        -5.6461924259913925
      ],
      [
        "n",
        -5.6625997005549
      ],
      [
        "▁be",
        -5.718488106480345
      ],
      [
        "▁have",
        -5.770104398760447
      ],
      [
        "▁as",
        -5.779316977436871
      ],
      [
        "▁are",
        -5.786902699087934
      ],
      [
        "re",
        -5.790231280199466
      ],
      [
        "▁me",
        -5.831298678302604
      ],
      [
        "9",
        -5.833403904624296
      ],
      [
        "▁not",
        -5.8776042741467425
      ],
      [
        "▁they",
        -5.894615094616864
      ],
      [
        "ing",
        -5.895475128221731
      ],
      [
        "▁but",
        -5.913309655756889
      ],
      [
        "▁do",
        -5.928347704345757
      ],
      [
        "▁so",
        -5.945180600058507
      ],
      [
        "▁his",
        -6.021193482542618
      ],
      [
        "▁she",
        -6.04669536389288
      ],
      [
        "▁there",
        -6.064582021937898
      ],
      [
        "▁no",
        -6.06570684981876
      ],
      [
        "▁can",
        -6.080493559622113
      ],
      [
        "▁all",
        -6.0866952680725
      ],
      [
        "▁my",
        -6.1169915431202835
      ],
      [
        "l",
        -6.135247470696861
      ],
      [
        "r",
        -6.150161109342282
      ],
      [
        "▁one",
        -6.151328737565011
      ],
      [
        "▁your",
        -6.166124450938344
      ],
      [
        "er",
        -6.177067353100313
      ],
      [
        "▁from",
        -6.182192495138612
      ],
      [
        ")",
        -6.185749702943527
      ],
      [
        "▁by",
        -6.188617515709483
      ],
      [
        "(",
        -6.192768466733423
      ],
      [
        "▁know",
        -6.1971796317470424
      ],
      [
        "▁her",
        -6.234130717367336
      ],
      [
        "▁don",
        -6.295512713040795
      ],
      [
        "▁had",
        -6.31062952491542
      ],
      [
        "▁like",
        -6.330091562939886
      ],
      [
        "▁an",
        -6.34406571501782
      ],
      [
        "▁if",
        -6.362079978586941
      ],
      [
        "ly",
        -6.393814753517548
      ],
      [
        "ll",
        -6.402085106353127
      ],
      [
        "▁just",
        -6.405219313609303
      ],
      [
        "▁up",
        -6.431105344611609
      ],
      [
        "8",
        -6.44418286311644
      ],
      [
        "▁about",
        -6.448895770169759
      ],
      [
        "▁out",
        -6.451640050158472
      ],
      [
        "▁or",
        -6.4522727888806966
      ],
      [
        "3",
        -6.471416818573202
      ],
      [
        "▁him",
        -6.472032953185906
      ],
      [
        "▁go",
        -6.476520674392157
      ],
      [
        "5",
        -6.482352595898945
      ],
      [
        "▁were",
        -6.507109857463343
      ],
      [
        "▁here",
        -6.507156244636876
      ],
      [
        "▁get",
        -6.518816375685775
      ],
      [
        "ve",
        -6.57113691173396
      ],
      [
        "4",
        -6.573200019790233
      ],
      [
        "▁when",
        -6.58691887734394
      ],
      [
        "▁right",
        -6.591025768623421
      ],
      [
        "▁who",
        -6.593152087100883
      ],
      [
        ":",
        -6.602711344041779
      ],
      [
        "▁now",
        -6.609877579869632
      ],
      [
        "▁well",
        -6.611047404262202
      ],
      [
        ";",
        -6.613343263408513
      ],
      [
        "7",
        -6.615532927482313
      ],
      [
        "c",
        -6.616843384139951
      ],
      [
        "6",
        -6.625323199013648
      ],
      [
        "▁will",
        -6.678249848276039
      ],
      [
        "▁yeah",
        -6.687298793349855
      ],
      [
        "u",
        -6.701555735446691
      ],
      [
        "g",
        -6.734322732404133
      ],
      [
        "▁see",
        -6.743185062337259
      ],
      [
        "▁would",
        -6.752658802684129
      ],
      [
        "▁think",
        -6.775424143915931
      ],
      [
        "▁which",
        -6.778591299190396
      ],
      [
        "▁has",
        -6.7839405704586895
      ],
      [
        "▁how",
        -6.792995647068041
      ],
      [
        "in",
        -6.799746496431421
      ],
      [
        "f",
        -6.8218310110287685
      ],
      [
        "▁come",
        -6.83916466878623
      ],
      [
        "▁time",
        -6.839853512394681
      ],
      [
        "=",
        -6.845264367499048
      ],
      [
        "▁did",
        -6.847727952102286
      ],
      [
        "▁them",
        -6.854829433118983
      ],
      [
        "▁then",
        -6.8601908304686265
      ],
      [
        "▁some",
        -6.871652777721058
      ],
      [
        "▁got",
        -6.87356831823482
      ],
      [
        "▁been",
        -6.888434799286607
      ],
      [
        "▁said",
        -6.893008365549839
      ],
      [
        "b",
        -6.893038503978753
      ],
      [
        "p",
        -6.904510713353732
      ],
      [
        "▁want",
        -6.9061437353595565
      ],
      [
        "▁good",
        -6.944736573647704
      ],
      [
        "k",
        -6.951721818927542
      ],
      [
        "▁where",
        -6.961983784928394
      ],
      [
        "▁more",
        -6.964013698392632
      ],
      [
        "▁their",
        -6.967731551082389
      ],
      [
        "`",
        -6.985984326094423
      ],
      [
        "▁people",
        -7.005814713981874
      ],
      [
        "▁going",
        -7.015386581364478
      ],
      [
        "▁two",
        -7.0332348531374915
      ],
      [
        "▁very",
        -7.04766819597446
      ],
      [
        "on",
        -7.06647700462868
      ],
      [
        "▁let",
        -7.081244844256942
      ],
      [
        "▁over",
        -7.083783122719913
      ],
      [
        "▁back",
        -7.08517995514887
      ],
      [
        "▁first",
        -7.1044023504021485
      ],
      [
        "▁could",
        -7.1091965083582185
      ],
      [
        "▁other",
        -7.136973241592397
      ],
      [
        "▁yes",
        -7.18318827545842
      ],
      [
        "▁because",
        -7.1903231456192085
      ],
      [
        "▁look",
        -7.19616596583117
      ],
      [
        "▁into",
        -7.200196128389656
      ],
      [
        "▁say",
        -7.201251834539537
      ],
      [
        "▁little",
        -7.216045750975924
      ],
      [
        "▁us",
        -7.216533989272357
      ],
      [
        "▁down",
        -7.223690752457971
      ],
      [
        "▁okay",
        -7.229384893350968
      ],
      [
        "▁our",
        -7.236118761240716
      ],
      [
        "an",
        -7.237553879389909
      ],
      [
        "▁why",
        -7.238209784272966
      ],
      [
        "▁take",
        -7.246299531197659
      ],
      [
        "▁only",
        -7.246825671713793
      ],
      [
        "▁man",
        -7.257512485343559
      ],
      [
        "▁after",
        -7.274470823176992
      ],
      [
        "▁also",
        -7.282033631599454
      ],
      [
        "▁way",
        -7.29532632167642
      ],
      [
        "]",
        -7.300630531137747
      ],
      [
        "[",
        -7.301374222577269
      ],
      [
        "▁these",
        -7.321847843083711
      ],
      [
        "▁new",
        -7.326936892741951
      ],
      [
        "▁make",
        -7.337044503128457
      ],
      [
        "|",
        -7.3538666604931695
      ],
      [
        "▁really",
        -7.369302941868881
      ],
      [
        "v",
        -7.374970955962661
      ],
      [
        "▁any",
        -7.430465921758547
      ],
      [
        "▁than",
        -7.446618433759042
      ],
      [
        "w",
        -7.471011349344531
      ],
      [
        "▁something",
        -7.486570886334642
      ],
      [
        "▁tell",
        -7.499493191771206
      ],
      [
        "▁much",
        -7.519555869646752
      ],
      [
        "▁put",
        -7.535653093700658
      ],
      [
        "▁gonna",
        -7.562653614675314
      ],
      [
        "▁before",
        -7.562883211676745
      ],
      [
        "▁made",
        -7.566418754207024
      ],
      [
        "▁never",
        -7.567482951234275
      ],
      [
        "▁should",
        -7.577435275564952
      ],
      [
        "▁need",
        -7.58901747125315
      ],
      [
        "▁off",
        -7.589162933794133
      ],
      [
        "▁too",
        -7.611277396505715
      ],
      [
        "▁may",
        -7.618653322085027
      ],
      [
        "▁work",
        -7.629629967161691
      ],
      [
        "▁even",
        -7.636315291315929
      ],
      [
        "▁day",
        -7.641890220860004
      ],
      [
        "▁mean",
        -7.642709416693526
      ],
      [
        "▁didn",
        -7.643387880655968
      ],
      [
        "▁many",
        -7.643547449386553
      ],
      [
        "the",
        -7.657505325097624
      ],
      [
        "▁three",
        -7.675941677400051
      ],
      [
        "▁am",
        -7.679455125719047
      ],
      [
        "▁uh",
        -7.681152164205816
      ],
      [
        "▁again",
        -7.689046562969303
      ],
      [
        "▁give",
        -7.697992165940358
      ],
      [
        "▁those",
        -7.715457651179236
      ],
      [
        "▁life",
        -7.719102525851902
      ],
      [
        "“",
        -7.723311325485369
      ],
      [
        "▁years",
        -7.724886854800136
      ],
      [
        "▁long",
        -7.730033204822993
      ],
      [
        "▁world",
        -7.740674307641125
      ],
      [
        "”",
        -7.745986765665876
      ],
      [
        "▁thing",
        -7.751799288260029
      ],
      [
        "▁great",
        -7.754595828487213
      ],
      [
        "▁most",
        -7.756638598922617
      ],
      [
        "▁still",
        -7.768932419385724
      ],
      [
        "▁home",
        -7.769694709217898
      ],
      [
        "▁old",
        -7.780455685273154
      ],
      [
        "▁through",
        -7.799623583388023
      ],
      [
        "▁things",
        -7.817248351586702
      ],
      [
        "▁must",
        -7.822204532037924
      ],
      [
        "▁away",
        -7.833501070862647
      ],
      [
        "▁last",
        -7.836958937421818
      ],
      [
        "▁love",
        -7.837402465255973
      ],
      [
        "x",
        -7.840301341073657
      ],
      [
        "▁thought",
        -7.8492441437930704
      ],
      [
        "_",
        -7.852903084259005
      ],
      [
        "▁used",
        -7.85971540171492
      ],
      [
        "▁name",
        -7.880089048203459
      ],
      [
        "▁being",
        -7.885295316198324
      ],
      [
        "▁doing",
        -7.886163545039279
      ],
      [
        "▁find",
        -7.886700362880291
      ],
      [
        "▁won",
        -7.890401250930608
      ],
      [
        "▁came",
        -7.903277732993951
      ],
      [
        "▁went",
        -7.904807419509325
      ],
      [
        "z",
        -7.907204093569396
      ],
      [
        "’",
        -7.915126658285807
      ],
      [
        "or",
        -7.924018960565965
      ],
      [
        "▁does",
        -7.929420133755155
      ],
      [
        "▁such",
        -7.933107630769262
      ],
      [
        "man",
        -7.935721876437587
      ],
      [
        "▁help",
        -7.943140223037
      ],
      [
        "▁same",
        -7.949619006650032
      ],
      [
        "▁mr",
        -7.9505312357370865
      ],
      [
        "▁house",
        -7.9508843381067695
      ],
      [
        "▁called",
        -7.951299660098439
      ],
      [
        "▁part",
        -7.966701802504588
      ],
      [
        "▁place",
        -7.967367216237937
      ],
      [
        "▁another",
        -7.9821335328178
      ],
      [
        "▁school",
        -7.988643143602957
      ],
      [
        "▁night",
        -7.992550962415182
      ],
      [
        "▁hey",
        -8.007408897927306
      ],
      [
        "–",
        -8.008913307838371
      ],
      [
        "▁erm",
        -8.016016754460212
      ],
      [
        "us",
        -8.020957240279824
      ],
      [
        "▁♪",
        -8.022477040535911
      ],
      [
        "▁found",
        -8.037595343760506
      ],
      [
        "▁around",
        -8.044480603929442
      ],
      [
        "▁sure",
        -8.04529607496772
      ],
      [
        "▁please",
        -8.047787477474232
      ],
      [
        "able",
        -8.055542520286561
      ],
      [
        "▁thank",
        -8.05752361118736
      ],
      [
        "▁own",
        -8.069438014972588
      ],
      [
        "▁big",
        -8.07017245568028
      ],
      [
        "▁kind",
        -8.070706162359162
      ],
      [
        "▁god",
        -8.080746190213409
      ],
      [
        "▁lot",
        -8.082170812801246
      ],
      [
        "▁city",
        -8.087531657317026
      ],
      [
        "▁anything",
        -8.088928144582725
      ],
      [
        "to",
        -8.09057487540044
      ],
      [
        "▁always",
        -8.090643504954016
      ],
      [
        "▁car",
        -8.100739885280667
      ],
      [
        "▁while",
        -8.100877026134976
      ],
      [
        "▁every",
        -8.104412045642567
      ],
      [
        "▁nothing",
        -8.106143414524015
      ],
      [
        "▁might",
        -8.110020408755332
      ],
      [
        "▁better",
        -8.111721268725534
      ],
      [
        "▁under",
        -8.112629920744016
      ],
      [
        "▁year",
        -8.115103396214813
      ],
      [
        "▁left",
        -8.126824635523716
      ],
      [
        "▁use",
        -8.13199658182025
      ],
      [
        "▁call",
        -8.148760626843286
      ],
      [
        "▁between",
        -8.159601481108103
      ],
      [
        "▁sorry",
        -8.162198827200928
      ],
      [
        "▁end",
        -8.165068280840778
      ],
      [
        "▁talk",
        -8.168391548269959
      ],
      [
        "▁keep",
        -8.18560699425308
      ],
      [
        "ies",
        -8.189496420214832
      ],
      [
        "▁done",
        -8.197535607722811
      ],
      [
        "▁un",
        -8.197756883970316
      ],
      [
        "▁show",
        -8.198312921527796
      ],
      [
        "j",
        -8.199012958772467
      ],
      [
        "▁father",
        -8.202071285992458
      ],
      [
        "▁ever",
        -8.203275232179731
      ],
      [
        "▁told",
        -8.20828352456558
      ],
      [
        "amp",
        -8.20888065211115
      ],
      [
        "▁money",
        -8.211790450032378
      ],
      [
        "▁state",
        -8.213169388312966
      ],
      [
        "▁four",
        -8.215968375792787
      ],
      [
        "▁next",
        -8.219576514985839
      ],
      [
        "▁second",
        -8.222275341291608
      ],
      [
        "▁head",
        -8.22347264222968
      ],
      [
        "▁both",
        -8.230212048880226
      ],
      [
        "&",
        -8.23810131778569
      ],
      [
        "▁best",
        -8.242269061045931
      ],
      [
        "▁mother",
        -8.245126086609712
      ],
      [
        "▁water",
        -8.24952792720825
      ],
      [
        "▁each",
        -8.249531554750366
      ],
      [
        "▁course",
        -8.249720309066676
      ],
      [
        "▁until",
        -8.251616916950931
      ],
      [
        "▁known",
        -8.257851664324342
      ],
      [
        "▁different",
        -8.266381590695453
      ],
      [
        "▁since",
        -8.276204411771237
      ],
      [
        "▁number",
        -8.283566499990775
      ],
      [
        "▁sir",
        -8.28590023511026
      ],
      [
        "▁during",
        -8.288176744800413
      ],
      [
        "▁united",
        -8.28865869608904
      ],
      [
        "▁men",
        -8.28924609628807
      ],
      [
        "▁stop",
        -8.28954755025836
      ],
      [
        "▁later",
        -8.289897824302022
      ],
      [
        "▁war",
        -8.304438781596138
      ],
      [
        "and",
        -8.320874188509029
      ],
      [
        "▁actually",
        -8.325383767634861
      ],
      [
        "▁everything",
        -8.32969925618098
      ],
      [
        "▁took",
        -8.331960209066978
      ],
      [
        "▁maybe",
        -8.332930670394061
      ],
      [
        "▁once",
        -8.33328444104772
      ],
      [
        "▁hand",
        -8.340136408978895
      ],
      [
        "▁doesn",
        -8.342393113514124
      ],
      [
        "▁mm",
        -8.347350053954152
      ],
      [
        "▁states",
        -8.348914712882907
      ],
      [
        "▁family",
        -8.352746869108449
      ],
      [
        "▁american",
        -8.353139383957952
      ],
      [
        "▁play",
        -8.35588136370758
      ],
      [
        "▁saw",
        -8.361710567774706
      ],
      [
        "▁wait",
        -8.367946384374745
      ],
      [
        "▁leave",
        -8.36826670628404
      ],
      [
        "▁five",
        -8.369779164595021
      ],
      [
        "▁girl",
        -8.373282052665488
      ],
      [
        "▁bit",
        -8.379695420349094
      ],
      [
        "▁enough",
        -8.380654829244536
      ],
      [
        "▁feel",
        -8.385735295820085
      ],
      [
        "▁without",
        -8.393227967279163
      ],
      [
        "▁nice",
        -8.415054486868135
      ],
      [
        "▁today",
        -8.417584276689539
      ],
      [
        "▁against",
        -8.423241694705942
      ],
      [
        "▁boy",
        -8.42727263855762
      ],
      [
        "▁together",
        -8.434300980434783
      ],
      [
        "▁live",
        -8.44541143698533
      ],
      [
        "▁believe",
        -8.4482036195234
      ],
      [
        "▁far",
        -8.458922262929129
      ],
      [
        "▁coming",
        -8.46552715316651
      ],
      [
        "▁set",
        -8.470981649761233
      ],
      [
        "▁remember",
        -8.472093487727525
      ],
      [
        "▁died",
        -8.472917803808773
      ],
      [
        "▁seen",
        -8.474152742850212
      ],
      [
        "▁wanted",
        -8.484851486881803
      ],
      [
        "▁high",
        -8.487457035502093
      ],
      [
        "▁mind",
        -8.491139940118469
      ],
      [
        "▁else",
        -8.492359055340316
      ],
      [
        "▁national",
        -8.494769849109518
      ],
      [
        "/",
        -8.497994887141985
      ],
      [
        "▁team",
        -8.499423411766962
      ],
      [
        "▁children",
        -8.499664232654153
      ],
      [
        "▁became",
        -8.499935860577805
      ],
      [
        "▁side",
        -8.502817066489984
      ],
      [
        "▁care",
        -8.506850447431255
      ],
      [
        "▁open",
        -8.509326640112553
      ],
      [
        "▁point",
        -8.512707113082461
      ],
      [
        "▁king",
        -8.512743508182817
      ],
      [
        "▁try",
        -8.513848709406698
      ],
      [
        "▁few",
        -8.515443118108607
      ],
      [
        "▁son",
        -8.517970957935844
      ],
      [
        "▁bad",
        -8.522487070163967
      ],
      [
        "▁quite",
        -8.524028512513643
      ],
      [
        "▁young",
        -8.524487232742656
      ],
      [
        "▁though",
        -8.529447874873282
      ],
      [
        "▁looking",
        -8.529967085991794
      ],
      [
        "▁face",
        -8.5342884421226
      ],
      [
        "▁hear",
        -8.534613843172778
      ],
      [
        "▁ask",
        -8.548914144279447
      ],
      [
        "we",
        -8.55421952898186
      ],
      [
        "▁room",
        -8.556650221279082
      ],
      [
        "▁woman",
        -8.557359823348245
      ],
      [
        "ation",
        -8.558146454592663
      ],
      [
        "▁county",
        -8.560740070474212
      ],
      [
        "you",
        -8.560966832405182
      ],
      [
        "▁yet",
        -8.565837503180697
      ],
      [
        "▁isn",
        -8.568606794566898
      ],
      [
        "▁born",
        -8.575068786733688
      ],
      [
        "▁heart",
        -8.576868243922625
      ],
      [
        "he",
        -8.581052228924761
      ],
      [
        "▁getting",
        -8.581065704167159
      ],
      [
        "▁real",
        -8.586363834381117
      ],
      [
        "▁book",
        -8.588790293416213
      ],
      [
        "▁morning",
        -8.58893315547221
      ],
      [
        "▁north",
        -8.591888596267784
      ],
      [
        "▁happened",
        -8.594615252472373
      ],
      [
        "▁music",
        -8.599684906861748
      ],
      [
        "▁whole",
        -8.600337246520773
      ],
      [
        "me",
        -8.600620882718225
      ],
      [
        "▁eyes",
        -8.600863259474684
      ],
      [
        "▁death",
        -8.601206090134044
      ],
      [
        "▁start",
        -8.601880680092371
      ],
      [
        "▁hard",
        -8.607950299020219
      ],
      [
        "▁friend",
        -8.610048806246995
      ],
      [
        "▁understand",
        -8.616253255086855
      ],
      [
        "▁person",
        -8.627071236486909
      ],
      [
        "▁south",
        -8.627432265189693
      ],
      [
        "▁small",
        -8.628361409985759
      ],
      [
        "▁having",
        -8.636323227706217
      ],
      [
        "▁town",
        -8.63827401289576
      ],
      [
        "▁stay",
        -8.63873738014929
      ],
      [
        "▁half",
        -8.639833101887982
      ],
      [
        "▁says",
        -8.642338338645253
      ],
      [
        "▁days",
        -8.646563378729343
      ],
      [
        "▁times",
        -8.647097853277826
      ],
      [
        "▁run",
        -8.64762699228986
      ],
      [
        "▁white",
        -8.647972638693465
      ],
      [
        "▁system",
        -8.648265925385953
      ],
      [
        "▁fine",
        -8.64921510659844
      ],
      [
        "▁order",
        -8.651226029842428
      ],
      [
        "▁heard",
        -8.655571418479939
      ],
      [
        "▁himself",
        -8.65670861148176
      ],
      [
        "ity",
        -8.65896129242354
      ],
      [
        "ted",
        -8.662520556148339
      ],
      [
        "▁black",
        -8.665813815576255
      ],
      [
        "▁game",
        -8.668972714586568
      ],
      [
        "▁john",
        -8.673520247400447
      ],
      [
        "▁case",
        -8.678982476254747
      ],
      [
        "▁played",
        -8.680059230879998
      ],
      [
        "▁knew",
        -8.682538953589008
      ],
      [
        "▁started",
        -8.683046672413921
      ],
      [
        "▁talking",
        -8.686526978014847
      ],
      [
        "▁already",
        -8.69099877309371
      ],
      [
        "▁along",
        -8.692229439770589
      ],
      [
        "▁upon",
        -8.69434957885136
      ],
      [
        "▁wrong",
        -8.696200093817957
      ],
      [
        "▁women",
        -8.697722485353417
      ],
      [
        "▁idea",
        -8.698610679200838
      ],
      [
        "▁sort",
        -8.700998863229342
      ],
      [
        "▁asked",
        -8.702256139035757
      ],
      [
        "▁six",
        -8.706569648259833
      ],
      [
        "▁turn",
        -8.709445582318232
      ],
      [
        "▁hi",
        -8.712816005165894
      ],
      [
        "▁red",
        -8.712889606485833
      ],
      [
        "▁baby",
        -8.713601034648864
      ],
      [
        "▁group",
        -8.7143706543617
      ],
      [
        "▁important",
        -8.715060851159517
      ],
      [
        "▁shall",
        -8.716215035486728
      ],
      [
        "▁someone",
        -8.722052690680462
      ],
      [
        "▁dead",
        -8.723004855501557
      ],
      [
        "▁country",
        -8.726555171735084
      ],
      [
        "▁soon",
        -8.727183468920582
      ],
      [
        "▁pretty",
        -8.727857984918847
      ],
      [
        "▁move",
        -8.728401026944876
      ],
      [
        "▁la",
        -8.72869322253828
      ],
      [
        "▁line",
        -8.730420611253601
      ],
      [
        "▁light",
        -8.734702554168974
      ],
      [
        "▁air",
        -8.735185068045565
      ],
      [
        "▁saying",
        -8.735278168957223
      ],
      [
        "▁party",
        -8.736074569220131
      ],
      [
        "▁gave",
        -8.737827613727745
      ],
      [
        "▁guy",
        -8.739494687081926
      ],
      [
        "▁however",
        -8.740159476989067
      ],
      [
        "▁door",
        -8.74128833274333
      ],
      [
        "▁matter",
        -8.744463531514006
      ],
      [
        "▁story",
        -8.745519011907332
      ],
      [
        "▁trying",
        -8.746264435584251
      ],
      [
        "▁ha",
        -8.75196177325766
      ],
      [
        "▁round",
        -8.755092714809091
      ],
      [
        "▁ma",
        -8.758388626631785
      ],
      [
        "▁university",
        -8.761269083157359
      ],
      [
        "#",
        -8.761543020013862
      ],
      [
        "▁word",
        -8.764654518515146
      ],
      [
        "▁eat",
        -8.766078200602108
      ],
      [
        "▁gone",
        -8.769244397902195
      ],
      [
        "▁hold",
        -8.771359248963131
      ],
      [
        "▁government",
        -8.771548113863558
      ],
      [
        "▁job",
        -8.772393930597595
      ],
      [
        "▁wanna",
        -8.773036617476851
      ],
      [
        "▁wife",
        -8.774490380559556
      ],
      [
        "▁moment",
        -8.780150352936396
      ],
      [
        "▁brother",
        -8.785531023137903
      ],
      [
        "ous",
        -8.785558462102964
      ],
      [
        "▁change",
        -8.785957028332865
      ],
      [
        "land",
        -8.787866731845192
      ],
      [
        "▁business",
        -8.791532015707977
      ],
      [
        "▁miss",
        -8.792821231021463
      ],
      [
        "▁read",
        -8.796982716490106
      ],
      [
        "*",
        -8.798046399962397
      ],
      [
        "▁early",
        -8.800580139274992
      ],
      [
        "▁kill",
        -8.803244181716
      ],
      [
        "▁movie",
        -8.803926106350394
      ],
      [
        "▁probably",
        -8.806068227524259
      ],
      [
        "▁began",
        -8.810201623941875
      ],
      [
        "▁fire",
        -8.81100613134586
      ],
      [
        "▁lost",
        -8.811499489397843
      ],
      [
        "ch",
        -8.815517619286206
      ],
      [
        "▁bring",
        -8.816667597277936
      ],
      [
        "born",
        -8.81704289271915
      ],
      [
        "▁sea",
        -8.81850687237311
      ],
      [
        "▁power",
        -8.82685310328773
      ],
      [
        "▁problem",
        -8.82894346414447
      ],
      [
        "▁company",
        -8.830986818753445
      ],
      [
        "▁general",
        -8.837332388983686
      ],
      [
        "up",
        -8.837398856823595
      ],
      [
        "▁often",
        -8.83741346476729
      ],
      [
        "▁making",
        -8.837979248188844
      ],
      [
        "▁full",
        -8.840486238547426
      ],
      [
        "▁child",
        -8.84388811959802
      ],
      [
        "▁close",
        -8.84469359933675
      ],
      [
        "▁week",
        -8.845575803586023
      ],
      [
        "▁fact",
        -8.846902952964651
      ],
      [
        "▁listen",
        -8.847999797945436
      ],
      [
        "▁ten",
        -8.848212532940966
      ],
      [
        "▁pay",
        -8.851105017575813
      ],
      [
        "▁hello",
        -8.852540490212169
      ],
      [
        "▁means",
        -8.856937908405104
      ],
      [
        "ness",
        -8.857313897564968
      ],
      [
        "▁near",
        -8.857550288097707
      ],
      [
        "ment",
        -8.857691302953459
      ],
      [
        "▁goes",
        -8.860301008808406
      ],
      [
        "▁service",
        -8.86142564806574
      ],
      [
        "▁president",
        -8.862560721725682
      ],
      [
        "▁true",
        -8.865653991683708
      ],
      [
        "▁guys",
        -8.868115538314553
      ],
      [
        "▁looked",
        -8.86999878684826
      ],
      [
        "▁hope",
        -8.871743180564211
      ],
      [
        "▁top",
        -8.878093435440407
      ],
      [
        "▁ready",
        -8.879068558223603
      ],
      [
        "be",
        -8.88497087539296
      ],
      [
        "▁dad",
        -8.885107282651319
      ],
      [
        "▁sit",
        -8.886165010224802
      ],
      [
        "ent",
        -8.891819561076968
      ],
      [
        "▁almost",
        -8.891842571716555
      ],
      [
        "son",
        -8.892232235202728
      ],
      [
        "▁co",
        -8.897045357346832
      ],
      [
        "▁yourself",
        -8.897096157432653
      ],
      [
        "▁free",
        -8.900282697409995
      ],
      [
        "▁happy",
        -8.901096359964047
      ],
      [
        "▁body",
        -8.90480651840625
      ],
      [
        "one",
        -8.905267245579028
      ],
      [
        "▁ago",
        -8.907973362166157
      ],
      [
        "▁working",
        -8.910506021061426
      ],
      [
        "▁age",
        -8.911217296156337
      ],
      [
        "▁history",
        -8.913487705203142
      ],
      [
        "▁ok",
        -8.914934633286027
      ],
      [
        "▁given",
        -8.91880706290845
      ],
      [
        "▁become",
        -8.919122458935556
      ],
      [
        "▁wouldn",
        -8.919676912736307
      ],
      [
        "▁west",
        -8.931143889089265
      ],
      [
        "um",
        -8.93301630823604
      ],
      [
        "▁short",
        -8.935043539216217
      ],
      [
        "▁sometimes",
        -8.935496287046282
      ],
      [
        "ling",
        -8.941563613376102
      ],
      [
        "▁river",
        -8.943107144262397
      ],
      [
        "▁question",
        -8.946842036217143
      ],
      [
        "▁al",
        -8.947226618718014
      ],
      [
        "▁march",
        -8.951182373187258
      ],
      [
        "▁song",
        -8.955963722613198
      ],
      [
        "▁huh",
        -8.956952572141661
      ],
      [
        "▁watch",
        -8.958416683685575
      ],
      [
        "▁voice",
        -8.961252107756525
      ],
      [
        "▁late",
        -8.963053666130543
      ],
      [
        "▁large",
        -8.963131349751663
      ],
      [
        "▁film",
        -8.967391511045793
      ],
      [
        "▁hands",
        -8.970094650410061
      ],
      [
        "ate",
        -8.973764055496416
      ],
      [
        "▁haven",
        -8.974695515747737
      ],
      [
        "▁york",
        -8.975308076303877
      ],
      [
        "▁friends",
        -8.975410329766133
      ],
      [
        "$",
        -8.975780079799351
      ],
      [
        "▁meet",
        -8.977474207449285
      ],
      [
        "▁least",
        -8.977849198650144
      ],
      [
        "▁player",
        -8.9803416228102
      ],
      [
        "▁land",
        -8.980775373931396
      ],
      [
        "▁rest",
        -8.981848416647845
      ],
      [
        "▁club",
        -8.982028173187766
      ],
      [
        "▁series",
        -8.985252198845997
      ],
      [
        "▁myself",
        -8.98606963008051
      ],
      [
        "▁several",
        -8.987157786932649
      ],
      [
        "▁public",
        -8.98955771324719
      ],
      [
        "▁con",
        -8.989605592444317
      ],
      [
        "▁per",
        -8.991184260967623
      ],
      [
        "▁daughter",
        -8.992904541637415
      ],
      [
        "▁mrs",
        -8.994975860776057
      ],
      [
        "▁alone",
        -8.996435386222348
      ],
      [
        "▁cut",
        -8.99805092455168
      ],
      [
        "▁guess",
        -9.000252787838063
      ],
      [
        "▁human",
        -9.001600897319504
      ],
      [
        "▁behind",
        -9.002991848722939
      ],
      [
        "▁green",
        -9.006770288882404
      ],
      [
        "▁road",
        -9.007060104071389
      ],
      [
        "by",
        -9.007404798626188
      ],
      [
        "▁france",
        -9.00785278341337
      ],
      [
        "▁married",
        -9.008374983019282
      ],
      [
        "▁thanks",
        -9.01146418619438
      ],
      [
        "▁um",
        -9.014459864826758
      ],
      [
        "▁dr",
        -9.02326639582154
      ],
      [
        "▁food",
        -9.02371208576739
      ],
      [
        "▁station",
        -9.027470939066966
      ],
      [
        "▁killed",
        -9.027540460438477
      ],
      [
        "▁brought",
        -9.027769778839705
      ],
      [
        "▁english",
        -9.031814898761343
      ],
      [
        "▁beautiful",
        -9.035682944196925
      ],
      [
        "▁dear",
        -9.045039942165886
      ],
      [
        "ur",
        -9.045204885242027
      ],
      [
        "▁form",
        -9.047846443987876
      ],
      [
        "▁season",
        -9.049387868996648
      ],
      [
        "▁january",
        -9.050089195919318
      ],
      [
        "▁either",
        -9.05011247228298
      ],
      [
        "▁hundred",
        -9.050872364968708
      ],
      [
        "▁taking",
        -9.057664361561455
      ],
      [
        "▁church",
        -9.059109594522353
      ],
      [
        "▁released",
        -9.059113821129458
      ],
      [
        "▁office",
        -9.065532752800078
      ],
      [
        "▁words",
        -9.068942729693386
      ],
      [
        "▁front",
        -9.069657202452786
      ],
      [
        "go",
        -9.070009127967865
      ],
      [
        "▁police",
        -9.076037058166742
      ],
      [
        "%",
        -9.081396994026743
      ],
      [
        "▁rather",
        -9.082757894628717
      ],
      [
        "▁taken",
        -9.085705361387395
      ],
      [
        "▁deal",
        -9.088139893411402
      ],
      [
        "▁less",
        -9.090486867656448
      ],
      [
        "▁poor",
        -9.091513759446489
      ],
      [
        "▁san",
        -9.096921516963985
      ],
      [
        "▁living",
        -9.097653499729876
      ],
      [
        "▁member",
        -9.09860638010663
      ],
      [
        "▁alright",
        -9.100022185938746
      ],
      [
        "▁example",
        -9.10218208990648
      ],
      [
        "▁august",
        -9.102300056741766
      ],
      [
        "▁reason",
        -9.10971189176213
      ],
      [
        "▁present",
        -9.109786684329258
      ],
      [
        "ca",
        -9.11049146108324
      ],
      [
        "▁june",
        -9.1131678768863
      ],
      [
        "▁east",
        -9.114513033253695
      ],
      [
        "what",
        -9.114976057849482
      ],
      [
        "▁department",
        -9.115879313286
      ],
      [
        "▁couldn",
        -9.116059571886524
      ],
      [
        "▁blue",
        -9.117479250429064
      ],
      [
        "▁inside",
        -9.118048265150492
      ],
      [
        "▁district",
        -9.118949061166896
      ],
      [
        "▁band",
        -9.119845242906273
      ],
      [
        "▁common",
        -9.120295939103125
      ],
      [
        "—",
        -9.12053499076286
      ],
      [
        "▁mom",
        -9.123640961038449
      ],
      [
        "▁within",
        -9.12372832643344
      ],
      [
        "▁piece",
        -9.12516830177804
      ],
      [
        "▁british",
        -9.1259327038548
      ],
      [
        "▁everyone",
        -9.126735222069474
      ],
      [
        "▁stuff",
        -9.131267262856577
      ],
      [
        "▁die",
        -9.131836758279327
      ],
      [
        "▁law",
        -9.132775280821088
      ],
      [
        "▁million",
        -9.133225111848745
      ],
      [
        "é",
        -9.135164687498426
      ],
      [
        "▁career",
        -9.135220340515056
      ],
      [
        "▁single",
        -9.138794564228538
      ],
      [
        "▁language",
        -9.138959649356392
      ],
      [
        "▁minute",
        -9.13910909054028
      ],
      [
        "▁album",
        -9.139528178154375
      ],
      [
        "▁seven",
        -9.141377253919
      ],
      [
        "▁looks",
        -9.142504010555616
      ],
      [
        "▁special",
        -9.142883660571467
      ],
      [
        "▁thinking",
        -9.143724313646066
      ],
      [
        "▁lady",
        -9.145540674035292
      ],
      [
        "▁third",
        -9.14568676799959
      ],
      [
        "▁sun",
        -9.14602666200022
      ],
      [
        "▁following",
        -9.146146485622014
      ],
      [
        "▁speak",
        -9.1470120375969
      ],
      [
        "▁le",
        -9.14763829870592
      ],
      [
        "▁main",
        -9.147738378342458
      ],
      [
        "▁ca",
        -9.155004289262283
      ],
      [
        "less",
        -9.155052324841456
      ],
      [
        "▁hell",
        -9.155101103044004
      ],
      [
        "▁earth",
        -9.15510933171973
      ],
      [
        "▁comes",
        -9.157407750243046
      ],
      [
        "▁minutes",
        -9.159099823411616
      ],
      [
        "▁sleep",
        -9.159419578613624
      ],
      [
        "▁hit",
        -9.1598363328452
      ],
      [
        "▁perhaps",
        -9.161423743220825
      ],
      [
        "▁sent",
        -9.162277248166168
      ],
      [
        "▁past",
        -9.16394761326161
      ],
      [
        "▁lord",
        -9.164557484447164
      ],
      [
        "▁outside",
        -9.164822704811348
      ],
      [
        "▁playing",
        -9.165549382541434
      ],
      [
        "▁doctor",
        -9.166247490108558
      ],
      [
        "▁held",
        -9.168250917753966
      ],
      [
        "men",
        -9.168423801398284
      ],
      [
        "▁court",
        -9.1684495703972
      ],
      [
        "▁football",
        -9.16982927636204
      ],
      [
        "▁return",
        -9.171676657155071
      ],
      [
        "▁happen",
        -9.17222414247519
      ],
      [
        "▁september",
        -9.174677693962256
      ],
      [
        "▁sound",
        -9.177704846182491
      ],
      [
        "age",
        -9.178363846832555
      ],
      [
        "▁stand",
        -9.181220043373854
      ],
      [
        "▁former",
        -9.181771055937103
      ],
      [
        "huh",
        -9.181810457505364
      ],
      [
        "▁october",
        -9.183457806329011
      ],
      [
        "▁answer",
        -9.18381299894844
      ],
      [
        "▁turned",
        -9.184866731618522
      ],
      [
        "▁april",
        -9.18546586647124
      ],
      [
        "▁include",
        -9.18738446508768
      ],
      [
        "▁mine",
        -9.188419235466556
      ],
      [
        "▁drink",
        -9.190659646817457
      ],
      [
        "▁table",
        -9.191626159653945
      ],
      [
        "▁street",
        -9.192513489550134
      ],
      [
        "▁wish",
        -9.19268637364089
      ],
      [
        "▁french",
        -9.19360332737628
      ],
      [
        "▁twenty",
        -9.194362884648983
      ],
      [
        "▁named",
        -9.19600706932235
      ],
      [
        "▁clear",
        -9.19654754897706
      ],
      [
        "▁july",
        -9.198340490461693
      ],
      [
        "▁chance",
        -9.200184361802291
      ],
      [
        "▁walk",
        -9.200852973536438
      ],
      [
        "▁park",
        -9.202804870182634
      ],
      [
        "▁local",
        -9.205455228058176
      ],
      [
        "▁blood",
        -9.206102573959209
      ],
      [
        "▁including",
        -9.206800718223636
      ],
      [
        "▁everybody",
        -9.206948453038509
      ],
      [
        "▁major",
        -9.20756852521049
      ],
      [
        "▁hair",
        -9.207775857389668
      ],
      [
        "▁exactly",
        -9.208215772454592
      ],
      [
        "▁phone",
        -9.210249808566768
      ],
      [
        "▁makes",
        -9.211296097534476
      ],
      [
        "▁pre",
        -9.21197481501662
      ],
      [
        "▁felt",
        -9.213182777887456
      ],
      [
        "▁across",
        -9.213978141614623
      ],
      [
        "▁building",
        -9.21520398545134
      ],
      [
        "▁college",
        -9.218483818524149
      ],
      [
        "▁thousand",
        -9.219562497867605
      ],
      [
        "▁till",
        -9.219919767651708
      ],
      [
        "▁peter",
        -9.2206164362536
      ],
      [
        "▁lived",
        -9.223918572219466
      ],
      [
        "▁list",
        -9.22434151111488
      ],
      [
        "▁original",
        -9.225493725981655
      ],
      [
        "▁whatever",
        -9.226331608875148
      ],
      [
        "▁using",
        -9.226984736021576
      ],
      [
        "led",
        -9.228893025607237
      ],
      [
        "▁sister",
        -9.230400659612696
      ],
      [
        "▁hot",
        -9.234609988409517
      ],
      [
        "▁result",
        -9.234711603754842
      ],
      [
        "▁international",
        -9.23506981612458
      ],
      [
        "▁usually",
        -9.235748768114911
      ],
      [
        "▁break",
        -9.23835316120612
      ],
      [
        "▁possible",
        -9.23847936971459
      ],
      [
        "▁league",
        -9.24086406379758
      ],
      [
        "▁december",
        -9.242203472757993
      ],
      [
        "ley",
        -9.242357856402144
      ],
      [
        "▁somebody",
        -9.243845358347253
      ],
      [
        "tic",
        -9.244340969033434
      ],
      [
        "▁gotta",
        -9.247725101992009
      ],
      [
        "▁cos",
        -9.247763078013806
      ],
      [
        "▁bed",
        -9.24870823968105
      ],
      [
        "▁anyone",
        -9.250062365049784
      ],
      [
        "▁village",
        -9.2503100546225
      ],
      [
        "▁region",
        -9.251460469959884
      ],
      [
        "▁write",
        -9.251967107248584
      ],
      [
        "▁win",
        -9.253037285170498
      ],
      [
        "▁ground",
        -9.253463083087684
      ],
      [
        "▁easy",
        -9.25522065763196
      ],
      [
        "▁dog",
        -9.255455249686364
      ],
      [
        "▁worked",
        -9.2565612940148
      ],
      [
        "▁population",
        -9.256981166336136
      ],
      [
        "▁fun",
        -9.258077837013444
      ],
      [
        "▁art",
        -9.258336072483738
      ],
      [
        "▁whether",
        -9.258811533848643
      ],
      [
        "▁rock",
        -9.259409515325885
      ],
      [
        "▁november",
        -9.259826058761764
      ],
      [
        "▁anyway",
        -9.260898282465815
      ],
      [
        "▁months",
        -9.261141110819416
      ],
      [
        "▁hours",
        -9.263631329646245
      ],
      [
        "▁husband",
        -9.263886559290722
      ],
      [
        "▁eight",
        -9.2644248316383
      ],
      [
        "▁control",
        -9.266721819083203
      ],
      [
        "▁among",
        -9.267315269364182
      ],
      [
        "▁buy",
        -9.267384552201298
      ],
      [
        "▁level",
        -9.268401662265878
      ],
      [
        "▁tomorrow",
        -9.269084052849864
      ],
      [
        "que",
        -9.26943044525031
      ],
      [
        "▁cup",
        -9.271527320422502
      ],
      [
        "▁area",
        -9.272442646570648
      ],
      [
        "▁tried",
        -9.280576706462682
      ],
      [
        "▁shit",
        -9.281327400538746
      ],
      [
        "▁german",
        -9.281388107650509
      ],
      [
        "▁master",
        -9.282001038726415
      ],
      [
        "▁fight",
        -9.284245813282192
      ],
      [
        "▁island",
        -9.285014489308836
      ],
      [
        "per",
        -9.2862924247018
      ],
      [
        "▁couple",
        -9.286846400645972
      ],
      [
        "▁feet",
        -9.289406233585687
      ],
      [
        "▁certain",
        -9.291975156614518
      ],
      [
        "▁th",
        -9.293848786417064
      ],
      [
        "▁pro",
        -9.294197720568668
      ],
      [
        "▁plan",
        -9.2956339794409
      ],
      [
        "▁vi",
        -9.29635451207714
      ],
      [
        "▁trouble",
        -9.296712904371494
      ],
      [
        "▁built",
        -9.298261056249554
      ],
      [
        "let",
        -9.301390874796924
      ],
      [
        "▁sense",
        -9.301553596744252
      ],
      [
        "▁februar",
        -9.302276528331223
      ],
      [
        "▁pick",
        -9.30903740878557
      ],
      [
        "▁moved",
        -9.317109367454355
      ],
      [
        "▁di",
        -9.317270187145278
      ],
      [
        "▁army",
        -9.31730047395175
      ],
      [
        "▁others",
        -9.321751526119892
      ],
      [
        "▁bo",
        -9.325975266792714
      ],
      [
        "ary",
        -9.325992895046848
      ],
      [
        "▁middle",
        -9.327856983414415
      ],
      [
        "▁century",
        -9.332779661975042
      ],
      [
        "▁cold",
        -9.333700750736904
      ],
      [
        "ated",
        -9.340898527563324
      ],
      [
        "▁dark",
        -9.34144906989388
      ],
      [
        "▁ka",
        -9.342450082318145
      ],
      [
        "▁captain",
        -9.343942133308236
      ],
      [
        "▁shut",
        -9.34421876970326
      ],
      [
        "▁seems",
        -9.344538617063224
      ],
      [
        "▁hurt",
        -9.344606654429423
      ],
      [
        "▁fair",
        -9.3468868405117
      ],
      [
        "▁although",
        -9.347626150730711
      ],
      [
        "den",
        -9.349437223627891
      ],
      [
        "▁gold",
        -9.351028404012784
      ],
      [
        "▁space",
        -9.351992883541184
      ],
      [
        "▁based",
        -9.352440122689645
      ],
      [
        "▁jo",
        -9.355249537328469
      ],
      [
        "▁tonight",
        -9.356285308857943
      ],
      [
        "▁instead",
        -9.356497073814436
      ],
      [
        "▁written",
        -9.357897373281329
      ],
      [
        "▁type",
        -9.36063813862068
      ],
      [
        "▁forget",
        -9.361283245550196
      ],
      [
        "▁hour",
        -9.361308501636172
      ],
      [
        "▁cannot",
        -9.36554870694554
      ],
      [
        "▁check",
        -9.3655978877608
      ],
      [
        "▁shot",
        -9.36798498332513
      ],
      [
        "▁fell",
        -9.372147398397374
      ],
      [
        "how",
        -9.374918821518838
      ],
      [
        "▁girls",
        -9.375507038809326
      ],
      [
        "▁london",
        -9.377617495619544
      ],
      [
        "▁boys",
        -9.377897458948045
      ],
      [
        "that",
        -9.37838373718485
      ],
      [
        "▁strong",
        -9.379446014650185
      ],
      [
        "▁television",
        -9.379995787891604
      ],
      [
        "q",
        -9.38140586176256
      ],
      [
        "▁information",
        -9.382104535473722
      ],
      [
        "▁send",
        -9.382252114033529
      ],
      [
        "▁members",
        -9.38322674211052
      ],
      [
        "▁role",
        -9.38401985403026
      ],
      [
        "▁truth",
        -9.384827816722932
      ],
      [
        "▁afraid",
        -9.38565861708345
      ],
      [
        "for",
        -9.386605495435308
      ],
      [
        "▁attack",
        -9.3866262386494
      ],
      [
        "▁tree",
        -9.386984858825608
      ],
      [
        "▁star",
        -9.39186249958674
      ],
      [
        "▁aren",
        -9.39492538080628
      ],
      [
        "▁seemed",
        -9.395348522010671
      ],
      [
        "▁kids",
        -9.397127360163989
      ],
      [
        "▁games",
        -9.398132773613716
      ],
      [
        "well",
        -9.399724430865463
      ],
      [
        "▁due",
        -9.399953989258698
      ],
      [
        "▁cat",
        -9.401069116355467
      ],
      [
        "▁force",
        -9.404032965657713
      ],
      [
        "ang",
        -9.405037996701047
      ],
      [
        "▁support",
        -9.40605373221748
      ],
      [
        "▁paper",
        -9.407273839281135
      ],
      [
        "▁worry",
        -9.408376684791346
      ],
      [
        "▁ball",
        -9.408629957979082
      ],
      [
        "▁ran",
        -9.408816635664254
      ],
      [
        "▁america",
        -9.41124647214728
      ],
      [
        "▁sign",
        -9.411399481387368
      ],
      [
        "▁ex",
        -9.412366334007574
      ],
      [
        "▁race",
        -9.41350005127091
      ],
      [
        "▁wrote",
        -9.41470881849414
      ],
      [
        "▁england",
        -9.415324807150434
      ],
      [
        "but",
        -9.416197827175928
      ],
      [
        "▁fuck",
        -9.41715958542973
      ],
      [
        "▁summer",
        -9.418572408425462
      ],
      [
        "▁daddy",
        -9.419346099086392
      ],
      [
        "▁paul",
        -9.421604758726538
      ],
      [
        "▁mark",
        -9.422354895103394
      ],
      [
        "▁running",
        -9.422513530649184
      ],
      [
        "▁experience",
        -9.423225964778684
      ],
      [
        "▁act",
        -9.425010560611735
      ],
      [
        "▁fucking",
        -9.425242807053788
      ],
      [
        "▁lives",
        -9.4282520965446
      ],
      [
        "▁fast",
        -9.428836460909228
      ],
      [
        "ng",
        -9.42990069825047
      ],
      [
        "▁sat",
        -9.43044686347785
      ],
      [
        "▁fall",
        -9.432622704381249
      ],
      [
        "▁final",
        -9.433260015261904
      ],
      [
        "▁longer",
        -9.4336370885885
      ],
      [
        "▁hall",
        -9.4359379932772
      ],
      [
        "▁excuse",
        -9.436068749133836
      ],
      [
        "▁class",
        -9.437133993655374
      ],
      [
        "▁period",
        -9.44360609174922
      ],
      [
        "▁position",
        -9.443766535564674
      ],
      [
        "▁supposed",
        -9.44972141913621
      ],
      [
        "▁prince",
        -9.45001069686475
      ],
      [
        "▁box",
        -9.45097911527309
      ],
      [
        "▁picture",
        -9.453914066027767
      ],
      [
        "▁learn",
        -9.454114077279886
      ],
      [
        "ful",
        -9.455091857235455
      ],
      [
        "▁changed",
        -9.4556495311092
      ],
      [
        "▁minister",
        -9.456609721289366
      ],
      [
        "▁works",
        -9.459707834659367
      ],
      [
        "▁save",
        -9.460415630250235
      ],
      [
        "▁drive",
        -9.460898590509872
      ],
      [
        "▁horse",
        -9.46205297073933
      ],
      [
        "▁bar",
        -9.463407722558632
      ],
      [
        "▁program",
        -9.465188853461072
      ],
      [
        "▁mhm",
        -9.46572589969028
      ],
      [
        "▁equal",
        -9.467549579008445
      ],
      [
        "mar",
        -9.46795867009395
      ],
      [
        "▁rose",
        -9.468101911858536
      ],
      [
        "▁eye",
        -9.468164953975178
      ],
      [
        "ard",
        -9.468868210983258
      ],
      [
        "▁hospital",
        -9.471868658176644
      ],
      [
        "▁low",
        -9.472615295627714
      ],
      [
        "▁ship",
        -9.472845141440988
      ],
      [
        "▁nine",
        -9.475471446067385
      ],
      [
        "▁news",
        -9.476594064780612
      ],
      [
        "▁center",
        -9.476798399007762
      ],
      [
        "▁kid",
        -9.476989968329873
      ],
      [
        "▁nobody",
        -9.478199059661398
      ],
      [
        "▁bi",
        -9.478448742054796
      ],
      [
        "▁ga",
        -9.482569869865952
      ],
      [
        "▁video",
        -9.486364602398943
      ],
      [
        "▁waiting",
        -9.48745734310392
      ],
      [
        "▁trust",
        -9.487722329714506
      ],
      [
        "▁received",
        -9.48906897997454
      ],
      [
        "▁gun",
        -9.490411432849628
      ],
      [
        "▁council",
        -9.492181317239442
      ],
      [
        "▁record",
        -9.4923733526573
      ],
      [
        "▁future",
        -9.49282759775094
      ],
      [
        "▁george",
        -9.49464084415739
      ],
      [
        "▁above",
        -9.494960184119911
      ],
      [
        "▁themselves",
        -9.4952126611447
      ],
      [
        "▁wants",
        -9.495326667648254
      ],
      [
        "▁social",
        -9.49752739619167
      ],
      [
        "of",
        -9.49844822503831
      ],
      [
        "▁pa",
        -9.498546267945317
      ],
      [
        "▁kept",
        -9.498727888433402
      ],
      [
        "▁ar",
        -9.499288305501164
      ],
      [
        "▁dis",
        -9.50231139044996
      ],
      [
        "▁feeling",
        -9.509314287982042
      ],
      [
        "lin",
        -9.51100499919752
      ],
      [
        "▁throw",
        -9.511313166474846
      ],
      [
        "▁ba",
        -9.512199123407992
      ],
      [
        "▁created",
        -9.517562755257805
      ],
      [
        "line",
        -9.51819978099189
      ],
      [
        "ring",
        -9.518394116168375
      ],
      [
        "▁stage",
        -9.520387883857822
      ],
      [
        "▁according",
        -9.522000143998552
      ],
      [
        "▁honey",
        -9.52244018854968
      ],
      [
        "▁queen",
        -9.523050874280328
      ],
      [
        "ten",
        -9.523124989707604
      ],
      [
        "▁post",
        -9.52346488795136
      ],
      [
        "▁board",
        -9.526311784990613
      ],
      [
        "▁project",
        -9.527492166771236
      ],
      [
        "▁dance",
        -9.530591742065509
      ],
      [
        "▁letter",
        -9.53104209282305
      ],
      [
        "▁crie",
        -9.531552050737249
      ],
      [
        "ating",
        -9.531691417129304
      ],
      [
        "▁field",
        -9.53197059006501
      ],
      [
        "▁cool",
        -9.532330647243755
      ],
      [
        "▁fish",
        -9.535534129283132
      ],
      [
        "time",
        -9.536817824467516
      ],
      [
        "▁brown",
        -9.537622706853458
      ],
      [
        "▁director",
        -9.537884399811228
      ],
      [
        "▁jack",
        -9.538266085245056
      ],
      [
        "▁further",
        -9.539298879096435
      ],
      [
        "▁books",
        -9.540143640804478
      ],
      [
        "▁careful",
        -9.540901183704804
      ],
      [
        "▁train",
        -9.542925400496342
      ],
      [
        "▁parents",
        -9.544508294025077
      ],
      [
        "▁species",
        -9.544568503947438
      ],
      [
        "don",
        -9.54515010863196
      ],
      [
        "▁effect",
        -9.546708999838632
      ],
      [
        "▁glad",
        -9.551919025760938
      ],
      [
        "▁sweet",
        -9.5548116856364
      ],
      [
        "▁market",
        -9.555319423021718
      ],
      [
        "▁chief",
        -9.557093694449645
      ],
      [
        "▁battle",
        -9.55743218728347
      ],
      [
        "▁quiet",
        -9.5576147001044
      ],
      [
        "▁wall",
        -9.561710360205751
      ],
      [
        "▁bear",
        -9.563326326790206
      ],
      [
        "les",
        -9.563508788559991
      ],
      [
        "▁david",
        -9.563770892817026
      ],
      [
        "▁union",
        -9.565928754357136
      ],
      [
        "▁itself",
        -9.566924165516742
      ],
      [
        "way",
        -9.5678078446137
      ],
      [
        "▁mouth",
        -9.567936789599443
      ],
      [
        "▁seem",
        -9.568682447622702
      ],
      [
        "▁herself",
        -9.569195634269857
      ],
      [
        "▁finished",
        -9.572865440414306
      ],
      [
        "▁straight",
        -9.575788877156512
      ],
      [
        "▁finally",
        -9.57631290994196
      ],
      [
        "▁decided",
        -9.576645242011542
      ],
      [
        "▁evening",
        -9.576713281358296
      ],
      [
        "▁figure",
        -9.580617914737571
      ],
      [
        "▁step",
        -9.586287557843216
      ],
      [
        "▁wind",
        -9.587449057274808
      ],
      [
        "▁view",
        -9.59052955388004
      ],
      [
        "▁seat",
        -9.591973695800863
      ],
      [
        "▁bill",
        -9.59241705525508
      ],
      [
        "out",
        -9.593024094206717
      ],
      [
        "▁funny",
        -9.5956110475364
      ],
      [
        "▁complete",
        -9.595711063689295
      ],
      [
        "▁cover",
        -9.599521828311913
      ],
      [
        "▁cell",
        -9.604784661679023
      ],
      [
        "▁meeting",
        -9.605090289485114
      ],
      [
        "▁cost",
        -9.605186841054174
      ],
      [
        "▁served",
        -9.605444394895231
      ],
      [
        "▁model",
        -9.605628253336512
      ],
      [
        "▁floor",
        -9.605825650174484
      ],
      [
        "ran",
        -9.605952219749495
      ],
      [
        "tion",
        -9.607171322272634
      ],
      [
        "▁issue",
        -9.60757793565442
      ],
      [
        "▁mommy",
        -9.607601476994954
      ],
      [
        "▁welcome",
        -9.611995242685074
      ],
      [
        "▁james",
        -9.613534526215302
      ],
      [
        "▁sub",
        -9.614659395887848
      ],
      [
        "▁nor",
        -9.615512146633106
      ],
      [
        "▁community",
        -9.61627780269238
      ],
      [
        "▁lead",
        -9.616600498465305
      ],
      [
        "▁political",
        -9.617259443073268
      ],
      [
        "▁bank",
        -9.617401161449308
      ],
      [
        "▁beginning",
        -9.618265962788868
      ],
      [
        "ham",
        -9.618713876098438
      ],
      [
        "▁crazy",
        -9.618918026949292
      ],
      [
        "▁dinner",
        -9.619976809391789
      ],
      [
        "ance",
        -9.62217681141956
      ],
      [
        "▁hate",
        -9.622615751221666
      ],
      [
        "▁fear",
        -9.6229385854467
      ],
      [
        "▁follow",
        -9.623388653096397
      ],
      [
        "▁japan",
        -9.624337643333837
      ],
      [
        "▁computer",
        -9.624372561283328
      ],
      [
        "▁problems",
        -9.624658034615257
      ],
      [
        "▁central",
        -9.62505436193705
      ],
      [
        "▁wonder",
        -9.627831804566698
      ],
      [
        "my",
        -9.62911319613814
      ],
      [
        "▁grand",
        -9.629238242689471
      ],
      [
        "ler",
        -9.629269822692702
      ],
      [
        "▁passed",
        -9.629517122057408
      ],
      [
        "▁whose",
        -9.629919572041056
      ],
      [
        "▁dream",
        -9.630188704497266
      ],
      [
        "▁telling",
        -9.63231476466328
      ],
      [
        "▁lay",
        -9.632543827824062
      ],
      [
        "ja",
        -9.634350391930246
      ],
      [
        "▁similar",
        -9.634807577983151
      ],
      [
        "mp",
        -9.634944112382083
      ],
      [
        "▁championship",
        -9.63607416645915
      ],
      [
        "▁famous",
        -9.638142268420806
      ],
      [
        "▁rich",
        -9.63899724154849
      ],
      [
        "▁simple",
        -9.639024033279911
      ],
      [
        "▁indian",
        -9.639411570008996
      ],
      [
        "▁william",
        -9.639463711092011
      ],
      [
        "▁education",
        -9.640141147169684
      ],
      [
        "▁pass",
        -9.64235141870368
      ],
      [
        "▁leaving",
        -9.643863853516526
      ],
      [
        "▁touch",
        -9.644035005694873
      ],
      [
        "▁society",
        -9.644453207332615
      ],
      [
        "▁forward",
        -9.644589797881492
      ],
      [
        "▁germany",
        -9.64465401131596
      ],
      [
        "day",
        -9.646692370332207
      ],
      [
        "▁lose",
        -9.648299211821785
      ],
      [
        "▁research",
        -9.6486111265189
      ],
      [
        "▁character",
        -9.651074114477172
      ],
      [
        "▁happens",
        -9.651763049378935
      ],
      [
        "▁ahead",
        -9.652957184612392
      ],
      [
        "▁secret",
        -9.652964372242474
      ],
      [
        "▁certainly",
        -9.653758639392262
      ],
      [
        "yes",
        -9.656424532987762
      ],
      [
        "▁capital",
        -9.656940221720776
      ],
      [
        "▁begin",
        -9.657623717698112
      ],
      [
        "▁camp",
        -9.658797311660596
      ],
      [
        "▁award",
        -9.658856610501187
      ],
      [
        "▁situation",
        -9.65888090707312
      ],
      [
        "▁commune",
        -9.66022639439341
      ],
      [
        "▁development",
        -9.66093571222778
      ],
      [
        "▁cross",
        -9.662683995434328
      ],
      [
        "con",
        -9.663044883370498
      ],
      [
        "▁aha",
        -9.663888937483412
      ],
      [
        "▁cause",
        -9.66407208954912
      ],
      [
        "▁hill",
        -9.664081842019124
      ],
      [
        "▁election",
        -9.66435201801622
      ],
      [
        "▁health",
        -9.664714695250252
      ],
      [
        "▁popular",
        -9.666611271050858
      ],
      [
        "▁especially",
        -9.667038859693443
      ],
      [
        "▁subject",
        -9.66805935519673
      ],
      [
        "▁suppose",
        -9.668548924134663
      ],
      [
        "▁wow",
        -9.67278940039396
      ],
      [
        "▁radio",
        -9.674029025085568
      ],
      [
        "▁describe",
        -9.67459393621094
      ],
      [
        "▁interesting",
        -9.675785289795671
      ],
      [
        "▁michael",
        -9.677898038310785
      ],
      [
        "▁uncle",
        -9.678736550549338
      ],
      [
        "▁super",
        -9.679219883869104
      ],
      [
        "▁foot",
        -9.680599535149858
      ],
      [
        "▁professional",
        -9.681909403184171
      ],
      [
        "▁returned",
        -9.681954551413584
      ],
      [
        "▁province",
        -9.683648013791034
      ],
      [
        "▁anybody",
        -9.68376095148784
      ],
      [
        "ville",
        -9.683764642224313
      ],
      [
        "▁opened",
        -9.684051511113204
      ],
      [
        "▁robert",
        -9.684073781482269
      ],
      [
        "▁deep",
        -9.684113753696048
      ],
      [
        "▁stood",
        -9.68485785419588
      ],
      [
        "▁mar",
        -9.684954699855824
      ],
      [
        "▁quickly",
        -9.686708878126426
      ],
      [
        "▁total",
        -9.687279863164523
      ],
      [
        "▁sitting",
        -9.687666255393736
      ],
      [
        "▁natural",
        -9.688853088248788
      ],
      [
        "▁strange",
        -9.689471740995836
      ],
      [
        "▁safe",
        -9.689674156436524
      ],
      [
        "▁chair",
        -9.690027485227834
      ],
      [
        "▁po",
        -9.69063424395795
      ],
      [
        "ble",
        -9.69107660939422
      ],
      [
        "ster",
        -9.69190209809155
      ],
      [
        "▁weeks",
        -9.69247591945803
      ],
      [
        "▁needs",
        -9.693181513803443
      ],
      [
        "▁tea",
        -9.693477039573384
      ],
      [
        "▁energy",
        -9.694148047031735
      ],
      [
        "▁lake",
        -9.697509362066908
      ],
      [
        "▁students",
        -9.697818763415947
      ],
      [
        "▁division",
        -9.69919684740618
      ],
      [
        "ger",
        -9.699622620894102
      ],
      [
        "▁led",
        -9.699942801415387
      ],
      [
        "▁writing",
        -9.702266096601887
      ],
      [
        "▁individual",
        -9.705641379570697
      ],
      [
        "▁page",
        -9.705745975329878
      ],
      [
        "▁quick",
        -9.70610807650582
      ],
      [
        "▁giving",
        -9.706222922730204
      ],
      [
        "▁design",
        -9.706384392147408
      ],
      [
        "▁interest",
        -9.709119350263045
      ],
      [
        "▁clean",
        -9.709694463131278
      ],
      [
        "▁key",
        -9.71037908570186
      ],
      [
        "▁match",
        -9.710523225128243
      ],
      [
        "▁non",
        -9.71156124318104
      ],
      [
        "ex",
        -9.712390164560851
      ],
      [
        "▁color",
        -9.713044115136496
      ],
      [
        "▁arm",
        -9.715015778199946
      ],
      [
        "▁wood",
        -9.715887103438565
      ],
      [
        "▁site",
        -9.716536299999724
      ],
      [
        "▁month",
        -9.716577535290934
      ],
      [
        "▁personal",
        -9.716740941171413
      ],
      [
        "▁expect",
        -9.716883520250478
      ],
      [
        "▁modern",
        -9.717198061531986
      ],
      [
        "▁nature",
        -9.71764416424121
      ],
      [
        "▁catch",
        -9.717928254084256
      ],
      [
        "▁pe",
        -9.71795490246939
      ],
      [
        "▁increase",
        -9.71901084370809
      ],
      [
        "▁study",
        -9.719452411645811
      ],
      [
        "▁machine",
        -9.720096816392363
      ],
      [
        "▁report",
        -9.720660535504374
      ],
      [
        "▁california",
        -9.721727239039884
      ],
      [
        "▁term",
        -9.722522442295483
      ],
      [
        "▁window",
        -9.725106168375792
      ],
      [
        "▁ice",
        -9.725428790893924
      ],
      [
        "▁sick",
        -9.72681285735622
      ],
      [
        "all",
        -9.728430459372335
      ],
      [
        "▁mad",
        -9.730530616342865
      ],
      [
        "▁miles",
        -9.73082516606468
      ],
      [
        "▁countries",
        -9.731739174063977
      ],
      [
        "▁damn",
        -9.732301930642782
      ],
      [
        "▁royal",
        -9.732304170413077
      ],
      [
        "▁finish",
        -9.733883031207446
      ],
      [
        "▁moving",
        -9.734615199627337
      ],
      [
        "▁particular",
        -9.736735887323192
      ],
      [
        "▁military",
        -9.73689572300077
      ],
      [
        "▁reached",
        -9.73759699585619
      ],
      [
        "▁action",
        -9.738346848662042
      ],
      [
        "▁science",
        -9.739144458965706
      ],
      [
        "▁stick",
        -9.739228206864592
      ],
      [
        "side",
        -9.739281470108448
      ],
      [
        "▁test",
        -9.73970150041515
      ],
      [
        "▁difficult",
        -9.73992887309605
      ],
      [
        "han",
        -9.741054156893606
      ],
      [
        "cause",
        -9.741175304000691
      ],
      [
        "▁difference",
        -9.741585529200284
      ],
      [
        "▁beat",
        -9.741694083916498
      ],
      [
        "▁bridge",
        -9.742631463444974
      ],
      [
        "▁trade",
        -9.742910156176643
      ],
      [
        "▁sam",
        -9.74322675856558
      ],
      [
        "▁india",
        -9.74387262181254
      ],
      [
        "▁indeed",
        -9.74513795365905
      ],
      [
        "▁movement",
        -9.74669513397506
      ],
      [
        "▁account",
        -9.747320006487076
      ],
      [
        "▁grow",
        -9.74774329924787
      ],
      [
        "▁alive",
        -9.74867558759696
      ],
      [
        "▁process",
        -9.748926466305642
      ],
      [
        "▁pull",
        -9.749102423762556
      ],
      [
        "ver",
        -9.74964524790188
      ],
      [
        "▁towards",
        -9.749891131744176
      ],
      [
        "ical",
        -9.750228654544117
      ],
      [
        "ide",
        -9.750663100605996
      ],
      [
        "ally",
        -9.7508260263154
      ],
      [
        "ized",
        -9.754308346343322
      ],
      [
        "▁promise",
        -9.754680142538922
      ],
      [
        "▁wa",
        -9.75545770358181
      ],
      [
        "▁value",
        -9.75625021266252
      ],
      [
        "▁wear",
        -9.756885315827194
      ],
      [
        "▁soul",
        -9.757597965742413
      ],
      [
        "not",
        -9.758717833315488
      ],
      [
        "▁publishe",
        -9.759541178294237
      ],
      [
        "▁japanese",
        -9.75980274274374
      ],
      [
        "▁kingdom",
        -9.760226964364229
      ],
      [
        "▁fit",
        -9.760413693280988
      ],
      [
        "▁mary",
        -9.760497875519237
      ],
      [
        "▁size",
        -9.762466411216987
      ],
      [
        "▁self",
        -9.76281713627601
      ],
      [
        "▁ye",
        -9.762970179377833
      ],
      [
        "▁amount",
        -9.763513623269503
      ],
      [
        "▁worth",
        -9.763793105106176
      ],
      [
        "▁function",
        -9.76440117583587
      ],
      [
        "▁appeared",
        -9.764507933780845
      ],
      [
        "field",
        -9.765237899219564
      ],
      [
        "▁roman",
        -9.767862865534113
      ],
      [
        "▁whom",
        -9.767926097104713
      ],
      [
        "▁allow",
        -9.768211141117863
      ],
      [
        "▁ooh",
        -9.770774416771037
      ],
      [
        "▁caught",
        -9.771062299023098
      ],
      [
        "▁version",
        -9.77182903948048
      ],
      [
        "▁private",
        -9.771976432264688
      ],
      [
        "▁located",
        -9.77248696738225
      ],
      [
        "▁lower",
        -9.772559756464856
      ],
      [
        "ber",
        -9.773086827713334
      ],
      [
        "▁followed",
        -9.775525783820369
      ],
      [
        "she",
        -9.776133024643157
      ],
      [
        "▁stone",
        -9.779277054436797
      ],
      [
        "▁explain",
        -9.78068537852487
      ],
      [
        "▁none",
        -9.780733742602523
      ],
      [
        "▁store",
        -9.781397669563248
      ],
      [
        "▁peace",
        -9.781474401017002
      ],
      [
        "▁score",
        -9.782672458168513
      ],
      [
        "▁respect",
        -9.78296541672303
      ],
      [
        "▁decision",
        -9.783991461526163
      ],
      [
        "▁except",
        -9.784352816547669
      ],
      [
        "gen",
        -9.78628296531758
      ],
      [
        "▁provide",
        -9.786739838419072
      ],
      [
        "▁square",
        -9.786797217855044
      ],
      [
        "▁questions",
        -9.78842403736395
      ],
      [
        "uk",
        -9.789216166676317
      ],
      [
        "▁politician",
        -9.792601283043185
      ],
      [
        "▁anymore",
        -9.792921040875289
      ],
      [
        "▁date",
        -9.79498852205847
      ],
      [
        "ped",
        -9.795892114775327
      ],
      [
        "▁saint",
        -9.798936461623825
      ],
      [
        "▁push",
        -9.79946275386999
      ],
      [
        "▁warm",
        -9.80177959896107
      ],
      [
        "▁bye",
        -9.80183849228146
      ],
      [
        "▁wild",
        -9.801840750987902
      ],
      [
        "▁share",
        -9.80282671309115
      ],
      [
        "▁title",
        -9.803514608662388
      ],
      [
        "▁professor",
        -9.806001275338662
      ],
      [
        "▁sounds",
        -9.806339500239275
      ],
      [
        "her",
        -9.808661878058643
      ],
      [
        "▁needed",
        -9.808682678904082
      ],
      [
        "▁track",
        -9.809142676340608
      ],
      [
        "▁pain",
        -9.809179811256694
      ],
      [
        "▁various",
        -9.809936341130712
      ],
      [
        "▁drop",
        -9.810252692995093
      ],
      [
        "▁suddenly",
        -9.811579151851692
      ],
      [
        "▁ring",
        -9.81196542468533
      ],
      [
        "over",
        -9.812626353172035
      ],
      [
        "▁sell",
        -9.814396279256965
      ],
      [
        "▁object",
        -9.81487002732064
      ],
      [
        "▁jesus",
        -9.815902685118266
      ],
      [
        "▁sad",
        -9.816516396416436
      ],
      [
        "▁material",
        -9.817051923271386
      ],
      [
        "chi",
        -9.81708429878476
      ],
      [
        "▁current",
        -9.817401798661107
      ],
      [
        "▁pi",
        -9.821374727685324
      ],
      [
        "▁coast",
        -9.822333198024774
      ],
      [
        "▁degree",
        -9.823763783768245
      ],
      [
        "▁stopped",
        -9.824628541767169
      ],
      [
        "▁lie",
        -9.824917638312211
      ],
      [
        "▁shoot",
        -9.826437256514264
      ],
      [
        "▁wonderful",
        -9.827334959544292
      ],
      [
        "▁somewhere",
        -9.827572210834903
      ],
      [
        "▁hurry",
        -9.82781764197526
      ],
      [
        "▁scene",
        -9.828090496564904
      ],
      [
        "▁count",
        -9.828105336514875
      ],
      [
        "▁serious",
        -9.829380439811686
      ],
      [
        "▁draw",
        -9.8306611082511
      ],
      [
        "▁brain",
        -9.830955815446227
      ],
      [
        "house",
        -9.831374565797253
      ],
      [
        "▁perfect",
        -9.83193609195684
      ],
      [
        "▁garden",
        -9.83212593666567
      ],
      [
        "▁travel",
        -9.83222620051329
      ],
      [
        "▁data",
        -9.833998487272574
      ],
      [
        "▁sold",
        -9.834177729226518
      ],
      [
        "▁animals",
        -9.834493609461058
      ],
      [
        "▁allowed",
        -9.83479456801584
      ],
      [
        "▁european",
        -9.836319294967591
      ],
      [
        "▁western",
        -9.836599811055878
      ],
      [
        "▁stupid",
        -9.836800569820989
      ],
      [
        "▁snow",
        -9.837582675983455
      ],
      [
        "▁hang",
        -9.83780035823267
      ],
      [
        "▁enjoy",
        -9.838134406592676
      ],
      [
        "▁choice",
        -9.83964006229664
      ],
      [
        "▁product",
        -9.83974352629584
      ],
      [
        "▁murder",
        -9.841137968754268
      ],
      [
        "▁standing",
        -9.844153580017649
      ],
      [
        "▁va",
        -9.844823631312712
      ],
      [
        "▁frank",
        -9.844898593660387
      ],
      [
        "▁europe",
        -9.845917645860506
      ],
      [
        "▁visit",
        -9.84855063211992
      ],
      [
        "▁broke",
        -9.849923319092362
      ],
      [
        "ship",
        -9.850796166654444
      ],
      [
        "▁bird",
        -9.853413595109444
      ],
      [
        "▁gas",
        -9.854810686903177
      ],
      [
        "▁du",
        -9.85491580216478
      ],
      [
        "▁thirty",
        -9.855401101466247
      ],
      [
        "covered",
        -9.85643062189877
      ],
      [
        "▁terms",
        -9.857737431455035
      ],
      [
        "▁paid",
        -9.858346625933905
      ],
      [
        "▁build",
        -9.85935117251024
      ],
      [
        "our",
        -9.859684411890948
      ],
      [
        "▁patient",
        -9.860677929508542
      ],
      [
        "▁therefore",
        -9.862390543304928
      ],
      [
        "▁places",
        -9.862529513367337
      ],
      [
        "▁je",
        -9.862621110924747
      ],
      [
        "▁seeing",
        -9.863330889497236
      ],
      [
        "▁officer",
        -9.864192621048192
      ],
      [
        "▁spent",
        -9.86467956851904
      ],
      [
        "ium",
        -9.865669848566151
      ],
      [
        "▁female",
        -9.866124405708083
      ],
      [
        "▁lo",
        -9.866410758860969
      ],
      [
        "▁answered",
        -9.866582655620356
      ],
      [
        "▁forest",
        -9.867134125719902
      ],
      [
        "▁boat",
        -9.868061578809131
      ],
      [
        "▁offer",
        -9.86811693130059
      ],
      [
        "▁involved",
        -9.869103050178031
      ],
      [
        "ping",
        -9.869747600444937
      ],
      [
        "▁bought",
        -9.869892216943205
      ],
      [
        "▁arms",
        -9.874074767126071
      ],
      [
        "king",
        -9.87520655928379
      ],
      [
        "▁pan",
        -9.875500508764516
      ],
      [
        "▁formula",
        -9.877028698988736
      ],
      [
        "▁attention",
        -9.877160325151635
      ],
      [
        "▁entire",
        -9.877201200345198
      ],
      [
        "▁carry",
        -9.877206600927472
      ],
      [
        "▁bag",
        -9.8772465777763
      ],
      [
        "qui",
        -9.877577504753429
      ],
      [
        "▁production",
        -9.877681735294477
      ],
      [
        "▁relationship",
        -9.879621426567477
      ],
      [
        "produced",
        -9.880038104877354
      ],
      [
        "▁base",
        -9.88111260052384
      ],
      [
        "▁northern",
        -9.885414237785556
      ],
      [
        "▁takes",
        -9.885840981404462
      ],
      [
        "ok",
        -9.885998446667813
      ],
      [
        "‘",
        -9.885998531340022
      ],
      [
        "▁sex",
        -9.887408270817756
      ],
      [
        "▁plus",
        -9.887794506273153
      ],
      [
        "▁sh",
        -9.88845919727101
      ],
      [
        "▁nearly",
        -9.888984378098746
      ],
      [
        "▁asking",
        -9.88948150359383
      ],
      [
        "▁su",
        -9.890065644298913
      ],
      [
        "che",
        -9.890989056369202
      ],
      [
        "▁dan",
        -9.891282811076383
      ],
      [
        "▁considered",
        -9.89197869753407
      ],
      [
        "bu",
        -9.893141641672887
      ],
      [
        "▁meant",
        -9.89337984582808
      ],
      [
        "off",
        -9.8942145784543
      ],
      [
        "▁china",
        -9.894795856517264
      ],
      [
        "▁joined",
        -9.894820021428304
      ],
      [
        "ong",
        -9.895342904147508
      ],
      [
        "▁practice",
        -9.895444757972411
      ],
      [
        "▁charge",
        -9.89566681824918
      ],
      [
        "za",
        -9.897283348377114
      ],
      [
        "▁parts",
        -9.897410512481578
      ],
      [
        "▁double",
        -9.898096982721988
      ],
      [
        "▁largest",
        -9.900147515366989
      ],
      [
        "▁corner",
        -9.900452730950208
      ],
      [
        "▁mountain",
        -9.901462636215184
      ],
      [
        "▁marriage",
        -9.90228230913793
      ],
      [
        "▁winter",
        -9.903089053176933
      ],
      [
        "▁judge",
        -9.906101091266844
      ],
      [
        "▁evidence",
        -9.9074337240885
      ],
      [
        "▁purpose",
        -9.90769056859383
      ],
      [
        "▁vote",
        -9.907699828526123
      ],
      [
        "▁tired",
        -9.908472854534663
      ],
      [
        "▁stars",
        -9.90877032711518
      ],
      [
        "▁style",
        -9.910218947246843
      ],
      [
        "▁milk",
        -9.9108352848836
      ],
      [
        "▁fly",
        -9.91231205437419
      ],
      [
        "▁separate",
        -9.912648265654308
      ],
      [
        "▁grew",
        -9.91291763385276
      ],
      [
        "ze",
        -9.913267081153087
      ],
      [
        "▁add",
        -9.913461078242182
      ],
      [
        "kin",
        -9.913637866618489
      ],
      [
        "▁van",
        -9.913813577576796
      ],
      [
        "▁richard",
        -9.914998038709829
      ],
      [
        "ened",
        -9.91607596134393
      ],
      [
        "▁ge",
        -9.916252045208395
      ],
      [
        "▁pop",
        -9.916590921349666
      ],
      [
        "▁clothes",
        -9.916613330460637
      ],
      [
        "directed",
        -9.917349507409272
      ],
      [
        "▁speed",
        -9.917776129079922
      ],
      [
        "▁ju",
        -9.917814604868388
      ],
      [
        "▁sky",
        -9.917889943525168
      ],
      [
        "▁southern",
        -9.918225544986251
      ],
      [
        "year",
        -9.919082425107996
      ],
      [
        "▁paris",
        -9.919829018403922
      ],
      [
        "▁agree",
        -9.92269365325272
      ],
      [
        "cle",
        -9.922867661663812
      ],
      [
        "▁completely",
        -9.923609212739729
      ],
      [
        "▁range",
        -9.923768190942434
      ],
      [
        "▁fifty",
        -9.925354882474988
      ],
      [
        "ator",
        -9.925451705165228
      ],
      [
        "▁yellow",
        -9.925871887896973
      ],
      [
        "▁source",
        -9.9261371512255
      ],
      [
        "▁pen",
        -9.927214577090655
      ],
      [
        "▁simply",
        -9.927409718822696
      ],
      [
        "▁leader",
        -9.927466031697085
      ],
      [
        "▁wo",
        -9.927935517896778
      ],
      [
        "ford",
        -9.928564738324544
      ],
      [
        "▁heavy",
        -9.929270442247931
      ],
      [
        "▁christmas",
        -9.930113940988557
      ],
      [
        "▁moon",
        -9.930174742106884
      ],
      [
        "▁cap",
        -9.931511995553784
      ],
      [
        "▁rain",
        -9.932118170872744
      ],
      [
        "▁ja",
        -9.93272391458139
      ],
      [
        "▁join",
        -9.9330868465279
      ],
      [
        "▁census",
        -9.933596898623891
      ],
      [
        "▁aunt",
        -9.934395234890529
      ],
      [
        "▁laugh",
        -9.93571716749164
      ],
      [
        "can",
        -9.936208737105304
      ],
      [
        "▁added",
        -9.938119459312109
      ],
      [
        "▁honor",
        -9.938597003604142
      ],
      [
        "▁create",
        -9.939034654120883
      ],
      [
        "▁fellow",
        -9.940486501751836
      ],
      [
        "▁blow",
        -9.941360474230777
      ],
      [
        "▁cast",
        -9.941435297167658
      ],
      [
        "▁absolutely",
        -9.942509023613209
      ],
      [
        "tal",
        -9.94325520165061
      ],
      [
        "▁dollar",
        -9.944141414794409
      ],
      [
        "▁coffee",
        -9.944387052013225
      ],
      [
        "stories",
        -9.94455339365306
      ],
      [
        "▁mum",
        -9.945088204898228
      ],
      [
        "▁broken",
        -9.945111291314
      ],
      [
        "▁command",
        -9.946034771350908
      ],
      [
        "▁centre",
        -9.946443170383247
      ],
      [
        "▁luck",
        -9.948888932272878
      ],
      [
        "▁doubt",
        -9.949298727813378
      ],
      [
        "▁actor",
        -9.949923762030052
      ],
      [
        "▁shouldn",
        -9.954167416307817
      ],
      [
        "▁regular",
        -9.95503581390059
      ],
      [
        "▁reach",
        -9.955433191659385
      ],
      [
        "▁thus",
        -9.955628735038225
      ],
      [
        "▁bell",
        -9.956725248496957
      ],
      [
        "▁studie",
        -9.956907953552104
      ],
      [
        "▁bright",
        -9.957144884458888
      ],
      [
        "war",
        -9.957360015361798
      ],
      [
        "▁loved",
        -9.957534048230215
      ],
      [
        "▁boss",
        -9.957632611748934
      ],
      [
        "aid",
        -9.95832488667084
      ],
      [
        "▁code",
        -9.958554707899603
      ],
      [
        "ize",
        -9.958832990059264
      ],
      [
        "▁spoke",
        -9.958882641283404
      ],
      [
        "▁gets",
        -9.959968876658484
      ],
      [
        "▁ride",
        -9.960090685998974
      ],
      [
        "▁watching",
        -9.962108661334025
      ],
      [
        "jo",
        -9.962242106070317
      ],
      [
        "▁inter",
        -9.962689825006198
      ],
      [
        "old",
        -9.96277640047717
      ],
      [
        "▁meaning",
        -9.963825943892504
      ],
      [
        "▁included",
        -9.963854102047124
      ],
      [
        "▁storm",
        -9.964384463741103
      ],
      [
        "▁starting",
        -9.964407288054655
      ],
      [
        "▁training",
        -9.964521675884416
      ],
      [
        "▁afternoon",
        -9.964722022559124
      ],
      [
        "▁mid",
        -9.964953466358416
      ],
      [
        "▁direction",
        -9.965554094936746
      ],
      [
        "▁anne",
        -9.966837390669744
      ],
      [
        "▁singer",
        -9.967691361001778
      ],
      [
        "▁sight",
        -9.968510160530212
      ],
      [
        "▁yesterday",
        -9.971011168756144
      ],
      [
        "ric",
        -9.972061556198144
      ],
      [
        "▁lovely",
        -9.972769673486672
      ],
      [
        "▁unit",
        -9.972807740010593
      ],
      [
        "▁bottom",
        -9.973189079970608
      ],
      [
        "▁below",
        -9.97429392608187
      ],
      [
        "▁governor",
        -9.977173788900506
      ],
      [
        "▁port",
        -9.979233498338864
      ],
      [
        "▁cor",
        -9.97927423393784
      ],
      [
        "▁plays",
        -9.979400410011166
      ],
      [
        "▁successful",
        -9.98048013543203
      ],
      [
        "▁australia",
        -9.980742748774947
      ],
      [
        "ence",
        -9.980782367030104
      ],
      [
        "lan",
        -9.98163080234256
      ],
      [
        "▁municipality",
        -9.98197766582082
      ],
      [
        "▁fat",
        -9.982205156388678
      ],
      [
        "▁talked",
        -9.982726233306131
      ],
      [
        "▁network",
        -9.98438980457261
      ],
      [
        "▁trees",
        -9.984512060804802
      ],
      [
        "▁higher",
        -9.98503378965979
      ],
      [
        "▁caused",
        -9.98511324296113
      ],
      [
        "▁sing",
        -9.985693527652389
      ],
      [
        "▁charles",
        -9.98649350131057
      ],
      [
        "▁association",
        -9.987251061124498
      ],
      [
        "▁normal",
        -9.98942557434439
      ],
      [
        "▁prime",
        -9.989475038863008
      ],
      [
        "▁contain",
        -9.989481774278268
      ],
      [
        "▁length",
        -9.989804773213676
      ],
      [
        "▁committee",
        -9.99035204585261
      ],
      [
        "▁unless",
        -9.991042203996903
      ],
      [
        "fully",
        -9.99163153206085
      ],
      [
        "▁birthday",
        -9.991818685885605
      ],
      [
        "▁security",
        -9.992312864512432
      ],
      [
        "▁fox",
        -9.9926432935691
      ],
      [
        "▁spring",
        -9.993346645718638
      ],
      [
        "▁princess",
        -9.994009447592358
      ],
      [
        "len",
        -9.995471002916124
      ],
      [
        "▁price",
        -9.996425199565854
      ],
      [
        "▁disease",
        -9.996984920547687
      ],
      [
        "▁spend",
        -9.997231164892696
      ],
      [
        "▁wide",
        -9.997718862760715
      ],
      [
        "hat",
        -9.99788173804574
      ],
      [
        "har",
        -9.998002580240454
      ],
      [
        "▁hotel",
        -9.999383969431838
      ],
      [
        "▁continue",
        -9.9996279332207
      ],
      [
        "▁engine",
        -10.00047745969278
      ],
      [
        "gan",
        -10.001700001271022
      ],
      [
        "helped",
        -10.002610986110328
      ],
      [
        "▁christ",
        -10.00413206022013
      ],
      [
        "▁episode",
        -10.004386514497364
      ],
      [
        "▁italian",
        -10.00597250170444
      ],
      [
        "▁shows",
        -10.00600603588077
      ],
      [
        "▁henry",
        -10.006943269712062
      ],
      [
        "▁distance",
        -10.007037158313816
      ],
      [
        "▁structure",
        -10.007369687521289
      ],
      [
        "▁silver",
        -10.00788648463569
      ],
      [
        "▁calling",
        -10.007992867090785
      ],
      [
        "▁prison",
        -10.008122432737496
      ],
      [
        "▁rule",
        -10.008475332264933
      ],
      [
        "▁worse",
        -10.00956440938406
      ],
      [
        "▁joe",
        -10.010191889762453
      ],
      [
        "▁mc",
        -10.012186318769448
      ],
      [
        "▁imagine",
        -10.012624940837874
      ],
      [
        "▁average",
        -10.012815530948217
      ],
      [
        "▁interested",
        -10.013465643262377
      ],
      [
        "▁wake",
        -10.014016144038989
      ],
      [
        "▁russian",
        -10.014743137080536
      ],
      [
        "this",
        -10.014822004236969
      ],
      [
        "▁ancient",
        -10.015622761397402
      ],
      [
        "▁washington",
        -10.015638099584091
      ],
      [
        "▁coach",
        -10.016977625073682
      ],
      [
        "▁accept",
        -10.017018330237756
      ],
      [
        "▁mistake",
        -10.017553227440397
      ],
      [
        "▁showed",
        -10.01755992578817
      ],
      [
        "▁release",
        -10.017723324690635
      ],
      [
        "▁event",
        -10.018103527576894
      ],
      [
        "▁nose",
        -10.018273097844178
      ],
      [
        "▁method",
        -10.01856320346753
      ],
      [
        "▁ke",
        -10.019908186712724
      ],
      [
        "▁areas",
        -10.019923504261287
      ],
      [
        "▁points",
        -10.020576802138052
      ],
      [
        "▁happening",
        -10.02086520687024
      ],
      [
        "▁founded",
        -10.02164872578416
      ],
      [
        "car",
        -10.02206700992874
      ],
      [
        "▁rate",
        -10.02238237288478
      ],
      [
        "▁flat",
        -10.024640367906958
      ],
      [
        "▁bus",
        -10.025109773858954
      ],
      [
        "▁civil",
        -10.025146121070613
      ],
      [
        "▁bu",
        -10.027285520568894
      ],
      [
        "▁card",
        -10.02765393269745
      ],
      [
        "▁lee",
        -10.028174973707555
      ],
      [
        "▁depend",
        -10.02878872091078
      ],
      [
        "▁press",
        -10.029286849505246
      ],
      [
        "▁success",
        -10.030433344700212
      ],
      [
        "▁media",
        -10.03070263457077
      ],
      [
        "▁martin",
        -10.03142263982244
      ],
      [
        "▁trip",
        -10.031851221756876
      ],
      [
        "+",
        -10.032034351512223
      ],
      [
        "▁mac",
        -10.033016441946652
      ],
      [
        "▁tape",
        -10.034190419240115
      ],
      [
        "▁message",
        -10.034488585929774
      ],
      [
        "▁performance",
        -10.035083248315644
      ],
      [
        "▁protect",
        -10.0351993542158
      ],
      [
        "nic",
        -10.035305366311167
      ],
      [
        "▁smile",
        -10.037658505366569
      ],
      [
        "▁author",
        -10.037744877975245
      ],
      [
        "continued",
        -10.037993394036317
      ],
      [
        "▁closed",
        -10.040432400170785
      ],
      [
        "▁announced",
        -10.041615007301813
      ],
      [
        "▁search",
        -10.041630359382772
      ],
      [
        "▁museum",
        -10.041784813033068
      ],
      [
        "wood",
        -10.042359471997829
      ],
      [
        "▁spirit",
        -10.043603814174215
      ],
      [
        "▁putting",
        -10.043682367315713
      ],
      [
        "▁path",
        -10.043802248179016
      ],
      [
        "▁planet",
        -10.043968495992129
      ],
      [
        "▁animal",
        -10.044811638491506
      ],
      [
        "▁pounds",
        -10.048270099399293
      ],
      [
        "▁earlier",
        -10.04831368468412
      ],
      [
        "▁divide",
        -10.048873466773488
      ],
      [
        "▁crime",
        -10.049091146409967
      ],
      [
        "▁cha",
        -10.049740734323578
      ],
      [
        "▁canada",
        -10.050558764273196
      ],
      [
        "▁culture",
        -10.05152200259626
      ],
      [
        "▁plant",
        -10.05277550520733
      ],
      [
        "▁pictures",
        -10.053152337761768
      ],
      [
        "▁lock",
        -10.053646400799137
      ],
      [
        "like",
        -10.054147422067684
      ],
      [
        "▁fool",
        -10.05440697145653
      ],
      [
        "▁carried",
        -10.054840502271546
      ],
      [
        "▁notice",
        -10.0553820784289
      ],
      [
        "▁section",
        -10.055435000384843
      ],
      [
        "▁huge",
        -10.05968691702349
      ],
      [
        "▁anti",
        -10.060112628870924
      ],
      [
        "▁medical",
        -10.060330218075505
      ],
      [
        "berg",
        -10.061136747296556
      ],
      [
        "▁calm",
        -10.061880357203904
      ],
      [
        "▁numbers",
        -10.062801459833084
      ],
      [
        "▁shop",
        -10.06302074896043
      ],
      [
        "▁reading",
        -10.063445317140394
      ],
      [
        "▁mor",
        -10.063865322961256
      ],
      [
        "▁bay",
        -10.06424660193014
      ],
      [
        "▁developed",
        -10.064272021411703
      ],
      [
        "▁iron",
        -10.06444930126012
      ],
      [
        "▁remain",
        -10.066650566776202
      ],
      [
        "▁busy",
        -10.06708024898216
      ],
      [
        "▁student",
        -10.067218558061978
      ],
      [
        "▁heaven",
        -10.067372292126397
      ],
      [
        "▁youth",
        -10.068909211922614
      ],
      [
        "▁fresh",
        -10.06984361151098
      ],
      [
        "▁christian",
        -10.07003609353304
      ],
      [
        "▁leg",
        -10.070418679193027
      ],
      [
        "▁smell",
        -10.070524603860232
      ],
      [
        "▁slow",
        -10.070652353470695
      ],
      [
        "▁records",
        -10.07146897901405
      ],
      [
        "▁thomas",
        -10.071618033137336
      ],
      [
        "ez",
        -10.072267812465938
      ],
      [
        "▁formed",
        -10.073565920488504
      ],
      [
        "▁africa",
        -10.074370206139044
      ],
      [
        "▁oil",
        -10.074580734074644
      ],
      [
        "▁risk",
        -10.07495787275688
      ],
      [
        "▁channel",
        -10.076113840789812
      ],
      [
        "ability",
        -10.076444151944322
      ],
      [
        "▁extra",
        -10.07707967939706
      ],
      [
        "▁terrible",
        -10.077118479848997
      ],
      [
        "▁spot",
        -10.077593450545756
      ],
      [
        "ach",
        -10.079109129907708
      ],
      [
        "▁imp",
        -10.08054571429719
      ],
      [
        "elected",
        -10.080833282860672
      ],
      [
        "ck",
        -10.08133528270118
      ],
      [
        "ker",
        -10.08192293757384
      ],
      [
        "▁teacher",
        -10.082140950646634
      ],
      [
        "▁speaking",
        -10.082624358708774
      ],
      [
        "▁dry",
        -10.082902691070831
      ],
      [
        "▁available",
        -10.083148774596204
      ],
      [
        "lic",
        -10.085637075863309
      ],
      [
        "▁cry",
        -10.086402036606266
      ],
      [
        "▁learned",
        -10.0893481843481
      ],
      [
        "▁accident",
        -10.090385353691628
      ],
      [
        "▁beyond",
        -10.09065213892424
      ],
      [
        "bar",
        -10.09139711565687
      ],
      [
        "▁jump",
        -10.092062432723305
      ],
      [
        "▁edge",
        -10.092205223515307
      ],
      [
        "▁shape",
        -10.092232680527724
      ],
      [
        "▁marry",
        -10.09240468648954
      ],
      [
        "cha",
        -10.092667297320258
      ],
      [
        "▁fourth",
        -10.092947336144908
      ],
      [
        "▁farm",
        -10.09321064469423
      ],
      [
        "▁effort",
        -10.093528851567406
      ],
      [
        "ung",
        -10.09418428205374
      ],
      [
        "▁ladies",
        -10.094300697989857
      ],
      [
        "▁fault",
        -10.094600979457969
      ],
      [
        "necessary",
        -10.096284344681052
      ],
      [
        "▁groups",
        -10.097171978597975
      ],
      [
        "▁flowers",
        -10.097735899850251
      ],
      [
        "▁contract",
        -10.098407457881002
      ],
      [
        "▁songs",
        -10.10113122062215
      ],
      [
        "end",
        -10.101276815666465
      ],
      [
        "▁ended",
        -10.102227457129215
      ],
      [
        "▁established",
        -10.102542874037736
      ],
      [
        "▁contact",
        -10.1039369672764
      ],
      [
        "▁exist",
        -10.10447583806151
      ],
      [
        "▁chinese",
        -10.105727467548537
      ],
      [
        "▁manager",
        -10.106549816854592
      ],
      [
        "▁official",
        -10.107304060851993
      ],
      [
        "▁dress",
        -10.107675616185755
      ],
      [
        "▁ocean",
        -10.108048723677824
      ],
      [
        "▁heat",
        -10.10893203459664
      ],
      [
        "▁theory",
        -10.109238350136796
      ],
      [
        "▁scared",
        -10.109558570804085
      ],
      [
        "▁attempt",
        -10.110145662089142
      ],
      [
        "▁kiss",
        -10.11042099857981
      ],
      [
        "com",
        -10.110546467264957
      ],
      [
        "▁taste",
        -10.113422303567924
      ],
      [
        "▁chapter",
        -10.113619435639944
      ],
      [
        "▁tri",
        -10.113845245141158
      ],
      [
        "▁holding",
        -10.113850463114227
      ],
      [
        "▁feature",
        -10.114238136438397
      ],
      [
        "▁wedding",
        -10.114715980708516
      ],
      [
        "▁ought",
        -10.114882333805946
      ],
      [
        "▁valley",
        -10.114941684814474
      ],
      [
        "▁weren",
        -10.116228191175608
      ],
      [
        "▁twelve",
        -10.116241415478216
      ],
      [
        "▁economic",
        -10.119000807088144
      ],
      [
        "▁flight",
        -10.120334785784094
      ],
      [
        "▁obviously",
        -10.121665722988404
      ],
      [
        "pp",
        -10.122495467913922
      ],
      [
        "▁camera",
        -10.123142308093854
      ],
      [
        "▁surface",
        -10.123264278634323
      ],
      [
        "▁border",
        -10.12446576179393
      ],
      [
        "▁eating",
        -10.124789995791344
      ],
      [
        "▁forces",
        -10.126494382344612
      ],
      [
        "now",
        -10.12674573636569
      ],
      [
        "▁events",
        -10.127809225108937
      ],
      [
        "▁pair",
        -10.127813405705606
      ],
      [
        "ization",
        -10.127936272750375
      ],
      [
        "▁soft",
        -10.128455897107116
      ],
      [
        "▁mass",
        -10.128830082381768
      ],
      [
        "▁neither",
        -10.12922818166827
      ],
      [
        "▁hide",
        -10.1302450071766
      ],
      [
        "▁pressure",
        -10.13068085458109
      ],
      [
        "▁golden",
        -10.132530957780167
      ],
      [
        "▁tall",
        -10.13309632498158
      ],
      [
        "▁glass",
        -10.133694957391178
      ],
      [
        "▁recognize",
        -10.134252836034356
      ],
      [
        "▁refer",
        -10.134603786014608
      ],
      [
        "▁competition",
        -10.134727338753391
      ],
      [
        "á",
        -10.13521228785732
      ],
      [
        "▁require",
        -10.136498513411844
      ],
      [
        "▁mostly",
        -10.136664087729883
      ],
      [
        "▁legs",
        -10.13690509753086
      ],
      [
        "í",
        -10.137046541152351
      ],
      [
        "▁appearance",
        -10.137311171710795
      ],
      [
        "▁jim",
        -10.137503146095794
      ],
      [
        "▁mess",
        -10.13765282194185
      ],
      [
        "▁fighting",
        -10.13786910570435
      ],
      [
        "eventually",
        -10.13805540792032
      ],
      [
        "▁magazine",
        -10.13821167113094
      ],
      [
        "▁correct",
        -10.140032898218395
      ],
      [
        "▁roll",
        -10.140339825228494
      ],
      [
        "▁skin",
        -10.140612573081116
      ],
      [
        "law",
        -10.14089064051874
      ],
      [
        "▁palace",
        -10.141758072656968
      ],
      [
        "ice",
        -10.141905880440882
      ],
      [
        "▁firm",
        -10.141986462936242
      ],
      [
        "▁truck",
        -10.142842511495138
      ],
      [
        "▁mu",
        -10.143542279793914
      ],
      [
        "▁republic",
        -10.143906639856423
      ],
      [
        "▁native",
        -10.14677085180104
      ],
      [
        "▁surprise",
        -10.14791247086998
      ],
      [
        "▁frog",
        -10.148761868588474
      ],
      [
        "see",
        -10.14922153391957
      ],
      [
        "▁lying",
        -10.149488179402695
      ],
      [
        "▁plane",
        -10.149984418460413
      ],
      [
        "▁strength",
        -10.15064248115566
      ],
      [
        "there",
        -10.151164951169104
      ],
      [
        "▁choose",
        -10.151368490390904
      ],
      [
        "▁smart",
        -10.152158075901868
      ],
      [
        "ju",
        -10.15229210335783
      ],
      [
        "▁dick",
        -10.155940112370777
      ],
      [
        "▁lucky",
        -10.156865311768255
      ],
      [
        "▁birth",
        -10.157053439423382
      ],
      [
        "▁castle",
        -10.158519474158044
      ],
      [
        "▁walking",
        -10.158816193879762
      ],
      [
        "¶",
        -10.159216129185657
      ],
      [
        "▁older",
        -10.16044830076154
      ],
      [
        "▁fix",
        -10.160496370621532
      ],
      [
        "▁spanish",
        -10.160520555871344
      ],
      [
        "▁prize",
        -10.160840754566872
      ],
      [
        "▁lines",
        -10.16195395795271
      ],
      [
        "▁texas",
        -10.161975881144713
      ],
      [
        "▁teach",
        -10.162025775488631
      ],
      [
        "▁ear",
        -10.163621294705786
      ],
      [
        "▁sports",
        -10.163632531483108
      ],
      [
        "▁replie",
        -10.16574386869343
      ],
      [
        "▁produce",
        -10.166015947088558
      ],
      [
        "▁signed",
        -10.16650522559252
      ],
      [
        "▁twice",
        -10.16735256720887
      ],
      [
        "▁railway",
        -10.167550907964143
      ],
      [
        "▁claim",
        -10.167674122132292
      ],
      [
        "▁del",
        -10.167889681321386
      ],
      [
        "▁row",
        -10.168076028202057
      ],
      [
        "▁bob",
        -10.168310283539542
      ],
      [
        "▁changes",
        -10.17033361598958
      ],
      [
        "▁federal",
        -10.171326953071024
      ],
      [
        "▁raised",
        -10.171935147692604
      ],
      [
        "▁discovered",
        -10.172071949594692
      ],
      [
        "▁cook",
        -10.17293667151783
      ],
      [
        "▁plain",
        -10.174436342103965
      ],
      [
        "▁knowledge",
        -10.174730499210002
      ],
      [
        "▁eastern",
        -10.174970180467495
      ],
      [
        "▁route",
        -10.175907001505877
      ],
      [
        "▁throughout",
        -10.175960098293665
      ],
      [
        "▁affair",
        -10.176541072392183
      ],
      [
        "▁mal",
        -10.17715903299253
      ],
      [
        "▁par",
        -10.177356756466494
      ],
      [
        "▁arrived",
        -10.178008780623616
      ],
      [
        "▁male",
        -10.178215077256226
      ],
      [
        "▁dangerous",
        -10.179155159348475
      ],
      [
        "▁staff",
        -10.179475372615276
      ],
      [
        "walked",
        -10.17979240312494
      ],
      [
        "▁tour",
        -10.180474109744663
      ],
      [
        "▁mis",
        -10.180647893635284
      ],
      [
        "▁access",
        -10.181327560922965
      ],
      [
        "▁spread",
        -10.181734164421217
      ],
      [
        "▁enemy",
        -10.182493999521803
      ],
      [
        "▁greater",
        -10.183222110717509
      ],
      [
        "van",
        -10.187180906156923
      ],
      [
        "ral",
        -10.188424254417786
      ],
      [
        "▁thou",
        -10.189596778812335
      ],
      [
        "▁suggest",
        -10.190298869920218
      ],
      [
        "▁studio",
        -10.190459612934369
      ],
      [
        "▁neck",
        -10.190614723806162
      ],
      [
        "▁gives",
        -10.19132644361444
      ],
      [
        "▁kitchen",
        -10.1913376136224
      ],
      [
        "▁movies",
        -10.191448837966844
      ],
      [
        "▁sharp",
        -10.191597487532103
      ],
      [
        "▁bra",
        -10.191696867887044
      ],
      [
        "▁desire",
        -10.191877573144604
      ],
      [
        "▁pennsylvania",
        -10.192159897186652
      ],
      [
        "▁guest",
        -10.193051190230031
      ],
      [
        "who",
        -10.195095985835083
      ],
      [
        "▁campaign",
        -10.195853350857956
      ],
      [
        "▁escape",
        -10.196169792081468
      ],
      [
        "▁angry",
        -10.197030185268469
      ],
      [
        "par",
        -10.198047797652498
      ],
      [
        "▁beach",
        -10.199051497417992
      ],
      [
        "▁forty",
        -10.199239764983032
      ],
      [
        "▁condition",
        -10.200571476081429
      ],
      [
        "▁decide",
        -10.200686793675994
      ],
      [
        "▁consider",
        -10.202196161964435
      ],
      [
        "▁secretary",
        -10.20241115525726
      ],
      [
        "▁names",
        -10.20262891833639
      ],
      [
        "▁independent",
        -10.20276623563463
      ],
      [
        "▁metal",
        -10.202914490446393
      ],
      [
        "▁soldiers",
        -10.203141737926751
      ],
      [
        "}",
        -10.203612653920894
      ],
      [
        "▁mission",
        -10.203726738442896
      ],
      [
        "▁rules",
        -10.204651409355412
      ],
      [
        "▁empire",
        -10.20496877745996
      ],
      [
        "▁belong",
        -10.205483448098056
      ],
      [
        "▁ram",
        -10.206899471004805
      ],
      [
        "▁percent",
        -10.20701484778256
      ],
      [
        "▁challenge",
        -10.208026570032636
      ],
      [
        "back",
        -10.208167703377674
      ],
      [
        "▁handle",
        -10.209659658183192
      ],
      [
        "▁policy",
        -10.210411652772144
      ],
      [
        "▁smith",
        -10.210534587598245
      ],
      [
        "▁memory",
        -10.211273837501691
      ],
      [
        "▁sal",
        -10.2116842877501
      ],
      [
        "▁lunch",
        -10.21286224289202
      ],
      [
        "▁alex",
        -10.213739970950286
      ],
      [
        "▁temple",
        -10.213844605577508
      ],
      [
        "▁rise",
        -10.214180545023028
      ],
      [
        "▁faith",
        -10.216429148766826
      ],
      [
        "▁giant",
        -10.218906387826005
      ],
      [
        "▁duck",
        -10.219106747957833
      ],
      [
        "▁pleasure",
        -10.219495889620893
      ],
      [
        "▁proud",
        -10.220245786814104
      ],
      [
        "▁pal",
        -10.22045609348202
      ],
      [
        "▁weather",
        -10.220855804702298
      ],
      [
        "ged",
        -10.221048117268344
      ],
      [
        "▁believed",
        -10.221484540162017
      ],
      [
        "▁tail",
        -10.221997198155176
      ],
      [
        "dic",
        -10.222234077387286
      ],
      [
        "▁weight",
        -10.222741967233008
      ],
      [
        "▁property",
        -10.222802019871358
      ],
      [
        "▁prove",
        -10.22281057089097
      ],
      [
        "▁newspaper",
        -10.223643616753654
      ],
      [
        "▁greek",
        -10.224218953593567
      ],
      [
        "▁lawyer",
        -10.224865665146712
      ],
      [
        "▁suit",
        -10.22504520013958
      ],
      [
        "▁hu",
        -10.22637681735856
      ],
      [
        "▁speech",
        -10.22642060566201
      ],
      [
        "▁legal",
        -10.227214898740966
      ],
      [
        "▁holy",
        -10.227552338867248
      ],
      [
        "▁apart",
        -10.22904027087267
      ],
      [
        "ette",
        -10.23010517490161
      ],
      [
        "▁noise",
        -10.230581380965006
      ],
      [
        "▁angel",
        -10.230745687848495
      ],
      [
        "▁medal",
        -10.23181866829439
      ],
      [
        "▁organization",
        -10.231918707088491
      ],
      [
        "▁likely",
        -10.23243121541942
      ],
      [
        "▁impossibl",
        -10.233541317949715
      ],
      [
        "▁cases",
        -10.233858196307162
      ],
      [
        "ward",
        -10.23480331466612
      ],
      [
        "why",
        -10.235058726650294
      ],
      [
        "▁bottle",
        -10.235666391676208
      ],
      [
        "▁anywhere",
        -10.235858473134725
      ],
      [
        "▁tower",
        -10.236346939453943
      ],
      [
        "▁shoulder",
        -10.236642806816656
      ],
      [
        "▁guard",
        -10.236804059069645
      ],
      [
        "▁gentlemen",
        -10.237075911055012
      ],
      [
        "▁missing",
        -10.237427019453593
      ],
      [
        "▁letters",
        -10.23791222188661
      ],
      [
        "▁slowly",
        -10.23849220937071
      ],
      [
        "▁chicago",
        -10.238832722014546
      ],
      [
        "▁evil",
        -10.239378457790252
      ],
      [
        "zz",
        -10.242145918735952
      ],
      [
        "▁easily",
        -10.242647485147842
      ],
      [
        "▁definitely",
        -10.24283095521711
      ],
      [
        "▁aged",
        -10.242937753189256
      ],
      [
        "ake",
        -10.244479399302849
      ],
      [
        "▁finger",
        -10.244985961237322
      ],
      [
        "▁concern",
        -10.245234001877778
      ],
      [
        "▁gay",
        -10.246127865298885
      ],
      [
        "▁ways",
        -10.247022684349448
      ],
      [
        "▁block",
        -10.24706406887307
      ],
      [
        "▁festival",
        -10.2474140243501
      ],
      [
        "ä",
        -10.247768025983335
      ],
      [
        "▁bre",
        -10.249270976894232
      ],
      [
        "▁sunday",
        -10.250625521215998
      ],
      [
        "▁leaves",
        -10.251109798143917
      ],
      [
        "▁soviet",
        -10.251685854486512
      ],
      [
        "▁artist",
        -10.25227770749824
      ],
      [
        "▁forgot",
        -10.253366110921569
      ],
      [
        "port",
        -10.253380872308664
      ],
      [
        "▁chi",
        -10.255289257144003
      ],
      [
        "▁standard",
        -10.255400444573782
      ],
      [
        "▁sha",
        -10.25648074572295
      ],
      [
        "▁nation",
        -10.25694202691126
      ],
      [
        "▁amazing",
        -10.25740903151402
      ],
      [
        "▁opening",
        -10.257578253224027
      ],
      [
        "▁recorded",
        -10.257687196956946
      ],
      [
        "families",
        -10.257879043671156
      ],
      [
        "▁location",
        -10.259886529947131
      ],
      [
        "currently",
        -10.261293146617437
      ],
      [
        "▁birds",
        -10.262200727654667
      ],
      [
        "\\",
        -10.262211928987876
      ],
      [
        "▁leading",
        -10.262607676723608
      ],
      [
        "▁shown",
        -10.262921804794482
      ],
      [
        "▁technology",
        -10.263110506219276
      ],
      [
        "▁sch",
        -10.263206357547942
      ],
      [
        "▁smoke",
        -10.265997838337176
      ],
      [
        "▁italy",
        -10.266108940943289
      ],
      [
        "▁address",
        -10.267285929779408
      ],
      [
        "▁foreign",
        -10.26754401985339
      ],
      [
        "▁victim",
        -10.267615291037297
      ],
      [
        "▁pat",
        -10.26807379249905
      ],
      [
        "▁citie",
        -10.268499008132222
      ],
      [
        "▁bigger",
        -10.268767201514107
      ],
      [
        "val",
        -10.26884937020423
      ],
      [
        "▁ideas",
        -10.268911834713633
      ],
      [
        "▁painting",
        -10.269250285199568
      ],
      [
        "▁dropped",
        -10.26951042343387
      ],
      [
        "gar",
        -10.269547591192667
      ],
      [
        "▁opinion",
        -10.269603400624296
      ],
      [
        "▁cancer",
        -10.26978941717355
      ],
      [
        "▁entered",
        -10.269844725233924
      ],
      [
        "▁bro",
        -10.270017453719468
      ],
      [
        "▁scot",
        -10.270200792357029
      ],
      [
        "▁brothers",
        -10.270427451895142
      ],
      [
        "▁influence",
        -10.270553332668538
      ],
      [
        "▁signal",
        -10.270675029953171
      ],
      [
        "▁strike",
        -10.271053681245355
      ],
      [
        "ative",
        -10.271775275100604
      ],
      [
        "▁shoes",
        -10.2718180781451
      ],
      [
        "▁goal",
        -10.271963386012889
      ],
      [
        "▁joke",
        -10.272179996040093
      ],
      [
        "▁stock",
        -10.272326344769535
      ],
      [
        "air",
        -10.272737259275647
      ],
      [
        "▁justice",
        -10.273645861103434
      ],
      [
        "▁text",
        -10.273993203537032
      ],
      [
        "sco",
        -10.274737347955664
      ],
      [
        "▁brand",
        -10.276599310243013
      ],
      [
        "▁awards",
        -10.276788109948011
      ],
      [
        "▁trial",
        -10.277067759610548
      ],
      [
        "lie",
        -10.277131795992364
      ],
      [
        "▁writer",
        -10.277591763392593
      ],
      [
        "▁laughing",
        -10.277875840372872
      ],
      [
        "ked",
        -10.278464417973243
      ],
      [
        "▁opportunit",
        -10.278720249860234
      ],
      [
        "▁statistic",
        -10.280060403632357
      ],
      [
        "▁actress",
        -10.28032535569722
      ],
      [
        "▁gu",
        -10.280677473306994
      ],
      [
        "▁industry",
        -10.280702459481304
      ],
      [
        "▁forgive",
        -10.280871105688115
      ],
      [
        "▁content",
        -10.281249706648998
      ],
      [
        "▁circle",
        -10.281530308644196
      ],
      [
        "▁manner",
        -10.282205123318263
      ],
      [
        "▁beauty",
        -10.282350631742569
      ],
      [
        "▁academy",
        -10.283450734272977
      ],
      [
        "ram",
        -10.283527917304305
      ],
      [
        "▁danger",
        -10.285056488398572
      ],
      [
        "▁develop",
        -10.285821952154848
      ],
      [
        "ction",
        -10.286761564499791
      ],
      [
        "art",
        -10.287177649904944
      ],
      [
        "▁dare",
        -10.288473287284775
      ],
      [
        "▁religion",
        -10.29026223386759
      ],
      [
        "▁positive",
        -10.29044261293759
      ],
      [
        "▁pet",
        -10.290955437259417
      ],
      [
        "▁driver",
        -10.291863742191982
      ],
      [
        "▁knock",
        -10.292043841679586
      ],
      [
        "▁pocket",
        -10.292875516497308
      ],
      [
        "▁destroy",
        -10.293717640779422
      ],
      [
        "▁blind",
        -10.296012731399836
      ],
      [
        "▁string",
        -10.29627329781409
      ],
      [
        ">",
        -10.296376742383892
      ],
      [
        "▁driving",
        -10.29637774550978
      ],
      [
        "col",
        -10.296484452563002
      ],
      [
        "▁enter",
        -10.296556471655002
      ],
      [
        "▁weird",
        -10.296625891652411
      ],
      [
        "▁crew",
        -10.297195084382906
      ],
      [
        "▁bull",
        -10.29727371250959
      ],
      [
        "▁learning",
        -10.2980882543575
      ],
      [
        "bra",
        -10.298123088908852
      ],
      [
        "▁growing",
        -10.299455468164112
      ],
      [
        "▁collection",
        -10.299458559723252
      ],
      [
        "▁interview",
        -10.299935027628596
      ],
      [
        "▁taught",
        -10.300139489115574
      ],
      [
        "▁ray",
        -10.30031472920543
      ],
      [
        "▁bath",
        -10.30042902303433
      ],
      [
        "▁agreed",
        -10.30043844133348
      ],
      [
        "▁agent",
        -10.30047035354711
      ],
      [
        "cu",
        -10.30264555454764
      ],
      [
        "▁conversation",
        -10.302902981998292
      ],
      [
        "▁zero",
        -10.306856267809666
      ],
      [
        "▁joseph",
        -10.307032198720098
      ],
      [
        "▁grave",
        -10.30721315038954
      ],
      [
        "place",
        -10.307319474326109
      ],
      [
        "▁mill",
        -10.308709761923597
      ],
      [
        "ington",
        -10.309585906369218
      ],
      [
        "▁greatest",
        -10.31007674852488
      ],
      [
        "▁bitch",
        -10.310396749272734
      ],
      [
        "▁conference",
        -10.310414031083482
      ],
      [
        "▁hole",
        -10.311261492413712
      ],
      [
        "▁particularly",
        -10.312084519053103
      ],
      [
        "pan",
        -10.312088686544636
      ],
      [
        "▁bread",
        -10.31253951656563
      ],
      [
        "▁breakfast",
        -10.312881627307032
      ],
      [
        "▁bomb",
        -10.313098542438924
      ],
      [
        "▁basically",
        -10.313298856923574
      ],
      [
        "gle",
        -10.313734481401044
      ],
      [
        "<",
        -10.315137258782782
      ],
      [
        "▁credit",
        -10.315375078617471
      ],
      [
        "▁toward",
        -10.315743512250451
      ],
      [
        "▁catholic",
        -10.315895053872204
      ],
      [
        "▁sword",
        -10.316980588762451
      ],
      [
        "▁honest",
        -10.317058152620945
      ],
      [
        "pro",
        -10.317601329019633
      ],
      [
        "▁min",
        -10.318602611418576
      ],
      [
        "▁realize",
        -10.319157756910988
      ],
      [
        "qua",
        -10.319334895198754
      ],
      [
        "▁ku",
        -10.320752989389424
      ],
      [
        "▁smaller",
        -10.32129524593454
      ],
      [
        "▁edward",
        -10.321412121895
      ],
      [
        "▁worried",
        -10.322053408511636
      ],
      [
        "▁parliament",
        -10.322558111956411
      ],
      [
        "die",
        -10.323658487583796
      ],
      [
        "▁apple",
        -10.32367071255247
      ],
      [
        "▁kim",
        -10.324821590868106
      ],
      [
        "▁laid",
        -10.324854734990923
      ],
      [
        "▁negative",
        -10.32522489957445
      ],
      [
        "companies",
        -10.325226434614033
      ],
      [
        "rus",
        -10.325352761615232
      ],
      [
        "▁singing",
        -10.325589166015746
      ],
      [
        "▁mon",
        -10.32785324582993
      ],
      [
        "▁minus",
        -10.328283264324366
      ],
      [
        "▁host",
        -10.328393050975416
      ],
      [
        "▁colonel",
        -10.328691609151951
      ],
      [
        "▁darling",
        -10.328860600210644
      ],
      [
        "remained",
        -10.329142103737922
      ],
      [
        "▁image",
        -10.329607176505007
      ],
      [
        "▁hungry",
        -10.330216151161537
      ],
      [
        "▁otherwise",
        -10.331390095760517
      ],
      [
        "▁des",
        -10.331568445707152
      ],
      [
        "▁mike",
        -10.332638784707507
      ],
      [
        "▁fu",
        -10.33368085231252
      ],
      [
        "▁aye",
        -10.334078798546097
      ],
      [
        "▁chicken",
        -10.334208888528195
      ],
      [
        "library",
        -10.334256888483408
      ],
      [
        "clock",
        -10.33498658220971
      ],
      [
        "▁forth",
        -10.335773969569727
      ],
      [
        "▁tax",
        -10.336324251963358
      ],
      [
        "▁addition",
        -10.336419256333258
      ],
      [
        "ched",
        -10.336642707453455
      ],
      [
        "sigh",
        -10.33716636540214
      ],
      [
        "▁waste",
        -10.33733384822227
      ],
      [
        "▁active",
        -10.337845705808842
      ],
      [
        "▁medicine",
        -10.338331694123536
      ],
      [
        "▁killing",
        -10.338492068060884
      ],
      [
        "▁picked",
        -10.338877841788191
      ],
      [
        "▁grass",
        -10.339423925255929
      ],
      [
        "▁hasn",
        -10.340460927691462
      ],
      [
        "▁novel",
        -10.34141830640542
      ],
      [
        "▁highest",
        -10.341638287590756
      ],
      [
        "▁virginia",
        -10.341859613474696
      ],
      [
        "dal",
        -10.342036487665643
      ],
      [
        "▁magic",
        -10.342576645877052
      ],
      [
        "▁wh",
        -10.343039514484182
      ],
      [
        "▁measure",
        -10.345378521024733
      ],
      [
        "▁lots",
        -10.345502774234768
      ],
      [
        "▁mentioned",
        -10.345572972193354
      ],
      [
        "▁wine",
        -10.345714911891044
      ],
      [
        "▁besides",
        -10.346143570525568
      ],
      [
        "▁african",
        -10.347172771203512
      ],
      [
        "▁expected",
        -10.347192039418037
      ],
      [
        "bloody",
        -10.347566409037952
      ],
      [
        "▁survive",
        -10.347860898821706
      ],
      [
        "▁app",
        -10.347875524182626
      ],
      [
        "▁statement",
        -10.348495265063876
      ],
      [
        "▁initial",
        -10.349091475330049
      ],
      [
        "▁perform",
        -10.349686880182777
      ],
      [
        "▁wearing",
        -10.351492019550314
      ],
      [
        "▁stuck",
        -10.352613539617108
      ],
      [
        "▁placed",
        -10.35318459977406
      ],
      [
        "▁mayor",
        -10.353337491096909
      ],
      [
        "▁immediatel",
        -10.353351367652204
      ],
      [
        "▁forced",
        -10.353583122752951
      ],
      [
        "▁saved",
        -10.354339028015076
      ],
      [
        "▁direct",
        -10.35456994253562
      ],
      [
        "▁empty",
        -10.354930128180824
      ],
      [
        "▁jane",
        -10.355944361489454
      ],
      [
        "avi",
        -10.356691558037998
      ],
      [
        "▁forever",
        -10.35685708527257
      ],
      [
        "▁airport",
        -10.357284160225902
      ],
      [
        "▁sake",
        -10.357557941541865
      ],
      [
        "ible",
        -10.35795727672967
      ],
      [
        "▁tar",
        -10.358041480976842
      ],
      [
        "▁louis",
        -10.358116815757317
      ],
      [
        "▁cake",
        -10.358750482059246
      ],
      [
        "▁prevent",
        -10.359183811002454
      ],
      [
        "▁flying",
        -10.361002643341267
      ],
      [
        "▁cl",
        -10.361081942644985
      ],
      [
        "generally",
        -10.361222471485092
      ],
      [
        "▁drama",
        -10.361300963081929
      ],
      [
        "nce",
        -10.361358307337833
      ],
      [
        "▁freedom",
        -10.362248866530075
      ],
      [
        "gun",
        -10.363415569993403
      ],
      [
        "cul",
        -10.363574056298647
      ],
      [
        "▁joy",
        -10.36395585407015
      ],
      [
        "▁flag",
        -10.364158356558807
      ],
      [
        "▁complex",
        -10.364836452641471
      ],
      [
        "▁powerful",
        -10.364979882557693
      ],
      [
        "▁serve",
        -10.365551241117805
      ],
      [
        "pol",
        -10.366175642423604
      ],
      [
        "head",
        -10.36655839909815
      ],
      [
        "shed",
        -10.367987897810972
      ],
      [
        "▁expression",
        -10.368745125120023
      ],
      [
        "duty",
        -10.369158993096915
      ],
      [
        "▁traditional",
        -10.369637869428074
      ],
      [
        "▁coat",
        -10.37027850244039
      ],
      [
        "▁declare",
        -10.37125781869308
      ],
      [
        "▁kar",
        -10.371920622042005
      ],
      [
        "▁congress",
        -10.372152152673705
      ],
      [
        "▁totally",
        -10.372414234752746
      ],
      [
        "uff",
        -10.372750642906412
      ],
      [
        "▁upper",
        -10.373457785197967
      ],
      [
        "▁designed",
        -10.374550213793006
      ],
      [
        "▁ki",
        -10.375471916135846
      ],
      [
        "star",
        -10.375631463106435
      ],
      [
        "▁target",
        -10.37586692145734
      ],
      [
        "▁adam",
        -10.376055758479728
      ],
      [
        "▁thick",
        -10.377342828600083
      ],
      [
        "▁clearly",
        -10.378488476647046
      ],
      [
        "▁quarter",
        -10.378913231478927
      ],
      [
        "▁rid",
        -10.378913563472146
      ],
      [
        "▁canadian",
        -10.38011068450878
      ],
      [
        "▁priest",
        -10.38211168494612
      ],
      [
        "▁types",
        -10.382489513972835
      ],
      [
        "▁hardly",
        -10.383193005688746
      ],
      [
        "▁reported",
        -10.3832316797252
      ],
      [
        "▁treat",
        -10.383322499298444
      ],
      [
        "▁colour",
        -10.384351777525351
      ],
      [
        "▁related",
        -10.384911271670129
      ],
      [
        "▁chairman",
        -10.385054594609905
      ],
      [
        "▁resource",
        -10.385162836616685
      ],
      [
        "▁australian",
        -10.38523434374999
      ],
      [
        "then",
        -10.385442063960774
      ],
      [
        "▁trans",
        -10.385959900975022
      ],
      [
        "▁avoid",
        -10.386154691299414
      ],
      [
        "▁focus",
        -10.386510399972554
      ],
      [
        "▁bat",
        -10.387093998537416
      ],
      [
        "▁physical",
        -10.387523185442705
      ],
      [
        "▁operation",
        -10.388696244990436
      ],
      [
        "bel",
        -10.388844558680214
      ],
      [
        "lor",
        -10.389221716998112
      ],
      [
        "▁appear",
        -10.390329668783805
      ],
      [
        "▁yep",
        -10.391704321640873
      ],
      [
        "▁sarah",
        -10.393391578399113
      ],
      [
        "▁teeth",
        -10.393500938355777
      ],
      [
        "▁silly",
        -10.393847546689257
      ],
      [
        "ö",
        -10.394112483013766
      ],
      [
        "▁col",
        -10.394178939814038
      ],
      [
        "they",
        -10.394766581433313
      ],
      [
        "▁mexico",
        -10.39534573539693
      ],
      [
        "▁damage",
        -10.39539958422758
      ],
      [
        "▁jean",
        -10.39578758514377
      ],
      [
        "▁orange",
        -10.396009936725385
      ],
      [
        "▁dresse",
        -10.396450622750669
      ],
      [
        "with",
        -10.396729635209423
      ],
      [
        "▁mention",
        -10.397168243325783
      ],
      [
        "bury",
        -10.39731303701322
      ],
      [
        "▁charlie",
        -10.39742309142906
      ],
      [
        "▁chain",
        -10.397873348904357
      ],
      [
        "▁acting",
        -10.398096486278764
      ],
      [
        "owned",
        -10.398494767093087
      ],
      [
        "▁km",
        -10.398729998431868
      ],
      [
        "▁journey",
        -10.399046083992497
      ],
      [
        "▁temperature",
        -10.399252186866114
      ],
      [
        "▁map",
        -10.400553376080635
      ],
      [
        "▁features",
        -10.400746497645576
      ],
      [
        "▁environment",
        -10.401018528849306
      ],
      [
        "▁compete",
        -10.401202203255508
      ],
      [
        "▁weak",
        -10.401215585445916
      ],
      [
        "▁breath",
        -10.40130165394608
      ],
      [
        "▁filled",
        -10.4015547905785
      ],
      [
        "ston",
        -10.40160051764144
      ],
      [
        "light",
        -10.402091350309984
      ],
      [
        "▁specific",
        -10.402345043861017
      ],
      [
        "▁mate",
        -10.402801119475836
      ],
      [
        "▁rome",
        -10.403162905687308
      ],
      [
        "▁construction",
        -10.40318688103276
      ],
      [
        "▁drew",
        -10.403746055754038
      ],
      [
        "▁generation",
        -10.404804653831286
      ],
      [
        "▁teams",
        -10.405409755776253
      ],
      [
        "▁loud",
        -10.406027884907571
      ],
      [
        "▁plants",
        -10.40629611592656
      ],
      [
        "▁retired",
        -10.406900071514947
      ],
      [
        "▁odd",
        -10.407687183747246
      ],
      [
        "▁turning",
        -10.407768981707154
      ],
      [
        "▁wave",
        -10.408122803419603
      ],
      [
        "▁meat",
        -10.409186182650226
      ],
      [
        "▁pack",
        -10.409778200522576
      ],
      [
        "▁roof",
        -10.410284854059896
      ],
      [
        "▁emperor",
        -10.410854683883972
      ],
      [
        "▁rare",
        -10.411224119030148
      ],
      [
        "▁fill",
        -10.411269120785146
      ],
      [
        "mal",
        -10.41239339519777
      ],
      [
        "▁screen",
        -10.412566391932804
      ],
      [
        "lam",
        -10.412698372691702
      ],
      [
        "▁cent",
        -10.41313058805449
      ],
      [
        "offered",
        -10.413930783198344
      ],
      [
        "▁suspect",
        -10.41401971651646
      ],
      [
        "▁pink",
        -10.41446968535944
      ],
      [
        "▁missed",
        -10.41597071095496
      ],
      [
        "▁solution",
        -10.416289554689437
      ],
      [
        "hal",
        -10.416967777411267
      ],
      [
        "▁bow",
        -10.41724978883617
      ],
      [
        "▁conditions",
        -10.417541810059705
      ],
      [
        "▁scale",
        -10.417861586049526
      ],
      [
        "just",
        -10.418485992624268
      ],
      [
        "▁crying",
        -10.4191603863193
      ],
      [
        "▁seriously",
        -10.42016160496515
      ],
      [
        "▁religious",
        -10.420491024313185
      ],
      [
        "▁plans",
        -10.420614786073935
      ],
      [
        "▁ourselves",
        -10.420915415560607
      ],
      [
        "possibly",
        -10.421104813147798
      ],
      [
        "work",
        -10.422076239725778
      ],
      [
        "▁treatment",
        -10.422109627219657
      ],
      [
        "▁silence",
        -10.423034677229484
      ],
      [
        "▁drug",
        -10.423463398970664
      ],
      [
        "▁performe",
        -10.423541125964258
      ],
      [
        "▁institute",
        -10.424546517805611
      ],
      [
        "▁windows",
        -10.42466773094148
      ],
      [
        "room",
        -10.425446445489795
      ],
      [
        "▁grant",
        -10.425479603151722
      ],
      [
        "▁becoming",
        -10.425617866890182
      ],
      [
        "some",
        -10.426099705729897
      ],
      [
        "▁spain",
        -10.426425480046111
      ],
      [
        "▁commission",
        -10.42643974337108
      ],
      [
        "▁file",
        -10.426740478988128
      ],
      [
        "ale",
        -10.42778799169461
      ],
      [
        "▁criminal",
        -10.42830309984119
      ],
      [
        "▁democratic",
        -10.429698095796322
      ],
      [
        "▁factor",
        -10.431104207640574
      ],
      [
        "▁mountains",
        -10.431628371405733
      ],
      [
        "▁compare",
        -10.431956206529849
      ],
      [
        "▁recently",
        -10.43332984550963
      ],
      [
        "▁desert",
        -10.4339732482275
      ],
      [
        "▁raise",
        -10.434325642553851
      ],
      [
        "▁biggest",
        -10.434528227193008
      ],
      [
        "▁pound",
        -10.436181095667656
      ],
      [
        "town",
        -10.436602373957673
      ],
      [
        "▁micro",
        -10.437347916572753
      ],
      [
        "▁ordered",
        -10.437407261527856
      ],
      [
        "▁russia",
        -10.437449365446565
      ],
      [
        "▁lesson",
        -10.43790566608589
      ],
      [
        "▁los",
        -10.438450684805051
      ],
      [
        "▁recording",
        -10.43896571894699
      ],
      [
        "ities",
        -10.439189790329436
      ],
      [
        "▁directly",
        -10.440212438017271
      ],
      [
        "▁mama",
        -10.44029081800252
      ],
      [
        "▁eggs",
        -10.440567893725918
      ],
      [
        "more",
        -10.441088401033433
      ],
      [
        "▁opera",
        -10.441563592475998
      ],
      [
        "▁drawing",
        -10.441641736218669
      ],
      [
        "▁responsible",
        -10.44175333902252
      ],
      [
        "▁loss",
        -10.441763458754949
      ],
      [
        "▁motion",
        -10.44197259466783
      ],
      [
        "▁previous",
        -10.442435141090144
      ],
      [
        "▁feed",
        -10.442778560219407
      ],
      [
        "▁authority",
        -10.443089041262052
      ],
      [
        "▁majest",
        -10.44519836636136
      ],
      [
        "▁pu",
        -10.44538187623039
      ],
      [
        "▁grown",
        -10.445841452919993
      ],
      [
        "lar",
        -10.446185496398542
      ],
      [
        "▁♫",
        -10.44632667661756
      ],
      [
        "board",
        -10.446482909483825
      ],
      [
        "gue",
        -10.446997630643908
      ],
      [
        "▁planning",
        -10.447171240247789
      ],
      [
        "▁cur",
        -10.447465392384206
      ],
      [
        "larger",
        -10.447921160689
      ],
      [
        "▁cousin",
        -10.4482323942965
      ],
      [
        "▁reduce",
        -10.45002726822918
      ],
      [
        "▁management",
        -10.450725629992895
      ],
      [
        "▁becomes",
        -10.45074036115476
      ],
      [
        "▁split",
        -10.45087476806582
      ],
      [
        "▁receive",
        -10.452430498264016
      ],
      [
        "▁afterward",
        -10.452738853230056
      ],
      [
        "▁connection",
        -10.453389227166063
      ],
      [
        "cro",
        -10.4535828202632
      ],
      [
        "▁harm",
        -10.453681526943836
      ],
      [
        "▁sum",
        -10.454616168718582
      ],
      [
        "▁financial",
        -10.454733510470655
      ],
      [
        "▁horses",
        -10.456270711344478
      ],
      [
        "right",
        -10.45705981815294
      ],
      [
        "▁sugar",
        -10.457200812603224
      ],
      [
        "▁flower",
        -10.458684089053971
      ],
      [
        "▁pig",
        -10.45891021875788
      ],
      [
        "▁partner",
        -10.45901170954244
      ],
      [
        "▁swear",
        -10.459289528111142
      ],
      [
        "mor",
        -10.459439523187134
      ],
      [
        "▁dirty",
        -10.459467529418776
      ],
      [
        "▁concert",
        -10.45957858238056
      ],
      [
        "▁producer",
        -10.459908926166069
      ],
      [
        "▁cash",
        -10.460217385818083
      ],
      [
        "▁finding",
        -10.460285203116673
      ],
      [
        "▁burn",
        -10.46085803744559
      ],
      [
        "▁ban",
        -10.461063878399685
      ],
      [
        "▁broad",
        -10.462562694003848
      ],
      [
        "▁operate",
        -10.463474558944789
      ],
      [
        "▁cow",
        -10.4642347849189
      ],
      [
        "▁branch",
        -10.464470066395
      ],
      [
        "▁occur",
        -10.46537106026359
      ],
      [
        "▁dogs",
        -10.465470038756242
      ],
      [
        "cia",
        -10.465630835071696
      ],
      [
        "▁task",
        -10.46617782321801
      ],
      [
        "▁significant",
        -10.466341174914009
      ],
      [
        "▁characters",
        -10.467111302416406
      ],
      [
        "▁fan",
        -10.467730352746136
      ],
      [
        "▁bal",
        -10.468173443814672
      ],
      [
        "{",
        -10.468546490323371
      ],
      [
        "▁despite",
        -10.468546674113504
      ],
      [
        "▁application",
        -10.46876729876079
      ],
      [
        "▁graduate",
        -10.469209463397512
      ],
      [
        "▁kick",
        -10.469971439855405
      ],
      [
        "▁ver",
        -10.470161753632857
      ],
      [
        "burg",
        -10.470330091847025
      ],
      [
        "▁promised",
        -10.470348491934145
      ],
      [
        "▁hmm",
        -10.470718705028975
      ],
      [
        "rum",
        -10.470774126119917
      ],
      [
        "▁replaced",
        -10.471064692773998
      ],
      [
        "▁revolution",
        -10.472213352564568
      ],
      [
        "▁cars",
        -10.474852997186288
      ],
      [
        "uck",
        -10.47525473956527
      ],
      [
        "▁sleeping",
        -10.475395931567093
      ],
      [
        "zu",
        -10.475586116680889
      ],
      [
        "ified",
        -10.476408055638313
      ],
      [
        "▁safety",
        -10.476640320902336
      ],
      [
        "pu",
        -10.476727656777555
      ],
      [
        "music",
        -10.477032784678116
      ],
      [
        "▁harry",
        -10.477103533631928
      ],
      [
        "▁teaching",
        -10.47719499380436
      ],
      [
        "▁commander",
        -10.47786014179228
      ],
      [
        "▁musical",
        -10.479004839130605
      ],
      [
        "▁copy",
        -10.479096034876074
      ],
      [
        "▁cal",
        -10.479451947507211
      ],
      [
        "▁everywhere",
        -10.479461593167835
      ],
      [
        "▁quality",
        -10.480006776660645
      ],
      [
        "▁pool",
        -10.48002605127657
      ],
      [
        "▁faile",
        -10.48049729828925
      ],
      [
        "cho",
        -10.48136327075855
      ],
      [
        "laugh",
        -10.48160959893557
      ],
      [
        "▁surprised",
        -10.4825879456369
      ],
      [
        "▁nick",
        -10.482760865363543
      ],
      [
        "▁runs",
        -10.48276251590714
      ],
      [
        "▁dig",
        -10.48292195532302
      ],
      [
        "▁consist",
        -10.4835612353889
      ],
      [
        "▁tournament",
        -10.48367305063866
      ],
      [
        "▁universe",
        -10.484794442925972
      ],
      [
        "gotten",
        -10.485187370318206
      ],
      [
        "▁express",
        -10.485198788178572
      ],
      [
        "▁worst",
        -10.48548421823891
      ],
      [
        "▁review",
        -10.485570432976292
      ],
      [
        "▁concerned",
        -10.48621861284206
      ],
      [
        "▁chris",
        -10.48648076687299
      ],
      [
        "stro",
        -10.486896447268002
      ],
      [
        "▁turns",
        -10.487925173202404
      ],
      [
        "▁ghost",
        -10.488085208678111
      ],
      [
        "▁relax",
        -10.488616486135374
      ],
      [
        "▁pulled",
        -10.489425916350015
      ],
      [
        "▁nineteen",
        -10.489903184541877
      ],
      [
        "mel",
        -10.49127091679902
      ],
      [
        "▁shore",
        -10.49220266244819
      ],
      [
        "▁introduced",
        -10.492541474239353
      ],
      [
        "cher",
        -10.492582541329083
      ],
      [
        "▁appointed",
        -10.493365384837103
      ],
      [
        "▁arts",
        -10.493676478241303
      ],
      [
        "▁florida",
        -10.493810899983549
      ],
      [
        "▁max",
        -10.494149412853442
      ],
      [
        "▁client",
        -10.49449357826028
      ],
      [
        "ised",
        -10.49606624086166
      ],
      [
        "▁listening",
        -10.496105929387106
      ],
      [
        "▁succeed",
        -10.496758480164264
      ],
      [
        "asleep",
        -10.497001766462612
      ],
      [
        "▁hol",
        -10.498221116909058
      ],
      [
        "▁comment",
        -10.49855619693963
      ],
      [
        "▁limit",
        -10.498641586328931
      ],
      [
        "▁vehicle",
        -10.498804305425272
      ],
      [
        "kar",
        -10.499334961425088
      ],
      [
        "▁sudden",
        -10.49939864936249
      ],
      [
        "▁roger",
        -10.500260075645985
      ],
      [
        "▁bowl",
        -10.500315835744464
      ],
      [
        "▁motor",
        -10.501383333948324
      ],
      [
        "▁billy",
        -10.501713937221227
      ],
      [
        "▁audience",
        -10.502891309477782
      ],
      [
        "▁prepared",
        -10.502965281210267
      ],
      [
        "▁button",
        -10.503079398594844
      ],
      [
        "▁experiment",
        -10.503753952865004
      ],
      [
        "▁awful",
        -10.50429195690842
      ],
      [
        "▁easier",
        -10.50519697004415
      ],
      [
        "▁destroyed",
        -10.505500096565244
      ],
      [
        "▁fixed",
        -10.505510718827592
      ],
      [
        "por",
        -10.506030453008998
      ],
      [
        "▁actual",
        -10.50626432157571
      ],
      [
        "down",
        -10.506335698140267
      ],
      [
        "▁islands",
        -10.506786578817447
      ],
      [
        "pel",
        -10.506911862499374
      ],
      [
        "▁honour",
        -10.507959117091612
      ],
      [
        "▁bound",
        -10.508204939333632
      ],
      [
        "threw",
        -10.508473443131068
      ],
      [
        "▁dying",
        -10.508688338321958
      ],
      [
        "▁response",
        -10.508867267315376
      ],
      [
        "▁dutch",
        -10.509578549928854
      ],
      [
        "▁daniel",
        -10.510281834790256
      ],
      [
        "tended",
        -10.510432911920294
      ],
      [
        "▁nurse",
        -10.510547736928164
      ],
      [
        "▁stream",
        -10.510877208883777
      ],
      [
        "▁typical",
        -10.51121664269282
      ],
      [
        "ole",
        -10.512040127030216
      ],
      [
        "▁lies",
        -10.512739557257506
      ],
      [
        "▁sexual",
        -10.513427982310906
      ],
      [
        "▁gift",
        -10.513842912489228
      ],
      [
        "▁bother",
        -10.514424353259466
      ],
      [
        "▁dude",
        -10.515116267622982
      ],
      [
        "cor",
        -10.515549046206347
      ],
      [
        "▁pot",
        -10.515586592235874
      ],
      [
        "▁rapid",
        -10.515696961990868
      ],
      [
        "▁dreams",
        -10.515710447254868
      ],
      [
        "▁fifteen",
        -10.515737640478104
      ],
      [
        "▁foundation",
        -10.51667369404022
      ],
      [
        "row",
        -10.516747954940987
      ],
      [
        "▁billion",
        -10.516999724497929
      ],
      [
        "▁fer",
        -10.517101833713486
      ],
      [
        "▁calls",
        -10.517471261029767
      ],
      [
        "▁commercial",
        -10.517640265971275
      ],
      [
        "▁horn",
        -10.518876571040984
      ],
      [
        "▁laws",
        -10.519648730477444
      ],
      [
        "▁tough",
        -10.520469308204175
      ],
      [
        "▁bang",
        -10.520732627408291
      ],
      [
        "▁favorite",
        -10.520919592602992
      ],
      [
        "▁bon",
        -10.521287239139896
      ],
      [
        "▁pit",
        -10.521894125567286
      ],
      [
        "▁advantage",
        -10.522055797124535
      ],
      [
        "▁potential",
        -10.522063376674902
      ],
      [
        "▁rabbit",
        -10.522140910881465
      ],
      [
        "▁cu",
        -10.522397318191128
      ],
      [
        "▁matche",
        -10.522848049444535
      ],
      [
        "watched",
        -10.522890101014836
      ],
      [
        "▁laughe",
        -10.523028551624808
      ],
      [
        "▁fruit",
        -10.52304171959096
      ],
      [
        "▁tight",
        -10.52417129399544
      ],
      [
        "▁ross",
        -10.524495173594916
      ],
      [
        "▁mental",
        -10.524752144899953
      ],
      [
        "▁crown",
        -10.52524513527121
      ],
      [
        "new",
        -10.525364299837554
      ],
      [
        "▁latin",
        -10.525709914323482
      ],
      [
        "▁vice",
        -10.52647678480916
      ],
      [
        "▁lack",
        -10.527522583518476
      ],
      [
        "▁theatre",
        -10.528034089787855
      ],
      [
        "shire",
        -10.528597397292993
      ],
      [
        "▁nations",
        -10.529214645297316
      ],
      [
        "▁gain",
        -10.52973372784023
      ],
      [
        "▁fashion",
        -10.530272687425542
      ],
      [
        "▁saturday",
        -10.530382676283867
      ],
      [
        "▁britain",
        -10.530485299947568
      ],
      [
        "angeles",
        -10.530557380291324
      ],
      [
        "▁reasons",
        -10.530916420069904
      ],
      [
        "▁younger",
        -10.53116426980725
      ],
      [
        "▁favor",
        -10.531194062136528
      ],
      [
        "was",
        -10.531295160215253
      ],
      [
        "low",
        -10.531665632851707
      ],
      [
        "▁starts",
        -10.53168982675204
      ],
      [
        "▁mainly",
        -10.532086400521106
      ],
      [
        "▁heads",
        -10.532725655917252
      ],
      [
        "ude",
        -10.533817081031646
      ],
      [
        "▁load",
        -10.53422415531251
      ],
      [
        "▁usual",
        -10.534445871769837
      ],
      [
        "▁bur",
        -10.535859712679782
      ],
      [
        "▁bastard",
        -10.53589414091829
      ],
      [
        "▁officers",
        -10.53596103810151
      ],
      [
        "▁onto",
        -10.536107803518348
      ],
      [
        "▁gar",
        -10.53718616179028
      ],
      [
        "sch",
        -10.53732294733987
      ],
      [
        "▁devil",
        -10.538219378181498
      ],
      [
        "cla",
        -10.53898601325618
      ],
      [
        "ick",
        -10.541373309283738
      ],
      [
        "▁monster",
        -10.541652677725116
      ],
      [
        "good",
        -10.543416299565184
      ],
      [
        "▁sport",
        -10.543463090887755
      ],
      [
        "▁chemical",
        -10.543740660193022
      ],
      [
        "▁gate",
        -10.54399586315056
      ],
      [
        "▁reality",
        -10.544471044934856
      ],
      [
        "▁managed",
        -10.54451853947818
      ],
      [
        "ball",
        -10.544765383969798
      ],
      [
        "▁pale",
        -10.545906807796497
      ],
      [
        "▁carl",
        -10.54690440174866
      ],
      [
        "▁cheap",
        -10.547375837471836
      ],
      [
        "▁apparently",
        -10.547534609110825
      ],
      [
        "▁val",
        -10.54894339156851
      ],
      [
        "▁illinois",
        -10.549205718041833
      ],
      [
        "▁holiday",
        -10.54920713871636
      ],
      [
        "▁hockey",
        -10.549684483693577
      ],
      [
        "▁exchange",
        -10.549936252655243
      ],
      [
        "ches",
        -10.550020460132416
      ],
      [
        "▁trick",
        -10.55073164324192
      ],
      [
        "▁idiot",
        -10.55089110664275
      ],
      [
        "bal",
        -10.551001680148076
      ],
      [
        "▁reserve",
        -10.551362935938034
      ],
      [
        "▁opposite",
        -10.55184501023911
      ],
      [
        "▁showing",
        -10.552252649882204
      ],
      [
        "his",
        -10.552341296248732
      ],
      [
        "phone",
        -10.552382353163791
      ],
      [
        "▁salt",
        -10.552484668375554
      ],
      [
        "ray",
        -10.55279353423404
      ],
      [
        "▁lieutenant",
        -10.553522788721253
      ],
      [
        "▁instance",
        -10.55377449540291
      ],
      [
        "ock",
        -10.55403512116027
      ],
      [
        "▁apartment",
        -10.554202720617136
      ],
      [
        "keeping",
        -10.55424540952149
      ],
      [
        "ken",
        -10.55453518841953
      ],
      [
        "cri",
        -10.554566432829882
      ],
      [
        "▁basic",
        -10.554926456544946
      ],
      [
        "wan",
        -10.555179222253422
      ],
      [
        "▁buried",
        -10.555222236163916
      ],
      [
        "▁height",
        -10.5560077003309
      ],
      [
        "▁republican",
        -10.556735844542192
      ],
      [
        "▁scott",
        -10.556965089279146
      ],
      [
        "▁symbol",
        -10.557251838627758
      ],
      [
        "use",
        -10.558056969463273
      ],
      [
        "▁debut",
        -10.558847011731944
      ],
      [
        "▁cop",
        -10.55906299858322
      ],
      [
        "ture",
        -10.55933922665694
      ],
      [
        "▁fifth",
        -10.560955476937297
      ],
      [
        "ever",
        -10.561120979716955
      ],
      [
        "▁winning",
        -10.561331433591285
      ],
      [
        "ties",
        -10.562271093959648
      ],
      [
        "▁bond",
        -10.562536440441864
      ],
      [
        "▁losing",
        -10.562538784196418
      ],
      [
        "▁tiny",
        -10.562909753695262
      ],
      [
        "▁liked",
        -10.56337729368243
      ],
      [
        "▁restaurant",
        -10.564883803332204
      ],
      [
        "▁argument",
        -10.565126946508798
      ],
      [
        "▁thin",
        -10.565170414614672
      ],
      [
        "▁fingers",
        -10.56537468597956
      ],
      [
        "▁crowd",
        -10.565389145514589
      ],
      [
        "▁phil",
        -10.56616145557912
      ],
      [
        "come",
        -10.566630808421252
      ],
      [
        "▁instrument",
        -10.568022063713816
      ],
      [
        "dar",
        -10.568594797571237
      ],
      [
        "▁wheel",
        -10.569602186011505
      ],
      [
        "▁troops",
        -10.569608920249404
      ],
      [
        "▁ru",
        -10.5696990642772
      ],
      [
        "▁goodbye",
        -10.569723063002858
      ],
      [
        "▁critic",
        -10.569859953504334
      ],
      [
        "ries",
        -10.57073156354329
      ],
      [
        "▁spoken",
        -10.571266181585507
      ],
      [
        "▁instant",
        -10.571828257153696
      ],
      [
        "▁appears",
        -10.571897843012891
      ],
      [
        "▁display",
        -10.572258930547529
      ],
      [
        "istic",
        -10.57274611318432
      ],
      [
        "▁crack",
        -10.572765743765672
      ],
      [
        "uni",
        -10.57276779138871
      ],
      [
        "▁stayed",
        -10.573602573340857
      ],
      [
        "ign",
        -10.573915067945055
      ],
      [
        "▁telephone",
        -10.573933633519925
      ],
      [
        "▁mount",
        -10.574010462855377
      ],
      [
        "▁friday",
        -10.574220760217706
      ],
      [
        "▁spell",
        -10.574376412677545
      ],
      [
        "pic",
        -10.57481839964585
      ],
      [
        "▁understood",
        -10.575536088371592
      ],
      [
        "gri",
        -10.57568513515701
      ],
      [
        "▁historical",
        -10.57575922643754
      ],
      [
        "▁egg",
        -10.576243247725552
      ],
      [
        "▁lift",
        -10.576355758143093
      ],
      [
        "▁labor",
        -10.576545996164782
      ],
      [
        "▁senior",
        -10.576871263186694
      ],
      [
        "▁shake",
        -10.577023827590423
      ],
      [
        "stone",
        -10.57717655423533
      ],
      [
        "▁grace",
        -10.57723233739893
      ],
      [
        "▁cr",
        -10.577858249537908
      ],
      [
        "▁tongue",
        -10.578155996024991
      ],
      [
        "ski",
        -10.578721679416605
      ],
      [
        "ears",
        -10.578790356527875
      ],
      [
        "▁faster",
        -10.57905524844385
      ],
      [
        "▁principle",
        -10.579577343058062
      ],
      [
        "▁quit",
        -10.57965915709841
      ],
      [
        "▁sta",
        -10.57972290199162
      ],
      [
        "▁transport",
        -10.579863320898076
      ],
      [
        "▁tip",
        -10.579960997409074
      ],
      [
        "▁uses",
        -10.580163221892889
      ],
      [
        "sky",
        -10.581508637130383
      ],
      [
        "els",
        -10.581617934290758
      ],
      [
        "▁tony",
        -10.58171630572856
      ],
      [
        "▁wise",
        -10.582095217126668
      ],
      [
        "▁excellent",
        -10.58229657957707
      ],
      [
        "▁buildings",
        -10.58322276081044
      ],
      [
        "chen",
        -10.583506072548456
      ],
      [
        "▁har",
        -10.584636308866145
      ],
      [
        "▁shame",
        -10.584690248284554
      ],
      [
        "▁aware",
        -10.584820276895318
      ],
      [
        "▁progress",
        -10.58551808040865
      ],
      [
        "▁spin",
        -10.58680259361
      ],
      [
        "▁weekend",
        -10.587003609199504
      ],
      [
        "▁deserve",
        -10.587009715462584
      ],
      [
        "▁noticed",
        -10.587302842560012
      ],
      [
        "▁steps",
        -10.587488372844078
      ],
      [
        "referred",
        -10.587494675266768
      ],
      [
        "▁comedy",
        -10.58856377161767
      ],
      [
        "▁background",
        -10.588771021010794
      ],
      [
        "▁amy",
        -10.588933096562
      ],
      [
        "▁drugs",
        -10.589055341560895
      ],
      [
        "▁soldier",
        -10.58977525660744
      ],
      [
        "▁ireland",
        -10.589775982280416
      ],
      [
        "▁ninety",
        -10.590402285787492
      ],
      [
        "unc",
        -10.590446998196294
      ],
      [
        "▁traffic",
        -10.590990508109964
      ],
      [
        "primary",
        -10.591904477538272
      ],
      [
        "▁drunk",
        -10.592180979647612
      ],
      [
        "▁communication",
        -10.59342139025322
      ],
      [
        "▁programme",
        -10.594127186567322
      ],
      [
        "▁protest",
        -10.594227854034536
      ],
      [
        "▁uk",
        -10.594569445077653
      ],
      [
        "▁shift",
        -10.595382211329936
      ],
      [
        "▁dam",
        -10.596328535024586
      ],
      [
        "▁throat",
        -10.59655151151045
      ],
      [
        "▁gentleman",
        -10.5967358897756
      ],
      [
        "▁reference",
        -10.596861729408491
      ],
      [
        "▁jimmy",
        -10.59712847429297
      ],
      [
        "▁admit",
        -10.597330593509644
      ],
      [
        "▁plot",
        -10.59847070833964
      ],
      [
        "▁advice",
        -10.599007616148908
      ],
      [
        "▁failure",
        -10.599529685397094
      ],
      [
        "ions",
        -10.599532731651191
      ],
      [
        "rick",
        -10.599614473543046
      ],
      [
        "american",
        -10.599843635503172
      ],
      [
        "mont",
        -10.60030605692463
      ],
      [
        "uri",
        -10.600422532821348
      ],
      [
        "mate",
        -10.60127743504126
      ],
      [
        "ü",
        -10.601345792638185
      ],
      [
        "▁sixty",
        -10.601367627423793
      ],
      [
        "▁elder",
        -10.601585842424992
      ],
      [
        "▁variet",
        -10.60165175211578
      ],
      [
        "▁sentence",
        -10.602830403111051
      ],
      [
        "▁den",
        -10.603814259966784
      ],
      [
        "▁arrest",
        -10.604036952527728
      ],
      [
        "worth",
        -10.60448427501972
      ],
      [
        "▁proper",
        -10.605008064508072
      ],
      [
        "▁guns",
        -10.605491559800972
      ],
      [
        "▁hearing",
        -10.605592145754237
      ],
      [
        "▁boo",
        -10.605780132878156
      ],
      [
        "▁upset",
        -10.606290719479938
      ],
      [
        "▁nervous",
        -10.606328940184648
      ],
      [
        "▁recent",
        -10.606907680300724
      ],
      [
        "yeah",
        -10.607372282033802
      ],
      [
        "▁jail",
        -10.607474178712062
      ],
      [
        "und",
        -10.6075515735712
      ],
      [
        "▁sides",
        -10.608326360723908
      ],
      [
        "▁blame",
        -10.609095744878012
      ],
      [
        "▁simon",
        -10.609285121587444
      ],
      [
        "chuckles",
        -10.609541147562696
      ],
      [
        "ā",
        -10.609628433001353
      ],
      [
        "▁jackson",
        -10.609749796060624
      ],
      [
        "fil",
        -10.60991559086198
      ],
      [
        "▁dust",
        -10.610591271869485
      ],
      [
        "▁shadow",
        -10.610713552438474
      ],
      [
        "▁steel",
        -10.61090265491984
      ],
      [
        "▁struck",
        -10.611515308555887
      ],
      [
        "▁moral",
        -10.611610465513884
      ],
      [
        "▁engineer",
        -10.612512940463544
      ],
      [
        "▁qu",
        -10.613339053962488
      ],
      [
        "▁cream",
        -10.613768581861018
      ],
      [
        "▁stranger",
        -10.614069204437964
      ],
      [
        "▁climate",
        -10.614726535920678
      ],
      [
        "▁hills",
        -10.614930349152113
      ],
      [
        "▁der",
        -10.615161793134892
      ],
      [
        "▁struggle",
        -10.615413275315982
      ],
      [
        "▁promote",
        -10.615427987278162
      ],
      [
        "▁houses",
        -10.616466233128632
      ],
      [
        "▁slave",
        -10.616969819525028
      ],
      [
        "izing",
        -10.61734940137225
      ],
      [
        "▁closer",
        -10.61747849850077
      ],
      [
        "▁wound",
        -10.61761914543576
      ],
      [
        "▁daily",
        -10.61781924895322
      ],
      [
        "▁fur",
        -10.618073839032492
      ],
      [
        "▁electric",
        -10.618143478485328
      ],
      [
        "▁meal",
        -10.618337166852784
      ],
      [
        "▁fought",
        -10.619336594121387
      ],
      [
        "▁champion",
        -10.619951999317845
      ],
      [
        "▁appeal",
        -10.620448733167215
      ],
      [
        "▁shirt",
        -10.620676421878663
      ],
      [
        "▁lips",
        -10.620864027925888
      ],
      [
        "▁presence",
        -10.620883182302746
      ],
      [
        "▁pin",
        -10.620985074792182
      ],
      [
        "▁observe",
        -10.62184949938453
      ],
      [
        "▁continues",
        -10.623418393824693
      ],
      [
        "▁plate",
        -10.6237096658164
      ],
      [
        "▁chamber",
        -10.623815606120589
      ],
      [
        "mul",
        -10.624164714966302
      ],
      [
        "▁walls",
        -10.625161103216938
      ],
      [
        "▁pardon",
        -10.625404941895894
      ],
      [
        "nam",
        -10.62632037715472
      ],
      [
        "▁bishop",
        -10.6265517733718
      ],
      [
        "▁occasion",
        -10.627219120494551
      ],
      [
        "▁helping",
        -10.627261906862696
      ],
      [
        "▁tears",
        -10.62734089471372
      ],
      [
        "▁dragon",
        -10.62744363000655
      ],
      [
        "▁tend",
        -10.62748918936586
      ],
      [
        "▁killer",
        -10.627688324468622
      ],
      [
        "▁manage",
        -10.627836111953563
      ],
      [
        "tur",
        -10.627837413756057
      ],
      [
        "rate",
        -10.627951877295375
      ],
      [
        "▁def",
        -10.628408659112052
      ],
      [
        "▁internet",
        -10.629140908546525
      ],
      [
        "▁falling",
        -10.62914960256683
      ],
      [
        "▁pray",
        -10.629241494784091
      ],
      [
        "where",
        -10.62928307047373
      ],
      [
        "▁pie",
        -10.629627705161784
      ],
      [
        "▁knight",
        -10.629732770110792
      ],
      [
        "▁chase",
        -10.630125931045558
      ],
      [
        "ency",
        -10.630541227869122
      ],
      [
        "▁grey",
        -10.630707231240716
      ],
      [
        "act",
        -10.631101727671094
      ],
      [
        "dale",
        -10.631583947429236
      ],
      [
        "▁useful",
        -10.631599873975713
      ],
      [
        "▁loose",
        -10.632082351208943
      ],
      [
        "▁bodies",
        -10.632207521620538
      ],
      [
        "▁beside",
        -10.632735726497629
      ],
      [
        "▁victory",
        -10.632747616413726
      ],
      [
        "duc",
        -10.63304813714997
      ],
      [
        "sur",
        -10.63306132556434
      ],
      [
        "▁mel",
        -10.633076043266144
      ],
      [
        "▁laura",
        -10.63325324729446
      ],
      [
        "▁territory",
        -10.633295411122967
      ],
      [
        "▁basis",
        -10.633686458261804
      ],
      [
        "workers",
        -10.63377550458463
      ],
      [
        "▁protection",
        -10.633888443075778
      ],
      [
        "▁assembly",
        -10.634078820598184
      ],
      [
        "▁mag",
        -10.634920151079866
      ],
      [
        "▁gang",
        -10.635445214069945
      ],
      [
        "▁steve",
        -10.63561102143052
      ],
      [
        "▁remind",
        -10.636169289890562
      ],
      [
        "▁tradition",
        -10.636400714250522
      ],
      [
        "▁settlement",
        -10.636802184909996
      ],
      [
        "▁photo",
        -10.636859854831394
      ],
      [
        "▁majority",
        -10.636884191178652
      ],
      [
        "▁bringing",
        -10.637625863235492
      ],
      [
        "▁dar",
        -10.637954270571784
      ],
      [
        "▁detail",
        -10.63827376615768
      ],
      [
        "▁grade",
        -10.638351967119442
      ],
      [
        "▁flow",
        -10.6386096787338
      ],
      [
        "▁achieve",
        -10.63920380264831
      ],
      [
        "▁parish",
        -10.639701668343053
      ],
      [
        "▁lecture",
        -10.640880504641666
      ],
      [
        "▁papa",
        -10.640958690693086
      ],
      [
        "▁passenger",
        -10.641135293513138
      ],
      [
        "▁units",
        -10.641488255906854
      ],
      [
        "▁multiple",
        -10.64148963233911
      ],
      [
        "▁minor",
        -10.641602515438011
      ],
      [
        "▁plenty",
        -10.641660769264853
      ],
      [
        "▁concept",
        -10.641758842326048
      ],
      [
        "▁papers",
        -10.641853792887751
      ],
      [
        "▁cheese",
        -10.642205725914271
      ],
      [
        "▁perfectly",
        -10.642294374242791
      ],
      [
        "▁rank",
        -10.642444438083514
      ],
      [
        "▁tommy",
        -10.642912106359102
      ],
      [
        "▁origin",
        -10.643318136075658
      ],
      [
        "▁wolf",
        -10.643529246659751
      ],
      [
        "▁article",
        -10.64548148965503
      ],
      [
        "bye",
        -10.645608899341315
      ],
      [
        "ology",
        -10.646234403904248
      ],
      [
        "▁feelings",
        -10.646700504143466
      ],
      [
        "▁approach",
        -10.647245762939807
      ],
      [
        "▁gray",
        -10.647309332530549
      ],
      [
        "▁com",
        -10.647797528834705
      ],
      [
        "qu",
        -10.648109593216802
      ],
      [
        "▁dann",
        -10.64872483550305
      ],
      [
        "▁appreciate",
        -10.649037291880733
      ],
      [
        "▁jan",
        -10.64943411933026
      ],
      [
        "▁snake",
        -10.649579251187124
      ],
      [
        "▁accepted",
        -10.649944569296816
      ],
      [
        "▁speaker",
        -10.64995681898024
      ],
      [
        "ace",
        -10.649967783916134
      ],
      [
        "long",
        -10.65011622169549
      ],
      [
        "▁para",
        -10.6502049008927
      ],
      [
        "▁johnny",
        -10.65072087731082
      ],
      [
        "▁excited",
        -10.650898210480738
      ],
      [
        "hol",
        -10.651382193029796
      ],
      [
        "▁crash",
        -10.651606621395292
      ],
      [
        "▁notes",
        -10.652166869443064
      ],
      [
        "aka",
        -10.652328705163438
      ],
      [
        "▁dancing",
        -10.652488996179116
      ],
      [
        "▁reaction",
        -10.652589054634223
      ],
      [
        "▁tim",
        -10.653128332994529
      ],
      [
        "▁selected",
        -10.654202902817822
      ],
      [
        "▁pleasant",
        -10.654873296480725
      ],
      [
        "▁trace",
        -10.656381545346942
      ],
      [
        "▁scientific",
        -10.656469309837458
      ],
      [
        "▁bunch",
        -10.656802555733078
      ],
      [
        "▁weapons",
        -10.657510898069011
      ],
      [
        "▁additional",
        -10.65775376392908
      ],
      [
        "▁previously",
        -10.658023476112428
      ],
      [
        "▁volume",
        -10.6583407616293
      ],
      [
        "▁confirm",
        -10.65867933664506
      ],
      [
        "▁labour",
        -10.65892856523218
      ],
      [
        "ugh",
        -10.659144446010638
      ],
      [
        "▁grandfather",
        -10.659197813887976
      ],
      [
        "▁vision",
        -10.659815282084136
      ],
      [
        "stor",
        -10.660450607239854
      ],
      [
        "elle",
        -10.660502746925172
      ],
      [
        "vers",
        -10.66078355055322
      ],
      [
        "▁entirely",
        -10.660949239809884
      ],
      [
        "▁alan",
        -10.661184706515469
      ],
      [
        "bil",
        -10.661587325922042
      ],
      [
        "▁brave",
        -10.662472384587923
      ],
      [
        "pos",
        -10.662554212484205
      ],
      [
        "▁wire",
        -10.66305553567067
      ],
      [
        "cal",
        -10.663727064079437
      ],
      [
        "▁drinking",
        -10.664362396943185
      ],
      [
        "▁demand",
        -10.664505366200052
      ],
      [
        "▁narrow",
        -10.664573883274096
      ],
      [
        "▁advance",
        -10.665612843672678
      ],
      [
        "▁activity",
        -10.665876157702153
      ],
      [
        "▁exercise",
        -10.665957440410848
      ],
      [
        "▁assistant",
        -10.666154368953803
      ],
      [
        "▁divorce",
        -10.666375683141458
      ],
      [
        "ula",
        -10.667946684791552
      ],
      [
        "▁xi",
        -10.668999135340796
      ],
      [
        "▁eleven",
        -10.66902229759186
      ],
      [
        "▁eric",
        -10.669028277728374
      ],
      [
        "▁option",
        -10.670421378666196
      ],
      [
        "▁angle",
        -10.670669577410347
      ],
      [
        "▁eighty",
        -10.671142263817725
      ],
      [
        "▁website",
        -10.6712336263698
      ],
      [
        "▁willing",
        -10.67163273933635
      ],
      [
        "▁adult",
        -10.672188980373562
      ],
      [
        "ple",
        -10.672208771176823
      ],
      [
        "▁shooting",
        -10.672333364451456
      ],
      [
        "▁fired",
        -10.67235901138827
      ],
      [
        "▁limited",
        -10.67326729225495
      ],
      [
        "del",
        -10.6737639607058
      ],
      [
        "▁executive",
        -10.674211761990293
      ],
      [
        "▁defeat",
        -10.674336374089773
      ],
      [
        "get",
        -10.674599494639365
      ],
      [
        "rian",
        -10.674618147509554
      ],
      [
        "ala",
        -10.675408819424629
      ],
      [
        "▁secure",
        -10.677125995821436
      ],
      [
        "▁supply",
        -10.679375382416746
      ],
      [
        "▁ji",
        -10.67993380622896
      ],
      [
        "▁connected",
        -10.680254681855615
      ],
      [
        "▁cho",
        -10.68048932181052
      ],
      [
        "▁kat",
        -10.6813307194518
      ],
      [
        "▁label",
        -10.681758698816015
      ],
      [
        "▁johnson",
        -10.6823809026627
      ],
      [
        "bert",
        -10.682469533786048
      ],
      [
        "▁bri",
        -10.684269242870322
      ],
      [
        "▁rough",
        -10.684495475619045
      ],
      [
        "▁noble",
        -10.684826087440076
      ],
      [
        "▁passing",
        -10.68534181522726
      ],
      [
        "▁awarde",
        -10.686007126804698
      ],
      [
        "aki",
        -10.686839103276872
      ],
      [
        "▁knowing",
        -10.687098061524196
      ],
      [
        "▁hook",
        -10.687158972477048
      ],
      [
        "▁knife",
        -10.687165321429328
      ],
      [
        "▁olympics",
        -10.68759808363462
      ],
      [
        "water",
        -10.687880774792374
      ],
      [
        "ack",
        -10.68814682106408
      ],
      [
        "▁buddy",
        -10.688429868973175
      ],
      [
        "▁cra",
        -10.688986599015696
      ],
      [
        "▁sar",
        -10.689213716877902
      ],
      [
        "▁humans",
        -10.689878740081642
      ],
      [
        "cat",
        -10.69024471180522
      ],
      [
        "▁poem",
        -10.69041852696709
      ],
      [
        "▁upstair",
        -10.690615343764843
      ],
      [
        "▁hum",
        -10.690978748065628
      ],
      [
        "▁poet",
        -10.691023695402215
      ],
      [
        "▁affect",
        -10.69131199672685
      ],
      [
        "▁status",
        -10.691464958011217
      ],
      [
        "pur",
        -10.691573629926747
      ],
      [
        "▁hunt",
        -10.692608235945396
      ],
      [
        "run",
        -10.692908975511132
      ],
      [
        "▁pilot",
        -10.69647622384582
      ],
      [
        "▁mixed",
        -10.696655746255155
      ],
      [
        "▁sheep",
        -10.696810559425764
      ],
      [
        "▁kinds",
        -10.696989830102344
      ],
      [
        "cur",
        -10.697632518703156
      ],
      [
        "▁afford",
        -10.69779641394958
      ],
      [
        "▁kidding",
        -10.697919850397197
      ],
      [
        "▁han",
        -10.69809306576718
      ],
      [
        "ants",
        -10.698292446108091
      ],
      [
        "▁setting",
        -10.698429078998888
      ],
      [
        "▁defense",
        -10.699221433816504
      ],
      [
        "▁economy",
        -10.699753148636994
      ],
      [
        "▁institution",
        -10.70004255282456
      ],
      [
        "laughter",
        -10.700746417652542
      ],
      [
        "▁hanging",
        -10.700834064926006
      ],
      [
        "▁politics",
        -10.700866624778248
      ],
      [
        "▁planned",
        -10.70086756413607
      ],
      [
        "hand",
        -10.701153140199644
      ],
      [
        "claimed",
        -10.701394117396712
      ],
      [
        "▁latter",
        -10.701816718327096
      ],
      [
        "▁fate",
        -10.70204035019098
      ],
      [
        "▁surely",
        -10.702144965684091
      ],
      [
        "▁chart",
        -10.70322433695465
      ],
      [
        "▁agreement",
        -10.70368972176531
      ],
      [
        "cap",
        -10.704106589409262
      ],
      [
        "▁activities",
        -10.704773379998972
      ],
      [
        "slightly",
        -10.705427895710764
      ],
      [
        "▁scientists",
        -10.705531630152963
      ],
      [
        "▁changing",
        -10.706103355990932
      ],
      [
        "▁connect",
        -10.706400612728794
      ],
      [
        "▁relative",
        -10.706840110014246
      ],
      [
        "aul",
        -10.706875785733727
      ],
      [
        "▁wealth",
        -10.707014579457669
      ],
      [
        "gra",
        -10.70746409692827
      ],
      [
        "▁cookie",
        -10.707930052278314
      ],
      [
        "▁spa",
        -10.708586154960477
      ],
      [
        "▁estate",
        -10.708849684768476
      ],
      [
        "▁mouse",
        -10.709716039709807
      ],
      [
        "▁settled",
        -10.709717597066955
      ],
      [
        "jun",
        -10.709803859817466
      ],
      [
        "▁ag",
        -10.71001117588738
      ],
      [
        "▁web",
        -10.71044660012543
      ],
      [
        "▁hiding",
        -10.71092783606426
      ],
      [
        "▁investigation",
        -10.71098847142974
      ],
      [
        "▁annual",
        -10.71131700400502
      ],
      [
        "▁etc",
        -10.711884225028198
      ],
      [
        "▁sales",
        -10.711944673040096
      ],
      [
        "▁highly",
        -10.712215406515451
      ],
      [
        "▁ships",
        -10.712401110965947
      ],
      [
        "▁applie",
        -10.712553791573011
      ],
      [
        "▁growth",
        -10.712634009101029
      ],
      [
        "top",
        -10.712753153313546
      ],
      [
        "ban",
        -10.713190576881146
      ],
      [
        "▁paint",
        -10.71369201584088
      ],
      [
        "▁fri",
        -10.713739206162929
      ],
      [
        "▁comfortable",
        -10.713927101585345
      ],
      [
        "▁elizabeth",
        -10.714044419322308
      ],
      [
        "▁highway",
        -10.714680059564913
      ],
      [
        "▁navy",
        -10.715096579541555
      ],
      [
        "▁rat",
        -10.715900295269511
      ],
      [
        "▁grab",
        -10.716582680649074
      ],
      [
        "▁unlike",
        -10.716844590786147
      ],
      [
        "▁switch",
        -10.716897428452391
      ],
      [
        "▁bite",
        -10.7171177164977
      ],
      [
        "▁schedule",
        -10.717152308891912
      ],
      [
        "▁pure",
        -10.717429905561865
      ],
      [
        "▁piano",
        -10.717449517202828
      ],
      [
        "▁suggested",
        -10.718954828976727
      ],
      [
        "▁tank",
        -10.719653868314309
      ],
      [
        "▁platform",
        -10.720274449349034
      ],
      [
        "dian",
        -10.72031293824379
      ],
      [
        "boy",
        -10.720789564918764
      ],
      [
        "▁aircraft",
        -10.72117808075742
      ],
      [
        "▁silent",
        -10.72156292071148
      ],
      [
        "▁parent",
        -10.721927305002426
      ],
      [
        "▁kan",
        -10.7227946690887
      ],
      [
        "tru",
        -10.722855614066098
      ],
      [
        "▁andrew",
        -10.723481584267736
      ],
      [
        "▁collect",
        -10.723953139488362
      ],
      [
        "provided",
        -10.724193375016153
      ],
      [
        "phi",
        -10.724252934841832
      ],
      [
        "▁corn",
        -10.724380805853984
      ],
      [
        "▁ski",
        -10.724430354737729
      ],
      [
        "▁guilty",
        -10.724781153765836
      ],
      [
        "▁che",
        -10.724783272894967
      ],
      [
        "▁jewish",
        -10.725122686561372
      ],
      [
        "▁arrested",
        -10.72548592355579
      ],
      [
        "▁lad",
        -10.72555859803215
      ],
      [
        "▁belief",
        -10.726257612350084
      ],
      [
        "▁extremely",
        -10.726307691379146
      ],
      [
        "▁normally",
        -10.726954787977345
      ],
      [
        "mic",
        -10.727101091745183
      ],
      [
        "very",
        -10.727582752157772
      ],
      [
        "▁innocent",
        -10.72768180012016
      ],
      [
        "app",
        -10.72833913537744
      ],
      [
        "▁solve",
        -10.728949364479176
      ],
      [
        "▁broadcast",
        -10.728975484788092
      ],
      [
        "▁chosen",
        -10.7290861147825
      ],
      [
        "▁sweden",
        -10.72911519077085
      ],
      [
        "▁wings",
        -10.729392058435293
      ],
      [
        "pit",
        -10.729435436538951
      ],
      [
        "▁monkey",
        -10.72948526181615
      ],
      [
        "▁pipe",
        -10.72969164604583
      ],
      [
        "▁editor",
        -10.72969227712407
      ],
      [
        "▁understanding",
        -10.730050740620031
      ],
      [
        "▁matt",
        -10.7310206477257
      ],
      [
        "▁asia",
        -10.732550297129688
      ],
      [
        "▁lights",
        -10.732560370874204
      ],
      [
        "▁carrying",
        -10.732677407643468
      ],
      [
        "▁girlfriend",
        -10.733252218888795
      ],
      [
        "pat",
        -10.733349510225322
      ],
      [
        "▁pakistan",
        -10.733419706651556
      ],
      [
        "▁albert",
        -10.733565916038522
      ],
      [
        "▁fancy",
        -10.73375738339332
      ],
      [
        "▁brief",
        -10.73456304438615
      ],
      [
        "▁weapon",
        -10.735177934340344
      ],
      [
        "itz",
        -10.735654386303292
      ],
      [
        "▁hunter",
        -10.735712577146414
      ],
      [
        "▁fla",
        -10.735806906343448
      ],
      [
        "uring",
        -10.735871991447905
      ],
      [
        "▁global",
        -10.736314777348252
      ],
      [
        "gal",
        -10.736347783143778
      ],
      [
        "▁proof",
        -10.736354060854136
      ],
      [
        "▁seek",
        -10.736389739790145
      ],
      [
        "▁maria",
        -10.73683037423782
      ],
      [
        "▁frequent",
        -10.736878540790668
      ],
      [
        "look",
        -10.736996705334716
      ],
      [
        "▁rent",
        -10.737009691207165
      ],
      [
        "▁goals",
        -10.737805396331565
      ],
      [
        "▁wing",
        -10.737933636548908
      ],
      [
        "▁request",
        -10.738348598541844
      ],
      [
        "▁flash",
        -10.738897268485106
      ],
      [
        "lus",
        -10.739138338736623
      ],
      [
        "▁georgia",
        -10.739162256209958
      ],
      [
        "▁hidden",
        -10.739236972849158
      ],
      [
        "▁arthur",
        -10.740438775143623
      ],
      [
        "▁muslim",
        -10.740929441606475
      ],
      [
        "▁beast",
        -10.741287748127649
      ],
      [
        "▁irish",
        -10.741315570795752
      ],
      [
        "▁click",
        -10.741947955252948
      ],
      [
        "pin",
        -10.742239764594348
      ],
      [
        "▁print",
        -10.742555242446585
      ],
      [
        "▁elements",
        -10.74309879245072
      ],
      [
        "gram",
        -10.743233837703452
      ],
      [
        "▁comfort",
        -10.743290908894068
      ],
      [
        "▁invited",
        -10.743298551342408
      ],
      [
        "▁dec",
        -10.743465022117135
      ],
      [
        "racing",
        -10.74382594169889
      ],
      [
        "cep",
        -10.74386967581615
      ],
      [
        "▁santa",
        -10.744188504037954
      ],
      [
        "tered",
        -10.744210702587726
      ],
      [
        "▁hunting",
        -10.744746672153097
      ],
      [
        "▁duke",
        -10.744870504584595
      ],
      [
        "▁pretend",
        -10.744945068998174
      ],
      [
        "ré",
        -10.745123476368104
      ],
      [
        "▁fred",
        -10.745421417466394
      ],
      [
        "▁kit",
        -10.745626845894076
      ],
      [
        "▁pr",
        -10.745848359972328
      ],
      [
        "▁paying",
        -10.7460182706932
      ],
      [
        "▁mail",
        -10.746320211471213
      ],
      [
        "have",
        -10.747562020122531
      ],
      [
        "when",
        -10.747577678303625
      ],
      [
        "▁baseball",
        -10.748265152149122
      ],
      [
        "▁fortune",
        -10.74845772288504
      ],
      [
        "rry",
        -10.74902604943821
      ],
      [
        "▁basketball",
        -10.74909858283092
      ],
      [
        "▁suck",
        -10.749588325163934
      ],
      [
        "▁alice",
        -10.749657268396762
      ],
      [
        "▁classe",
        -10.749682229611851
      ],
      [
        "▁ken",
        -10.74992217797875
      ],
      [
        "even",
        -10.750045196921088
      ],
      [
        "▁severe",
        -10.750285029455634
      ],
      [
        "▁polish",
        -10.750629330412549
      ],
      [
        "▁prior",
        -10.751183824256064
      ],
      [
        "bit",
        -10.751196441421836
      ],
      [
        "aga",
        -10.751336408001531
      ],
      [
        "phy",
        -10.75159692817216
      ],
      [
        "▁whenever",
        -10.751799738469588
      ],
      [
        "▁false",
        -10.752417373384056
      ],
      [
        "▁immediate",
        -10.752597484483406
      ],
      [
        "▁artists",
        -10.752657572857302
      ],
      [
        "▁frame",
        -10.752788443106615
      ],
      [
        "▁owner",
        -10.753417216869666
      ],
      [
        "▁defeate",
        -10.753773463554966
      ],
      [
        "▁familiar",
        -10.75435374091372
      ],
      [
        "▁streets",
        -10.754373447496604
      ],
      [
        "▁represente",
        -10.754473991435963
      ],
      [
        "▁selling",
        -10.754640261413558
      ],
      [
        "kel",
        -10.754678661178996
      ],
      [
        "pen",
        -10.754751595511443
      ],
      [
        "ably",
        -10.756314571811696
      ],
      [
        "▁benefit",
        -10.75653094476061
      ],
      [
        "▁happiness",
        -10.75670703371116
      ],
      [
        "▁carolina",
        -10.757018156973505
      ],
      [
        "▁behavior",
        -10.75759095608364
      ],
      [
        "▁steal",
        -10.758277832237177
      ],
      [
        "▁spare",
        -10.758619875364266
      ],
      [
        "truly",
        -10.7590187200741
      ],
      [
        "rib",
        -10.76052283048424
      ],
      [
        "ó",
        -10.760732814787142
      ],
      [
        "▁flew",
        -10.761494142494568
      ],
      [
        "ification",
        -10.76160799249707
      ],
      [
        "▁balance",
        -10.76185724038078
      ],
      [
        "▁deliver",
        -10.761984337357816
      ],
      [
        "▁multi",
        -10.762661080789297
      ],
      [
        "▁breaking",
        -10.762868168735842
      ],
      [
        "▁za",
        -10.763007425667524
      ],
      [
        "▁sale",
        -10.763318250654187
      ],
      [
        "▁shock",
        -10.763662036647933
      ],
      [
        "▁rod",
        -10.764973428665954
      ],
      [
        "▁orchestra",
        -10.765284838779577
      ],
      [
        "▁mat",
        -10.76555120126023
      ],
      [
        "▁joint",
        -10.76570034354752
      ],
      [
        "▁vol",
        -10.765730875266344
      ],
      [
        "▁celebrate",
        -10.765878683767545
      ],
      [
        "▁expensive",
        -10.767663601137304
      ],
      [
        "▁sara",
        -10.767754890448591
      ],
      [
        "night",
        -10.767824342557056
      ],
      [
        "▁column",
        -10.767962555618036
      ],
      [
        "▁remembered",
        -10.767966718517144
      ],
      [
        "▁zone",
        -10.768237116186986
      ],
      [
        "gate",
        -10.76827649003772
      ],
      [
        "▁log",
        -10.7688036166216
      ],
      [
        "▁rob",
        -10.76888694326176
      ],
      [
        "▁administration",
        -10.7700484583388
      ],
      [
        "▁brazil",
        -10.770331886065607
      ],
      [
        "▁lion",
        -10.77044252795484
      ],
      [
        "▁rush",
        -10.770828637220102
      ],
      [
        "uch",
        -10.771089321860174
      ],
      [
        "▁iowa",
        -10.77157154995433
      ],
      [
        "▁switzerland",
        -10.771840841180708
      ],
      [
        "ear",
        -10.77195238735998
      ],
      [
        "▁acid",
        -10.772081599941218
      ],
      [
        "pul",
        -10.773010371371178
      ],
      [
        "▁mile",
        -10.773429336580476
      ],
      [
        "▁monday",
        -10.773443413452933
      ],
      [
        "▁habit",
        -10.773521607093825
      ],
      [
        "▁suicide",
        -10.77393603027702
      ],
      [
        "▁reflect",
        -10.774050382247507
      ],
      [
        "▁encourage",
        -10.77423569347231
      ],
      [
        "cut",
        -10.774901134136378
      ],
      [
        "▁senate",
        -10.774942149415809
      ],
      [
        "removed",
        -10.775435155697826
      ],
      [
        "▁seconds",
        -10.775679013559898
      ],
      [
        "▁industrial",
        -10.776636294929167
      ],
      [
        "▁trail",
        -10.776637430972816
      ],
      [
        "▁clever",
        -10.776726397245048
      ],
      [
        "▁tropical",
        -10.77686140313532
      ],
      [
        "▁treasure",
        -10.776968321197376
      ],
      [
        "▁prefer",
        -10.777048726241288
      ],
      [
        "▁apply",
        -10.777266450007222
      ],
      [
        "▁br",
        -10.77733477242839
      ],
      [
        "▁wondering",
        -10.77745258203236
      ],
      [
        "mus",
        -10.777746901553764
      ],
      [
        "▁israel",
        -10.7781186805446
      ],
      [
        "▁pl",
        -10.778794363042142
      ],
      [
        "▁grandma",
        -10.778864589132564
      ],
      [
        "eal",
        -10.778944536897802
      ],
      [
        "did",
        -10.779130414343856
      ],
      [
        "▁figures",
        -10.780251330295732
      ],
      [
        "▁curious",
        -10.780553920624676
      ],
      [
        "▁handsome",
        -10.781164147316806
      ],
      [
        "▁jones",
        -10.781314663548253
      ],
      [
        "▁responsibility",
        -10.781501552514491
      ],
      [
        "kan",
        -10.781709812980754
      ],
      [
        "▁pope",
        -10.78206388069222
      ],
      [
        "▁folks",
        -10.782096824062943
      ],
      [
        "▁philosoph",
        -10.78250716365102
      ],
      [
        "far",
        -10.782572834222249
      ],
      [
        "▁turkey",
        -10.782997457592137
      ],
      [
        "▁sheet",
        -10.78313389934265
      ],
      [
        "▁online",
        -10.783214985284548
      ],
      [
        "▁constitution",
        -10.78327633893228
      ],
      [
        "▁senator",
        -10.783301640528595
      ],
      [
        "take",
        -10.783582927702083
      ],
      [
        "▁vessel",
        -10.783875095580502
      ],
      [
        "▁mus",
        -10.784192616399888
      ],
      [
        "▁fields",
        -10.78486935131996
[...]
